<unk>	0
<s>	0
</s>	0
▁d	-0
en	-1
er	-2
es	-3
on	-4
▁ا	-5
an	-6
▁l	-7
in	-8
el	-9
at	-10
▁ال	-11
▁p	-12
▁s	-13
▁c	-14
▁a	-15
▁t	-16
▁de	-17
is	-18
ar	-19
or	-20
ch	-21
al	-22
▁W	-23
it	-24
as	-25
re	-26
Qu	-27
▁Qu	-28
▁م	-29
qu	-30
▁w	-31
▁m	-32
un	-33
ent	-34
os	-35
▁f	-36
he	-37
▁di	-38
▁la	-39
il	-40
▁?	-41
om	-42
ur	-43
▁h	-44
▁C	-45
ic	-46
le	-47
▁qu	-48
▁in	-49
ion	-50
▁v	-51
▁g	-52
▁n	-53
ro	-54
▁o	-55
est	-56
▁b	-57
▁the	-58
▁e	-59
us	-60
te	-61
ad	-62
▁Wh	-63
ie	-64
▁S	-65
ol	-66
▁A	-67
am	-68
and	-69
▁en	-70
▁un	-71
▁ف	-72
id	-73
im	-74
▁r	-75
ut	-76
ed	-77
▁ما	-78
ig	-79
▁le	-80
ci	-81
ist	-82
▁con	-83
▁في	-84
▁of	-85
▁P	-86
▁B	-87
▁el	-88
et	-89
▁ه	-90
em	-91
ان	-92
▁What	-93
▁M	-94
▁D	-95
ra	-96
▁se	-97
▁I	-98
▁E	-99
▁ت	-100
▁der	-101
▁من	-102
▁ع	-103
▁die	-104
ers	-105
ich	-106
ale	-107
la	-108
iv	-109
ta	-110
▁1	-111
▁ha	-112
ية	-113
▁del	-114
▁Quel	-115
▁L	-116
ir	-117
▁est	-118
▁الم	-119
▁ب	-120
▁ك	-121
▁com	-122
ce	-123
▁N	-124
▁re	-125
ant	-126
▁é	-127
▁H	-128
▁T	-129
ال	-130
ing	-131
▁G	-132
▁ل	-133
elch	-134
ct	-135
▁par	-136
um	-137
ia	-138
▁des	-139
▁al	-140
▁pr	-141
ul	-142
▁Qué	-143
op	-144
▁st	-145
ann	-146
▁ي	-147
ation	-148
st	-149
de	-150
ien	-151
ato	-152
▁R	-153
▁es	-154
▁الت	-155
▁to	-156
ue	-157
▁الا	-158
ين	-159
▁2	-160
uá	-161
▁F	-162
▁les	-163
ón	-164
ات	-165
▁è	-166
io	-167
ier	-168
▁was	-169
▁pro	-170
▁K	-171
to	-172
ge	-173
▁In	-174
▁J	-175
ter	-176
▁hat	-177
▁20	-178
ont	-179
▁wh	-180
ام	-181
▁von	-182
▁Was	-183
▁que	-184
▁is	-185
our	-186
ow	-187
▁Cuá	-188
ib	-189
elle	-190
iz	-191
up	-192
ans	-193
▁il	-194
ول	-195
▁los	-196
▁z	-197
ere	-198
▁الذ	-199
hr	-200
ot	-201
▁19	-202
▁be	-203
▁qué	-204
ort	-205
ري	-206
ud	-207
ten	-208
ها	-209
ve	-210
ung	-211
▁و	-212
if	-213
▁Welch	-214
▁ein	-215
▁U	-216
▁Qui	-217
▁ist	-218
▁per	-219
▁V	-220
▁did	-221
▁هو	-222
ell	-223
▁الذي	-224
ab	-225
▁هي	-226
▁for	-227
ica	-228
▁التي	-229
ap	-230
▁Ch	-231
▁اي	-232
ub	-233
end	-234
▁er	-235
ag	-236
od	-237
した	-238
▁à	-239
isch	-240
ass	-241
すか	-242
▁O	-243
ess	-244
ار	-245
én	-246
ip	-247
té	-248
▁au	-249
▁y	-250
▁im	-251
ون	-252
▁what	-253
tr	-254
ente	-255
pe	-256
▁ch	-257
▁En	-258
▁an	-259
▁ن	-260
eg	-261
▁du	-262
és	-263
ac	-264
ér	-265
iqu	-266
ne	-267
me	-268
▁كان	-269
▁k	-270
omb	-271
ens	-272
ción	-273
iel	-274
ff	-275
ay	-276
▁"	-277
oc	-278
▁س	-279
▁war	-280
rit	-281
do	-282
▁عل	-283
▁gr	-284
ine	-285
ですか	-286
▁son	-287
▁welch	-288
ado	-289
ür	-290
را	-291
ind	-292
▁j	-293
▁ق	-294
▁ان	-295
▁Wie	-296
ée	-297
ione	-298
▁tr	-299
pr	-300
uer	-301
دي	-302
ate	-303
ver	-304
▁fue	-305
▁wur	-306
ou	-307
og	-308
▁Quelle	-309
ach	-310
all	-311
ست	-312
▁zu	-313
▁pl	-314
▁th	-315
▁ver	-316
▁as	-317
ew	-318
osa	-319
▁Cuán	-320
▁su	-321
▁été	-322
ment	-323
▁Quand	-324
les	-325
▁pour	-326
ire	-327
ور	-328
az	-329
▁200	-330
den	-331
▁St	-332
li	-333
▁or	-334
▁éta	-335
▁las	-336
mp	-337
▁ann	-338
▁Quale	-339
va	-340
▁Qual	-341
▁qui	-342
のは	-343
ben	-344
▁do	-345
▁and	-346
ient	-347
▁الع	-348
ond	-349
ian	-350
der	-351
▁ar	-352
▁ج	-353
▁et	-354
▁ح	-355
ير	-356
ahr	-357
▁ex	-358
▁Un	-359
▁على	-360
du	-361
▁Welche	-362
▁201	-363
are	-364
▁i	-365
▁das	-366
دة	-367
ber	-368
▁che	-369
يا	-370
ante	-371
au	-372
ran	-373
▁man	-374
▁para	-375
ata	-376
▁den	-377
▁für	-378
ement	-379
▁una	-380
ذا	-381
▁تم	-382
ame	-383
▁Who	-384
▁How	-385
▁dans	-386
▁Ar	-387
▁Wer	-388
mer	-389
▁prim	-390
▁Cuál	-391
▁wurde	-392
▁comp	-393
▁pre	-394
cc	-395
▁Jahr	-396
ico	-397
ique	-398
ug	-399
lich	-400
ang	-401
▁us	-402
▁الح	-403
▁était	-404
ía	-405
per	-406
th	-407
▁quale	-408
▁Chi	-409
は何	-410
mo	-411
ore	-412
men	-413
▁so	-414
▁dé	-415
▁ge	-416
▁at	-417
eit	-418
▁كم	-419
▁ont	-420
pp	-421
▁si	-422
▁Quién	-423
res	-424
ard	-425
util	-426
▁الق	-427
und	-428
ord	-429
سم	-430
▁era	-431
ity	-432
اب	-433
iss	-434
▁ent	-435
▁ter	-436
▁und	-437
▁are	-438
▁part	-439
ik	-440
▁الب	-441
ischen	-442
دم	-443
▁Z	-444
▁viel	-445
ton	-446
▁por	-447
▁cons	-448
った	-449
▁الس	-450
av	-451
▁nom	-452
ma	-453
▁util	-454
▁مت	-455
▁on	-456
ano	-457
▁عام	-458
ás	-459
したか	-460
▁cosa	-461
ies	-462
▁della	-463
▁quelle	-464
▁الى	-465
▁لل	-466
ure	-467
▁plus	-468
▁Che	-469
ult	-470
onn	-471
▁nel	-472
▁fr	-473
ec	-474
lo	-475
され	-476
port	-477
وا	-478
ite	-479
▁sont	-480
سي	-481
دد	-482
▁ser	-483
وم	-484
oi	-485
ina	-486
▁ش	-487
▁rel	-488
ito	-489
▁cont	-490
▁(	-491
ign	-492
▁Comb	-493
cia	-494
ive	-495
▁Combien	-496
▁الج	-497
▁dur	-498
نا	-499
▁أ	-500
art	-501
▁sono	-502
ati	-503
ong	-504
emp	-505
ial	-506
يل	-507
▁welchem	-508
▁no	-509
وع	-510
▁tra	-511
▁stato	-512
▁ty	-513
▁Be	-514
ost	-515
▁ad	-516
ly	-517
ern	-518
ident	-519
▁quel	-520
ils	-521
ast	-522
▁dis	-523
▁An	-524
▁ab	-525
▁pers	-526
ak	-527
▁tro	-528
▁auf	-529
za	-530
▁عدد	-531
▁más	-532
ada	-533
▁cl	-534
▁many	-535
▁sur	-536
vent	-537
ais	-538
▁co	-539
ction	-540
ith	-541
عل	-542
▁When	-543
ivers	-544
urs	-545
aj	-546
man	-547
▁viele	-548
sch	-549
てい	-550
ide	-551
ió	-552
▁res	-553
▁مع	-554
age	-555
▁الك	-556
ische	-557
ear	-558
ft	-559
▁Com	-560
▁Le	-561
▁ماذا	-562
▁18	-563
▁متى	-564
iert	-565
ain	-566
▁pe	-567
amp	-568
▁¿	-569
se	-570
min	-571
ipo	-572
▁La	-573
▁Al	-574
kt	-575
uch	-576
00	-577
رة	-578
▁pop	-579
▁gen	-580
land	-581
iè	-582
ados	-583
▁pol	-584
▁The	-585
▁dem	-586
▁ré	-587
▁als	-588
رب	-589
icht	-590
▁Sch	-591
ob	-592
دا	-593
▁fa	-594
enn	-595
▁me	-596
ido	-597
cu	-598
att	-599
aus	-600
cent	-601
gr	-602
igh	-603
ales	-604
وب	-605
▁Y	-606
ru	-607
co	-608
ill	-609
▁haben	-610
▁الش	-611
one	-612
ión	-613
▁Cuándo	-614
▁reg	-615
▁mit	-616
▁añ	-617
vo	-618
▁um	-619
ese	-620
▁الن	-621
▁الف	-622
▁sind	-623
▁with	-624
▁col	-625
▁ne	-626
▁grand	-627
▁Wann	-628
ck	-629
▁cre	-630
▁gro	-631
▁Quando	-632
▁عن	-633
ación	-634
▁خ	-635
▁sich	-636
▁une	-637
tos	-638
تم	-639
تح	-640
ité	-641
▁Gr	-642
▁ind	-643
▁prem	-644
▁that	-645
fer	-646
▁inter	-647
ition	-648
▁sp	-649
che	-650
orm	-651
▁pub	-652
▁tipo	-653
cl	-654
قة	-655
▁New	-656
▁were	-657
▁De	-658
اء	-659
▁does	-660
▁ر	-661
▁eine	-662
مل	-663
▁type	-664
ork	-665
ille	-666
ins	-667
uss	-668
cip	-669
▁aut	-670
hn	-671
lic	-672
▁بال	-673
▁app	-674
اي	-675
out	-676
ces	-677
يف	-678
はど	-679
▁am	-680
▁pres	-681
tre	-682
▁fin	-683
ons	-684
ated	-685
▁الر	-686
olog	-687
▁produ	-688
que	-689
ées	-690
anti	-691
▁Which	-692
▁by	-693
gen	-694
▁pa	-695
▁car	-696
رك	-697
idad	-698
▁pi	-699
ائ	-700
ux	-701
▁Re	-702
كن	-703
ven	-704
▁year	-705
gan	-706
لا	-707
iones	-708
▁ro	-709
された	-710
än	-711
يس	-712
esch	-713
ations	-714
ex	-715
▁inf	-716
cr	-717
▁prin	-718
▁cr	-719
ific	-720
▁can	-721
ze	-722
ando	-723
rie	-724
no	-725
▁الد	-726
▁nomb	-727
ento	-728
▁più	-729
bre	-730
ict	-731
ste	-732
▁mod	-733
ise	-734
ect	-735
بر	-736
مة	-737
▁د	-738
▁mon	-739
cé	-740
ted	-741
▁كانت	-742
ice	-743
▁from	-744
ura	-745
▁pos	-746
tat	-747
urop	-748
pt	-749
اد	-750
▁da	-751
▁cap	-752
ican	-753
▁Sp	-754
▁aus	-755
ird	-756
▁mar	-757
ios	-758
ile	-759
اع	-760
▁Mar	-761
▁وال	-762
▁cent	-763
ましたか	-764
▁quoi	-765
▁ant	-766
con	-767
▁form	-768
▁dell	-769
▁Welcher	-770
لي	-771
ous	-772
ónde	-773
▁Wo	-774
▁Ver	-775
ov	-776
▁Pr	-777
zione	-778
iene	-779
gl	-780
itt	-781
itu	-782
▁Par	-783
▁mus	-784
▁لم	-785
اف	-786
ستخ	-787
▁primer	-788
iste	-789
▁guer	-790
ome	-791
ence	-792
▁av	-793
lam	-794
ors	-795
بل	-796
0?	-797
ali	-798
ett	-799
▁temp	-800
▁nombre	-801
we	-802
▁all	-803
azione	-804
chen	-805
elles	-806
go	-807
▁año	-808
tro	-809
▁anno	-810
▁pu	-811
▁cu	-812
▁utiliz	-813
▁sup	-814
án	-815
▁he	-816
▁lo	-817
iques	-818
uto	-819
▁ac	-820
▁princip	-821
ole	-822
ph	-823
سب	-824
▁it	-825
▁اين	-826
▁fir	-827
وس	-828
▁pas	-829
▁ers	-830
▁Where	-831
▁Que	-832
ah	-833
▁como	-834
▁année	-835
▁lib	-836
act	-837
ase	-838
ble	-839
▁wer	-840
oria	-841
▁الص	-842
▁te	-843
vec	-844
▁sol	-845
▁Art	-846
acht	-847
وق	-848
vel	-849
▁consid	-850
は誰	-851
▁caus	-852
▁Pro	-853
▁cal	-854
État	-855
ish	-856
ino	-857
bl	-858
oy	-859
mente	-860
ger	-861
どの	-862
▁يم	-863
ions	-864
から	-865
une	-866
▁Welches	-867
▁sch	-868
▁الط	-869
▁cor	-870
▁Où	-871
crit	-872
ele	-873
▁parte	-874
ath	-875
▁popul	-876
▁go	-877
ière	-878
▁acc	-879
pos	-880
ance	-881
ater	-882
كل	-883
▁have	-884
▁sy	-885
Un	-886
ts	-887
ioni	-888
▁El	-889
"?	-890
ador	-891
anno	-892
▁fil	-893
ca	-894
ita	-895
be	-896
▁بع	-897
▁wird	-898
vol	-899
▁fo	-900
▁const	-901
▁نوع	-902
ود	-903
▁199	-904
ريك	-905
▁الام	-906
▁sign	-907
ry	-908
able	-909
▁werden	-910
▁'	-911
▁utilis	-912
▁يع	-913
ied	-914
عة	-915
ok	-916
▁Amer	-917
▁الان	-918
صل	-919
éd	-920
ior	-921
▁comm	-922
fic	-923
▁group	-924
▁3	-925
rol	-926
▁Dónde	-927
هم	-928
▁ci	-929
▁person	-930
oma	-931
iam	-932
ità	-933
جم	-934
fr	-935
▁Fran	-936
وي	-937
ede	-938
نة	-939
ism	-940
▁US	-941
▁first	-942
▁المتح	-943
▁اسم	-944
▁rec	-945
ays	-946
ants	-947
▁non	-948
any	-949
جل	-950
▁fuer	-951
▁ü	-952
▁act	-953
いつ	-954
tra	-955
▁name	-956
▁غ	-957
zen	-958
lu	-959
▁stata	-960
ön	-961
ómo	-962
▁الي	-963
▁المتحدة	-964
▁Is	-965
▁ap	-966
▁Quels	-967
▁Die	-968
خر	-969
▁entre	-970
elt	-971
تب	-972
br	-973
▁sec	-974
aut	-975
vern	-976
ori	-977
يد	-978
▁Con	-979
▁trans	-980
ero	-981
▁يمكن	-982
▁welcher	-983
ida	-984
▁الث	-985
▁hanno	-986
▁organ	-987
▁ag	-988
▁pla	-989
▁relig	-990
▁grande	-991
ational	-992
vis	-993
▁اله	-994
こと	-995
▁تح	-996
ますか	-997
af	-998
ove	-999
ثر	-1000
ustr	-1001
▁Quelles	-1002
▁sh	-1003
ical	-1004
pu	-1005
uf	-1006
encia	-1007
wend	-1008
▁wurden	-1009
رن	-1010
اني	-1011
cial	-1012
ution	-1013
▁Quanti	-1014
ke	-1015
▁Cuántos	-1016
ade	-1017
▁med	-1018
▁min	-1019
اح	-1020
ents	-1021
ungen	-1022
▁اك	-1023
ès	-1024
yon	-1025
する	-1026
tas	-1027
vers	-1028
▁vers	-1029
دين	-1030
▁Ge	-1031
したのは	-1032
الم	-1033
ستخدم	-1034
▁هل	-1035
hen	-1036
hl	-1037
igin	-1038
قد	-1039
▁univers	-1040
ün	-1041
لة	-1042
ono	-1043
▁ob	-1044
iet	-1045
▁ass	-1046
▁Br	-1047
اس	-1048
▁À	-1049
zt	-1050
انية	-1051
▁über	-1052
ary	-1053
ista	-1054
وف	-1055
▁Dans	-1056
عب	-1057
amb	-1058
▁mil	-1059
وج	-1060
▁cer	-1061
▁État	-1062
ís	-1063
por	-1064
ower	-1065
ولاي	-1066
▁Cómo	-1067
▁dei	-1068
▁come	-1069
aux	-1070
▁قبل	-1071
cer	-1072
pl	-1073
erg	-1074
▁الخ	-1075
▁lang	-1076
▁comme	-1077
idos	-1078
ét	-1079
ولايات	-1080
لال	-1081
▁durante	-1082
▁Se	-1083
udad	-1084
▁which	-1085
)?	-1086
ラン	-1087
ativ	-1088
▁stud	-1089
بي	-1090
▁ص	-1091
▁aux	-1092
▁comb	-1093
eral	-1094
tet	-1095
يم	-1096
ohn	-1097
izo	-1098
اري	-1099
▁الل	-1100
po	-1101
her	-1102
▁loc	-1103
▁Quali	-1104
opin	-1105
▁dass	-1106
▁nome	-1107
iale	-1108
ime	-1109
olo	-1110
▁ciudad	-1111
enz	-1112
ally	-1113
▁pass	-1114
▁spe	-1115
ana	-1116
شر	-1117
ick	-1118
▁198	-1119
كون	-1120
▁Reg	-1121
▁hizo	-1122
ige	-1123
▁Name	-1124
▁has	-1125
▁gem	-1126
ている	-1127
amente	-1128
▁Est	-1129
tag	-1130
تر	-1131
istr	-1132
amm	-1133
ند	-1134
ines	-1135
▁194	-1136
▁term	-1137
▁import	-1138
▁consider	-1139
agn	-1140
▁vol	-1141
▁inv	-1142
iento	-1143
▁يتم	-1144
▁diff	-1145
▁ط	-1146
ild	-1147
int	-1148
▁Beyon	-1149
ario	-1150
▁nach	-1151
igen	-1152
▁avec	-1153
▁ph	-1154
▁تق	-1155
▁af	-1156
▁emp	-1157
▁guerra	-1158
▁used	-1159
▁wie	-1160
اص	-1161
pres	-1162
▁War	-1163
hal	-1164
▁grup	-1165
ئيس	-1166
▁serv	-1167
はどこ	-1168
ight	-1169
par	-1170
▁trou	-1171
oss	-1172
لك	-1173
▁197	-1174
▁estab	-1175
ld	-1176
▁polit	-1177
▁الذين	-1178
omin	-1179
دينة	-1180
▁fam	-1181
1?	-1182
▁sc	-1183
▁تع	-1184
▁Te	-1185
▁لا	-1186
▁may	-1187
して	-1188
▁inc	-1189
▁trad	-1190
れた	-1191
ual	-1192
uán	-1193
▁York	-1194
は何ですか	-1195
▁gli	-1196
何年	-1197
ちら	-1198
5?	-1199
▁Or	-1200
▁def	-1201
▁contr	-1202
▁em	-1203
▁art	-1204
▁bas	-1205
リー	-1206
wo	-1207
ari	-1208
ires	-1209
▁États	-1210
liche	-1211
▁pays	-1212
iti	-1213
▁Ne	-1214
isten	-1215
▁sein	-1216
▁Europ	-1217
▁beg	-1218
▁Univers	-1219
でしたか	-1220
led	-1221
ren	-1222
ional	-1223
▁tiene	-1224
▁u	-1225
ait	-1226
ced	-1227
▁Gre	-1228
▁not	-1229
ument	-1230
▁class	-1231
▁verwend	-1232
▁الأ	-1233
▁cult	-1234
▁Les	-1235
erst	-1236
anz	-1237
▁Dove	-1238
ieren	-1239
esse	-1240
▁nicht	-1241
anto	-1242
▁الولايات	-1243
jo	-1244
▁leg	-1245
ek	-1246
▁mem	-1247
orth	-1248
ates	-1249
▁Ind	-1250
▁constru	-1251
▁delle	-1252
▁origin	-1253
▁po	-1254
antes	-1255
aron	-1256
adt	-1257
ولة	-1258
ictoria	-1259
▁Er	-1260
▁cos	-1261
▁fe	-1262
▁ins	-1263
▁occ	-1264
▁cas	-1265
ht	-1266
▁seg	-1267
▁لدي	-1268
▁deux	-1269
▁Tr	-1270
▁ou	-1271
lichen	-1272
stem	-1273
atur	-1274
aft	-1275
كان	-1276
▁coun	-1277
▁Comment	-1278
▁met	-1279
4?	-1280
▁ed	-1281
▁fran	-1282
▁17	-1283
▁gew	-1284
▁brit	-1285
▁most	-1286
によ	-1287
هر	-1288
▁país	-1289
ät	-1290
sh	-1291
▁الو	-1292
سة	-1293
▁inst	-1294
cess	-1295
ther	-1296
ust	-1297
▁population	-1298
3?	-1299
uth	-1300
uld	-1301
وري	-1302
▁كيف	-1303
yn	-1304
▁fait	-1305
ارة	-1306
iff	-1307
▁Lond	-1308
uc	-1309
agg	-1310
▁ten	-1311
طل	-1312
يرة	-1313
دث	-1314
être	-1315
annt	-1316
▁lar	-1317
ommen	-1318
own	-1319
▁film	-1320
ني	-1321
▁sie	-1322
idente	-1323
él	-1324
▁dire	-1325
ose	-1326
▁Car	-1327
tern	-1328
ったのは	-1329
ismo	-1330
8?	-1331
ähr	-1332
ある	-1333
ona	-1334
طة	-1335
▁prima	-1336
▁ام	-1337
ute	-1338
ici	-1339
Unis	-1340
▁sa	-1341
▁ess	-1342
▁X	-1343
▁dal	-1344
9?	-1345
▁اع	-1346
ti	-1347
▁اول	-1348
▁Chopin	-1349
ople	-1350
▁قام	-1351
▁siste	-1352
2?	-1353
orte	-1354
▁much	-1355
ola	-1356
▁está	-1357
ريق	-1358
ua	-1359
ركة	-1360
▁llam	-1361
▁premier	-1362
▁verwendet	-1363
يو	-1364
▁علي	-1365
centage	-1366
▁long	-1367
▁Quante	-1368
رق	-1369
aison	-1370
▁conf	-1371
▁port	-1372
egr	-1373
▁tie	-1374
▁American	-1375
▁welche	-1376
aten	-1377
▁vis	-1378
صر	-1379
ible	-1380
cul	-1381
▁id	-1382
enti	-1383
era	-1384
iens	-1385
its	-1386
در	-1387
▁fueron	-1388
▁سنة	-1389
▁wo	-1390
يت	-1391
▁resp	-1392
ديد	-1393
erv	-1394
ima	-1395
rem	-1396
▁Land	-1397
▁John	-1398
▁state	-1399
▁Cosa	-1400
▁المع	-1401
este	-1402
▁Mus	-1403
▁خلال	-1404
▁Sout	-1405
▁prés	-1406
ert	-1407
ake	-1408
son	-1409
▁bo	-1410
اج	-1411
ium	-1412
red	-1413
▁nella	-1414
▁hist	-1415
▁alla	-1416
▁Pour	-1417
▁Nap	-1418
رض	-1419
omm	-1420
لم	-1421
▁Ph	-1422
▁tiemp	-1423
ena	-1424
▁hum	-1425
▁Ab	-1426
▁sul	-1427
▁5	-1428
erm	-1429
▁Sta	-1430
▁mot	-1431
icos	-1432
▁بعد	-1433
▁mayor	-1434
7?	-1435
cht	-1436
ていた	-1437
oman	-1438
▁Cuántas	-1439
ivo	-1440
▁waren	-1441
▁Por	-1442
gest	-1443
sen	-1444
▁196	-1445
▁للم	-1446
▁influ	-1447
▁South	-1448
リカ	-1449
الي	-1450
▁camp	-1451
velop	-1452
aven	-1453
20	-1454
uv	-1455
▁bef	-1456
年に	-1457
▁الاس	-1458
oll	-1459
▁deg	-1460
▁gemacht	-1461
öff	-1462
ühr	-1463
▁Id	-1464
ما	-1465
crib	-1466
رت	-1467
tt	-1468
▁people	-1469
▁بين	-1470
▁citt	-1471
ank	-1472
anye	-1473
▁gesch	-1474
isation	-1475
oci	-1476
▁progr	-1477
▁intern	-1478
▁As	-1479
▁『	-1480
ادة	-1481
▁اس	-1482
▁einen	-1483
▁bet	-1484
▁commen	-1485
ange	-1486
▁العالم	-1487
▁aff	-1488
iche	-1489
صب	-1490
▁ges	-1491
▁vor	-1492
▁المن	-1493
atto	-1494
▁West	-1495
▁sub	-1496
ère	-1497
▁eff	-1498
وت	-1499
▁cour	-1500
II	-1501
hi	-1502
▁المح	-1503
ones	-1504
الية	-1505
▁countr	-1506
bor	-1507
kla	-1508
▁dec	-1509
▁men	-1510
ace	-1511
▁fond	-1512
▁Fl	-1513
どちら	-1514
▁Mens	-1515
▁ville	-1516
▁other	-1517
imes	-1518
▁است	-1519
▁être	-1520
asser	-1521
قا	-1522
ores	-1523
érica	-1524
6?	-1525
ién	-1526
inn	-1527
jet	-1528
isen	-1529
▁capit	-1530
ack	-1531
izz	-1532
ory	-1533
جموع	-1534
▁estado	-1535
▁Victoria	-1536
なの	-1537
▁193	-1538
▁neg	-1539
lt	-1540
▁تش	-1541
bum	-1542
▁their	-1543
onnen	-1544
▁Haven	-1545
près	-1546
▁rég	-1547
alt	-1548
▁gan	-1549
iger	-1550
▁ア	-1551
orld	-1552
ifica	-1553
endant	-1554
oro	-1555
▁Sh	-1556
▁new	-1557
ör	-1558
ール	-1559
▁his	-1560
▁prof	-1561
19	-1562
lan	-1563
▁Th	-1564
▁zw	-1565
pués	-1566
▁imp	-1567
▁erste	-1568
ule	-1569
▁Ger	-1570
uál	-1571
▁cat	-1572
leg	-1573
rieg	-1574
قل	-1575
▁4	-1576
غة	-1577
conom	-1578
ool	-1579
▁sus	-1580
▁sistema	-1581
▁Idol	-1582
ama	-1583
adas	-1584
حت	-1585
▁einer	-1586
chn	-1587
▁dist	-1588
ún	-1589
▁cond	-1590
unto	-1591
▁rap	-1592
▁bel	-1593
▁déc	-1594
▁prov	-1595
izi	-1596
ros	-1597
▁Menschen	-1598
▁mo	-1599
▁195	-1600
▁sta	-1601
ature	-1602
▁how	-1603
▁poss	-1604
▁città	-1605
unden	-1606
▁City	-1607
▁Zeit	-1608
▁str	-1609
pect	-1610
ix	-1611
piel	-1612
ierung	-1613
form	-1614
رف	-1615
ball	-1616
▁amer	-1617
esso	-1618
ative	-1619
▁hab	-1620
▁public	-1621
قت	-1622
▁Dur	-1623
اض	-1624
ít	-1625
pend	-1626
aff	-1627
▁/	-1628
▁alle	-1629
rop	-1630
ury	-1631
▁بش	-1632
enza	-1633
▁langu	-1634
aje	-1635
cio	-1636
▁Brit	-1637
▁degli	-1638
▁مح	-1639
esta	-1640
▁bec	-1641
▁tiempo	-1642
از	-1643
aciones	-1644
لف	-1645
▁oder	-1646
دام	-1647
▁num	-1648
▁event	-1649
ock	-1650
▁gef	-1651
▁primo	-1652
فعل	-1653
▁première	-1654
▁Il	-1655
▁city	-1656
▁encu	-1657
wn	-1658
▁stati	-1659
▁mat	-1660
▁Hous	-1661
▁جز	-1662
ival	-1663
▁الغ	-1664
صف	-1665
▁typ	-1666
دما	-1667
ibu	-1668
ler	-1669
iment	-1670
atz	-1671
وات	-1672
▁lie	-1673
duc	-1674
ars	-1675
ieron	-1676
vi	-1677
▁quién	-1678
▁enc	-1679
war	-1680
ック	-1681
pen	-1682
▁Mit	-1683
▁Stadt	-1684
▁nue	-1685
▁contin	-1686
na	-1687
خت	-1688
ker	-1689
▁peut	-1690
tal	-1691
▁we	-1692
öß	-1693
vert	-1694
erc	-1695
▁kön	-1696
▁كل	-1697
heit	-1698
▁incl	-1699
▁commencé	-1700
يز	-1701
ings	-1702
onna	-1703
▁einem	-1704
▁gén	-1705
▁called	-1706
▁two	-1707
reich	-1708
öffent	-1709
ys	-1710
メリカ	-1711
ics	-1712
▁one	-1713
▁perm	-1714
▁durch	-1715
lass	-1716
▁respons	-1717
▁ben	-1718
▁liv	-1719
▁govern	-1720
▁bek	-1721
▁sobre	-1722
▁eu	-1723
▁Am	-1724
▁bu	-1725
▁cuán	-1726
ili	-1727
日本	-1728
▁principal	-1729
vait	-1730
▁europ	-1731
▁انت	-1732
▁pré	-1733
In	-1734
▁「	-1735
▁when	-1736
▁Bar	-1737
▁Mon	-1738
old	-1739
▁sal	-1740
▁encuent	-1741
äs	-1742
iere	-1743
▁esp	-1744
▁modern	-1745
スト	-1746
▁dos	-1747
▁مدينة	-1748
▁presidente	-1749
▁sci	-1750
unt	-1751
▁kann	-1752
▁personn	-1753
وية	-1754
cept	-1755
ein	-1756
är	-1757
のこと	-1758
▁use	-1759
▁Napole	-1760
beit	-1761
قي	-1762
は誰ですか	-1763
▁control	-1764
▁viv	-1765
▁gre	-1766
されたのは	-1767
opo	-1768
voir	-1769
odo	-1770
يع	-1771
▁perio	-1772
bra	-1773
طور	-1774
oph	-1775
orn	-1776
▁oper	-1777
▁mov	-1778
▁Kanye	-1779
▁chi	-1780
▁hel	-1781
etto	-1782
▁milit	-1783
igr	-1784
▁Per	-1785
▁after	-1786
▁during	-1787
aria	-1788
▁Beyonce	-1789
pub	-1790
طقة	-1791
どこ	-1792
イン	-1793
ini	-1794
▁bes	-1795
eth	-1796
ème	-1797
▁San	-1798
quoi	-1799
في	-1800
▁puede	-1801
▁étaient	-1802
gh	-1803
كت	-1804
كم	-1805
▁sim	-1806
▁ce	-1807
▁partic	-1808
▁kn	-1809
ague	-1810
最も	-1811
▁alg	-1812
نية	-1813
▁pod	-1814
öl	-1815
entes	-1816
▁Russ	-1817
رية	-1818
ئي	-1819
▁Char	-1820
halten	-1821
▁المو	-1822
▁chiam	-1823
▁Jap	-1824
ampton	-1825
▁combien	-1826
klah	-1827
undo	-1828
ures	-1829
▁könn	-1830
▁Los	-1831
▁For	-1832
どの国	-1833
▁br	-1834
▁tem	-1835
▁gest	-1836
▁después	-1837
▁conc	-1838
▁après	-1839
▁Co	-1840
▁Pourquoi	-1841
راء	-1842
▁fatto	-1843
attle	-1844
adio	-1845
▁utilisé	-1846
▁Ein	-1847
änder	-1848
ährend	-1849
افة	-1850
▁عندما	-1851
isme	-1852
▁gou	-1853
▁ض	-1854
▁mé	-1855
erein	-1856
▁primera	-1857
▁لما	-1858
als	-1859
hower	-1860
isenhower	-1861
ri	-1862
سبة	-1863
teur	-1864
سية	-1865
▁sig	-1866
hed	-1867
▁imper	-1868
da	-1869
▁Why	-1870
▁دي	-1871
klahoma	-1872
lav	-1873
iano	-1874
اق	-1875
▁Can	-1876
▁groß	-1877
ret	-1878
ense	-1879
▁bei	-1880
▁autre	-1881
▁ej	-1882
ha	-1883
خص	-1884
▁Col	-1885
▁pal	-1886
for	-1887
▁end	-1888
igt	-1889
andard	-1890
▁يق	-1891
▁vin	-1892
aire	-1893
otre	-1894
▁its	-1895
▁pob	-1896
اه	-1897
ner	-1898
▁بها	-1899
▁anim	-1900
let	-1901
▁Prem	-1902
▁á	-1903
▁ز	-1904
▁Mad	-1905
▁comun	-1906
ession	-1907
▁temps	-1908
col	-1909
▁gu	-1910
gt	-1911
▁لماذا	-1912
iter	-1913
▁partie	-1914
として	-1915
▁meisten	-1916
▁char	-1917
ناء	-1918
▁ris	-1919
els	-1920
▁Nord	-1921
icas	-1922
▁essere	-1923
sten	-1924
▁equ	-1925
tain	-1926
▁guerre	-1927
ième	-1928
▁ang	-1929
▁Cuáles	-1930
▁ول	-1931
▁At	-1932
▁او	-1933
▁fun	-1934
▁han	-1935
▁Spiel	-1936
だった	-1937
▁arm	-1938
▁exp	-1939
▁Unidos	-1940
imo	-1941
▁found	-1942
▁Estados	-1943
يش	-1944
ctor	-1945
▁cré	-1946
▁يح	-1947
keit	-1948
ienen	-1949
lación	-1950
udi	-1951
acter	-1952
alu	-1953
ats	-1954
▁rés	-1955
▁tit	-1956
mouth	-1957
schaft	-1958
▁compr	-1959
imiento	-1960
ajo	-1961
▁off	-1962
under	-1963
▁اكثر	-1964
▁ث	-1965
فعله	-1966
▁super	-1967
▁Cuánto	-1968
يك	-1969
fol	-1970
ward	-1971
▁pat	-1972
رج	-1973
うち	-1974
ken	-1975
▁North	-1976
▁libro	-1977
omp	-1978
uo	-1979
▁arch	-1980
▁Chr	-1981
▁commun	-1982
▁utilizz	-1983
BC	-1984
جموعة	-1985
▁lead	-1986
ral	-1987
▁get	-1988
▁8	-1989
▁pap	-1990
▁بد	-1991
été	-1992
ited	-1993
▁trova	-1994
ドイ	-1995
▁Pa	-1996
のうち	-1997
▁her	-1998
ara	-1999
مر	-2000
tru	-2001
bour	-2002
▁están	-2003
▁Quanto	-2004
▁اخر	-2005
▁المت	-2006
▁up	-2007
▁الحرب	-2008
▁ref	-2009
▁second	-2010
ello	-2011
▁let	-2012
لد	-2013
▁ir	-2014
mand	-2015
ienne	-2016
▁work	-2017
ég	-2018
فض	-2019
▁arr	-2020
▁offic	-2021
▁با	-2022
▁soci	-2023
ドイツ	-2024
▁Teil	-2025
▁الاش	-2026
ias	-2027
test	-2028
▁syst	-2029
ريكية	-2030
ges	-2031
▁who	-2032
ric	-2033
▁system	-2034
▁lu	-2035
roit	-2036
▁Port	-2037
لب	-2038
برا	-2039
▁يعت	-2040
▁camb	-2041
Qué	-2042
gel	-2043
▁اث	-2044
erry	-2045
▁años	-2046
▁defin	-2047
ez	-2048
▁date	-2049
ington	-2050
あり	-2051
▁Grand	-2052
▁tre	-2053
iva	-2054
ouv	-2055
▁Fr	-2056
ette	-2057
ission	-2058
の中	-2059
egen	-2060
ontr	-2061
▁popol	-2062
لس	-2063
مو	-2064
eren	-2065
▁während	-2066
▁Welt	-2067
nes	-2068
ück	-2069
ición	-2070
▁disc	-2071
▁had	-2072
mes	-2073
▁Gu	-2074
ellen	-2075
?"	-2076
ció	-2077
oso	-2078
▁belie	-2079
▁رئيس	-2080
ga	-2081
000	-2082
▁tér	-2083
▁groupe	-2084
▁fre	-2085
present	-2086
年の	-2087
ظام	-2088
▁سي	-2089
▁main	-2090
lev	-2091
lio	-2092
rab	-2093
cle	-2094
▁Auf	-2095
▁Verein	-2096
ai	-2097
▁7	-2098
ート	-2099
にな	-2100
tes	-2101
▁due	-2102
▁Queen	-2103
▁mond	-2104
▁Nasser	-2105
bert	-2106
▁الاول	-2107
▁cuando	-2108
rieben	-2109
▁Grup	-2110
ellt	-2111
ques	-2112
زة	-2113
uel	-2114
ula	-2115
iden	-2116
▁Gen	-2117
ames	-2118
▁civ	-2119
▁ide	-2120
▁located	-2121
ason	-2122
▁Rich	-2123
ister	-2124
▁2010	-2125
▁vend	-2126
amento	-2127
öffentlich	-2128
ora	-2129
▁16	-2130
▁prom	-2131
▁time	-2132
▁ih	-2133
▁أي	-2134
▁größ	-2135
▁prop	-2136
▁Warum	-2137
▁ren	-2138
▁area	-2139
yp	-2140
▁country	-2141
ilos	-2142
▁bat	-2143
▁vo	-2144
▁términ	-2145
▁Pol	-2146
▁النا	-2147
ilt	-2148
▁بي	-2149
▁about	-2150
etz	-2151
Cuál	-2152
▁trab	-2153
urch	-2154
ugar	-2155
ues	-2156
▁Aus	-2157
ements	-2158
▁plan	-2159
ität	-2160
ator	-2161
adores	-2162
の名	-2163
ünd	-2164
indet	-2165
▁colon	-2166
ستخدام	-2167
▁Kön	-2168
حة	-2169
▁vie	-2170
ظم	-2171
raf	-2172
▁pens	-2173
▁المس	-2174
esto	-2175
irt	-2176
▁industr	-2177
ammen	-2178
▁Proz	-2179
ionale	-2180
ink	-2181
▁تن	-2182
▁بعض	-2183
gg	-2184
▁6	-2185
▁Da	-2186
▁energ	-2187
▁gouvern	-2188
zo	-2189
itz	-2190
انون	-2191
وك	-2192
bar	-2193
▁الجن	-2194
▁15	-2195
▁lieu	-2196
▁فيها	-2197
よう	-2198
▁لت	-2199
añ	-2200
▁ling	-2201
völ	-2202
▁Des	-2203
▁Har	-2204
▁بشكل	-2205
▁rom	-2206
▁verb	-2207
▁Avec	-2208
cha	-2209
▁لك	-2210
▁val	-2211
▁mort	-2212
ween	-2213
▁been	-2214
ibt	-2215
upt	-2216
▁Fe	-2217
▁يت	-2218
bers	-2219
▁Fil	-2220
▁tras	-2221
では	-2222
سبب	-2223
▁domin	-2224
ikan	-2225
▁compos	-2226
▁conn	-2227
▁trouve	-2228
iana	-2229
oston	-2230
▁ident	-2231
▁encuentra	-2232
afi	-2233
itect	-2234
▁League	-2235
يب	-2236
▁ذ	-2237
リア	-2238
▁غير	-2239
ajor	-2240
Quién	-2241
▁qual	-2242
▁الشم	-2243
▁Southampton	-2244
▁magg	-2245
▁Lib	-2246
imento	-2247
St	-2248
ない	-2249
wei	-2250
▁بر	-2251
▁Spra	-2252
▁music	-2253
sel	-2254
はいつ	-2255
اريخ	-2256
しましたか	-2257
ows	-2258
▁fl	-2259
▁cop	-2260
▁lors	-2261
iers	-2262
▁stat	-2263
▁pendant	-2264
▁ur	-2265
▁forma	-2266
itution	-2267
▁población	-2268
▁remp	-2269
▁يكون	-2270
ume	-2271
▁Oklahoma	-2272
▁jue	-2273
▁اليه	-2274
って	-2275
▁الرئيس	-2276
より	-2277
▁Stati	-2278
▁Bur	-2279
ctions	-2280
▁trava	-2281
▁je	-2282
▁riv	-2283
▁termin	-2284
▁président	-2285
uale	-2286
▁mad	-2287
ologie	-2288
▁unter	-2289
リン	-2290
üt	-2291
ides	-2292
▁pér	-2293
▁uno	-2294
▁الز	-2295
▁intro	-2296
▁Houston	-2297
▁191	-2298
▁succ	-2299
▁pourcentage	-2300
udd	-2301
▁به	-2302
▁Cent	-2303
ター	-2304
▁Ad	-2305
▁ange	-2306
▁high	-2307
とな	-2308
▁ear	-2309
▁unt	-2310
▁personnes	-2311
ثل	-2312
عم	-2313
ché	-2314
ras	-2315
▁10	-2316
▁Mel	-2317
▁out	-2318
volution	-2319
chi	-2320
pro	-2321
way	-2322
لام	-2323
▁siè	-2324
ús	-2325
atore	-2326
▁some	-2327
fen	-2328
head	-2329
وروب	-2330
édér	-2331
egger	-2332
völker	-2333
ams	-2334
▁Europe	-2335
las	-2336
ucht	-2337
▁deven	-2338
▁atta	-2339
رس	-2340
laub	-2341
▁known	-2342
äsident	-2343
völkerung	-2344
▁crit	-2345
anj	-2346
ities	-2347
▁personas	-2348
▁esc	-2349
warzen	-2350
▁lugar	-2351
▁University	-2352
وز	-2353
ーム	-2354
▁App	-2355
▁Nam	-2356
تاب	-2357
▁Ges	-2358
▁grupo	-2359
▁عليها	-2360
▁estaba	-2361
▁gio	-2362
▁pel	-2363
▁organiz	-2364
▁ai	-2365
▁dir	-2366
アメリカ	-2367
▁Guer	-2368
mar	-2369
▁12	-2370
bol	-2371
reg	-2372
▁Cl	-2373
▁Boston	-2374
▁mehr	-2375
▁gener	-2376
▁Del	-2377
▁tempo	-2378
▁base	-2379
بت	-2380
فس	-2381
▁paese	-2382
▁between	-2383
▁Eisenhower	-2384
▁إ	-2385
▁ét	-2386
lement	-2387
▁américa	-2388
▁into	-2389
▁trat	-2390
▁zwei	-2391
▁econom	-2392
▁dopo	-2393
▁real	-2394
▁final	-2395
▁cro	-2396
▁fon	-2397
▁الوق	-2398
usammen	-2399
ディ	-2400
▁tu	-2401
▁ني	-2402
▁att	-2403
▁zur	-2404
▁best	-2405
戦争	-2406
ude	-2407
▁Ply	-2408
▁conoc	-2409
▁process	-2410
fe	-2411
▁Cor	-2412
bo	-2413
リス	-2414
وان	-2415
▁واح	-2416
▁appel	-2417
▁som	-2418
ciones	-2419
▁مص	-2420
▁عمل	-2421
▁Wash	-2422
▁Austr	-2423
wick	-2424
▁dest	-2425
ém	-2426
يان	-2427
▁bomb	-2428
▁major	-2429
ages	-2430
hunder	-2431
isto	-2432
▁fu	-2433
▁الال	-2434
▁century	-2435
▁lí	-2436
▁band	-2437
uen	-2438
otto	-2439
ular	-2440
▁Kon	-2441
براطور	-2442
▁Jahrhunder	-2443
با	-2444
▁Washington	-2445
▁divis	-2446
▁9	-2447
équ	-2448
▁يج	-2449
▁2008	-2450
▁Beyoncé	-2451
▁لديها	-2452
▁espe	-2453
▁chang	-2454
arm	-2455
ize	-2456
▁fem	-2457
▁norm	-2458
▁place	-2459
▁Madonna	-2460
fl	-2461
▁2007	-2462
▁quando	-2463
urr	-2464
▁kind	-2465
▁popular	-2466
lis	-2467
clar	-2468
ites	-2469
ka	-2470
▁Su	-2471
▁int	-2472
▁terme	-2473
▁Plymouth	-2474
▁Sec	-2475
▁play	-2476
cel	-2477
icial	-2478
car	-2479
ject	-2480
temp	-2481
egriff	-2482
▁record	-2483
anci	-2484
▁more	-2485
ennesse	-2486
▁jo	-2487
يات	-2488
▁ihr	-2489
▁repr	-2490
▁trib	-2491
▁الملك	-2492
ennessee	-2493
▁Je	-2494
eng	-2495
berg	-2496
▁idi	-2497
azioni	-2498
▁Portug	-2499
كة	-2500
▁Mex	-2501
▁proble	-2502
▁Ant	-2503
ensch	-2504
itehead	-2505
▁national	-2506
warzenegger	-2507
▁Pop	-2508
▁ses	-2509
▁zwischen	-2510
▁commer	-2511
▁système	-2512
cast	-2513
▁cir	-2514
▁Geor	-2515
▁On	-2516
▁Val	-2517
cción	-2518
▁2009	-2519
▁persone	-2520
طول	-2521
▁تا	-2522
ités	-2523
onia	-2524
▁territ	-2525
▁importante	-2526
ترة	-2527
ريط	-2528
▁Sup	-2529
▁Premier	-2530
erk	-2531
cies	-2532
lege	-2533
raph	-2534
▁Prin	-2535
▁gran	-2536
▁jour	-2537
▁britann	-2538
▁vi	-2539
▁الاست	-2540
ika	-2541
▁comenz	-2542
▁né	-2543
▁leur	-2544
ティ	-2545
▁تحت	-2546
▁disp	-2547
▁مس	-2548
▁الاخر	-2549
ya	-2550
▁Som	-2551
▁inizi	-2552
している	-2553
obier	-2554
ctr	-2555
かった	-2556
mpire	-2557
▁made	-2558
▁années	-2559
▁Begriff	-2560
ضا	-2561
▁Es	-2562
▁Fre	-2563
▁lim	-2564
▁Ha	-2565
▁Notre	-2566
▁bekannt	-2567
imm	-2568
▁Roy	-2569
▁deb	-2570
▁2010?	-2571
▁Vereinig	-2572
▁language	-2573
▁Man	-2574
uvalu	-2575
▁German	-2576
世界	-2577
etzt	-2578
▁Come	-2579
lex	-2580
▁bar	-2581
ktion	-2582
acional	-2583
▁Europa	-2584
▁Tennessee	-2585
▁Me	-2586
たのは	-2587
▁Dame	-2588
ely	-2589
ott	-2590
▁cui	-2591
▁الوقت	-2592
ax	-2593
▁op	-2594
cher	-2595
ni	-2596
rea	-2597
▁بدا	-2598
▁Uniti	-2599
oth	-2600
▁sou	-2601
▁Times	-2602
▁London	-2603
gle	-2604
▁zum	-2605
shall	-2606
bourne	-2607
▁tradition	-2608
وسط	-2609
éc	-2610
uan	-2611
▁Im	-2612
▁Sy	-2613
ament	-2614
▁Staaten	-2615
▁test	-2616
▁wicht	-2617
▁écrit	-2618
▁autor	-2619
▁veröffentlich	-2620
reet	-2621
▁universidad	-2622
كوم	-2623
フラン	-2624
▁donn	-2625
▁over	-2626
▁post	-2627
▁would	-2628
▁contra	-2629
▁Geb	-2630
▁Bell	-2631
كر	-2632
▁Afr	-2633
▁gobier	-2634
▁Carol	-2635
▁school	-2636
▁اب	-2637
▁soc	-2638
には	-2639
▁Ex	-2640
▁club	-2641
▁welchen	-2642
ho	-2643
tend	-2644
▁Mac	-2645
▁erano	-2646
▁اللغة	-2647
▁types	-2648
▁describ	-2649
▁Stud	-2650
izione	-2651
▁siglo	-2652
▁mondiale	-2653
▁sel	-2654
▁suo	-2655
otball	-2656
سيق	-2657
▁بو	-2658
mond	-2659
تج	-2660
يين	-2661
▁He	-2662
▁sin	-2663
geben	-2664
▁Bevölkerung	-2665
neh	-2666
▁اصب	-2667
osp	-2668
كثر	-2669
▁USA	-2670
▁lav	-2671
▁nota	-2672
urn	-2673
ved	-2674
enne	-2675
orie	-2676
cuel	-2677
▁percent	-2678
▁ele	-2679
▁término	-2680
られ	-2681
▁tod	-2682
win	-2683
▁الدولة	-2684
ideo	-2685
▁avait	-2686
uda	-2687
▁doc	-2688
▁يستخدم	-2689
▁befindet	-2690
▁veröffentlicht	-2691
asse	-2692
▁sua	-2693
▁this	-2694
ュー	-2695
▁Med	-2696
▁american	-2697
gos	-2698
blic	-2699
▁anni	-2700
▁rele	-2701
ech	-2702
▁period	-2703
ail	-2704
الة	-2705
واع	-2706
▁Sw	-2707
▁Las	-2708
▁wenn	-2709
net	-2710
▁Bo	-2711
▁حصل	-2712
illi	-2713
▁hay	-2714
▁algun	-2715
-1	-2716
érie	-2717
abeth	-2718
ibet	-2719
▁2014	-2720
▁monde	-2721
imin	-2722
▁Der	-2723
▁mal	-2724
▁può	-2725
▁acqu	-2726
ランド	-2727
▁fund	-2728
▁weit	-2729
▁génér	-2730
▁standard	-2731
▁fer	-2732
▁مرة	-2733
zioni	-2734
▁Isra	-2735
▁Seattle	-2736
ركز	-2737
▁Dar	-2738
▁المص	-2739
▁government	-2740
による	-2741
ロー	-2742
▁escuel	-2743
▁original	-2744
▁gouvernement	-2745
ps	-2746
の中で	-2747
▁192	-2748
iß	-2749
▁ay	-2750
▁mu	-2751
دار	-2752
▁déf	-2753
▁appro	-2754
▁natur	-2755
ilosoph	-2756
An	-2757
bbe	-2758
ists	-2759
ていますか	-2760
▁eines	-2761
utsch	-2762
atura	-2763
▁Island	-2764
▁Melbourne	-2765
▁Pal	-2766
▁جزء	-2767
ateur	-2768
▁cant	-2769
▁dev	-2770
▁sing	-2771
▁otro	-2772
▁Krieg	-2773
eden	-2774
▁cin	-2775
▁ihre	-2776
▁program	-2777
▁Vereinigten	-2778
ット	-2779
▁sex	-2780
▁fois	-2781
▁sous	-2782
estival	-2783
▁percentage	-2784
esi	-2785
▁priv	-2786
▁mundo	-2787
by	-2788
ony	-2789
▁مو	-2790
eces	-2791
▁mont	-2792
isse	-2793
▁Ste	-2794
ismus	-2795
▁mand	-2796
▁andere	-2797
▁2011	-2798
▁الاف	-2799
▁région	-2800
iem	-2801
▁mis	-2802
▁pelí	-2803
まで	-2804
▁يفعله	-2805
fo	-2806
ündet	-2807
دى	-2808
ane	-2809
▁prote	-2810
▁tienen	-2811
▁2012	-2812
▁scrit	-2813
من	-2814
▁2000	-2815
▁anci	-2816
ته	-2817
انيا	-2818
▁besch	-2819
▁porcent	-2820
راج	-2821
▁bre	-2822
▁tor	-2823
eder	-2824
ellement	-2825
خل	-2826
▁cele	-2827
cep	-2828
▁جم	-2829
▁قد	-2830
Cuán	-2831
▁general	-2832
ذه	-2833
▁Kerry	-2834
▁result	-2835
▁اجل	-2836
umento	-2837
Pod	-2838
اقة	-2839
▁tempor	-2840
▁porcentaje	-2841
cion	-2842
▁pério	-2843
هد	-2844
▁ست	-2845
ieder	-2846
ynast	-2847
▁eing	-2848
▁loro	-2849
ئة	-2850
achen	-2851
▁Comp	-2852
▁human	-2853
▁dévelop	-2854
▁ين	-2855
▁حدث	-2856
▁Pres	-2857
▁Jahren	-2858
▁ersten	-2859
▁div	-2860
▁mor	-2861
▁eran	-2862
▁India	-2863
▁centro	-2864
زل	-2865
にお	-2866
unk	-2867
▁bro	-2868
▁din	-2869
▁ley	-2870
▁الاح	-2871
amiento	-2872
とい	-2873
により	-2874
dafi	-2875
▁don	-2876
▁than	-2877
▁elect	-2878
▁Präsident	-2879
▁law	-2880
▁cost	-2881
asil	-2882
▁sort	-2883
cy	-2884
いく	-2885
anza	-2886
▁World	-2887
ugh	-2888
▁occident	-2889
いて	-2890
▁مق	-2891
▁Sprache	-2892
▁Ed	-2893
vano	-2894
▁geb	-2895
كبر	-2896
▁Gro	-2897
▁ing	-2898
▁capac	-2899
▁ot	-2900
▁2013	-2901
▁distr	-2902
▁dónde	-2903
▁imm	-2904
▁lig	-2905
▁المنا	-2906
▁minist	-2907
ため	-2908
use	-2909
▁refer	-2910
▁protest	-2911
国の	-2912
bil	-2913
cula	-2914
▁نسبة	-2915
▁contro	-2916
▁Schwarzenegger	-2917
▁تص	-2918
alia	-2919
iami	-2920
▁grie	-2921
▁Bro	-2922
▁France	-2923
ié	-2924
▁ric	-2925
▁König	-2926
▁album	-2927
inc	-2928
▁méd	-2929
▁situ	-2930
▁langue	-2931
▁peu	-2932
▁invest	-2933
hip	-2934
oles	-2935
▁quali	-2936
▁there	-2937
امعة	-2938
▁Christ	-2939
نين	-2940
▁ev	-2941
▁Comm	-2942
ased	-2943
▁zona	-2944
lica	-2945
omas	-2946
▁Hay	-2947
▁Ä	-2948
انت	-2949
▁Nor	-2950
▁اكبر	-2951
▁لديه	-2952
▁maggior	-2953
▁ste	-2954
istas	-2955
اش	-2956
ähl	-2957
▁القرن	-2958
▁Gruppe	-2959
▁considér	-2960
ثة	-2961
ثير	-2962
▁gel	-2963
atori	-2964
▁Bron	-2965
▁Paris	-2966
▁mater	-2967
str	-2968
imon	-2969
▁rest	-2970
▁Apple	-2971
▁associ	-2972
ありますか	-2973
▁Londres	-2974
ظر	-2975
نع	-2976
▁«	-2977
▁gobierno	-2978
يج	-2979
len	-2980
alement	-2981
طلح	-2982
illa	-2983
▁nation	-2984
▁Ro	-2985
▁nav	-2986
▁Unter	-2987
▁avant	-2988
▁fac	-2989
▁altro	-2990
▁الانت	-2991
▁become	-2992
ave	-2993
ورك	-2994
▁Fo	-2995
▁gi	-2996
▁British	-2997
▁مب	-2998
▁comenzó	-2999
▁alc	-3000
▁العام	-3001
اية	-3002
ments	-3003
もの	-3004
ührt	-3005
▁world	-3006
▁principale	-3007
get	-3008
ضاء	-3009
▁cha	-3010
▁adop	-3011
▁»	-3012
uta	-3013
بير	-3014
▁air	-3015
▁China	-3016
▁viene	-3017
▁inform	-3018
▁develop	-3019
▁gewonnen	-3020
▁techn	-3021
▁contribu	-3022
ño	-3023
ree	-3024
の名前	-3025
arch	-3026
▁sett	-3027
▁radio	-3028
ks	-3029
سا	-3030
انب	-3031
▁Ir	-3032
ella	-3033
ruct	-3034
▁red	-3035
arrol	-3036
▁requ	-3037
undial	-3038
▁signific	-3039
▁pou	-3040
▁uso	-3041
▁certa	-3042
ivid	-3043
▁frü	-3044
▁compar	-3045
▁represent	-3046
iver	-3047
andid	-3048
▁diale	-3049
igkeit	-3050
▁divent	-3051
▁capital	-3052
▁période	-3053
▁Eg	-3054
▁seine	-3055
▁Francia	-3056
▁desarrol	-3057
ían	-3058
ucson	-3059
▁nell	-3060
▁الاج	-3061
▁faire	-3062
▁العمل	-3063
▁Whitehead	-3064
blica	-3065
▁gegr	-3066
▁عليه	-3067
▁geh	-3068
▁mur	-3069
▁rif	-3070
▁cause	-3071
▁gegründet	-3072
▁Engl	-3073
▁المش	-3074
▁avuto	-3075
▁orient	-3076
agt	-3077
bur	-3078
ادي	-3079
ital	-3080
▁pot	-3081
äng	-3082
senal	-3083
▁Delhi	-3084
▁Miami	-3085
▁Niger	-3086
rat	-3087
athol	-3088
▁hatte	-3089
▁Portugal	-3090
▁bis	-3091
▁منطقة	-3092
映画	-3093
▁avoir	-3094
تش	-3095
▁We	-3096
▁يعتقد	-3097
▁المدينة	-3098
はどの	-3099
teil	-3100
▁mes	-3101
▁otr	-3102
lem	-3103
▁sem	-3104
esehen	-3105
▁begin	-3106
▁genre	-3107
pi	-3108
ضع	-3109
▁où	-3110
ギリス	-3111
▁Bez	-3112
▁propos	-3113
يث	-3114
▁dom	-3115
はどこですか	-3116
▁common	-3117
yle	-3118
▁log	-3119
▁estable	-3120
▁اخ	-3121
イギリス	-3122
▁Yale	-3123
▁take	-3124
▁hacer	-3125
سمى	-3126
▁polít	-3127
▁present	-3128
▁مست	-3129
▁معظم	-3130
angen	-3131
▁educ	-3132
スの	-3133
يري	-3134
enci	-3135
▁National	-3136
▁pris	-3137
udio	-3138
▁auch	-3139
iles	-3140
▁dies	-3141
▁europe	-3142
▁الامبراطور	-3143
が多	-3144
cen	-3145
ares	-3146
part	-3147
▁conv	-3148
▁causa	-3149
uso	-3150
を受	-3151
ält	-3152
▁ven	-3153
erson	-3154
issance	-3155
▁Richmond	-3156
ín	-3157
وني	-3158
rait	-3159
▁Tuvalu	-3160
hm	-3161
▁oc	-3162
alla	-3163
▁tex	-3164
▁Dell	-3165
ederal	-3166
▁sulla	-3167
▁introdu	-3168
uge	-3169
ريد	-3170
▁leader	-3171
▁Marshall	-3172
je	-3173
ンの	-3174
▁Ber	-3175
▁فاز	-3176
كس	-3177
▁mas	-3178
▁utiliza	-3179
▁begonnen	-3180
▁exist	-3181
最初	-3182
ius	-3183
ley	-3184
west	-3185
ارات	-3186
لسلة	-3187
▁Phil	-3188
▁nord	-3189
▁prod	-3190
▁invent	-3191
▁siècle	-3192
ifs	-3193
▁bl	-3194
lymp	-3195
▁Eng	-3196
ology	-3197
▁United	-3198
▁histor	-3199
▁أم	-3200
amer	-3201
▁كتب	-3202
Ar	-3203
pla	-3204
▁13	-3205
▁ig	-3206
▁jug	-3207
▁podr	-3208
ipe	-3209
▁where	-3210
▁anderen	-3211
▁Ol	-3212
izabeth	-3213
pir	-3214
abad	-3215
していた	-3216
zeich	-3217
▁corr	-3218
▁perí	-3219
▁propr	-3220
▁Pl	-3221
▁Von	-3222
▁deter	-3223
▁اج	-3224
▁happ	-3225
▁visit	-3226
▁Jahrhundert	-3227
عية	-3228
مال	-3229
▁II	-3230
▁Min	-3231
▁add	-3232
▁gruppo	-3233
地域	-3234
である	-3235
▁jud	-3236
▁الدول	-3237
▁George	-3238
▁termine	-3239
▁اق	-3240
▁casa	-3241
▁الأم	-3242
▁contre	-3243
▁تستخدم	-3244
▁religion	-3245
▁Durante	-3246
ube	-3247
▁هنا	-3248
▁design	-3249
作品	-3250
ías	-3251
▁اعل	-3252
▁Napoleon	-3253
いた	-3254
▁Mo	-3255
▁Os	-3256
▁trois	-3257
▁Barcel	-3258
gi	-3259
amo	-3260
uter	-3261
▁Imp	-3262
誰ですか	-3263
ander	-3264
▁فيلم	-3265
▁este	-3266
▁west	-3267
▁البح	-3268
▁Intern	-3269
entr	-3270
ious	-3271
sect	-3272
ئيسي	-3273
ergie	-3274
▁entr	-3275
▁ganó	-3276
▁الهند	-3277
▁mayoría	-3278
▁capitale	-3279
▁Rom	-3280
▁tuvo	-3281
lished	-3282
▁separ	-3283
ba	-3284
▁mag	-3285
istes	-3286
▁lange	-3287
▁pet	-3288
▁iPod	-3289
▁können	-3290
wer	-3291
はどれ	-3292
كومة	-3293
وريا	-3294
▁Kir	-3295
ationen	-3296
▁edific	-3297
▁استخدام	-3298
err	-3299
▁escrib	-3300
عي	-3301
وة	-3302
isc	-3303
صول	-3304
▁تت	-3305
▁arg	-3306
▁Japan	-3307
▁Sur	-3308
▁سكان	-3309
▁هناك	-3310
acc	-3311
▁alto	-3312
üd	-3313
anta	-3314
▁ret	-3315
affen	-3316
▁gibt	-3317
▁being	-3318
ouse	-3319
تحاد	-3320
▁quelles	-3321
▁considered	-3322
▁popolazione	-3323
とは	-3324
ash	-3325
▁dar	-3326
teurs	-3327
▁costru	-3328
▁important	-3329
anc	-3330
▁Sud	-3331
▁انه	-3332
▁2009?	-3333
genommen	-3334
▁14	-3335
▁را	-3336
▁سب	-3337
▁chr	-3338
▁tut	-3339
▁four	-3340
▁norte	-3341
▁développ	-3342
ôle	-3343
yder	-3344
▁Det	-3345
addafi	-3346
▁media	-3347
▁Darwin	-3348
isce	-3349
▁wichtig	-3350
▁Zusammen	-3351
جلس	-3352
大統	-3353
▁év	-3354
大統領	-3355
folk	-3356
▁dalla	-3357
▁vinto	-3358
ña	-3359
▁dr	-3360
られた	-3361
ices	-3362
▁لعب	-3363
ًا	-3364
cif	-3365
ظهر	-3366
▁Ital	-3367
▁Para	-3368
يط	-3369
irg	-3370
いのは	-3371
▁mill	-3372
yderabad	-3373
anjing	-3374
▁differ	-3375
マン	-3376
レー	-3377
lant	-3378
▁Bre	-3379
▁mús	-3380
したの	-3381
▁gegen	-3382
▁الصين	-3383
▁países	-3384
بات	-3385
ورة	-3386
alis	-3387
▁tele	-3388
▁ايضا	-3389
erstüt	-3390
▁scient	-3391
▁período	-3392
ye	-3393
امل	-3394
▁وف	-3395
orea	-3396
▁sud	-3397
ciato	-3398
▁Tucson	-3399
▁temper	-3400
▁peuvent	-3401
زي	-3402
▁Air	-3403
は何年に	-3404
▁Street	-3405
▁divers	-3406
▁signif	-3407
ED	-3408
دف	-3409
änd	-3410
▁gagn	-3411
▁geschrieben	-3412
pa	-3413
ians	-3414
▁tip	-3415
indows	-3416
ersch	-3417
osten	-3418
▁sé	-3419
▁antes	-3420
ietà	-3421
▁vot	-3422
▁Hayek	-3423
▁idioma	-3424
لق	-3425
ily	-3426
مار	-3427
▁اف	-3428
iente	-3429
▁quels	-3430
▁société	-3431
▁Regierung	-3432
▁pueden	-3433
دو	-3434
cito	-3435
▁Cal	-3436
▁لكي	-3437
ativo	-3438
▁star	-3439
▁الوط	-3440
▁Carolina	-3441
という	-3442
agne	-3443
ises	-3444
▁jou	-3445
▁mol	-3446
▁Film	-3447
▁make	-3448
▁color	-3449
ニア	-3450
▁they	-3451
eter	-3452
▁via	-3453
other	-3454
nehmen	-3455
▁pubblic	-3456
▁película	-3457
-2	-3458
بية	-3459
▁writ	-3460
depend	-3461
▁2013?	-3462
▁grandes	-3463
▁significa	-3464
رم	-3465
atal	-3466
ster	-3467
▁alta	-3468
▁hace	-3469
▁lanz	-3470
▁mosa	-3471
رش	-3472
لاب	-3473
▁gek	-3474
▁squ	-3475
ío	-3476
▁sv	-3477
▁data	-3478
▁تاريخ	-3479
فضل	-3480
aint	-3481
▁desc	-3482
▁عادة	-3483
▁Bronx	-3484
ême	-3485
▁لها	-3486
▁zuerst	-3487
▁iniziato	-3488
eln	-3489
lin	-3490
ket	-3491
▁Mont	-3492
▁activ	-3493
▁cuántos	-3494
وائ	-3495
▁Cr	-3496
elli	-3497
▁memb	-3498
▁simil	-3499
▁estaban	-3500
hu	-3501
uß	-3502
cho	-3503
راض	-3504
▁Arch	-3505
▁reci	-3506
▁الجم	-3507
FL	-3508
▁شركة	-3509
▁المب	-3510
▁exper	-3511
▁years	-3512
idé	-3513
enden	-3514
▁dove	-3515
▁volta	-3516
▁percentuale	-3517
行わ	-3518
éta	-3519
اعد	-3520
سيقى	-3521
▁Detroit	-3522
▁particip	-3523
▁wür	-3524
ateurs	-3525
idas	-3526
ouve	-3527
ware	-3528
▁thé	-3529
ating	-3530
▁England	-3531
خاب	-3532
▁aver	-3533
▁استخدم	-3534
▁Welchen	-3535
orté	-3536
▁2011?	-3537
▁الناس	-3538
raft	-3539
▁تج	-3540
▁scu	-3541
▁Repub	-3542
cole	-3543
tere	-3544
umann	-3545
▁carr	-3546
▁التح	-3547
▁nueva	-3548
▁under	-3549
bt	-3550
etti	-3551
iven	-3552
▁187	-3553
▁بول	-3554
ظمة	-3555
ostr	-3556
▁2006	-3557
▁Along	-3558
los	-3559
aires	-3560
▁مجموعة	-3561
ös	-3562
ファ	-3563
عات	-3564
adre	-3565
▁vez	-3566
arios	-3567
ultur	-3568
▁Part	-3569
▁stag	-3570
▁2007?	-3571
▁السيا	-3572
وط	-3573
▁%	-3574
▁بلد	-3575
▁Iran	-3576
▁Paul	-3577
▁2008?	-3578
atr	-3579
▁11	-3580
▁cou	-3581
اضافة	-3582
▁الجز	-3583
図書	-3584
eld	-3585
▁agr	-3586
inden	-3587
▁power	-3588
▁المست	-3589
▁جامعة	-3590
át	-3591
▁مش	-3592
▁يجب	-3593
▁serie	-3594
▁britán	-3595
▁ú	-3596
▁él	-3597
▁انش	-3598
▁notable	-3599
lie	-3600
خاص	-3601
ades	-3602
ield	-3603
▁Ent	-3604
▁mondo	-3605
▁estados	-3606
▁mer	-3607
▁différ	-3608
ライ	-3609
▁viol	-3610
▁نظام	-3611
60	-3612
バー	-3613
▁خط	-3614
▁tur	-3615
▁Nach	-3616
▁Armen	-3617
ves	-3618
ized	-3619
▁الاخرى	-3620
▁College	-3621
▁dialect	-3622
فة	-3623
ham	-3624
▁fig	-3625
ières	-3626
▁word	-3627
▁Gesch	-3628
▁cab	-3629
▁dern	-3630
▁culture	-3631
▁Elizabeth	-3632
▁الامريكية	-3633
mi	-3634
اط	-3635
▁antig	-3636
▁اش	-3637
▁Inst	-3638
▁Frank	-3639
جر	-3640
lung	-3641
▁Hol	-3642
ويورك	-3643
▁Tito	-3644
▁igles	-3645
▁اليون	-3646
▁سلسلة	-3647
▁evento	-3648
▁Q	-3649
geb	-3650
▁uu	-3651
▁تقع	-3652
inder	-3653
▁dispos	-3654
"؟	-3655
ران	-3656
erie	-3657
▁Cong	-3658
▁sold	-3659
▁العث	-3660
▁المك	-3661
▁nomin	-3662
▁zweit	-3663
▁trabajo	-3664
yl	-3665
قاط	-3666
▁land	-3667
▁nelle	-3668
gent	-3669
weit	-3670
▁183	-3671
▁led	-3672
▁sent	-3673
▁occup	-3674
▁created	-3675
▁بالاضافة	-3676
رات	-3677
روف	-3678
وير	-3679
aient	-3680
▁Gran	-3681
▁rank	-3682
▁conqu	-3683
▁negli	-3684
▁encontr	-3685
▁passiert	-3686
sp	-3687
lack	-3688
▁aer	-3689
▁tour	-3690
▁Nigeria	-3691
سك	-3692
izio	-3693
▁lat	-3694
▁هذه	-3695
gesch	-3696
▁الاسم	-3697
▁individ	-3698
ja	-3699
▁ave	-3700
▁ord	-3701
いですか	-3702
▁quand	-3703
äd	-3704
ets	-3705
ندا	-3706
▁قامت	-3707
▁desde	-3708
zi	-3709
に対	-3710
▁hö	-3711
▁اح	-3712
zahl	-3713
▁gegeben	-3714
ife	-3715
▁ee	-3716
crip	-3717
▁sat	-3718
uelle	-3719
▁heiß	-3720
▁cultur	-3721
▁música	-3722
▁concept	-3723
▁entwick	-3724
uddh	-3725
▁style	-3726
élé	-3727
rale	-3728
ierte	-3729
entsatz	-3730
▁السكان	-3731
▁company	-3732
icano	-3733
▁migr	-3734
▁rend	-3735
▁franc	-3736
uft	-3737
inos	-3738
▁Ter	-3739
anten	-3740
▁Tibet	-3741
▁crist	-3742
▁اثنين	-3743
▁Länder	-3744
▁größte	-3745
▁Prozentsatz	-3746
ينا	-3747
ريكي	-3748
▁بدات	-3749
かったのは	-3750
▁autres	-3751
▁représ	-3752
ルト	-3753
cil	-3754
ائزة	-3755
▁déb	-3756
▁gra	-3757
▁Junto	-3758
▁secolo	-3759
utt	-3760
ودة	-3761
▁Popper	-3762
eau	-3763
ser	-3764
▁Bew	-3765
لاق	-3766
▁الاط	-3767
▁فترة	-3768
▁conten	-3769
▁insect	-3770
▁مؤ	-3771
eston	-3772
▁publi	-3773
▁العالمية	-3774
unda	-3775
▁التق	-3776
utzt	-3777
▁rev	-3778
▁condu	-3779
▁social	-3780
نى	-3781
lim	-3782
owl	-3783
icio	-3784
かに	-3785
verno	-3786
▁2005	-3787
▁palab	-3788
▁provin	-3789
▁saison	-3790
▁نيويورك	-3791
نيس	-3792
▁ke	-3793
▁100	-3794
ionen	-3795
▁lingua	-3796
▁オ	-3797
cos	-3798
▁again	-3799
▁largest	-3800
ارك	-3801
puis	-3802
▁Für	-3803
ually	-3804
▁llev	-3805
▁Ü	-3806
وقع	-3807
▁az	-3808
▁mom	-3809
▁could	-3810
فل	-3811
esa	-3812
فال	-3813
bern	-3814
▁Buch	-3815
▁effect	-3816
▁philosoph	-3817
シア	-3818
ンド	-3819
ody	-3820
yan	-3821
يني	-3822
▁يش	-3823
انات	-3824
▁mig	-3825
▁nam	-3826
upart	-3827
▁East	-3828
▁الاق	-3829
▁plupart	-3830
orr	-3831
ynman	-3832
▁difer	-3833
▁minor	-3834
ani	-3835
وبر	-3836
oren	-3837
▁Das	-3838
ativa	-3839
▁الاص	-3840
▁فريق	-3841
▁Diego	-3842
▁season	-3843
▁الاتحاد	-3844
▁deuxième	-3845
دل	-3846
ント	-3847
リーズ	-3848
itut	-3849
はどちら	-3850
krieg	-3851
▁Israel	-3852
▁カ	-3853
▁nú	-3854
ider	-3855
▁bus	-3856
▁oft	-3857
édéric	-3858
▁Const	-3859
▁build	-3860
▁America	-3861
▁scritto	-3862
ヨー	-3863
▁Arten	-3864
▁Roman	-3865
▁Willi	-3866
▁escribió	-3867
▁190	-3868
glich	-3869
▁Virg	-3870
▁acuer	-3871
BI	-3872
سيك	-3873
▁tamb	-3874
inter	-3875
▁Super	-3876
▁Center	-3877
▁candid	-3878
▁another	-3879
▁service	-3880
ES	-3881
▁第	-3882
elig	-3883
iang	-3884
ilup	-3885
leman	-3886
▁جانب	-3887
▁sport	-3888
▁rapport	-3889
ala	-3890
mas	-3891
▁VI	-3892
اعدة	-3893
▁wem	-3894
ienda	-3895
▁Arbeit	-3896
▁persona	-3897
▁Spielberg	-3898
での	-3899
▁Um	-3900
▁Sel	-3901
▁éle	-3902
▁sido	-3903
▁Organ	-3904
▁große	-3905
▁الاشخاص	-3906
▁Av	-3907
いくつ	-3908
anas	-3909
▁Aut	-3910
▁Fra	-3911
▁ult	-3912
▁show	-3913
Al	-3914
▁184	-3915
▁gior	-3916
▁signifie	-3917
▁politique	-3918
▁ス	-3919
ives	-3920
▁هذا	-3921
▁line	-3922
▁start	-3923
パー	-3924
▁opp	-3925
されましたか	-3926
▁support	-3927
▁الرئيسية	-3928
arr	-3929
▁Cub	-3930
ght	-3931
رائ	-3932
▁cla	-3933
▁últ	-3934
irman	-3935
▁gente	-3936
▁llama	-3937
ministr	-3938
äl	-3939
▁CD	-3940
▁اغ	-3941
udes	-3942
ather	-3943
▁miem	-3944
bs	-3945
ترا	-3946
▁وج	-3947
tagne	-3948
どちらですか	-3949
fér	-3950
inas	-3951
▁Tur	-3952
▁naz	-3953
▁mass	-3954
NA	-3955
と呼	-3956
ike	-3957
udo	-3958
▁So	-3959
図書館	-3960
▁équ	-3961
actér	-3962
▁الاخ	-3963
▁poder	-3964
▁genannt	-3965
▁chiamato	-3966
ジョ	-3967
دير	-3968
▁بح	-3969
▁Alas	-3970
▁bene	-3971
▁leurs	-3972
▁svilup	-3973
▁produce	-3974
▁الرئيسي	-3975
glise	-3976
▁help	-3977
▁prev	-3978
érique	-3979
▁connu	-3980
▁responsab	-3981
irm	-3982
mal	-3983
▁ma	-3984
ほかに	-3985
iato	-3986
▁Sov	-3987
▁south	-3988
▁Windows	-3989
iot	-3990
يام	-3991
▁2015	-3992
▁escuela	-3993
▁también	-3994
▁gefunden	-3995
▁position	-3996
omen	-3997
▁التن	-3998
arbeit	-3999
▁celebr	-4000
▁verurs	-4001
▁musique	-4002
▁temporada	-4003
ديم	-4004
▁ep	-4005
▁جن	-4006
▁dro	-4007
▁tun	-4008
▁dise	-4009
leston	-4010
▁televis	-4011
▁تس	-4012
ungs	-4013
▁Bus	-4014
▁top	-4015
▁منذ	-4016
.?	-4017
ング	-4018
هور	-4019
▁To	-4020
erne	-4021
wood	-4022
シリーズ	-4023
▁livre	-4024
▁normal	-4025
10	-4026
▁nu	-4027
ording	-4028
nal	-4029
ecut	-4030
trag	-4031
▁jap	-4032
▁وقت	-4033
▁2015?	-4034
▁Brasil	-4035
ène	-4036
される	-4037
▁dit	-4038
▁raz	-4039
▁tier	-4040
▁السل	-4041
ología	-4042
▁tenía	-4043
▁English	-4044
kl	-4045
ches	-4046
cted	-4047
edes	-4048
illes	-4049
▁total	-4050
▁independ	-4051
がある	-4052
▁2012?	-4053
▁early	-4054
▁القوات	-4055
▁Arsenal	-4056
ミー	-4057
lia	-4058
íst	-4059
نيسة	-4060
▁nouve	-4061
isl	-4062
▁الموا	-4063
▁quanti	-4064
のは何	-4065
▁rece	-4066
▁التج	-4067
▁Neumann	-4068
▁governo	-4069
▁fonction	-4070
▁XX	-4071
▁Burke	-4072
▁común	-4073
gyp	-4074
met	-4075
pol	-4076
âge	-4077
osci	-4078
uten	-4079
ملكة	-4080
▁nuo	-4081
uerto	-4082
▁Groß	-4083
▁cette	-4084
yd	-4085
رح	-4086
▁ضد	-4087
ennen	-4088
▁المج	-4089
▁númer	-4090
▁offer	-4091
▁البريط	-4092
めて	-4093
▁ju	-4094
zeit	-4095
▁أول	-4096
▁Norfolk	-4097
rest	-4098
▁BBC	-4099
▁FBI	-4100
▁ber	-4101
▁créé	-4102
▁redu	-4103
▁countries	-4104
▁لع	-4105
enna	-4106
ibles	-4107
istan	-4108
bracht	-4109
▁often	-4110
▁dispon	-4111
▁الثاني	-4112
apt	-4113
ارع	-4114
لية	-4115
ardin	-4116
▁edad	-4117
▁parl	-4118
قط	-4119
وى	-4120
ald	-4121
▁nei	-4122
▁cell	-4123
▁expl	-4124
▁mult	-4125
▁team	-4126
▁School	-4127
▁product	-4128
▁المجموعة	-4129
gar	-4130
ivi	-4131
دول	-4132
した人	-4133
▁hic	-4134
ision	-4135
laubt	-4136
usion	-4137
▁واحد	-4138
▁large	-4139
▁equipo	-4140
タイ	-4141
ポー	-4142
rag	-4143
▁Pe	-4144
▁188	-4145
▁Gal	-4146
▁tan	-4147
▁sour	-4148
▁マ	-4149
ulo	-4150
▁only	-4151
ST	-4152
فق	-4153
▁Af	-4154
chie	-4155
neur	-4156
何年のこと	-4157
▁nuevo	-4158
▁treat	-4159
▁الثانية	-4160
▁utilizzato	-4161
ecn	-4162
▁ol	-4163
▁بت	-4164
▁mej	-4165
▁عرض	-4166
▁2014?	-4167
▁incre	-4168
▁invol	-4169
▁Grande	-4170
▁weiter	-4171
بع	-4172
تها	-4173
▁King	-4174
▁Royal	-4175
▁civil	-4176
▁acuerdo	-4177
▁document	-4178
▁cam	-4179
▁Secon	-4180
▁conse	-4181
▁Alaska	-4182
▁machen	-4183
▁partir	-4184
▁material	-4185
▁الامبراطورية	-4186
vir	-4187
▁Ma	-4188
anos	-4189
▁Nel	-4190
▁Str	-4191
▁الض	-4192
igine	-4193
orben	-4194
▁Park	-4195
▁الجنوب	-4196
off	-4197
▁Cu	-4198
▁الالم	-4199
フィ	-4200
aba	-4201
nis	-4202
▁تكون	-4203
▁obten	-4204
▁nacional	-4205
ラー	-4206
ira	-4207
ode	-4208
▁LED	-4209
▁1990	-4210
▁Form	-4211
▁ital	-4212
▁dynast	-4213
▁against	-4214
'?	-4215
où	-4216
َن	-4217
ypt	-4218
▁pur	-4219
▁شخص	-4220
▁dijo	-4221
▁lleg	-4222
▁أكبر	-4223
▁examp	-4224
▁objet	-4225
▁podría	-4226
▁produit	-4227
eo	-4228
ilo	-4229
▁له	-4230
とは何	-4231
▁ayud	-4232
▁Valencia	-4233
▁football	-4234
▁185	-4235
ender	-4236
▁dirig	-4237
gestellt	-4238
طن	-4239
tto	-4240
▁اص	-4241
▁Vor	-4242
▁مَن	-4243
▁Musik	-4244
▁العديد	-4245
enschaft	-4246
irtschaft	-4247
▁remporté	-4248
フォ	-4249
ヴィ	-4250
大き	-4251
▁Do	-4252
ución	-4253
idades	-4254
▁ingles	-4255
都市	-4256
lay	-4257
▁ru	-4258
ussi	-4259
çais	-4260
▁dig	-4261
▁perd	-4262
verton	-4263
▁parti	-4264
▁secon	-4265
▁المنطقة	-4266
多く	-4267
nent	-4268
▁sens	-4269
▁musul	-4270
▁gebaut	-4271
▁zurück	-4272
▁souvent	-4273
▁Barcelona	-4274
çu	-4275
漱石	-4276
داد	-4277
ويل	-4278
ende	-4279
eros	-4280
▁189	-4281
ichte	-4282
▁letz	-4283
何年ですか	-4284
▁القانون	-4285
BM	-4286
Pro	-4287
ديو	-4288
▁Ba	-4289
alth	-4290
isti	-4291
▁model	-4292
▁estudi	-4293
▁periodo	-4294
▁responsable	-4295
▁fav	-4296
▁بان	-4297
ences	-4298
▁book	-4299
▁colle	-4300
▁gagné	-4301
▁escrit	-4302
▁premio	-4303
▁الأمريكية	-4304
كمة	-4305
ياب	-4306
درسة	-4307
▁وضع	-4308
rench	-4309
▁comer	-4310
▁instr	-4311
▁quant	-4312
▁appelé	-4313
▁numero	-4314
▁imperio	-4315
▁Ur	-4316
ours	-4317
rain	-4318
ونسي	-4319
▁علم	-4320
iblio	-4321
▁also	-4322
▁apoy	-4323
▁empres	-4324
ains	-4325
▁arte	-4326
▁cens	-4327
ograph	-4328
oper	-4329
▁Namib	-4330
▁happen	-4331
▁日本	-4332
uses	-4333
▁-	-4334
itor	-4335
▁fall	-4336
▁lung	-4337
▁ejemp	-4338
▁قانون	-4339
ification	-4340
lik	-4341
nam	-4342
imat	-4343
ختلف	-4344
▁fab	-4345
itzer	-4346
▁dall	-4347
طار	-4348
ليز	-4349
ison	-4350
ress	-4351
▁sum	-4352
itions	-4353
▁James	-4354
▁plant	-4355
▁compet	-4356
▁oficial	-4357
TV	-4358
aw	-4359
اة	-4360
mat	-4361
vin	-4362
uman	-4363
ystem	-4364
▁arriv	-4365
YU	-4366
▁sans	-4367
tempor	-4368
▁child	-4369
▁liber	-4370
▁States	-4371
▁gobern	-4372
▁trabaj	-4373
asa	-4374
تبار	-4375
rough	-4376
▁Berm	-4377
▁الاع	-4378
western	-4379
▁propor	-4380
▁mundial	-4381
غي	-4382
人の	-4383
éro	-4384
▁einz	-4385
▁اصبح	-4386
▁التع	-4387
▁باسم	-4388
りましたか	-4389
ontrol	-4390
▁spiel	-4391
▁الغرب	-4392
▁Kirche	-4393
▁iglesia	-4394
app	-4395
▁na	-4396
▁مك	-4397
▁but	-4398
▁ged	-4399
▁Guerra	-4400
▁Charles	-4401
▁convert	-4402
▁victoria	-4403
وح	-4404
▁دا	-4405
▁Arm	-4406
▁far	-4407
▁san	-4408
▁Vers	-4409
▁French	-4410
▁travail	-4411
او	-4412
uni	-4413
قيق	-4414
▁Tod	-4415
ispiel	-4416
▁الحكومة	-4417
yó	-4418
ava	-4419
line	-4420
▁Haupt	-4421
▁الشمالية	-4422
loy	-4423
uti	-4424
▁noch	-4425
▁Beispiel	-4426
▁hicieron	-4427
ños	-4428
بال	-4429
taña	-4430
ères	-4431
▁Act	-4432
inten	-4433
طي	-4434
▁pú	-4435
▁Ass	-4436
▁BYU	-4437
▁حول	-4438
▁قدم	-4439
iforn	-4440
ontin	-4441
▁Wort	-4442
▁forme	-4443
▁territor	-4444
▁Di	-4445
ules	-4446
▁wen	-4447
▁algunos	-4448
cs	-4449
isé	-4450
فاع	-4451
anst	-4452
▁نيو	-4453
▁bata	-4454
▁البر	-4455
▁الروم	-4456
▁declar	-4457
iendo	-4458
▁Flor	-4459
lantic	-4460
▁الحدي	-4461
▁Guerre	-4462
▁chopin	-4463
▁Nanjing	-4464
▁frances	-4465
ابق	-4466
وتر	-4467
▁loi	-4468
▁nouv	-4469
iversité	-4470
سيس	-4471
wort	-4472
ليون	-4473
▁pra	-4474
▁كتاب	-4475
▁quart	-4476
atum	-4477
▁Kar	-4478
なかった	-4479
round	-4480
itaire	-4481
▁catal	-4482
▁disco	-4483
▁Canada	-4484
▁الاكثر	-4485
▁primero	-4486
▁stagione	-4487
▁Mil	-4488
▁moy	-4489
▁بسبب	-4490
Empire	-4491
▁attra	-4492
▁donné	-4493
▁otros	-4494
▁gesagt	-4495
izzazione	-4496
هام	-4497
ような	-4498
idge	-4499
▁rad	-4500
▁ment	-4501
▁Saint	-4502
▁conne	-4503
▁aument	-4504
▁entwickelt	-4505
für	-4506
oli	-4507
äre	-4508
auft	-4509
▁Mal	-4510
enten	-4511
estic	-4512
▁anal	-4513
ttoman	-4514
▁dinast	-4515
▁Hyderabad	-4516
会社	-4517
▁حق	-4518
ivos	-4519
utes	-4520
▁produz	-4521
▁international	-4522
でし	-4523
hor	-4524
において	-4525
essen	-4526
▁2004	-4527
いつですか	-4528
▁estim	-4529
▁ferro	-4530
▁During	-4531
icamente	-4532
▁complet	-4533
▁ho	-4534
ogen	-4535
▁Unt	-4536
▁cru	-4537
▁tub	-4538
▁1980	-4539
▁Nept	-4540
一番	-4541
▁المؤ	-4542
▁quest	-4543
▁element	-4544
of	-4545
rei	-4546
eron	-4547
ديدة	-4548
▁الوح	-4549
▁Mexico	-4550
▁welches	-4551
▁president	-4552
بة	-4553
han	-4554
الث	-4555
رير	-4556
ったか	-4557
atro	-4558
fall	-4559
▁amb	-4560
▁uff	-4561
▁joué	-4562
▁muer	-4563
▁كانوا	-4564
▁könnte	-4565
どれ	-4566
ニー	-4567
ift	-4568
يادة	-4569
▁day	-4570
▁dim	-4571
▁tar	-4572
▁اذا	-4573
anden	-4574
▁prat	-4575
▁usato	-4576
▁الانج	-4577
ウル	-4578
▁ري	-4579
▁Rus	-4580
▁sir	-4581
▁المم	-4582
▁Olymp	-4583
▁compañ	-4584
En	-4585
ょう	-4586
ジャ	-4587
atos	-4588
ktur	-4589
▁اخت	-4590
▁شكل	-4591
のほかに	-4592
▁cuál	-4593
▁الرا	-4594
▁festival	-4595
くら	-4596
時代	-4597
vas	-4598
▁dio	-4599
だったの	-4600
emente	-4601
▁Reich	-4602
▁roman	-4603
▁Grecia	-4604
▁traité	-4605
▁Gaddafi	-4606
▁&	-4607
とも	-4608
への	-4609
ban	-4610
▁ات	-4611
▁اد	-4612
zung	-4613
▁merc	-4614
▁heißt	-4615
▁occur	-4616
▁البلد	-4617
▁seiner	-4618
▁erhalten	-4619
▁الموسيقى	-4620
una	-4621
uro	-4622
iani	-4623
ibil	-4624
▁afr	-4625
▁enf	-4626
▁appar	-4627
▁الشرق	-4628
▁membres	-4629
▁determin	-4630
▁investig	-4631
auf	-4632
ête	-4633
されたか	-4634
aille	-4635
▁fort	-4636
▁مجلس	-4637
▁الحيو	-4638
▁demand	-4639
cie	-4640
زال	-4641
,000	-4642
schn	-4643
▁حرب	-4644
ances	-4645
ancia	-4646
▁ethn	-4647
▁Union	-4648
intendo	-4649
▁comple	-4650
ym	-4651
yr	-4652
ندية	-4653
▁Pap	-4654
▁hom	-4655
フランス	-4656
ically	-4657
▁invas	-4658
▁statt	-4659
▁Frédéric	-4660
▁edificio	-4661
lob	-4662
قتص	-4663
▁Go	-4664
▁186	-4665
▁ban	-4666
でしょう	-4667
▁Greek	-4668
▁الدين	-4669
▁transm	-4670
▁Deutsch	-4671
▁architect	-4672
くな	-4673
と何	-4674
cir	-4675
▁ni	-4676
▁III	-4677
▁يقع	-4678
▁isla	-4679
▁pred	-4680
▁tecn	-4681
▁local	-4682
▁mandol	-4683
▁identif	-4684
初めて	-4685
stadt	-4686
Cuántos	-4687
▁derech	-4688
▁Pendant	-4689
▁palabra	-4690
▁الاوروب	-4691
idd	-4692
île	-4693
ört	-4694
leur	-4695
▁Tex	-4696
▁sug	-4697
▁فعل	-4698
ights	-4699
▁1970	-4700
فع	-4701
uls	-4702
uno	-4703
وقف	-4704
▁Bl	-4705
iten	-4706
▁Far	-4707
▁cod	-4708
▁القدم	-4709
fü	-4710
زب	-4711
▁HD	-4712
etta	-4713
tres	-4714
▁مثل	-4715
وروبا	-4716
▁بوصف	-4717
▁devenu	-4718
zeichnet	-4719
▁central	-4720
▁federal	-4721
BA	-4722
غير	-4723
▁Pf	-4724
▁حا	-4725
reib	-4726
▁bor	-4727
gment	-4728
▁sost	-4729
▁جميع	-4730
▁Mitgl	-4731
▁début	-4732
▁líder	-4733
▁terre	-4734
▁before	-4735
▁lavoro	-4736
▁الاولى	-4737
▁الكتاب	-4738
▁financi	-4739
akt	-4740
val	-4741
ired	-4742
▁dém	-4743
▁fut	-4744
▁hal	-4745
▁font	-4746
▁prog	-4747
▁rock	-4748
▁كبير	-4749
▁groupes	-4750
سر	-4751
▁rè	-4752
▁ég	-4753
▁شي	-4754
▁فر	-4755
▁Met	-4756
▁amp	-4757
iedad	-4758
iness	-4759
▁Alex	-4760
▁last	-4761
▁aveva	-4762
▁tradu	-4763
▁verbunden	-4764
シュ	-4765
وبان	-4766
▁uran	-4767
▁house	-4768
▁الطاقة	-4769
▁unterstüt	-4770
▁É	-4771
ahre	-4772
▁الفرن	-4773
▁واحدة	-4774
▁church	-4775
▁compon	-4776
ضم	-4777
侵攻	-4778
ería	-4779
itto	-4780
▁Bes	-4781
acion	-4782
▁Cour	-4783
▁tent	-4784
▁Monte	-4785
▁Namen	-4786
▁fecha	-4787
▁اليها	-4788
▁ولاية	-4789
▁forces	-4790
▁secondo	-4791
を何	-4792
ause	-4793
emás	-4794
ريكا	-4795
▁gar	-4796
▁نها	-4797
行われた	-4798
▁held	-4799
▁rice	-4800
altung	-4801
▁cours	-4802
▁study	-4803
مية	-4804
▁سن	-4805
▁sac	-4806
▁لمن	-4807
▁مات	-4808
pielt	-4809
▁firm	-4810
されている	-4811
▁número	-4812
▁principales	-4813
ece	-4814
olé	-4815
ارج	-4816
▁Empire	-4817
▁moderne	-4818
ene	-4819
▁UN	-4820
cific	-4821
cript	-4822
ected	-4823
كتوريا	-4824
▁Insel	-4825
▁aerop	-4826
▁würde	-4827
لاف	-4828
adem	-4829
ager	-4830
▁Ist	-4831
étique	-4832
▁allow	-4833
iennent	-4834
▁distin	-4835
▁number	-4836
▁pouvoir	-4837
▁bataille	-4838
▁Unternehmen	-4839
né	-4840
れる	-4841
esp	-4842
▁ra	-4843
fect	-4844
prün	-4845
utch	-4846
▁cub	-4847
▁fra	-4848
▁teor	-4849
▁المد	-4850
urrent	-4851
▁Spect	-4852
▁inclu	-4853
▁point	-4854
▁Albert	-4855
▁chaque	-4856
Or	-4857
番目	-4858
▁cél	-4859
▁rus	-4860
▁vari	-4861
▁recon	-4862
icación	-4863
▁struct	-4864
ける	-4865
eta	-4866
▁Kat	-4867
▁rich	-4868
▁الاد	-4869
▁Relig	-4870
▁polic	-4871
▁الياب	-4872
▁caused	-4873
▁quanto	-4874
eum	-4875
vés	-4876
▁bajo	-4877
ulaire	-4878
▁campus	-4879
ky	-4880
يدر	-4881
اسية	-4882
▁mac	-4883
▁ارس	-4884
▁zinc	-4885
▁dello	-4886
▁relations	-4887
جة	-4888
كرة	-4889
لعب	-4890
▁ub	-4891
ling	-4892
onom	-4893
▁prob	-4894
▁influen	-4895
kr	-4896
ソ連	-4897
äuf	-4898
سات	-4899
كار	-4900
وما	-4901
olle	-4902
اهدة	-4903
▁asc	-4904
▁urs	-4905
▁idea	-4906
▁sosten	-4907
▁through	-4908
▁ib	-4909
▁día	-4910
istor	-4911
wards	-4912
▁Perché	-4913
▁region	-4914
▁gespielt	-4915
ney	-4916
وار	-4917
▁وا	-4918
最初の	-4919
▁نفس	-4920
emple	-4921
▁tierra	-4922
▁William	-4923
▁tratado	-4924
▁conocido	-4925
▁utilizan	-4926
lish	-4927
èmes	-4928
lassen	-4929
▁raison	-4930
▁political	-4931
▁os	-4932
▁ze	-4933
غيير	-4934
▁pasó	-4935
▁アメリカ	-4936
ويس	-4937
▁Zu	-4938
▁ger	-4939
▁pag	-4940
ielle	-4941
▁agen	-4942
▁otra	-4943
▁macht	-4944
▁يعتبر	-4945
طق	-4946
▁Bu	-4947
ford	-4948
ieme	-4949
عليم	-4950
▁gla	-4951
だったか	-4952
▁ejér	-4953
ていましたか	-4954
▁adoles	-4955
▁dirige	-4956
▁aufgenommen	-4957
CA	-4958
iat	-4959
unta	-4960
اصمة	-4961
▁Fam	-4962
▁roi	-4963
▁Mich	-4964
▁أطول	-4965
▁aspect	-4966
▁segunda	-4967
▁certains	-4968
iza	-4969
▁بم	-4970
▁تط	-4971
erca	-4972
itté	-4973
▁قال	-4974
venue	-4975
▁rang	-4976
▁House	-4977
▁Charleston	-4978
この	-4979
ンが	-4980
bel	-4981
dem	-4982
ؤول	-4983
ough	-4984
رنسا	-4985
aggio	-4986
▁Stato	-4987
▁liter	-4988
▁مصطلح	-4989
▁concent	-4990
シャ	-4991
国は	-4992
egn	-4993
qué	-4994
▁Tw	-4995
iore	-4996
▁Bür	-4997
atter	-4998
ierten	-4999
▁2006?	-5000
▁großen	-5001
▁tribun	-5002
▁continent	-5003
▁proporcion	-5004
azi	-5005
rich	-5006
äten	-5007
▁Bere	-5008
▁chef	-5009
▁mean	-5010
▁canad	-5011
グラ	-5012
生ま	-5013
occ	-5014
▁المف	-5015
▁antib	-5016
▁Marvel	-5017
▁perman	-5018
との	-5019
دية	-5020
ピック	-5021
▁Hel	-5022
▁gab	-5023
▁كرة	-5024
▁neue	-5025
▁Gramm	-5026
▁Oltre	-5027
▁creato	-5028
oni	-5029
ミー賞	-5030
ählt	-5031
▁Fin	-5032
▁Hen	-5033
▁alt	-5034
igung	-5035
poque	-5036
▁capt	-5037
estaur	-5038
▁continu	-5039
▁contempor	-5040
رتب	-5041
がより	-5042
orme	-5043
ouis	-5044
اليا	-5045
▁Res	-5046
▁erh	-5047
▁ucc	-5048
▁Span	-5049
▁peup	-5050
schnitt	-5051
▁déclar	-5052
▁Estonia	-5053
▁military	-5054
▁desarroll	-5055
人口	-5056
ided	-5057
▁Nue	-5058
▁فيه	-5059
されたの	-5060
▁Stra	-5061
outube	-5062
▁neces	-5063
▁bacter	-5064
▁Spectre	-5065
▁batalla	-5066
でき	-5067
سيح	-5068
▁Si	-5069
الات	-5070
▁dés	-5071
itato	-5072
▁mais	-5073
▁built	-5074
▁incor	-5075
▁étudi	-5076
▁stabil	-5077
▁aliment	-5078
▁possono	-5079
▁production	-5080
قع	-5081
eri	-5082
ندن	-5083
▁ún	-5084
▁Jew	-5085
▁Lut	-5086
▁fine	-5087
▁zone	-5088
autres	-5089
▁Schla	-5090
▁tratt	-5091
ós	-5092
▁hin	-5093
▁High	-5094
▁tres	-5095
▁Staat	-5096
▁Saison	-5097
▁actual	-5098
▁publié	-5099
▁single	-5100
issenschaft	-5101
FA	-5102
لاح	-5103
▁abs	-5104
▁cot	-5105
▁var	-5106
▁blan	-5107
▁cuer	-5108
▁song	-5109
▁لندن	-5110
▁Chine	-5111
▁reino	-5112
▁resident	-5113
▁فيكتوريا	-5114
óm	-5115
öm	-5116
زن	-5117
مي	-5118
vor	-5119
oten	-5120
tens	-5121
▁DST	-5122
▁nut	-5123
▁قاد	-5124
▁clas	-5125
▁لاول	-5126
▁النظام	-5127
▁official	-5128
▁エ	-5129
事件	-5130
発生	-5131
nel	-5132
yth	-5133
zeug	-5134
بتون	-5135
راسة	-5136
▁foc	-5137
▁نشر	-5138
terre	-5139
▁حصلت	-5140
iennes	-5141
▁الشخص	-5142
▁proces	-5143
ハン	-5144
▁Lo	-5145
▁XI	-5146
olar	-5147
▁Club	-5148
▁sede	-5149
▁السن	-5150
▁Imper	-5151
▁china	-5152
▁habit	-5153
んだ	-5154
كيل	-5155
ulen	-5156
ريقة	-5157
▁run	-5158
▁gens	-5159
▁Canad	-5160
▁austr	-5161
▁System	-5162
ró	-5163
uj	-5164
▁tom	-5165
weise	-5166
▁انها	-5167
▁death	-5168
inación	-5169
▁interp	-5170
▁menudo	-5171
トル	-5172
org	-5173
unic	-5174
▁Spe	-5175
lique	-5176
orden	-5177
▁Rome	-5178
▁angla	-5179
▁orden	-5180
▁filoso	-5181
▁ursprün	-5182
▁premiers	-5183
نت	-5184
の方	-5185
スタ	-5186
ッド	-5187
tog	-5188
ائل	-5189
▁ps	-5190
リンピック	-5191
▁solar	-5192
▁centre	-5193
▁similar	-5194
▁success	-5195
201	-5196
امج	-5197
سمح	-5198
olit	-5199
▁Tag	-5200
▁hol	-5201
▁attr	-5202
▁höch	-5203
▁وفقا	-5204
▁posit	-5205
▁الاصل	-5206
▁الانس	-5207
▁religi	-5208
▁released	-5209
▁construction	-5210
させ	-5211
arn	-5212
iety	-5213
ought	-5214
ليزية	-5215
▁cree	-5216
▁live	-5217
▁patr	-5218
▁will	-5219
▁تسمى	-5220
▁three	-5221
ización	-5222
▁einige	-5223
gleterre	-5224
▁società	-5225
チャ	-5226
fte	-5227
▁vida	-5228
▁بناء	-5229
▁became	-5230
ikanischen	-5231
bro	-5232
endo	-5233
itute	-5234
▁agric	-5235
▁veces	-5236
▁cultura	-5237
▁European	-5238
▁utilisée	-5239
▁verursacht	-5240
adr	-5241
▁AC	-5242
rote	-5243
vuto	-5244
دارس	-5245
oléon	-5246
▁évén	-5247
▁based	-5248
▁islam	-5249
▁mejor	-5250
cciones	-5251
zz	-5252
hib	-5253
ياء	-5254
▁old	-5255
▁gioc	-5256
▁condens	-5257
▁members	-5258
▁Australia	-5259
▁Frankreich	-5260
ât	-5261
üs	-5262
▁By	-5263
▁Sun	-5264
▁anc	-5265
▁own	-5266
inese	-5267
▁conosci	-5268
大学	-5269
ipp	-5270
▁call	-5271
▁élev	-5272
▁anche	-5273
▁البرت	-5274
▁Irland	-5275
▁altern	-5276
▁change	-5277
▁pubblicato	-5278
The	-5279
ieg	-5280
▁تد	-5281
fico	-5282
iera	-5283
▁181	-5284
▁ans	-5285
▁geg	-5286
▁jeu	-5287
▁الموج	-5288
▁energía	-5289
▁Atlantic	-5290
▁caracter	-5291
アル	-5292
erb	-5293
brit	-5294
itel	-5295
▁Dis	-5296
▁abb	-5297
▁akt	-5298
issau	-5299
▁الاب	-5300
▁2005?	-5301
▁Church	-5302
▁elimin	-5303
▁offizi	-5304
▁believe	-5305
50	-5306
óg	-5307
カー	-5308
دمة	-5309
طلق	-5310
itar	-5311
▁Acc	-5312
▁Jes	-5313
▁Jud	-5314
vision	-5315
▁emper	-5316
▁haven	-5317
▁stand	-5318
▁اصبحت	-5319
اث	-5320
めた	-5321
建設	-5322
ahl	-5323
azz	-5324
tri	-5325
zös	-5326
سون	-5327
▁للح	-5328
organ	-5329
ossen	-5330
قاطعة	-5331
▁dipl	-5332
▁يحدث	-5333
▁frequ	-5334
▁punto	-5335
▁water	-5336
▁founded	-5337
▁compañía	-5338
▁profession	-5339
PA	-5340
ty	-5341
utet	-5342
▁ces	-5343
▁río	-5344
laves	-5345
▁cada	-5346
▁russ	-5347
▁Nueva	-5348
▁diese	-5349
▁probl	-5350
▁attack	-5351
▁disposit	-5352
ór	-5353
تل	-5354
何を	-5355
ull	-5356
نيف	-5357
▁sm	-5358
▁Cre	-5359
press	-5360
▁الري	-5361
▁اليوم	-5362
antwort	-5363
▁describe	-5364
▁historia	-5365
▁Universal	-5366
▁représent	-5367
فا	-5368
äch	-5369
دود	-5370
▁PS	-5371
▁IBM	-5372
▁Ins	-5373
▁eng	-5374
▁osp	-5375
▁rey	-5376
▁sov	-5377
▁Grie	-5378
▁Kong	-5379
▁اخرى	-5380
▁والت	-5381
Bissau	-5382
▁Jahre	-5383
▁europé	-5384
▁groups	-5385
▁Feynman	-5386
▁conserv	-5387
dec	-5388
▁يد	-5389
▁توف	-5390
▁coup	-5391
▁chino	-5392
▁morte	-5393
▁gebracht	-5394
طر	-5395
irk	-5396
vah	-5397
culo	-5398
ined	-5399
وسيا	-5400
▁Mod	-5401
▁USB	-5402
ftware	-5403
▁Datum	-5404
▁Islam	-5405
▁given	-5406
▁papel	-5407
▁Gesetz	-5408
▁nouveau	-5409
▁registr	-5410
▁ejército	-5411
ルー	-5412
اعة	-5413
▁ve	-5414
onie	-5415
▁obs	-5416
▁نهر	-5417
▁open	-5418
▁champ	-5419
▁العلم	-5420
▁dieser	-5421
▁regard	-5422
帝国	-5423
ark	-5424
cis	-5425
ogn	-5426
راع	-5427
ache	-5428
bros	-5429
▁ril	-5430
▁جون	-5431
emble	-5432
▁Ingl	-5433
▁prix	-5434
idence	-5435
▁Grund	-5436
▁video	-5437
▁meille	-5438
▁présent	-5439
▁français	-5440
▁personne	-5441
▁Königreich	-5442
ffen	-5443
▁Sal	-5444
▁rép	-5445
▁Coun	-5446
aterra	-5447
▁moins	-5448
▁تفعله	-5449
▁segundo	-5450
su	-5451
▁イ	-5452
tagl	-5453
▁kon	-5454
▁Rock	-5455
▁bien	-5456
▁trov	-5457
▁verl	-5458
landais	-5459
صة	-5460
▁2001	-5461
▁back	-5462
▁bran	-5463
▁decl	-5464
tement	-5465
vaient	-5466
▁accus	-5467
▁artic	-5468
▁studio	-5469
▁Company	-5470
▁التاريخ	-5471
▁Inglaterra	-5472
شل	-5473
軍が	-5474
III	-5475
▁مث	-5476
arts	-5477
inea	-5478
ness	-5479
▁شعب	-5480
▁manif	-5481
▁concern	-5482
▁natural	-5483
يح	-5484
▁Seg	-5485
▁عمر	-5486
▁1940	-5487
▁head	-5488
ietnam	-5489
▁legge	-5490
▁murió	-5491
▁island	-5492
issement	-5493
▁organism	-5494
▁transport	-5495
ダム	-5496
zza	-5497
مان	-5498
ورن	-5499
aden	-5500
iapp	-5501
▁spé	-5502
▁tít	-5503
▁cris	-5504
▁phys	-5505
▁Louis	-5506
▁favor	-5507
▁تاسيس	-5508
▁فرنسا	-5509
▁اليهود	-5510
を行	-5511
فاق	-5512
▁Kr	-5513
▁og	-5514
häng	-5515
lior	-5516
onda	-5517
▁dif	-5518
▁bede	-5519
▁líne	-5520
▁juego	-5521
▁calend	-5522
éle	-5523
ords	-5524
orso	-5525
▁sit	-5526
▁Roma	-5527
▁dirit	-5528
▁trouvent	-5529
▁Weltkrieg	-5530
▁ウ	-5531
oca	-5532
زيل	-5533
▁NA	-5534
▁PC	-5535
ーパー	-5536
eria	-5537
▁Dem	-5538
▁pes	-5539
▁roy	-5540
▁réc	-5541
▁miss	-5542
▁الاغ	-5543
▁شوبان	-5544
▁General	-5545
▁Napoléon	-5546
▁commerci	-5547
nah	-5548
يست	-5549
ennt	-5550
ارية	-5551
▁dog	-5552
▁wrote	-5553
▁permit	-5554
21	-5555
オー	-5556
ロッ	-5557
orb	-5558
▁Gl	-5559
ilia	-5560
▁Mess	-5561
▁بشان	-5562
▁hecho	-5563
▁gestorben	-5564
ローマ	-5565
itos	-5566
▁Mag	-5567
▁lum	-5568
▁درج	-5569
▁Plan	-5570
▁modo	-5571
▁vent	-5572
▁2000?	-5573
▁Dutch	-5574
▁adult	-5575
▁armen	-5576
▁Person	-5577
▁concer	-5578
▁اوروبا	-5579
▁different	-5580
تى	-5581
サン	-5582
条約	-5583
umb	-5584
راد	-5585
واس	-5586
hung	-5587
èces	-5588
▁Aug	-5589
armée	-5590
▁2020	-5591
▁chans	-5592
▁muerte	-5593
▁Comcast	-5594
▁formato	-5595
jer	-5596
med	-5597
tera	-5598
zion	-5599
▁Bei	-5600
▁abr	-5601
▁set	-5602
▁sop	-5603
▁Fort	-5604
▁Selon	-5605
▁concl	-5606
▁direct	-5607
▁finanz	-5608
▁grupos	-5609
▁الوطني	-5610
▁feature	-5611
▁station	-5612
▁miembros	-5613
▁established	-5614
aggi	-5615
▁down	-5616
▁nomm	-5617
ポーランド	-5618
جموعات	-5619
▁consum	-5620
▁América	-5621
▁Vertrag	-5622
▁partido	-5623
ificación	-5624
▁Nintendo	-5625
Am	-5626
غو	-5627
iko	-5628
ogo	-5629
▁No	-5630
▁صنع	-5631
▁يوم	-5632
ittel	-5633
▁Sich	-5634
▁ense	-5635
▁soll	-5636
▁solo	-5637
▁tend	-5638
uzione	-5639
▁passé	-5640
▁species	-5641
▁cantidad	-5642
▁généralement	-5643
يه	-5644
▁:	-5645
その	-5646
ful	-5647
▁Ré	-5648
▁mic	-5649
▁pun	-5650
earch	-5651
▁body	-5652
▁them	-5653
▁منها	-5654
icenna	-5655
▁todos	-5656
▁scientif	-5657
▁diventato	-5658
当時	-5659
hol	-5660
يار	-5661
▁مج	-5662
bles	-5663
blig	-5664
▁Bra	-5665
▁gol	-5666
▁vic	-5667
ories	-5668
▁drei	-5669
▁idol	-5670
▁whom	-5671
▁اعلى	-5672
▁بريط	-5673
▁había	-5674
▁famoso	-5675
ード	-5676
eno	-5677
rent	-5678
ائية	-5679
ولوج	-5680
▁عقد	-5681
▁ناب	-5682
▁يعمل	-5683
aleigh	-5684
▁Trans	-5685
▁rifer	-5686
▁Thomas	-5687
▁satell	-5688
Te	-5689
ähn	-5690
▁ál	-5691
▁Pun	-5692
▁pen	-5693
▁verd	-5694
▁titre	-5695
▁portug	-5696
▁región	-5697
▁Football	-5698
▁Griechen	-5699
▁considéré	-5700
aro	-5701
irs	-5702
allo	-5703
omat	-5704
▁dai	-5705
▁kle	-5706
▁appe	-5707
▁impl	-5708
▁verk	-5709
▁north	-5710
▁otten	-5711
▁police	-5712
キャ	-5713
何の	-5714
har	-5715
vió	-5716
ئية	-5717
وجد	-5718
Amer	-5719
work	-5720
▁Han	-5721
▁Pre	-5722
▁Bowl	-5723
▁Cork	-5724
▁Roya	-5725
رو	-5726
asth	-5727
very	-5728
بيرة	-5729
▁Dav	-5730
▁حكم	-5731
▁agua	-5732
▁esemp	-5733
▁القدي	-5734
▁نهاية	-5735
vention	-5736
▁classe	-5737
▁través	-5738
▁العثور	-5739
▁britannique	-5740
gef	-5741
جوم	-5742
نان	-5743
▁Jo	-5744
▁ém	-5745
unde	-5746
▁cerc	-5747
▁view	-5748
ologia	-5749
▁largo	-5750
▁mujer	-5751
▁current	-5752
▁utilisés	-5753
始ま	-5754
ods	-5755
ياة	-5756
▁Kan	-5757
▁bât	-5758
aften	-5759
aiser	-5760
▁aper	-5761
▁home	-5762
▁sovi	-5763
▁دولة	-5764
encias	-5765
▁match	-5766
▁álbum	-5767
origine	-5768
▁convirt	-5769
18	-5770
lag	-5771
داء	-5772
あった	-5773
で最も	-5774
vest	-5775
っていた	-5776
aster	-5777
iland	-5778
▁hold	-5779
▁يعرف	-5780
▁mostr	-5781
dom	-5782
ارد	-5783
اصر	-5784
▁vu	-5785
omet	-5786
quel	-5787
assen	-5788
▁each	-5789
▁altri	-5790
▁campo	-5791
▁paesi	-5792
▁recib	-5793
▁depart	-5794
▁scuola	-5795
▁المعروف	-5796
▁المملكة	-5797
▁المستخدم	-5798
▁américaine	-5799
هة	-5800
Sch	-5801
を受け	-5802
odox	-5803
▁cit	-5804
ables	-5805
▁2003	-5806
▁joue	-5807
▁التص	-5808
▁المز	-5809
▁Straß	-5810
▁fréqu	-5811
▁hacen	-5812
▁ihren	-5813
▁padre	-5814
▁série	-5815
▁beiden	-5816
▁energy	-5817
▁format	-5818
▁Napoleón	-5819
▁contrôle	-5820
alk	-5821
ids	-5822
▁Em	-5823
▁تب	-5824
abil	-5825
rach	-5826
▁حتى	-5827
alter	-5828
icago	-5829
ouver	-5830
جلترا	-5831
▁Inter	-5832
▁decis	-5833
▁haute	-5834
▁rilas	-5835
osition	-5836
▁depuis	-5837
▁juegos	-5838
▁Royaume	-5839
▁seconda	-5840
▁البريطانية	-5841
ルの	-5842
فين	-5843
glés	-5844
▁gas	-5845
▁actu	-5846
▁fare	-5847
▁tous	-5848
▁جنوب	-5849
▁nuovo	-5850
▁sorti	-5851
オリンピック	-5852
▁grandi	-5853
▁الملكة	-5854
▁Namibia	-5855
SA	-5856
を受賞	-5857
▁Jul	-5858
▁Nob	-5859
▁lég	-5860
▁sym	-5861
▁tot	-5862
▁كار	-5863
どの国の	-5864
ibile	-5865
خابات	-5866
▁need	-5867
▁light	-5868
▁seinen	-5869
▁Gericht	-5870
▁svilupp	-5871
▁Schlacht	-5872
▁musulman	-5873
▁Northwestern	-5874
ضر	-5875
誰か	-5876
èce	-5877
جيل	-5878
يفة	-5879
يريا	-5880
となった	-5881
coles	-5882
onais	-5883
▁Bern	-5884
▁Kath	-5885
▁segu	-5886
ported	-5887
quelle	-5888
▁Produ	-5889
▁State	-5890
▁Birman	-5891
▁Bürger	-5892
▁animal	-5893
▁augment	-5894
▁Organisation	-5895
mee	-5896
ロシア	-5897
▁Lee	-5898
blico	-5899
otion	-5900
▁coll	-5901
▁grec	-5902
▁الفر	-5903
▁الارض	-5904
▁inglés	-5905
▁المسيح	-5906
▁conflic	-5907
▁parties	-5908
▁version	-5909
út	-5910
rio	-5911
adra	-5912
alen	-5913
izia	-5914
どの国か	-5915
térie	-5916
▁fium	-5917
▁usar	-5918
▁تسبب	-5919
uments	-5920
▁states	-5921
▁الجوية	-5922
▁بوصفها	-5923
▁معاهدة	-5924
▁problema	-5925
وست	-5926
atif	-5927
▁Süd	-5928
▁bit	-5929
▁sag	-5930
▁rule	-5931
▁tener	-5932
pression	-5933
▁الكنيسة	-5934
▁نابليون	-5935
▁الانجليزية	-5936
に出	-5937
合衆	-5938
Est	-5939
فيذ	-5940
prim	-5941
▁Ide	-5942
ichen	-5943
قتصاد	-5944
▁Herr	-5945
▁الحر	-5946
ilight	-5947
▁lavor	-5948
▁ايدول	-5949
▁critic	-5950
▁المركز	-5951
▁Everton	-5952
▁example	-5953
▁caractér	-5954
krit	-5955
▁Cap	-5956
▁Fir	-5957
▁pie	-5958
▁حيث	-5959
▁Ende	-5960
▁forn	-5961
▁العل	-5962
▁مركز	-5963
でしょうか	-5964
▁Corea	-5965
▁areas	-5966
▁party	-5967
Université	-5968
▁estableció	-5969
ーン	-5970
大会	-5971
▁يف	-5972
unid	-5973
سمية	-5974
jiang	-5975
▁ogni	-5976
▁questo	-5977
▁allemand	-5978
اك	-5979
▁Geg	-5980
▁say	-5981
▁ميل	-5982
▁luch	-5983
▁التس	-5984
▁corte	-5985
▁source	-5986
▁الثالث	-5987
▁gesehen	-5988
▁programm	-5989
▁produziert	-5990
▁バ	-5991
van	-5992
▁if	-5993
▁هم	-5994
lage	-5995
▁360	-5996
はどこの	-5997
eller	-5998
útbol	-5999
▁homb	-6000
▁القط	-6001
▁Domin	-6002
▁الدوري	-6003
▁momento	-6004
▁الاحيان	-6005
▁rappresent	-6006
▁constitution	-6007
bli	-6008
eck	-6009
rar	-6010
、19	-6011
atre	-6012
▁rac	-6013
▁syn	-6014
▁ترك	-6015
▁Mary	-6016
▁بالن	-6017
▁Regel	-6018
ination	-6019
▁Austral	-6020
▁Vietnam	-6021
▁command	-6022
▁Festival	-6023
▁Religion	-6024
▁ministro	-6025
▁política	-6026
を持	-6027
igo	-6028
ops	-6029
▁Ob	-6030
ried	-6031
▁Ath	-6032
▁sho	-6033
によって	-6034
▁dato	-6035
▁evol	-6036
▁vict	-6037
▁Henry	-6038
▁ersch	-6039
▁estud	-6040
▁Chinese	-6041
▁restaur	-6042
▁pourrait	-6043
As	-6044
ジェ	-6045
oft	-6046
zone	-6047
ركات	-6048
▁dép	-6049
▁Luft	-6050
▁الثق	-6051
▁Shell	-6052
▁diffic	-6053
▁fútbol	-6054
▁squadra	-6055
▁versucht	-6056
▁estadounid	-6057
40	-6058
هي	-6059
zas	-6060
تبر	-6061
جرة	-6062
عاب	-6063
▁漱石	-6064
▁bud	-6065
▁دور	-6066
▁Bill	-6067
▁droit	-6068
ificato	-6069
quitect	-6070
▁centrale	-6071
▁relación	-6072
مز	-6073
ルク	-6074
開発	-6075
éra	-6076
علق	-6077
▁Dr	-6078
は何人	-6079
icia	-6080
umen	-6081
▁Lin	-6082
▁bio	-6083
▁rim	-6084
▁ذلك	-6085
▁Camp	-6086
▁Sand	-6087
▁Antar	-6088
▁Techn	-6089
▁enreg	-6090
▁ihrer	-6091
▁الاعل	-6092
▁الخاص	-6093
ikanische	-6094
▁primeros	-6095
ينغ	-6096
ينيا	-6097
▁vom	-6098
▁Song	-6099
▁game	-6100
▁mouv	-6101
▁vide	-6102
atures	-6103
izzato	-6104
▁beste	-6105
▁الجيش	-6106
▁griech	-6107
▁estudio	-6108
▁Standard	-6109
▁Hauptstadt	-6110
んな	-6111
日に	-6112
onne	-6113
▁All	-6114
▁röm	-6115
▁célè	-6116
▁häuf	-6117
▁trop	-6118
▁fédér	-6119
▁pract	-6120
razione	-6121
▁característ	-6122
▁estudiantes	-6123
世紀	-6124
大戦	-6125
tem	-6126
▁Dé	-6127
erse	-6128
ving	-6129
تماع	-6130
ظرية	-6131
▁Rec	-6132
における	-6133
akter	-6134
griff	-6135
iller	-6136
terra	-6137
▁Cubs	-6138
▁creó	-6139
▁افضل	-6140
▁Music	-6141
▁reina	-6142
▁verantwort	-6143
▁organization	-6144
30	-6145
وين	-6146
ينات	-6147
▁Cos	-6148
▁Kal	-6149
▁jur	-6150
culos	-6151
einfl	-6152
frica	-6153
ianos	-6154
örper	-6155
はどちらが	-6156
▁categ	-6157
▁efect	-6158
▁indic	-6159
▁order	-6160
▁انشاء	-6161
▁battagl	-6162
▁الانواع	-6163
▁administr	-6164
lait	-6165
▁May	-6166
▁fle	-6167
▁vit	-6168
empla	-6169
واسطة	-6170
▁grow	-6171
ustrie	-6172
▁steht	-6173
▁Helena	-6174
▁filosof	-6175
起こ	-6176
jos	-6177
rak	-6178
▁NY	-6179
▁وس	-6180
ために	-6181
enze	-6182
punk	-6183
usqu	-6184
▁bil	-6185
▁kil	-6186
▁اقل	-6187
lagen	-6188
mandu	-6189
▁Gebä	-6190
▁يسمى	-6191
erweise	-6192
▁französ	-6193
誰が	-6194
افين	-6195
chest	-6196
▁glob	-6197
▁grad	-6198
▁Über	-6199
System	-6200
▁somal	-6201
britann	-6202
▁Africa	-6203
▁بواسطة	-6204
▁Bermuda	-6205
▁arquitect	-6206
▁Revolution	-6207
▁organización	-6208
opp	-6209
واج	-6210
ويت	-6211
▁aj	-6212
criv	-6213
enses	-6214
▁nive	-6215
▁Force	-6216
▁limit	-6217
▁menos	-6218
▁manifest	-6219
▁Institute	-6220
▁Kathmandu	-6221
vé	-6222
っち	-6223
何か	-6224
احة	-6225
▁TV	-6226
ucle	-6227
▁Tra	-6228
iencia	-6229
▁eserc	-6230
▁kanye	-6231
▁لديهم	-6232
▁Museum	-6233
▁biblio	-6234
▁beeinfl	-6235
▁ejemplo	-6236
▁الجديدة	-6237
uk	-6238
fahr	-6239
▁dep	-6240
▁vac	-6241
▁لاي	-6242
ollow	-6243
porto	-6244
ührer	-6245
▁لعبة	-6246
▁esper	-6247
▁force	-6248
▁الفيل	-6249
itución	-6250
▁Virgin	-6251
▁rempla	-6252
のどちらですか	-6253
▁Veranst	-6254
▁especies	-6255
utilisation	-6256
▁verantwortlich	-6257
dic	-6258
eda	-6259
ديل	-6260
▁30	-6261
oney	-6262
ourd	-6263
▁lic	-6264
ément	-6265
▁télé	-6266
ientos	-6267
▁défin	-6268
▁islas	-6269
▁visto	-6270
▁habitu	-6271
▁cuántas	-6272
▁geschaffen	-6273
cas	-6274
íos	-6275
يجة	-6276
▁Dov	-6277
いますか	-6278
ember	-6279
icina	-6280
▁reçu	-6281
▁يعيش	-6282
▁altra	-6283
▁اعادة	-6284
▁الطائ	-6285
▁former	-6286
▁lorsqu	-6287
▁treaty	-6288
▁équipe	-6289
▁établi	-6290
▁Internet	-6291
▁students	-6292
▁بريطانيا	-6293
▁utilizado	-6294
سخ	-6295
اسع	-6296
تمع	-6297
acio	-6298
▁Sum	-6299
▁byu	-6300
▁Wenn	-6301
▁الات	-6302
▁average	-6303
▁Californ	-6304
▁direction	-6305
アン	-6306
تمد	-6307
هزة	-6308
▁Ze	-6309
otte	-6310
▁Jan	-6311
▁Mic	-6312
▁pay	-6313
▁rit	-6314
▁règ	-6315
▁ملك	-6316
reten	-6317
▁1960	-6318
▁agli	-6319
▁führ	-6320
▁iran	-6321
▁front	-6322
▁oblig	-6323
▁repla	-6324
▁جزيرة	-6325
▁هافين	-6326
▁comien	-6327
▁cuerpo	-6328
▁Neptune	-6329
▁superfic	-6330
フェ	-6331
ヴァ	-6332
ليل	-6333
▁Sc	-6334
ニュー	-6335
xico	-6336
▁sea	-6337
petto	-6338
▁geme	-6339
▁rate	-6340
▁Burma	-6341
▁الاحت	-6342
▁construit	-6343
SR	-6344
的な	-6345
高い	-6346
erd	-6347
îles	-6348
▁Pub	-6349
▁Ser	-6350
▁pic	-6351
eland	-6352
▁1950	-6353
▁adopt	-6354
▁العصر	-6355
▁Cuando	-6356
▁Proble	-6357
▁wichtigste	-6358
zie	-6359
علم	-6360
aris	-6361
تيجة	-6362
▁ogg	-6363
▁موج	-6364
uption	-6365
▁Black	-6366
▁Regno	-6367
▁Wofür	-6368
▁conta	-6369
▁الاسب	-6370
▁souten	-6371
▁taille	-6372
▁schools	-6373
▁università	-6374
ウェ	-6375
jab	-6376
と呼ば	-6377
ロッパ	-6378
asso	-6379
iker	-6380
inge	-6381
minu	-6382
town	-6383
urre	-6384
▁يحت	-6385
▁البي	-6386
▁المق	-6387
▁Region	-6388
▁Gruppen	-6389
ôt	-6390
زو	-6391
何月	-6392
abe	-6393
ror	-6394
رام	-6395
▁Zw	-6396
akes	-6397
atta	-6398
burg	-6399
fois	-6400
ünst	-6401
▁Ele	-6402
▁Out	-6403
▁Sam	-6404
▁bew	-6405
▁vel	-6406
azine	-6407
video	-6408
ville	-6409
▁batt	-6410
▁même	-6411
▁said	-6412
ヨーロッパ	-6413
▁speak	-6414
férence	-6415
hejiang	-6416
ization	-6417
ontinent	-6418
▁المصطلح	-6419
▁happened	-6420
▁religios	-6421
▁religión	-6422
abb	-6423
bri	-6424
can	-6425
kte	-6426
the	-6427
èle	-6428
وفي	-6429
▁Mc	-6430
▁sw	-6431
arse	-6432
eles	-6433
orma	-6434
ograf	-6435
▁Haus	-6436
▁Egypt	-6437
▁apare	-6438
énergie	-6439
▁alcuni	-6440
▁musica	-6441
▁الجديد	-6442
▁Avicenna	-6443
▁character	-6444
学校	-6445
adh	-6446
eff	-6447
ابل	-6448
が最も	-6449
fass	-6450
hrop	-6451
▁Vol	-6452
▁ドイツ	-6453
▁bois	-6454
▁لكرة	-6455
▁legal	-6456
▁peque	-6457
▁Avenue	-6458
▁Grammy	-6459
▁Guinea	-6460
▁Kultur	-6461
iquement	-6462
▁Bretaña	-6463
▁azienda	-6464
▁usually	-6465
▁According	-6466
かけ	-6467
につ	-6468
Bre	-6469
▁tí	-6470
adel	-6471
irse	-6472
▁niv	-6473
rebbe	-6474
verse	-6475
▁Tour	-6476
▁anti	-6477
▁stor	-6478
▁المط	-6479
atalan	-6480
rosoft	-6481
▁Buddh	-6482
▁compl	-6483
▁equip	-6484
▁lungo	-6485
▁neuen	-6486
▁volte	-6487
▁انواع	-6488
▁spesso	-6489
▁canción	-6490
▁bedeutet	-6491
▁published	-6492
▁territorio	-6493
▁Großbritann	-6494
ショ	-6495
lit	-6496
صبح	-6497
ينج	-6498
▁يس	-6499
ゲーム	-6500
kten	-6501
uppe	-6502
▁cho	-6503
rogen	-6504
éxico	-6505
▁From	-6506
▁Verb	-6507
▁cred	-6508
▁muss	-6509
▁الله	-6510
isiert	-6511
itario	-6512
yanmar	-6513
▁cerve	-6514
▁potre	-6515
▁décrit	-6516
▁electr	-6517
▁inspir	-6518
▁letzte	-6519
▁Britain	-6520
▁Chicago	-6521
▁indigen	-6522
xim	-6523
▁اط	-6524
の方が	-6525
▁nur	-6526
▁ارت	-6527
antin	-6528
pollo	-6529
teilt	-6530
▁1945	-6531
▁Arab	-6532
▁beyon	-6533
▁court	-6534
▁fuera	-6535
iamente	-6536
▁manten	-6537
▁quante	-6538
▁título	-6539
▁enfants	-6540
▁اليونان	-6541
以降	-6542
的に	-6543
omo	-6544
▁ép	-6545
▁بن	-6546
▁وز	-6547
iser	-6548
ivil	-6549
todo	-6550
ural	-6551
راضي	-6552
▁rep	-6553
iante	-6554
ience	-6555
▁Pflan	-6556
▁Titel	-6557
▁using	-6558
▁Schule	-6559
▁preced	-6560
▁américain	-6561
▁attravers	-6562
人物	-6563
ueb	-6564
▁señ	-6565
ようにな	-6566
viron	-6567
▁nucle	-6568
▁retir	-6569
▁empire	-6570
▁tercer	-6571
▁Florida	-6572
▁zusammen	-6573
▁nationale	-6574
ジア	-6575
ria	-6576
اتل	-6577
affe	-6578
▁bal	-6579
▁Hall	-6580
▁fact	-6581
▁tant	-6582
ingham	-6583
reiben	-6584
▁corre	-6585
▁sujet	-6586
▁الشعب	-6587
▁legisl	-6588
▁district	-6589
▁populaire	-6590
後の	-6591
誰の	-6592
voy	-6593
▁Au	-6594
iqué	-6595
▁beh	-6596
▁apro	-6597
abhäng	-6598
▁dichi	-6599
▁medio	-6600
lamento	-6601
▁Greece	-6602
▁Seconde	-6603
▁benefic	-6604
▁escuelas	-6605
▁للولايات	-6606
▁développement	-6607
عد	-6608
ーの	-6609
rig	-6610
ريت	-6611
هرب	-6612
▁FC	-6613
▁bi	-6614
▁تف	-6615
チーム	-6616
cita	-6617
zept	-6618
▁نور	-6619
ocrat	-6620
ommun	-6621
▁circ	-6622
▁teil	-6623
はどれくら	-6624
▁River	-6625
▁fiume	-6626
▁named	-6627
▁accord	-6628
▁membri	-6629
Bretagne	-6630
▁encuentran	-6631
aï	-6632
にある	-6633
cono	-6634
ived	-6635
pose	-6636
▁XIX	-6637
ーパーボ	-6638
änger	-6639
▁taux	-6640
▁سانت	-6641
▁confer	-6642
▁benutzt	-6643
▁portato	-6644
▁proceso	-6645
▁religie	-6646
▁laquelle	-6647
ól	-6648
وء	-6649
▁ハ	-6650
優勝	-6651
200	-6652
hab	-6653
يمة	-6654
▁عض	-6655
▁And	-6656
▁موا	-6657
れている	-6658
Spiel	-6659
istic	-6660
orias	-6661
▁brev	-6662
▁catt	-6663
れましたか	-6664
iziert	-6665
▁temperatura	-6666
ám	-6667
yen	-6668
œuv	-6669
▁اض	-6670
▁بط	-6671
erve	-6672
▁ach	-6673
▁عشر	-6674
▁Samo	-6675
▁dice	-6676
▁site	-6677
▁التش	-6678
omaine	-6679
▁broad	-6680
がありますか	-6681
▁Soviet	-6682
▁recher	-6683
▁anglais	-6684
▁computer	-6685
▁geworden	-6686
▁Christian	-6687
▁battaglia	-6688
▁convirtió	-6689
▁également	-6690
▁movimiento	-6691
▁unterstützt	-6692
IC	-6693
のか	-6694
idi	-6695
اتي	-6696
番目に	-6697
▁bie	-6698
▁luz	-6699
▁voy	-6700
っている	-6701
ものは何	-6702
épend	-6703
▁rôle	-6704
etwork	-6705
▁Bezug	-6706
▁regul	-6707
▁tipos	-6708
▁Kinder	-6709
▁regione	-6710
▁structure	-6711
▁آ	-6712
リング	-6713
amen	-6714
iend	-6715
ivre	-6716
izar	-6717
▁ABC	-6718
▁Ann	-6719
▁Gem	-6720
▁Lig	-6721
▁baj	-6722
▁يست	-6723
どちらの	-6724
世界大戦	-6725
aines	-6726
autre	-6727
▁Oper	-6728
▁berü	-6729
▁erhö	-6730
▁king	-6731
▁الصح	-6732
▁بالل	-6733
unicip	-6734
▁claim	-6735
▁México	-6736
▁employ	-6737
▁formed	-6738
azionale	-6739
▁Myanmar	-6740
▁contrib	-6741
▁adolescent	-6742
هو	-6743
▁Ö	-6744
ンは	-6745
ged	-6746
oco	-6747
▁ip	-6748
▁لو	-6749
どっち	-6750
uras	-6751
كاني	-6752
▁Una	-6753
▁gle	-6754
▁rip	-6755
vered	-6756
ética	-6757
▁Sony	-6758
▁méth	-6759
▁الار	-6760
▁chies	-6761
▁gioco	-6762
▁seule	-6763
▁these	-6764
▁الأول	-6765
▁observ	-6766
▁langues	-6767
▁building	-6768
▁weiterer	-6769
▁Montevideo	-6770
世の	-6771
cta	-6772
راق	-6773
▁25	-6774
▁hi	-6775
▁تخ	-6776
name	-6777
ونسيه	-6778
▁repub	-6779
▁diffus	-6780
▁parola	-6781
▁austral	-6782
▁célèbre	-6783
Uni	-6784
▁يب	-6785
ettr	-6786
inen	-6787
ereur	-6788
▁Cons	-6789
▁engl	-6790
▁erre	-6791
▁invad	-6792
▁title	-6793
lemagne	-6794
▁adopté	-6795
▁appear	-6796
▁beginn	-6797
▁famous	-6798
▁المناطق	-6799
▁argument	-6800
hne	-6801
▁Bü	-6802
▁مم	-6803
klär	-6804
▁Men	-6805
▁ext	-6806
uppen	-6807
▁Bush	-6808
▁todo	-6809
▁معدل	-6810
▁times	-6811
▁يتعلق	-6812
aziland	-6813
istoire	-6814
▁Además	-6815
▁estilo	-6816
▁sexual	-6817
▁العامة	-6818
▁المحكمة	-6819
▁contiene	-6820
Angleterre	-6821
▁developed	-6822
ep	-6823
céd	-6824
gew	-6825
ieß	-6826
بار	-6827
esla	-6828
ومات	-6829
▁179	-6830
▁iss	-6831
▁way	-6832
▁اعط	-6833
otter	-6834
▁اثناء	-6835
iciones	-6836
itation	-6837
▁descub	-6838
▁market	-6839
▁wieder	-6840
▁utilizó	-6841
▁البلدان	-6842
▁القديمة	-6843
▁industria	-6844
▁responsible	-6845
لوب	-6846
bero	-6847
unst	-6848
▁Sen	-6849
▁amo	-6850
▁جعل	-6851
Europ	-6852
prise	-6853
▁Test	-6854
▁magn	-6855
▁race	-6856
次世界大戦	-6857
fangen	-6858
ración	-6859
▁aussi	-6860
▁معركة	-6861
▁follow	-6862
▁nasser	-6863
▁Quiénes	-6864
の名前は何ですか	-6865
ms	-6866
فن	-6867
影響	-6868
▁Sm	-6869
ocke	-6870
▁Div	-6871
▁Emp	-6872
▁bra	-6873
▁vou	-6874
troit	-6875
▁alli	-6876
▁atte	-6877
▁لعام	-6878
▁causó	-6879
▁serve	-6880
▁unido	-6881
▁aleman	-6882
▁économ	-6883
▁dichiar	-6884
▁gewählt	-6885
▁Twilight	-6886
▁événement	-6887
に入	-6888
ثلة	-6889
راه	-6890
ورج	-6891
は何年	-6892
▁Tor	-6893
▁اخذ	-6894
▁Play	-6895
▁rais	-6896
▁verw	-6897
▁العن	-6898
▁ناصر	-6899
iction	-6900
▁Armee	-6901
▁Party	-6902
▁cerca	-6903
▁berühm	-6904
▁maison	-6905
▁transl	-6906
▁النبات	-6907
▁Raleigh	-6908
▁nachdem	-6909
▁المكسيك	-6910
▁Napoleone	-6911
▁angesehen	-6912
تن	-6913
dar	-6914
ray	-6915
سيا	-6916
▁Cy	-6917
fica	-6918
▁Anf	-6919
▁daz	-6920
▁usa	-6921
▁غال	-6922
▁Ziel	-6923
▁hard	-6924
▁late	-6925
▁meth	-6926
▁îles	-6927
▁اكتش	-6928
▁طريق	-6929
▁Fluss	-6930
▁great	-6931
▁línea	-6932
▁sotto	-6933
▁المال	-6934
▁civile	-6935
▁pestic	-6936
▁lorsque	-6937
▁mouvement	-6938
▁verwenden	-6939
فر	-6940
の最	-6941
ステ	-6942
後に	-6943
igu	-6944
亡くな	-6945
erei	-6946
gono	-6947
▁nec	-6948
▁برن	-6949
▁Eins	-6950
▁auto	-6951
▁bird	-6952
▁dazu	-6953
▁inte	-6954
ellung	-6955
lossen	-6956
▁Après	-6957
▁Bezie	-6958
▁Schwe	-6959
▁grado	-6960
▁تشكيل	-6961
▁الموسم	-6962
▁comment	-6963
▁science	-6964
▁Großbritannien	-6965
と言	-6966
ロン	-6967
ワイ	-6968
▁يؤ	-6969
rado	-6970
ستور	-6971
▁Def	-6972
▁gal	-6973
▁âge	-6974
▁doll	-6975
▁suoi	-6976
öglich	-6977
▁Tesla	-6978
▁selon	-6979
▁عاصمة	-6980
chieden	-6981
ropolit	-6982
▁troisième	-6983
▁International	-6984
17	-6985
BS	-6986
ップ	-6987
ーズ	-6988
ief	-6989
law	-6990
ämp	-6991
▁24	-6992
▁MP	-6993
▁اه	-6994
▁この	-6995
amin	-6996
▁Mah	-6997
▁كات	-6998
▁dens	-6999
▁habl	-7000
▁tard	-7001
▁مثال	-7002
▁Japon	-7003
▁affect	-7004
▁häufig	-7005
▁villes	-7006
▁contest	-7007
▁Microsoft	-7008
▁certaines	-7009
レイ	-7010
fit	-7011
ogr	-7012
بول	-7013
هاز	-7014
back	-7015
sche	-7016
tosh	-7017
▁AFL	-7018
▁Ang	-7019
▁ill	-7020
▁احت	-7021
entro	-7022
▁woll	-7023
▁conte	-7024
▁muchos	-7025
▁الفيلم	-7026
▁Princess	-7027
▁nouvelle	-7028
▁languages	-7029
▁Geschichte	-7030
ース	-7031
時期	-7032
▁بج	-7033
agli	-7034
يكية	-7035
▁age	-7036
endre	-7037
isión	-7038
▁Flug	-7039
▁باري	-7040
▁ولكن	-7041
▁الصنا	-7042
▁الطبي	-7043
wendung	-7044
▁Apollo	-7045
▁colleg	-7046
▁destin	-7047
▁libros	-7048
▁öffent	-7049
histoire	-7050
▁Armenia	-7051
▁idiomas	-7052
▁perform	-7053
▁théorie	-7054
▁الاطفال	-7055
▁relation	-7056
▁utiliser	-7057
先に	-7058
ape	-7059
bit	-7060
وبة	-7061
abet	-7062
cias	-7063
ghil	-7064
omme	-7065
▁لاع	-7066
ipend	-7067
▁Guam	-7068
▁init	-7069
▁pero	-7070
▁vice	-7071
▁Neben	-7072
▁متوسط	-7073
▁profes	-7074
▁install	-7075
ghilterra	-7076
▁contribué	-7077
レン	-7078
eso	-7079
itud	-7080
usst	-7081
▁Gew	-7082
▁you	-7083
▁يتح	-7084
andes	-7085
hovah	-7086
ouvert	-7087
▁After	-7088
▁revol	-7089
▁Mexiko	-7090
▁البرتغ	-7091
▁Francis	-7092
▁highest	-7093
▁municip	-7094
▁الافراج	-7095
▁caratter	-7096
▁organisation	-7097
ii	-7098
رر	-7099
وذ	-7100
▁KU	-7101
▁ah	-7102
into	-7103
▁منح	-7104
ennes	-7105
▁Hand	-7106
▁liga	-7107
▁orth	-7108
ciales	-7109
▁Milit	-7110
▁Lutero	-7111
▁author	-7112
▁década	-7113
▁factor	-7114
ducation	-7115
istiques	-7116
▁tiempos	-7117
▁studenti	-7118
▁instrument	-7119
▁verschieden	-7120
▁principalmente	-7121
11	-7122
ema	-7123
gem	-7124
لول	-7125
ندي	-7126
يور	-7127
ènes	-7128
▁Bas	-7129
▁Sie	-7130
▁sue	-7131
▁ساو	-7132
▁esta	-7133
▁vale	-7134
▁vert	-7135
▁Ägyp	-7136
▁lingu	-7137
▁vient	-7138
▁fuerza	-7139
▁necess	-7140
▁theory	-7141
▁unidos	-7142
▁électr	-7143
▁algunas	-7144
▁combatt	-7145
▁empresa	-7146
▁geführt	-7147
▁emperador	-7148
ائد	-7149
▁Ib	-7150
reas	-7151
▁لان	-7152
▁مقد	-7153
▁وصل	-7154
iddle	-7155
ientí	-7156
tagna	-7157
èrent	-7158
▁Laut	-7159
▁elev	-7160
▁svol	-7161
achsen	-7162
▁genet	-7163
▁monar	-7164
▁oppos	-7165
▁attend	-7166
▁femmes	-7167
▁scuole	-7168
▁vielen	-7169
▁Insieme	-7170
▁servicio	-7171
▁influence	-7172
開催	-7173
▁cô	-7174
face	-7175
▁Tem	-7176
▁big	-7177
▁bir	-7178
▁cad	-7179
▁يون	-7180
▁Seit	-7181
▁eleg	-7182
▁mois	-7183
▁rédu	-7184
▁2004?	-7185
▁Grèce	-7186
▁tuber	-7187
▁الهدف	-7188
▁costitu	-7189
▁انجلترا	-7190
▁Brasilia	-7191
▁internet	-7192
▁transfer	-7193
عر	-7194
軍の	-7195
الب	-7196
▁40	-7197
bens	-7198
fern	-7199
▁God	-7200
▁Red	-7201
▁شارع	-7202
▁ligne	-7203
▁primi	-7204
▁البشر	-7205
▁تصنيف	-7206
▁cientí	-7207
▁report	-7208
▁inglese	-7209
▁utilise	-7210
▁superficie	-7211
6,	-7212
év	-7213
ナル	-7214
00?	-7215
via	-7216
جاج	-7217
▁Ju	-7218
▁ba	-7219
▁شب	-7220
iken	-7221
unes	-7222
ären	-7223
▁dej	-7224
▁rem	-7225
lands	-7226
omano	-7227
▁carta	-7228
▁films	-7229
▁reine	-7230
▁السنة	-7231
▁includ	-7232
▁college	-7233
▁profess	-7234
▁software	-7235
▁internation	-7236
Re	-7237
زم	-7238
▁ク	-7239
連合	-7240
▁UK	-7241
folg	-7242
لاثة	-7243
▁Gol	-7244
▁1939	-7245
▁Sing	-7246
▁caso	-7247
▁croy	-7248
▁مكتب	-7249
ußball	-7250
▁Santa	-7251
▁circu	-7252
▁déter	-7253
▁النها	-7254
は誰でしたか	-7255
▁europä	-7256
▁الاصلي	-7257
▁aumento	-7258
▁ricevuto	-7259
開始	-7260
nen	-7261
oin	-7262
فقة	-7263
يدة	-7264
omos	-7265
▁Ash	-7266
▁Bel	-7267
▁faç	-7268
▁voc	-7269
▁لغة	-7270
ohner	-7271
▁Mart	-7272
▁Qing	-7273
▁Stat	-7274
▁drit	-7275
▁find	-7276
lauben	-7277
▁Ergeb	-7278
▁Maria	-7279
▁madre	-7280
▁produc	-7281
▁zweite	-7282
▁esercito	-7283
▁considera	-7284
計画	-7285
éré	-7286
ساء	-7287
enta	-7288
ipto	-7289
▁caz	-7290
▁won	-7291
▁سان	-7292
anger	-7293
▁cong	-7294
▁extr	-7295
izioni	-7296
▁Nobel	-7297
▁Sport	-7298
▁action	-7299
▁crisis	-7300
▁الفترة	-7301
▁chanson	-7302
▁couleur	-7303
▁gemeins	-7304
▁Mitglieder	-7305
▁commercial	-7306
ثي	-7307
كا	-7308
受賞	-7309
bst	-7310
▁cy	-7311
▁مف	-7312
▁نق	-7313
oire	-7314
onic	-7315
zial	-7316
▁Dig	-7317
▁Her	-7318
▁Pat	-7319
▁Pul	-7320
▁cul	-7321
▁hor	-7322
▁arab	-7323
▁cher	-7324
▁host	-7325
▁text	-7326
▁والم	-7327
▁Japón	-7328
▁Pruss	-7329
▁Unito	-7330
▁strat	-7331
▁trasm	-7332
▁romano	-7333
minister	-7334
▁artista	-7335
▁conduit	-7336
▁esempio	-7337
▁incorpor	-7338
▁ministre	-7339
リオ	-7340
hnt	-7341
isi	-7342
afen	-7343
ards	-7344
▁NYC	-7345
assin	-7346
▁excl	-7347
▁life	-7348
▁يسمح	-7349
▁عملية	-7350
▁frühen	-7351
cimiento	-7352
▁اليابان	-7353
▁occidental	-7354
▁responsabile	-7355
前に	-7356
戦い	-7357
発表	-7358
pan	-7359
ólo	-7360
ابة	-7361
طاق	-7362
られる	-7363
インド	-7364
arsi	-7365
atte	-7366
▁Bet	-7367
▁bur	-7368
▁تست	-7369
inner	-7370
▁1930	-7371
▁Mass	-7372
▁erst	-7373
▁ofre	-7374
▁sert	-7375
▁vidé	-7376
▁ساوث	-7377
▁hasta	-7378
▁isola	-7379
▁month	-7380
▁الجام	-7381
▁تعتبر	-7382
▁specie	-7383
▁الرياض	-7384
anischen	-7385
▁Después	-7386
▁espèces	-7387
▁educación	-7388
▁desarrollo	-7389
▁occidentale	-7390
獲得	-7391
ظيم	-7392
▁لج	-7393
onte	-7394
stru	-7395
unch	-7396
هاور	-7397
▁Soc	-7398
▁hyd	-7399
▁sam	-7400
▁win	-7401
▁دول	-7402
▁لاح	-7403
▁Sans	-7404
▁بالت	-7405
ildung	-7406
intosh	-7407
Église	-7408
▁supre	-7409
▁Commun	-7410
▁امريكا	-7411
lichkeit	-7412
▁Mundial	-7413
▁gedacht	-7414
▁llamado	-7415
▁refiere	-7416
▁dynastie	-7417
▁processus	-7418
んで	-7419
öst	-7420
ونة	-7421
atch	-7422
▁DNA	-7423
▁فقط	-7424
どのような	-7425
▁frecu	-7426
▁ordin	-7427
▁sépar	-7428
▁terms	-7429
ception	-7430
▁Egipto	-7431
▁Kaiser	-7432
▁create	-7433
▁Gebäude	-7434
▁Schweiz	-7435
▁Western	-7436
▁allowed	-7437
▁business	-7438
▁x	-7439
ラス	-7440
راف	-7441
▁va	-7442
idió	-7443
▁erm	-7444
▁sen	-7445
▁خلق	-7446
▁عند	-7447
boren	-7448
istre	-7449
ريقيا	-7450
▁Mill	-7451
▁cres	-7452
▁else	-7453
▁seit	-7454
▁درجة	-7455
▁among	-7456
▁audio	-7457
▁level	-7458
▁établ	-7459
▁الروس	-7460
▁الكون	-7461
anische	-7462
lemania	-7463
▁Londra	-7464
▁Energie	-7465
▁höchste	-7466
▁terminó	-7467
▁trovano	-7468
▁„	-7469
▁ca	-7470
▁أف	-7471
halb	-7472
kehr	-7473
uest	-7474
▁Pak	-7475
れたのは	-7476
▁Cina	-7477
▁case	-7478
argent	-7479
▁otras	-7480
ーパーボウル	-7481
prochen	-7482
▁cardin	-7483
▁militar	-7484
▁research	-7485
▁President	-7486
ki	-7487
使用	-7488
iew	-7489
يزة	-7490
数が多	-7491
länd	-7492
▁بور	-7493
egung	-7494
▁2002	-7495
▁Erit	-7496
▁Konf	-7497
▁Ming	-7498
▁Vict	-7499
atives	-7500
ettato	-7501
▁bevor	-7502
▁انتاج	-7503
هامبتون	-7504
▁Philip	-7505
▁chasse	-7506
▁prodotto	-7507
شب	-7508
bell	-7509
▁Kre	-7510
▁Law	-7511
▁jun	-7512
▁mai	-7513
▁she	-7514
はいくつ	-7515
owjet	-7516
école	-7517
▁ases	-7518
▁الخط	-7519
équipe	-7520
▁Barts	-7521
▁calle	-7522
▁money	-7523
▁جائزة	-7524
▁شعبية	-7525
▁teoría	-7526
▁الشركة	-7527
▁الطيور	-7528
▁devenue	-7529
▁الانسان	-7530
▁Alemania	-7531
▁gehalten	-7532
▁services	-7533
▁الامريكي	-7534
▁interpret	-7535
▁ブ	-7536
asi	-7537
ots	-7538
tei	-7539
uvo	-7540
امة	-7541
▁FA	-7542
▁قط	-7543
ordo	-7544
äfte	-7545
▁Leg	-7546
▁Raj	-7547
ansas	-7548
uchen	-7549
▁accep	-7550
は何でしたか	-7551
▁resist	-7552
▁écoles	-7553
▁Federal	-7554
▁disting	-7555
▁استخدمت	-7556
▁الجنوبية	-7557
▁habituellement	-7558
エン	-7559
ッツ	-7560
rog	-7561
كال	-7562
edor	-7563
ológ	-7564
umin	-7565
ified	-7566
▁cómo	-7567
▁leng	-7568
▁sull	-7569
▁área	-7570
▁القر	-7571
زنهاور	-7572
▁museo	-7573
▁tutti	-7574
▁déclaré	-7575
▁général	-7576
▁receive	-7577
▁المدارس	-7578
▁religious	-7579
▁الالمانية	-7580
航空	-7581
記録	-7582
hov	-7583
ونا	-7584
▁CA	-7585
▁Ho	-7586
▁世界	-7587
cipe	-7588
ommt	-7589
teca	-7590
▁Esp	-7591
▁ata	-7592
▁aud	-7593
▁rid	-7594
▁tel	-7595
▁جبل	-7596
▁مصر	-7597
ambre	-7598
▁Mand	-7599
▁hand	-7600
▁phon	-7601
istica	-7602
itäten	-7603
ändert	-7604
▁morto	-7605
▁prior	-7606
▁الجزء	-7607
▁مختلف	-7608
▁appart	-7609
▁dentro	-7610
▁tempér	-7611
▁Entwick	-7612
▁deutsch	-7613
▁mainten	-7614
▁vorgestellt	-7615
IA	-7616
▁Á	-7617
izó	-7618
غات	-7619
arth	-7620
aval	-7621
▁any	-7622
▁van	-7623
▁سجل	-7624
▁عصر	-7625
▁لتح	-7626
gramm	-7627
▁Miss	-7628
▁pron	-7629
▁spre	-7630
iments	-7631
▁chrét	-7632
▁feder	-7633
▁finan	-7634
▁niños	-7635
Station	-7636
ichtung	-7637
▁impact	-7638
▁inizio	-7639
▁uranio	-7640
▁باللغة	-7641
▁mission	-7642
▁youtube	-7643
▁التعليم	-7644
▁stations	-7645
ذج	-7646
ーク	-7647
占領	-7648
igur	-7649
side	-7650
▁Cup	-7651
▁Hit	-7652
▁lan	-7653
scher	-7654
▁carb	-7655
▁rein	-7656
▁sólo	-7657
▁Supre	-7658
▁detto	-7659
▁fourn	-7660
▁india	-7661
▁Wasser	-7662
▁archit	-7663
▁finale	-7664
▁reform	-7665
▁scoper	-7666
▁Sichuan	-7667
▁canzone	-7668
▁reempla	-7669
▁الوطنية	-7670
▁movement	-7671
▁trattato	-7672
yo	-7673
äh	-7674
avo	-7675
からの	-7676
フリカ	-7677
hamm	-7678
▁Top	-7679
▁flu	-7680
gypte	-7681
porte	-7682
▁grab	-7683
▁أكثر	-7684
▁بالم	-7685
action	-7686
astern	-7687
▁Brown	-7688
▁Zweit	-7689
▁focus	-7690
▁dernier	-7691
▁durchschnitt	-7692
セン	-7693
hui	-7694
ilm	-7695
rot	-7696
rès	-7697
uns	-7698
وند	-7699
▁21	-7700
▁gé	-7701
▁بل	-7702
chte	-7703
edio	-7704
ensa	-7705
ream	-7706
resp	-7707
لالة	-7708
ituto	-7709
▁just	-7710
▁proy	-7711
cement	-7712
▁envoy	-7713
▁still	-7714
éroport	-7715
▁immigr	-7716
▁increase	-7717
شف	-7718
ッホ	-7719
bes	-7720
صار	-7721
anni	-7722
reso	-7723
▁182	-7724
▁fal	-7725
▁Geld	-7726
▁Vars	-7727
▁aves	-7728
▁must	-7729
ervice	-7730
kommen	-7731
▁David	-7732
▁Macht	-7733
▁llegó	-7734
▁manch	-7735
▁tempr	-7736
▁Cathol	-7737
▁Edward	-7738
▁Robert	-7739
▁amount	-7740
▁cathol	-7741
▁debido	-7742
ualmente	-7743
▁Richard	-7744
▁Minister	-7745
▁bekommen	-7746
▁nombreux	-7747
▁diferentes	-7748
▁southampton	-7749
▁ساوثهامبتون	-7750
▁normalerweise	-7751
دت	-7752
プロ	-7753
種類	-7754
uve	-7755
▁Lu	-7756
iede	-7757
rier	-7758
▁Sir	-7759
▁har	-7760
embre	-7761
ingen	-7762
était	-7763
▁aura	-7764
▁doit	-7765
▁maje	-7766
▁العب	-7767
▁Farbe	-7768
▁Jehov	-7769
▁Anzahl	-7770
▁applic	-7771
▁chiens	-7772
▁obtenu	-7773
▁constitu	-7774
▁produced	-7775
▁Studenten	-7776
▁Universität	-7777
-19	-7778
row	-7779
▁سم	-7780
oses	-7781
osse	-7782
▁الإ	-7783
stone	-7784
uddha	-7785
▁pubs	-7786
いつのこと	-7787
▁Famil	-7788
▁Radio	-7789
▁extra	-7790
▁tedes	-7791
はどれですか	-7792
▁Provin	-7793
▁begann	-7794
▁cambio	-7795
▁formal	-7796
▁should	-7797
▁thought	-7798
▁Germania	-7799
▁الموجودة	-7800
▁organizzazione	-7801
ウス	-7802
オス	-7803
اسي	-7804
▁لي	-7805
ゴッホ	-7806
cell	-7807
ktiv	-7808
urai	-7809
culas	-7810
ining	-7811
▁mark	-7812
▁يعني	-7813
ential	-7814
▁Great	-7815
▁Mater	-7816
▁nommé	-7817
▁الاخت	-7818
なかったのは	-7819
▁Mittel	-7820
▁cuánto	-7821
▁niveau	-7822
▁prefer	-7823
▁Archite	-7824
▁ciudades	-7825
▁americano	-7826
قم	-7827
カデ	-7828
目の	-7829
air	-7830
die	-7831
▁صح	-7832
ールド	-7833
ptem	-7834
▁Den	-7835
▁Off	-7836
▁sia	-7837
izado	-7838
ompon	-7839
▁nave	-7840
▁rema	-7841
▁محطة	-7842
▁2014,	-7843
▁مقدار	-7844
▁August	-7845
▁comune	-7846
▁grands	-7847
▁Council	-7848
▁appelle	-7849
▁الاصلية	-7850
▁Pulitzer	-7851
▁erreicht	-7852
▁programme	-7853
80	-7854
بط	-7855
現在	-7856
iar	-7857
وائز	-7858
▁Team	-7859
▁aber	-7860
▁seul	-7861
どこですか	-7862
▁Polit	-7863
▁aufge	-7864
▁raggi	-7865
▁veloc	-7866
▁attacc	-7867
▁letter	-7868
▁titolo	-7869
▁Protest	-7870
▁geboren	-7871
月に	-7872
aug	-7873
pes	-7874
▁Dan	-7875
هورية	-7876
وفييت	-7877
▁Jack	-7878
▁dont	-7879
▁tasa	-7880
heiten	-7881
ولندية	-7882
▁asist	-7883
▁glaci	-7884
▁llevó	-7885
▁matér	-7886
▁rivol	-7887
▁باريس	-7888
▁Indien	-7889
▁compte	-7890
▁giorno	-7891
▁termes	-7892
▁totale	-7893
▁considerato	-7894
コー	-7895
exp	-7896
بيل	-7897
عمل	-7898
coup	-7899
haus	-7900
ionn	-7901
▁نقل	-7902
tagon	-7903
▁took	-7904
forman	-7905
▁leben	-7906
▁Bereich	-7907
▁europea	-7908
▁Philosoph	-7909
▁satellite	-7910
▁الحيوانات	-7911
▁Wissenschaft	-7912
ウィ	-7913
本土	-7914
igi	-7915
lor	-7916
tér	-7917
لاد	-7918
واء	-7919
▁Sa	-7920
▁aé	-7921
▁180	-7922
▁Eig	-7923
▁Gar	-7924
▁Sci	-7925
▁Une	-7926
▁cel	-7927
▁erw	-7928
▁fol	-7929
▁max	-7930
▁سيا	-7931
▁ظهر	-7932
▁قتل	-7933
ators	-7934
occup	-7935
▁ocup	-7936
▁المض	-7937
▁luogo	-7938
▁prime	-7939
▁small	-7940
istique	-7941
▁Harbor	-7942
▁ancien	-7943
▁réalis	-7944
▁attribu	-7945
▁partecip	-7946
▁successo	-7947
▁militaire	-7948
▁originale	-7949
êt	-7950
たち	-7951
イル	-7952
ベル	-7953
原因	-7954
攻撃	-7955
時点	-7956
結婚	-7957
eté	-7958
ريف	-7959
▁رب	-7960
essa	-7961
▁Kol	-7962
▁det	-7963
▁ply	-7964
Union	-7965
attan	-7966
▁paar	-7967
▁الكم	-7968
▁Album	-7969
▁ocurr	-7970
▁العثم	-7971
ynastie	-7972
▁private	-7973
▁addition	-7974
▁conquist	-7975
▁dinastía	-7976
▁institut	-7977
▁servizio	-7978
▁encontrar	-7979
▁politische	-7980
Ver	-7981
fra	-7982
osc	-7983
رنت	-7984
最初に	-7985
anda	-7986
ases	-7987
tein	-7988
▁Hat	-7989
▁ابن	-7990
▁Khan	-7991
▁like	-7992
▁nato	-7993
▁same	-7994
▁السب	-7995
からですか	-7996
▁since	-7997
▁المقد	-7998
▁permis	-7999
▁unters	-8000
▁moderno	-8001
▁Republic	-8002
▁Zhejiang	-8003
▁division	-8004
▁francese	-8005
▁possible	-8006
▁potrebbe	-8007
▁verkauft	-8008
▁resultado	-8009
▁中	-8010
だと	-8011
位置	-8012
研究	-8013
egu	-8014
▁Wen	-8015
▁Meth	-8016
▁debe	-8017
▁rejo	-8018
▁موسم	-8019
ension	-8020
iseaux	-8021
▁field	-8022
▁الوسط	-8023
▁نتيجة	-8024
していますか	-8025
▁chiama	-8026
▁droits	-8027
▁ganado	-8028
onnement	-8029
▁Britann	-8030
▁größten	-8031
▁بالنسبة	-8032
▁derechos	-8033
▁verlassen	-8034
▁experiment	-8035
▁Inghilterra	-8036
ár	-8037
ナー	-8038
chè	-8039
zer	-8040
افظ	-8041
سمي	-8042
▁50	-8043
▁GE	-8044
ったの	-8045
Inde	-8046
oute	-8047
craft	-8048
istro	-8049
▁anun	-8050
▁العسك	-8051
▁elettr	-8052
Amérique	-8053
publique	-8054
▁bombard	-8055
▁einzige	-8056
▁journal	-8057
▁sostitu	-8058
اؤ	-8059
غط	-8060
チェ	-8061
設立	-8062
ums	-8063
لحة	-8064
▁PI	-8065
Punk	-8066
▁Bay	-8067
▁Gio	-8068
▁Old	-8069
▁النو	-8070
▁فيما	-8071
imonio	-8072
▁corps	-8073
▁olymp	-8074
▁opera	-8075
ünstler	-8076
▁object	-8077
▁perros	-8078
▁Schulen	-8079
▁famille	-8080
▁ottoman	-8081
▁Position	-8082
▁antibiot	-8083
▁plymouth	-8084
DN	-8085
غر	-8086
▁ト	-8087
com	-8088
ote	-8089
wan	-8090
قرا	-8091
ونت	-8092
▁وت	-8093
いくら	-8094
▁Lat	-8095
▁alm	-8096
▁hog	-8097
▁opt	-8098
▁تمت	-8099
▁جزر	-8100
に対して	-8101
itter	-8102
▁vuel	-8103
▁want	-8104
▁Harry	-8105
▁Prinz	-8106
▁Texas	-8107
▁keine	-8108
▁reven	-8109
▁اللعب	-8110
ésident	-8111
▁connue	-8112
▁dispar	-8113
▁integr	-8114
▁negoci	-8115
▁within	-8116
arbeitet	-8117
▁compagn	-8118
▁proyect	-8119
▁Alexander	-8120
▁particular	-8121
SS	-8122
共和	-8123
ril	-8124
انج	-8125
多くの	-8126
nung	-8127
▁jam	-8128
angel	-8129
lavos	-8130
onstr	-8131
▁able	-8132
▁agre	-8133
▁sang	-8134
グラミー賞	-8135
roffen	-8136
▁route	-8137
▁offici	-8138
▁الاراضي	-8139
▁المدرسة	-8140
▁electric	-8141
▁estándar	-8142
▁posición	-8143
▁Verwendung	-8144
هب	-8145
コン	-8146
メン	-8147
cte	-8148
viv	-8149
▁li	-8150
ying	-8151
▁Ibn	-8152
▁apr	-8153
▁inm	-8154
▁برا	-8155
jourd	-8156
▁Manh	-8157
▁both	-8158
▁guid	-8159
▁بدلا	-8160
▁ساعد	-8161
Europe	-8162
▁Arbor	-8163
▁Juden	-8164
▁París	-8165
▁aband	-8166
▁cargo	-8167
▁immun	-8168
▁porta	-8169
▁ricon	-8170
▁think	-8171
▁Frauen	-8172
▁Russia	-8173
▁encore	-8174
▁madera	-8175
▁الحياة	-8176
▁fondato	-8177
▁trasfer	-8178
▁Pflanzen	-8179
女性	-8180
州の	-8181
äus	-8182
ارل	-8183
▁Po	-8184
gang	-8185
igos	-8186
osso	-8187
اثول	-8188
شرين	-8189
وستن	-8190
isted	-8191
itive	-8192
▁enth	-8193
▁give	-8194
▁الدا	-8195
▁يقوم	-8196
▁Kunst	-8197
▁prest	-8198
▁غالبا	-8199
▁Nieder	-8200
▁approv	-8201
▁batter	-8202
▁modèle	-8203
▁seinem	-8204
▁Ottoman	-8205
▁children	-8206
▁communic	-8207
▁personal	-8208
▁processo	-8209
12	-8210
Os	-8211
など	-8212
戦闘	-8213
皇帝	-8214
ربة	-8215
عار	-8216
ورد	-8217
▁fi	-8218
▁جي	-8219
äter	-8220
▁bem	-8221
▁ähn	-8222
grund	-8223
idung	-8224
iglio	-8225
▁Kadh	-8226
▁fabr	-8227
▁fais	-8228
▁vita	-8229
▁يجعل	-8230
forder	-8231
issent	-8232
▁Diale	-8233
▁ajout	-8234
▁fondé	-8235
▁initi	-8236
▁nació	-8237
▁cities	-8238
▁nécess	-8239
▁العليا	-8240
▁Kadhafi	-8241
▁Zweiten	-8242
▁contain	-8243
▁llamada	-8244
▁الغربية	-8245
▁specific	-8246
▁términos	-8247
▁americana	-8248
▁communaut	-8249
▁bezeichnet	-8250
▁Veranstaltung	-8251
ef	-8252
بد	-8253
▁大	-8254
島の	-8255
avy	-8256
ple	-8257
▁لن	-8258
▁مه	-8259
合衆国	-8260
-200	-8261
▁Fun	-8262
▁Jug	-8263
▁hot	-8264
▁حدي	-8265
ないのは	-8266
ingia	-8267
بيوتر	-8268
▁Hong	-8269
économ	-8270
▁tibet	-8271
▁اعضاء	-8272
▁انشاؤ	-8273
▁Körper	-8274
▁around	-8275
▁concep	-8276
▁destru	-8277
▁permet	-8278
▁projet	-8279
ological	-8280
▁Kontrol	-8281
▁humanos	-8282
▁musical	-8283
▁release	-8284
▁religiö	-8285
▁education	-8286
▁Jahrhunderts	-8287
äft	-8288
ميم	-8289
▁Mu	-8290
▁Nä	-8291
bras	-8292
iali	-8293
lach	-8294
urer	-8295
ينية	-8296
▁Gli	-8297
▁Tro	-8298
▁cur	-8299
▁sui	-8300
▁اصل	-8301
▁جاء	-8302
すること	-8303
▁Jews	-8304
▁Kran	-8305
▁Städ	-8306
▁aggi	-8307
▁code	-8308
▁ferm	-8309
▁gene	-8310
▁remo	-8311
▁ubic	-8312
▁تعمل	-8313
▁شمال	-8314
▁كلمة	-8315
▁نطاق	-8316
▁ويست	-8317
▁sirve	-8318
▁women	-8319
ération	-8320
▁Indian	-8321
▁chines	-8322
▁الطلاب	-8323
▁fuerzas	-8324
▁initial	-8325
▁objetivo	-8326
▁サ	-8327
▁東	-8328
タン	-8329
mos	-8330
ulg	-8331
zan	-8332
زاب	-8333
موث	-8334
▁90	-8335
▁FI	-8336
▁لح	-8337
何年に	-8338
ured	-8339
ígen	-8340
ابقة	-8341
anted	-8342
▁Post	-8343
▁aiut	-8344
ientes	-8345
ública	-8346
▁clima	-8347
▁colla	-8348
▁diseñ	-8349
▁expos	-8350
térieur	-8351
▁Gegend	-8352
▁discip	-8353
▁energia	-8354
▁interno	-8355
▁partito	-8356
▁written	-8357
▁الكاثول	-8358
▁الملكية	-8359
▁travaill	-8360
▁الاجتماع	-8361
▁beeinflusst	-8362
▁internacional	-8363
8,	-8364
cto	-8365
ète	-8366
▁23	-8367
clam	-8368
teid	-8369
▁رفض	-8370
▁للق	-8371
▁مدى	-8372
ierto	-8373
رائيل	-8374
▁clim	-8375
▁Leute	-8376
▁crede	-8377
▁donne	-8378
▁might	-8379
▁نظرية	-8380
▁Lebens	-8381
▁center	-8382
▁storia	-8383
American	-8384
▁Prozess	-8385
istischen	-8386
▁concentr	-8387
▁cultures	-8388
▁magazine	-8389
▁superior	-8390
▁السوفييت	-8391
Gr	-8392
áp	-8393
hin	-8394
صال	-8395
となる	-8396
どこの	-8397
vail	-8398
▁oss	-8399
itore	-8400
owers	-8401
zentr	-8402
▁Zust	-8403
▁cabo	-8404
▁يوجد	-8405
▁Leben	-8406
▁Solar	-8407
▁emple	-8408
▁motor	-8409
▁recent	-8410
▁último	-8411
▁هيوستن	-8412
▁Messico	-8413
▁Montini	-8414
▁Russian	-8415
▁mujeres	-8416
▁plantas	-8417
▁الامريك	-8418
▁posizione	-8419
いる	-8420
ael	-8421
ينت	-8422
hors	-8423
inst	-8424
onas	-8425
osen	-8426
يران	-8427
▁Mat	-8428
▁him	-8429
▁Gall	-8430
▁Inse	-8431
▁chim	-8432
▁rail	-8433
▁موقع	-8434
▁يشير	-8435
▁2003?	-8436
▁2010,	-8437
▁femme	-8438
▁proto	-8439
▁senza	-8440
▁مدرسة	-8441
▁Straße	-8442
▁istitu	-8443
▁Imperial	-8444
▁Sprachen	-8445
▁industry	-8446
5,	-8447
خط	-8448
Ind	-8449
rav	-8450
▁XV	-8451
▁مل	-8452
écut	-8453
شرات	-8454
موذج	-8455
▁ens	-8456
▁now	-8457
▁pan	-8458
賞を受賞	-8459
crito	-8460
enzen	-8461
ildet	-8462
ليموث	-8463
aucoup	-8464
raient	-8465
▁Oscar	-8466
▁llaman	-8467
▁potere	-8468
▁résult	-8469
▁اعتبار	-8470
▁الحديد	-8471
▁الوسطى	-8472
ckingham	-8473
▁Irlanda	-8474
▁régions	-8475
▁الجزيرة	-8476
▁conocida	-8477
▁Manhattan	-8478
▁university	-8479
何が	-8480
نطن	-8481
ickt	-8482
rael	-8483
غيرة	-8484
▁dam	-8485
▁dol	-8486
▁اسب	-8487
▁عنه	-8488
icode	-8489
▁Mehr	-8490
▁tomb	-8491
▁wood	-8492
ention	-8493
▁estar	-8494
▁labor	-8495
▁porto	-8496
▁press	-8497
▁Canadá	-8498
▁Chiesa	-8499
▁Studie	-8500
▁comput	-8501
▁ouvert	-8502
▁discuss	-8503
▁données	-8504
▁Republik	-8505
▁développé	-8506
▁investigación	-8507
SC	-8508
文書	-8509
arg	-8510
zug	-8511
chio	-8512
colo	-8513
éctr	-8514
▁Ost	-8515
▁وما	-8516
▁verh	-8517
▁ثاني	-8518
▁Count	-8519
▁Jesus	-8520
▁black	-8521
▁nivel	-8522
▁reach	-8523
▁الحزب	-8524
▁دراسة	-8525
▁Temper	-8526
▁chiesa	-8527
▁explor	-8528
▁hatten	-8529
▁interd	-8530
▁propri	-8531
▁reason	-8532
▁teoria	-8533
▁الكهرب	-8534
▁Prozent	-8535
▁ersetzt	-8536
▁الشرقية	-8537
▁dernière	-8538
▁gekommen	-8539
▁generale	-8540
▁programa	-8541
▁verloren	-8542
▁الفرنسية	-8543
▁britische	-8544
▁britischen	-8545
▁Entwicklung	-8546
▁Constitution	-8547
CM	-8548
デル	-8549
勢力	-8550
تمي	-8551
سيم	-8552
▁نش	-8553
スター	-8554
▁Tre	-8555
crire	-8556
▁Baum	-8557
▁Bund	-8558
▁créd	-8559
▁crít	-8560
▁hous	-8561
▁opin	-8562
▁role	-8563
▁بالق	-8564
ichtet	-8565
▁Osman	-8566
▁litté	-8567
▁montr	-8568
▁perdu	-8569
▁الصوت	-8570
▁تطوير	-8571
ありましたか	-8572
issione	-8573
▁Italia	-8574
▁christ	-8575
▁family	-8576
▁insegn	-8577
▁prohib	-8578
▁proper	-8579
▁مقاطعة	-8580
Oklahoma	-8581
▁Königin	-8582
▁rispetto	-8583
▁الاوروبي	-8584
▁découvert	-8585
▁nazionale	-8586
▁metropolit	-8587
▁ursprünglich	-8588
ヴェ	-8589
参加	-8590
ads	-8591
agé	-8592
aña	-8593
nov	-8594
osi	-8595
raw	-8596
urt	-8597
ßer	-8598
هود	-8599
لندا	-8600
▁rot	-8601
タイトル	-8602
adium	-8603
ctica	-8604
produ	-8605
ureau	-8606
لاسيك	-8607
▁Dopo	-8608
▁bamb	-8609
▁ress	-8610
▁Autor	-8611
▁asoci	-8612
▁began	-8613
▁exemp	-8614
▁maxim	-8615
▁torch	-8616
▁تحديد	-8617
▁impero	-8618
▁consejo	-8619
▁history	-8620
▁moyenne	-8621
▁orientale	-8622
▁religione	-8623
▁Presidente	-8624
▁conosciuto	-8625
レオ	-8626
選手	-8627
try	-8628
الو	-8629
ورا	-8630
▁Kn	-8631
▁Kor	-8632
▁Mid	-8633
▁tax	-8634
▁بيل	-8635
▁واش	-8636
deckt	-8637
illed	-8638
waffe	-8639
▁جورج	-8640
▁مكان	-8641
hammad	-8642
öffnet	-8643
▁molti	-8644
▁muest	-8645
▁tourn	-8646
▁تاثير	-8647
▁Depuis	-8648
▁Virgil	-8649
▁attemp	-8650
▁longue	-8651
▁الفريق	-8652
itecture	-8653
▁Fußball	-8654
▁Ägypten	-8655
▁المنظمة	-8656
▁Sanskrit	-8657
▁bâtiment	-8658
▁consiste	-8659
▁orthodox	-8660
▁quartier	-8661
▁movimento	-8662
▁architecture	-8663
▁ビ	-8664
存在	-8665
早く	-8666
選挙	-8667
aco	-8668
▁Kl	-8669
itan	-8670
▁Als	-8671
▁Lod	-8672
▁aér	-8673
▁انح	-8674
zeigt	-8675
▁Conf	-8676
▁tema	-8677
asthan	-8678
tación	-8679
▁Congo	-8680
▁Durch	-8681
▁Laser	-8682
▁acqua	-8683
▁facil	-8684
▁provo	-8685
▁البحر	-8686
▁الساد	-8687
▁acerca	-8688
▁ascens	-8689
▁combin	-8690
▁gehört	-8691
▁introd	-8692
▁plants	-8693
▁promin	-8694
▁because	-8695
▁corresp	-8696
▁Ergebnis	-8697
▁détermin	-8698
▁reemplaz	-8699
つの	-8700
▁80	-8701
▁Ap	-8702
▁وح	-8703
ande	-8704
ونيا	-8705
▁nov	-8706
▁Ära	-8707
olare	-8708
▁Mond	-8709
▁came	-8710
▁الرب	-8711
▁تعرف	-8712
▁حاول	-8713
achine	-8714
وتردام	-8715
▁posto	-8716
▁charge	-8717
▁gouver	-8718
▁helped	-8719
▁Germany	-8720
▁accordo	-8721
▁celebra	-8722
▁primary	-8723
▁weniger	-8724
▁clasific	-8725
▁montagne	-8726
bew	-8727
roy	-8728
▁Ra	-8729
は何歳	-8730
äger	-8731
▁œuv	-8732
▁بار	-8733
めたのは	-8734
atten	-8735
▁Kind	-8736
▁Nähe	-8737
▁appr	-8738
▁defe	-8739
▁diss	-8740
▁near	-8741
▁يريد	-8742
▁2002?	-8743
▁Whose	-8744
▁award	-8745
▁enter	-8746
▁later	-8747
▁metal	-8748
▁único	-8749
▁اسمها	-8750
▁fusion	-8751
▁membre	-8752
▁السلطة	-8753
▁descend	-8754
▁provide	-8755
▁Kontrolle	-8756
▁ナ	-8757
の主	-8758
スが	-8759
出身	-8760
生産	-8761
aya	-8762
bet	-8763
pre	-8764
ímp	-8765
فات	-8766
orto	-8767
otos	-8768
otti	-8769
upes	-8770
▁fus	-8771
▁hub	-8772
▁mut	-8773
▁nor	-8774
▁اهم	-8775
▁يكن	-8776
hemat	-8777
ivent	-8778
lasse	-8779
▁Asia	-8780
▁Dieu	-8781
▁dess	-8782
▁pied	-8783
▁sout	-8784
▁supr	-8785
いましたか	-8786
gleich	-8787
iembre	-8788
ionali	-8789
▁Under	-8790
▁außer	-8791
▁banda	-8792
▁forte	-8793
▁forze	-8794
▁impro	-8795
▁inaug	-8796
▁sehen	-8797
▁league	-8798
▁الدفاع	-8799
スーパーボウル	-8800
▁Society	-8801
▁finales	-8802
▁trouver	-8803
▁voulait	-8804
▁Virginia	-8805
▁distribu	-8806
▁individu	-8807
▁costruito	-8808
▁eisenhower	-8809
▁development	-8810
▁temperature	-8811
▁relationship	-8812
fs	-8813
知事	-8814
hlt	-8815
oms	-8816
وفر	-8817
ggio	-8818
kien	-8819
▁500	-8820
▁età	-8821
▁hit	-8822
▁vec	-8823
▁احد	-8824
cipit	-8825
itori	-8826
orcha	-8827
▁Bank	-8828
▁prot	-8829
▁الحم	-8830
▁الول	-8831
▁دوري	-8832
▁ريتش	-8833
▁イギリス	-8834
adelph	-8835
▁Green	-8836
▁regla	-8837
▁varia	-8838
▁اطلاق	-8839
▁climat	-8840
▁واشنطن	-8841
▁نوتردام	-8842
▁antorcha	-8843
▁probable	-8844
▁الانترنت	-8845
▁Swaziland	-8846
▁elecciones	-8847
▁introduced	-8848
▁generalmente	-8849
3,	-8850
ダー	-8851
FPA	-8852
ips	-8853
ائن	-8854
▁لف	-8855
ufen	-8856
ومان	-8857
يبيا	-8858
▁Cam	-8859
▁Hot	-8860
▁hon	-8861
▁usb	-8862
nahme	-8863
ático	-8864
▁2016	-8865
▁Anth	-8866
▁Dios	-8867
▁ebre	-8868
▁gain	-8869
▁gilt	-8870
▁sant	-8871
▁التا	-8872
itness	-8873
▁ahora	-8874
▁canon	-8875
▁datos	-8876
▁somet	-8877
▁sound	-8878
▁Russie	-8879
▁asesin	-8880
▁Secondo	-8881
▁anthrop	-8882
▁diritto	-8883
▁frequent	-8884
▁majority	-8885
▁documento	-8886
▁typically	-8887
▁construcción	-8888
-9	-8889
期間	-8890
Dou	-8891
dos	-8892
▁Du	-8893
▁If	-8894
Zeit	-8895
amme	-8896
tage	-8897
ستان	-8898
▁باي	-8899
nelle	-8900
▁Rück	-8901
▁york	-8902
▁annon	-8903
▁asiat	-8904
▁jusqu	-8905
▁libre	-8906
▁viven	-8907
▁Origin	-8908
▁dinero	-8909
▁serait	-8910
▁antigua	-8911
▁carrera	-8912
▁indipend	-8913
▁establish	-8914
▁référence	-8915
▁principali	-8916
▁Griechenland	-8917
Pr	-8918
uz	-8919
調査	-8920
Reg	-8921
enc	-8922
タリア	-8923
heim	-8924
ذافي	-8925
▁Cro	-8926
▁ält	-8927
▁خاص	-8928
したこと	-8929
cteur	-8930
icans	-8931
iquer	-8932
▁Best	-8933
▁Link	-8934
▁adul	-8935
▁afro	-8936
▁army	-8937
▁chez	-8938
▁giud	-8939
▁préd	-8940
▁خارج	-8941
▁كلية	-8942
ikaner	-8943
▁Corée	-8944
▁angeb	-8945
▁avail	-8946
ospital	-8947
▁ciento	-8948
▁determ	-8949
▁regina	-8950
▁الكلاب	-8951
▁Militär	-8952
erlandais	-8953
▁animales	-8954
▁economía	-8955
▁militare	-8956
▁politica	-8957
▁popolare	-8958
▁premières	-8959
が出	-8960
どう	-8961
áne	-8962
دات	-8963
▁BC	-8964
▁sl	-8965
ruck	-8966
usse	-8967
عمال	-8968
▁176	-8969
▁Män	-8970
▁acr	-8971
année	-8972
bbero	-8973
ragen	-8974
وانين	-8975
▁Berg	-8976
▁Eton	-8977
▁Pers	-8978
▁cast	-8979
▁note	-8980
ischer	-8981
▁Korea	-8982
▁genoc	-8983
▁impos	-8984
▁medie	-8985
▁كبيرة	-8986
fassung	-8987
▁fabric	-8988
▁finden	-8989
▁launch	-8990
▁mensch	-8991
▁partes	-8992
▁street	-8993
▁última	-8994
▁بليموث	-8995
▁derecho	-8996
▁erlaubt	-8997
▁funzion	-8998
▁lanzado	-8999
▁Philadelph	-9000
▁Temperatur	-9001
の一	-9002
監督	-9003
ugu	-9004
طات	-9005
لمة	-9006
ctic	-9007
▁177	-9008
▁178	-9009
▁Lab	-9010
▁Pra	-9011
▁adm	-9012
▁adv	-9013
▁pir	-9014
▁urb	-9015
▁ويل	-9016
りますか	-9017
ahlen	-9018
uscon	-9019
▁With	-9020
▁bell	-9021
▁cess	-9022
▁schw	-9023
▁الوز	-9024
▁كيري	-9025
autama	-9026
vasion	-9027
▁rango	-9028
▁refus	-9029
iamento	-9030
rededor	-9031
truktur	-9032
▁antrop	-9033
▁durant	-9034
▁livres	-9035
▁played	-9036
▁quatre	-9037
▁status	-9038
▁الاستق	-9039
▁Nations	-9040
▁comport	-9041
▁supérie	-9042
▁القذافي	-9043
▁relacion	-9044
▁الاقتصاد	-9045
▁croissance	-9046
イト	-9047
iac	-9048
ron	-9049
ñas	-9050
وعة	-9051
يال	-9052
ونية	-9053
▁Tom	-9054
▁ble	-9055
▁fib	-9056
▁low	-9057
▁Gold	-9058
▁less	-9059
▁matr	-9060
▁الفن	-9061
▁Georg	-9062
▁enfer	-9063
▁games	-9064
▁ideal	-9065
glichen	-9066
▁Battle	-9067
▁ancora	-9068
▁battle	-9069
▁belong	-9070
▁lequel	-9071
▁التاسع	-9072
économie	-9073
▁funcion	-9074
▁الطريقة	-9075
▁Università	-9076
▁aeropuerto	-9077
4,	-9078
US	-9079
▁ミ	-9080
プト	-9081
公開	-9082
面積	-9083
pal	-9084
jekt	-9085
oung	-9086
▁Urs	-9087
▁rat	-9088
▁ادى	-9089
▁للب	-9090
について	-9091
aking	-9092
oslav	-9093
▁1920	-9094
▁Fred	-9095
▁Holz	-9096
▁nied	-9097
▁stim	-9098
▁vive	-9099
▁السك	-9100
▁الشي	-9101
lament	-9102
▁2001?	-9103
▁Gebie	-9104
▁ayudó	-9105
▁mismo	-9106
itaires	-9107
▁announ	-9108
▁recens	-9109
▁Theorie	-9110
▁descubr	-9111
▁terrest	-9112
▁الحشرات	-9113
▁entdeckt	-9114
▁estación	-9115
▁ottenuto	-9116
▁británico	-9117
▁rilasciato	-9118
Le	-9119
ضة	-9120
人々	-9121
発見	-9122
oto	-9123
ump	-9124
زني	-9125
どんな	-9126
年から	-9127
agna	-9128
iner	-9129
سيطر	-9130
▁ott	-9131
▁see	-9132
▁ابل	-9133
▁توس	-9134
▁وقد	-9135
alité	-9136
ultan	-9137
▁amen	-9138
▁früh	-9139
▁sacr	-9140
▁الشر	-9141
ansion	-9142
▁Giapp	-9143
▁الصوم	-9144
▁القيا	-9145
▁المدن	-9146
ulation	-9147
▁Ashken	-9148
▁tradic	-9149
▁الحديث	-9150
▁الخارج	-9151
▁السابق	-9152
▁African	-9153
▁dynasty	-9154
▁empresas	-9155
▁político	-9156
▁construyó	-9157
▁enthalten	-9158
▁individual	-9159
TA	-9160
سل	-9161
اند	-9162
شرة	-9163
eras	-9164
ermo	-9165
esen	-9166
iels	-9167
otta	-9168
rano	-9169
لفزي	-9170
▁ciò	-9171
▁dou	-9172
▁sla	-9173
board	-9174
▁acto	-9175
▁clos	-9176
▁läng	-9177
▁noto	-9178
▁poly	-9179
▁spaz	-9180
▁stop	-9181
▁canal	-9182
▁clase	-9183
▁dépla	-9184
▁sería	-9185
▁التبت	-9186
landese	-9187
ruzione	-9188
▁BeiDou	-9189
▁Nation	-9190
▁Somalia	-9191
▁aujourd	-9192
▁estruct	-9193
▁الحرارة	-9194
▁الفرنسي	-9195
▁Catholic	-9196
▁imperial	-9197
▁broadcast	-9198
▁Deutschland	-9199
Is	-9200
iy	-9201
ël	-9202
نك	-9203
▁ヒ	-9204
vos	-9205
▁ak	-9206
rabe	-9207
ارنة	-9208
▁mix	-9209
▁للت	-9210
fluss	-9211
techn	-9212
étude	-9213
▁dial	-9214
▁meas	-9215
▁نادي	-9216
immung	-9217
untain	-9218
▁Samoa	-9219
▁royal	-9220
▁مسؤول	-9221
▁arbeit	-9222
▁perten	-9223
▁strada	-9224
▁époque	-9225
▁انتخاب	-9226
▁network	-9227
▁oficina	-9228
▁systems	-9229
▁travers	-9230
▁الحديثة	-9231
▁المسؤول	-9232
▁producción	-9233
▁soviétique	-9234
öt	-9235
ope	-9236
ätz	-9237
アカデ	-9238
arte	-9239
oden	-9240
unit	-9241
▁Deb	-9242
▁lle	-9243
▁six	-9244
▁شرق	-9245
▁طلب	-9246
▁عضو	-9247
asons	-9248
esten	-9249
inger	-9250
▁dogs	-9251
▁emer	-9252
▁sell	-9253
▁suel	-9254
▁انته	-9255
engono	-9256
▁Champ	-9257
▁altre	-9258
▁doctr	-9259
▁oltre	-9260
▁piano	-9261
▁terra	-9262
▁المشت	-9263
▁سلالة	-9264
▁arrivé	-9265
▁besond	-9266
▁judíos	-9267
▁symbol	-9268
▁África	-9269
▁الخاصة	-9270
▁المنزل	-9271
▁Japanese	-9272
▁cultural	-9273
▁produits	-9274
▁الكلاسيك	-9275
▁controllo	-9276
▁المجموعات	-9277
▁PlayStation	-9278
▁publication	-9279
▁wichtigsten	-9280
wa	-9281
スは	-9282
roc	-9283
فاء	-9284
いつか	-9285
uert	-9286
▁Dec	-9287
▁Rep	-9288
▁reb	-9289
▁web	-9290
▁تاي	-9291
▁وقع	-9292
allen	-9293
indre	-9294
▁Stre	-9295
▁alte	-9296
iciale	-9297
▁2008,	-9298
▁Rolle	-9299
▁asent	-9300
▁libri	-9301
▁notre	-9302
▁preso	-9303
▁proté	-9304
▁Anteil	-9305
▁efecto	-9306
▁marché	-9307
▁moment	-9308
▁economy	-9309
▁europeo	-9310
▁special	-9311
▁Giappone	-9312
▁believed	-9313
▁especial	-9314
▁característica	-9315
ím	-9316
えた	-9317
シェ	-9318
zia	-9319
درة	-9320
ملك	-9321
يبد	-9322
arto	-9323
igan	-9324
ipes	-9325
orts	-9326
ربية	-9327
شروع	-9328
ورية	-9329
▁Ort	-9330
▁bul	-9331
▁طول	-9332
▁ياش	-9333
▁Real	-9334
▁USAF	-9335
▁bere	-9336
▁cere	-9337
▁know	-9338
▁reun	-9339
▁suff	-9340
▁tama	-9341
▁بانه	-9342
prises	-9343
wealth	-9344
époque	-9345
▁Broad	-9346
▁Juifs	-9347
▁Rusia	-9348
▁comté	-9349
idencia	-9350
▁assist	-9351
▁contrô	-9352
▁cuatro	-9353
▁الطريق	-9354
▁ياشيبد	-9355
▁avrebbe	-9356
▁causato	-9357
▁moderna	-9358
▁publicó	-9359
▁البحرية	-9360
▁systèmes	-9361
▁Macintosh	-9362
▁américains	-9363
1,	-9364
dr	-9365
gn	-9366
ko	-9367
ビア	-9368
王国	-9369
Afr	-9370
ège	-9371
ربع	-9372
▁از	-9373
は何の	-9374
ヨーク	-9375
ills	-9376
kins	-9377
▁Cop	-9378
▁blo	-9379
▁ehe	-9380
▁típ	-9381
▁ذات	-9382
ackel	-9383
▁Bond	-9384
▁Jose	-9385
▁Lord	-9386
▁Wahl	-9387
▁dame	-9388
▁hinz	-9389
▁hunt	-9390
▁vote	-9391
▁الاز	-9392
▁عنها	-9393
▁accue	-9394
▁dedic	-9395
▁ebrei	-9396
▁passe	-9397
▁stile	-9398
▁اجهزة	-9399
▁الميل	-9400
人は誰ですか	-9401
▁County	-9402
▁Kansas	-9403
▁Muslim	-9404
▁aperto	-9405
▁method	-9406
▁trouvé	-9407
▁Michael	-9408
▁antiguo	-9409
▁gaddafi	-9410
▁nations	-9411
▁recibió	-9412
▁influenz	-9413
▁province	-9414
▁sistemas	-9415
▁Wirtschaft	-9416
El	-9417
に関	-9418
時間	-9419
asc	-9420
ych	-9421
اكم	-9422
كلة	-9423
لاث	-9424
▁ジョ	-9425
immt	-9426
تجاه	-9427
zogen	-9428
ينيسي	-9429
▁Army	-9430
▁well	-9431
▁état	-9432
▁سويس	-9433
ección	-9434
▁Hunde	-9435
▁avere	-9436
▁extre	-9437
▁lanzó	-9438
▁minim	-9439
▁movie	-9440
▁razón	-9441
▁جوائز	-9442
となったのは	-9443
▁captur	-9444
▁conven	-9445
▁Islands	-9446
▁exemple	-9447
▁madaris	-9448
▁respect	-9449
▁السياسي	-9450
▁problème	-9451
▁performan	-9452
▁propriété	-9453
▁continente	-9454
▁représente	-9455
▁arquitectura	-9456
▁estadounidenses	-9457
gé	-9458
デン	-9459
以上	-9460
同盟	-9461
iny	-9462
سسة	-9463
سين	-9464
فاظ	-9465
▁SN	-9466
aken	-9467
illo	-9468
ints	-9469
onse	-9470
orno	-9471
▁Are	-9472
▁ora	-9473
▁rul	-9474
▁éch	-9475
ieurs	-9476
örder	-9477
جمالي	-9478
▁Trad	-9479
▁foss	-9480
▁gele	-9481
▁lois	-9482
▁vier	-9483
▁الحق	-9484
▁اللا	-9485
▁داخل	-9486
accord	-9487
années	-9488
imenti	-9489
▁costa	-9490
▁lanci	-9491
▁trade	-9492
▁التوق	-9493
▁انحاء	-9494
reichen	-9495
▁Common	-9496
▁Somali	-9497
▁dimens	-9498
▁gruppi	-9499
▁برنامج	-9500
▁include	-9501
épendance	-9502
▁Mehrheit	-9503
▁majorité	-9504
▁promedio	-9505
▁résident	-9506
▁المعروفة	-9507
▁República	-9508
▁propiedad	-9509
▁recherche	-9510
▁associated	-9511
▁offizielle	-9512
RA	-9513
ネル	-9514
ージ	-9515
政府	-9516
登場	-9517
kin	-9518
▁UE	-9519
▁تر	-9520
ディズ	-9521
tura	-9522
▁Ben	-9523
▁dov	-9524
▁ign	-9525
▁جيم	-9526
arias	-9527
bsite	-9528
onato	-9529
▁Live	-9530
▁fore	-9531
▁جزءا	-9532
enswer	-9533
كنولوج	-9534
▁Court	-9535
▁attiv	-9536
▁birds	-9537
▁estos	-9538
▁famig	-9539
▁fundó	-9540
▁miles	-9541
▁sulle	-9542
▁روسيا	-9543
▁fondée	-9544
▁instal	-9545
▁الاقلي	-9546
▁Records	-9547
▁parfois	-9548
▁rivière	-9549
▁soutenu	-9550
▁started	-9551
▁المانيا	-9552
▁dinastia	-9553
▁meilleur	-9554
▁utilisent	-9555
▁universidades	-9556
明治	-9557
最大	-9558
ترح	-9559
▁حل	-9560
itet	-9561
omes	-9562
وائل	-9563
▁piè	-9564
▁rib	-9565
▁vio	-9566
▁حقق	-9567
ètres	-9568
اريات	-9569
▁Show	-9570
▁Skla	-9571
▁fatt	-9572
▁food	-9573
▁haut	-9574
▁lign	-9575
▁جبال	-9576
▁ماري	-9577
antage	-9578
▁donde	-9579
▁ihrem	-9580
▁الامم	-9581
▁الفرق	-9582
amerika	-9583
▁Wessen	-9584
▁erklär	-9585
▁Eritrea	-9586
▁environ	-9587
▁fédéral	-9588
▁erstellt	-9589
▁geschickt	-9590
▁originally	-9591
PC	-9592
主義	-9593
地方	-9594
iso	-9595
urz	-9596
اول	-9597
▁لأ	-9598
者は誰	-9599
osex	-9600
ögel	-9601
▁You	-9602
▁sor	-9603
▁étr	-9604
▁لدى	-9605
lande	-9606
▁1992	-9607
▁Einw	-9608
▁surn	-9609
▁الاه	-9610
▁الشه	-9611
▁essay	-9612
▁situé	-9613
▁vidéo	-9614
▁élevé	-9615
▁كارول	-9616
anasius	-9617
▁compan	-9618
▁ehemal	-9619
▁sollte	-9620
▁teatro	-9621
▁troops	-9622
▁tuvalu	-9623
▁usando	-9624
▁تينيسي	-9625
▁Spanish	-9626
▁consent	-9627
▁miglior	-9628
▁troupes	-9629
▁comercio	-9630
▁referred	-9631
geschlagen	-9632
▁ufficiale	-9633
▁gesprochen	-9634
▁televisión	-9635
▁フ	-9636
ブラ	-9637
機関	-9638
aker	-9639
ocon	-9640
seln	-9641
ught	-9642
werk	-9643
ريبا	-9644
وسطن	-9645
▁Rod	-9646
▁coû	-9647
▁lui	-9648
▁sil	-9649
はどこで	-9650
ieden	-9651
parte	-9652
union	-9653
وسكار	-9654
▁Dest	-9655
▁neur	-9656
▁spok	-9657
▁tipi	-9658
▁تقوم	-9659
andelt	-9660
▁Kraft	-9661
▁jetzt	-9662
▁trait	-9663
▁الحدث	-9664
▁الخشب	-9665
▁الصيف	-9666
▁acquis	-9667
▁affili	-9668
▁aurait	-9669
▁corpor	-9670
▁modelo	-9671
▁Digimon	-9672
▁connect	-9673
▁hombres	-9674
▁purpose	-9675
▁solaire	-9676
▁الوزراء	-9677
Allemagne	-9678
▁according	-9679
▁available	-9680
▁sviluppato	-9681
▁institution	-9682
▁néerlandais	-9683
▁amerikanischen	-9684
7,	-9685
ee	-9686
اخ	-9687
活動	-9688
انا	-9689
جمع	-9690
رشح	-9691
quer	-9692
ways	-9693
▁CBC	-9694
▁Dio	-9695
▁dav	-9696
▁mez	-9697
▁nat	-9698
▁بنا	-9699
▁مقر	-9700
いたのは	-9701
endet	-9702
ommes	-9703
stand	-9704
▁Stil	-9705
▁basa	-9706
▁mant	-9707
▁sare	-9708
▁Marie	-9709
▁áreas	-9710
▁كنيسة	-9711
▁causes	-9712
▁regiert	-9713
ariamente	-9714
▁formation	-9715
▁produzione	-9716
architecture	-9717
▁Architektur	-9718
▁principalement	-9719
NU	-9720
مم	-9721
▁本	-9722
える	-9723
クロ	-9724
部隊	-9725
領土	-9726
adi	-9727
upe	-9728
شار	-9729
لهي	-9730
وعا	-9731
▁ár	-9732
人は誰	-9733
日本の	-9734
alie	-9735
odes	-9736
يناء	-9737
▁Ast	-9738
▁NES	-9739
▁Pan	-9740
▁باع	-9741
▁دار	-9742
▁وصف	-9743
の名前は	-9744
altet	-9745
ongol	-9746
orfen	-9747
orial	-9748
ليدية	-9749
▁Band	-9750
▁Carn	-9751
▁عالم	-9752
auteur	-9753
▁Angel	-9754
▁clubs	-9755
▁inten	-9756
▁nativ	-9757
▁ruolo	-9758
▁today	-9759
▁école	-9760
▁تحتوي	-9761
▁colore	-9762
▁propós	-9763
▁ارتفاع	-9764
▁المحلي	-9765
▁التاثير	-9766
▁Birmania	-9767
▁apparten	-9768
▁pubblica	-9769
▁باستخدام	-9770
▁attraverso	-9771
▁controvers	-9772
▁considerado	-9773
.0	-9774
??	-9775
ao	-9776
▁q	-9777
bly	-9778
اكل	-9779
▁eg	-9780
▁تز	-9781
aine	-9782
halt	-9783
rary	-9784
▁Sub	-9785
▁hid	-9786
▁hoy	-9787
▁رسم	-9788
▁كال	-9789
artet	-9790
byter	-9791
field	-9792
reibt	-9793
▁Gott	-9794
▁cito	-9795
▁erit	-9796
▁meno	-9797
▁père	-9798
▁كندا	-9799
ensive	-9800
▁Entre	-9801
▁haber	-9802
▁novel	-9803
▁paper	-9804
▁rival	-9805
▁بحلول	-9806
estellt	-9807
▁Martin	-9808
▁Potter	-9809
▁bouddh	-9810
▁libert	-9811
▁tamaño	-9812
▁travel	-9813
▁الحالي	-9814
▁familia	-9815
▁nazione	-9816
▁prevent	-9817
▁beaucoup	-9818
▁sometimes	-9819
▁whitehead	-9820
▁République	-9821
ué	-9822
ót	-9823
の著	-9824
以外	-9825
使わ	-9826
地震	-9827
独立	-9828
電所	-9829
oce	-9830
جال	-9831
خرج	-9832
قال	-9833
▁éx	-9834
▁تؤ	-9835
▁فل	-9836
アルバ	-9837
avia	-9838
uble	-9839
urso	-9840
ayana	-9841
immen	-9842
utter	-9843
ónica	-9844
▁Kamp	-9845
▁Patr	-9846
▁mamm	-9847
▁mati	-9848
▁size	-9849
Égypte	-9850
▁españ	-9851
▁vista	-9852
二次世界大戦	-9853
▁access	-9854
▁ayudar	-9855
▁bemerk	-9856
▁tropas	-9857
▁console	-9858
▁gezeigt	-9859
▁happens	-9860
▁lumière	-9861
▁افريقيا	-9862
▁الشمسية	-9863
▁Bretagna	-9864
▁bacteria	-9865
▁befinden	-9866
▁contient	-9867
▁genommen	-9868
▁الحديدية	-9869
▁Barcelone	-9870
▁problemas	-9871
▁angefangen	-9872
▁discovered	-9873
▁influenced	-9874
▁philosophie	-9875
長い	-9876
uit	-9877
▁Zy	-9878
は何を	-9879
ektr	-9880
erva	-9881
gers	-9882
olas	-9883
phen	-9884
ابات	-9885
رحلة	-9886
▁Nov	-9887
▁rin	-9888
▁rue	-9889
▁بيع	-9890
▁عدم	-9891
▁هيل	-9892
zlach	-9893
ترويت	-9894
▁Bede	-9895
▁Giov	-9896
▁Janu	-9897
▁cató	-9898
▁flor	-9899
▁town	-9900
كتيريا	-9901
▁Child	-9902
▁Desde	-9903
▁Suiza	-9904
ecutive	-9905
▁Fackel	-9906
▁dehors	-9907
▁intent	-9908
▁jamais	-9909
▁recogn	-9910
▁später	-9911
▁السادس	-9912
▁changes	-9913
▁miembro	-9914
▁monarch	-9915
▁méthode	-9916
▁commonly	-9917
▁included	-9918
▁interest	-9919
lé	-9920
يغ	-9921
の国	-9922
ウム	-9923
ミネ	-9924
動物	-9925
同じ	-9926
öße	-9927
رار	-9928
سخة	-9929
هار	-9930
▁لش	-9931
aben	-9932
alto	-9933
etro	-9934
▁lit	-9935
▁nie	-9936
▁vir	-9937
▁جدا	-9938
▁وين	-9939
▁Eine	-9940
▁Meer	-9941
▁Sina	-9942
▁ohne	-9943
▁orig	-9944
▁papa	-9945
▁الطب	-9946
されていた	-9947
hungen	-9948
ichten	-9949
▁1990?	-9950
▁2009,	-9951
▁alten	-9952
▁estat	-9953
▁navig	-9954
▁zones	-9955
▁أفلام	-9956
▁تشارل	-9957
▁bietet	-9958
▁secret	-9959
▁wollte	-9960
▁القيام	-9961
▁distrit	-9962
▁trovava	-9963
▁الاسلام	-9964
industrie	-9965
▁location	-9966
▁présenté	-9967
▁sociedad	-9968
▁enregistr	-9969
▁programma	-9970
▁utilisées	-9971
▁étudiants	-9972
▁اليونانية	-9973
▁Präsidenten	-9974
▁vorgeschlagen	-9975
、「	-9976
それ	-9977
の大	-9978
の間	-9979
もっ	-9980
何日	-9981
cla	-9982
gio	-9983
obb	-9984
اضي	-9985
تبع	-9986
▁Op	-9987
▁شر	-9988
hang	-9989
ître	-9990
ائلة	-9991
ستون	-9992
مبية	-9993
▁Kie	-9994
▁ple	-9995
▁wid	-9996
▁صنا	-9997
▁فتح	-9998
utung	-9999
ريكان	-10000
زنيجر	-10001
▁Merc	-10002
▁nick	-10003
▁parc	-10004
▁read	-10005
▁الرئ	-10006
▁روما	-10007
Cuándo	-10008
▁Enter	-10009
▁annun	-10010
▁façon	-10011
▁العرق	-10012
chester	-10013
▁Awards	-10014
▁bactér	-10015
▁elektr	-10016
▁الكلمة	-10017
▁informa	-10018
▁publica	-10019
▁público	-10020
▁vengono	-10021
▁replaced	-10022
▁trouvait	-10023
▁financial	-10024
▁California	-10025
▁Verfassung	-10026
▁الانتخابات	-10027
▁importantes	-10028
لى	-10029
ジラ	-10030
スク	-10031
ocr	-10032
ارس	-10033
بين	-10034
ستر	-10035
علة	-10036
▁Ak	-10037
▁TB	-10038
hren	-10039
icle	-10040
idio	-10041
itch	-10042
itte	-10043
taat	-10044
▁Mem	-10045
▁cac	-10046
▁got	-10047
▁اير	-10048
▁ديل	-10049
▁منه	-10050
ahmen	-10051
conóm	-10052
ufact	-10053
▁Lage	-10054
▁Schw	-10055
▁bank	-10056
▁face	-10057
▁meet	-10058
▁sequ	-10059
ership	-10060
jectif	-10061
▁ausge	-10062
▁bezie	-10063
▁ganar	-10064
▁mosaï	-10065
▁teach	-10066
▁Gebiet	-10067
▁Impero	-10068
▁Kanada	-10069
▁Middle	-10070
▁famili	-10071
▁garant	-10072
▁romana	-10073
وارزنيجر	-10074
▁acquist	-10075
何年のことですか	-10076
▁director	-10077
▁protagon	-10078
▁companies	-10079
▁transform	-10080
▁changement	-10081
▁costruzione	-10082
▁crecimiento	-10083
ウォ	-10084
モン	-10085
hir	-10086
ملة	-10087
▁مر	-10088
moto	-10089
▁etn	-10090
に対する	-10091
▁2021	-10092
▁Trib	-10093
▁artí	-10094
▁born	-10095
▁chaî	-10096
▁pasa	-10097
▁scon	-10098
▁المه	-10099
ilosop	-10100
terior	-10101
ulture	-10102
▁Flugh	-10103
▁Power	-10104
▁gradu	-10105
▁klass	-10106
▁kommt	-10107
▁russe	-10108
▁الممت	-10109
▁ejecut	-10110
▁tenido	-10111
▁terror	-10112
▁uscito	-10113
▁beyonce	-10114
▁records	-10115
▁اعتبارا	-10116
▁ديترويت	-10117
▁Amérique	-10118
▁التجارية	-10119
▁الكمبيوتر	-10120
▁principios	-10121
▁température	-10122
とき	-10123
inf	-10124
قية	-10125
هوم	-10126
ياس	-10127
vous	-10128
▁Bib	-10129
▁Sil	-10130
▁cli	-10131
図書館の	-10132
▁Cost	-10133
amment	-10134
▁1970?	-10135
▁genes	-10136
▁micro	-10137
▁modif	-10138
▁resol	-10139
▁works	-10140
▁الماء	-10141
▁بداية	-10142
▁يتحدث	-10143
▁Punjab	-10144
▁valeur	-10145
▁تقريبا	-10146
adamente	-10147
▁feynman	-10148
▁marshall	-10149
▁naciones	-10150
▁proyecto	-10151
▁required	-10152
▁الاساسية	-10153
enschaften	-10154
▁frecuencia	-10155
▁philosophy	-10156
▁originalmente	-10157
SO	-10158
ré	-10159
▁メ	-10160
▁南	-10161
キー	-10162
数は	-10163
rif	-10164
انة	-10165
لاك	-10166
هات	-10167
هرج	-10168
▁DC	-10169
▁gl	-10170
fügt	-10171
▁Did	-10172
▁Ham	-10173
▁tir	-10174
▁عبر	-10175
生まれた	-10176
achst	-10177
ients	-10178
illos	-10179
زابيث	-10180
▁Mosa	-10181
▁منزل	-10182
られたのは	-10183
▁Firma	-10184
▁conna	-10185
minster	-10186
▁calcio	-10187
▁décenn	-10188
▁económ	-10189
▁método	-10190
▁signal	-10191
▁سويسرا	-10192
▁Alexand	-10193
▁croyait	-10194
▁equipos	-10195
▁incandes	-10196
▁particul	-10197
▁question	-10198
▁Beziehung	-10199
▁Unterstüt	-10200
▁terremoto	-10201
▁biblioteca	-10202
▁politiques	-10203
▁responsabil	-10204
ダル	-10205
首都	-10206
▁أص	-10207
▁دم	-10208
▁مد	-10209
aged	-10210
graf	-10211
ötet	-10212
رامي	-10213
▁oro	-10214
▁rag	-10215
▁بود	-10216
▁شهر	-10217
▁Game	-10218
▁Sovi	-10219
▁Wass	-10220
▁días	-10221
▁neut	-10222
▁tout	-10223
▁vitt	-10224
▁حاكم	-10225
▁مبنى	-10226
▁ينظر	-10227
られている	-10228
▁créée	-10229
▁pense	-10230
▁range	-10231
▁subst	-10232
▁البرا	-10233
▁تغيير	-10234
者は誰ですか	-10235
▁Buddha	-10236
▁Jahres	-10237
▁questa	-10238
▁البروت	-10239
▁البيان	-10240
▁Truppen	-10241
▁plantes	-10242
▁suprême	-10243
▁uranium	-10244
▁Material	-10245
▁statunit	-10246
enaissance	-10247
▁الاوروبية	-10248
▁البريطاني	-10249
SF	-10250
اذ	-10251
وص	-10252
を務	-10253
サー	-10254
世が	-10255
生息	-10256
box	-10257
edy	-10258
gor	-10259
ohl	-10260
وتي	-10261
ياه	-10262
▁Ce	-10263
ring	-10264
uper	-10265
zähl	-10266
ائمة	-10267
▁Kap	-10268
になった	-10269
issen	-10270
ueblo	-10271
▁mess	-10272
▁جهاز	-10273
iscono	-10274
itaria	-10275
▁causé	-10276
▁ideas	-10277
▁بطولة	-10278
enseign	-10279
ktionen	-10280
▁belieb	-10281
▁diminu	-10282
▁nature	-10283
▁return	-10284
されていますか	-10285
position	-10286
▁Montana	-10287
▁Switzer	-10288
▁airport	-10289
acionales	-10290
▁Bewegung	-10291
▁sviluppo	-10292
▁gestartet	-10293
▁identific	-10294
▁implement	-10295
▁sostenuto	-10296
وغ	-10297
ラム	-10298
鉄道	-10299
ède	-10300
شاء	-10301
صور	-10302
ولد	-10303
▁45	-10304
▁Ag	-10305
ートル	-10306
-201	-10307
isée	-10308
osto	-10309
واية	-10310
▁reç	-10311
▁ولد	-10312
ering	-10313
▁Cypr	-10314
▁died	-10315
▁farm	-10316
▁fron	-10317
▁تشير	-10318
▁Menge	-10319
▁ayuda	-10320
▁fuori	-10321
▁moyen	-10322
▁third	-10323
▁سياتل	-10324
▁Parigi	-10325
▁Unione	-10326
▁nieder	-10327
▁selbst	-10328
▁ancient	-10329
▁devenir	-10330
▁digital	-10331
▁livello	-10332
▁nanjing	-10333
▁premios	-10334
▁Mitglied	-10335
▁Unabhäng	-10336
▁geglaubt	-10337
▁naturale	-10338
▁dominante	-10339
▁nouvelles	-10340
▁disponible	-10341
▁imperatore	-10342
▁populations	-10343
9,	-10344
年代	-10345
rän	-10346
جلة	-10347
رفة	-10348
يكا	-10349
▁سل	-10350
edia	-10351
iane	-10352
iett	-10353
inée	-10354
ritt	-10355
uste	-10356
▁Hal	-10357
▁Haw	-10358
▁Int	-10359
▁TCM	-10360
▁Way	-10361
iados	-10362
table	-10363
شلونة	-10364
▁Fakt	-10365
▁Rang	-10366
▁Reno	-10367
▁coin	-10368
▁fail	-10369
▁fest	-10370
▁park	-10371
▁المر	-10372
▁abrió	-10373
▁afect	-10374
▁denen	-10375
▁esist	-10376
▁formó	-10377
▁oeste	-10378
▁salió	-10379
▁write	-10380
▁بوسطن	-10381
▁زيادة	-10382
▁Columb	-10383
▁ethnic	-10384
▁rights	-10385
▁الشعلة	-10386
▁Bildung	-10387
▁Ländern	-10388
▁aircraft	-10389
▁musicale	-10390
▁rapporto	-10391
▁aeroporto	-10392
▁películas	-10393
▁propósito	-10394
▁provincia	-10395
▁الهولندية	-10396
▁Buckingham	-10397
▁considérée	-10398
▁contribuito	-10399
ae	-10400
ép	-10401
きた	-10402
なん	-10403
エル	-10404
▁Ac	-10405
▁vé	-10406
▁لد	-10407
▁ها	-10408
ペイン	-10409
ised	-10410
ugen	-10411
écur	-10412
ثناء	-10413
▁océ	-10414
▁بما	-10415
▁دعم	-10416
▁للن	-10417
何ですか	-10418
abord	-10419
▁Time	-10420
▁irán	-10421
▁pont	-10422
▁والد	-10423
gliche	-10424
▁citiz	-10425
▁nuova	-10426
▁offre	-10427
▁parmi	-10428
▁البوم	-10429
ientras	-10430
ikistan	-10431
▁Associ	-10432
▁acción	-10433
▁comand	-10434
▁combat	-10435
▁quitté	-10436
▁sortie	-10437
▁beendet	-10438
▁besteht	-10439
▁besucht	-10440
▁erklärt	-10441
▁letzten	-10442
▁Giovanni	-10443
▁election	-10444
▁remplacé	-10445
▁Bedeutung	-10446
▁Switzerland	-10447
▁Britanniques	-10448
いの	-10449
ラク	-10450
者の	-10451
imp	-10452
yse	-10453
ägt	-10454
تمر	-10455
على	-10456
▁60	-10457
▁IV	-10458
▁أن	-10459
▁وم	-10460
の作品	-10461
aton	-10462
يديو	-10463
▁ast	-10464
▁فقد	-10465
▁للط	-10466
مارية	-10467
▁1943	-10468
▁Cast	-10469
▁Dire	-10470
▁atom	-10471
▁hieß	-10472
▁saga	-10473
▁torn	-10474
▁vinc	-10475
▁القب	-10476
▁مرتب	-10477
の名前は何	-10478
etzung	-10479
minist	-10480
▁Human	-10481
▁habla	-10482
▁immer	-10483
▁malad	-10484
▁suite	-10485
▁valor	-10486
▁اهوما	-10487
▁شيوعا	-10488
▁قاعدة	-10489
▁Afrika	-10490
▁expand	-10491
▁inclus	-10492
▁romain	-10493
▁Besides	-10494
▁entfern	-10495
▁policía	-10496
▁regular	-10497
éducation	-10498
▁manchmal	-10499
▁Presbyter	-10500
▁migration	-10501
▁problèmes	-10502
▁römischen	-10503
▁Unabhängigkeit	-10504
يق	-10505
アー	-10506
トン	-10507
支配	-10508
émo	-10509
ائي	-10510
زين	-10511
で一番	-10512
iest	-10513
onen	-10514
onné	-10515
راجع	-10516
▁wir	-10517
しますか	-10518
avoir	-10519
erset	-10520
graph	-10521
icios	-10522
▁FIFA	-10523
▁fand	-10524
▁kein	-10525
▁liqu	-10526
▁العق	-10527
▁حركة	-10528
علومات	-10529
▁Alter	-10530
▁cross	-10531
▁fosse	-10532
▁issue	-10533
▁nello	-10534
▁sitio	-10535
▁staat	-10536
▁stock	-10537
▁unión	-10538
▁wegen	-10539
▁éxito	-10540
▁الالب	-10541
بيونسيه	-10542
▁allgem	-10543
▁antigu	-10544
▁higher	-10545
▁office	-10546
▁strutt	-10547
▁tenían	-10548
▁الهجرة	-10549
ologique	-10550
▁chinois	-10551
▁oiseaux	-10552
▁permite	-10553
▁relativ	-10554
▁britannico	-10555
▁dichiarato	-10556
▁principaux	-10557
▁amerikanische	-10558
xi	-10559
年は	-10560
日の	-10561
Arm	-10562
ery	-10563
ايك	-10564
برغ	-10565
تهي	-10566
ضية	-10567
どこに	-10568
ストラ	-10569
大きな	-10570
cles	-10571
hnen	-10572
ieri	-10573
état	-10574
رشال	-10575
▁ibn	-10576
▁mob	-10577
▁süd	-10578
eitet	-10579
forma	-10580
olfen	-10581
äsent	-10582
üssen	-10583
▁rech	-10584
▁نانج	-10585
▁2012,	-10586
▁Arena	-10587
▁makes	-10588
▁medic	-10589
▁الديم	-10590
▁السكك	-10591
▁والتي	-10592
ニューヨーク	-10593
▁Gouver	-10594
▁LaserD	-10595
▁erhöht	-10596
▁fuerte	-10597
▁growth	-10598
▁mascul	-10599
▁réseau	-10600
▁toutes	-10601
▁الوحيد	-10602
▁مارشال	-10603
akterien	-10604
▁atteint	-10605
▁brought	-10606
▁getötet	-10607
▁برشلونة	-10608
▁enfermed	-10609
▁geholfen	-10610
▁ايزنهاور	-10611
▁Rajasthan	-10612
▁المستخدمة	-10613
▁británicos	-10614
▁conditions	-10615
▁recensement	-10616
Es	-10617
ノー	-10618
▁má	-10619
ゴジラ	-10620
izei	-10621
▁Gra	-10622
▁Has	-10623
▁Ord	-10624
▁Sat	-10625
▁flo	-10626
▁mid	-10627
▁ráp	-10628
アフリカ	-10629
icien	-10630
lemán	-10631
▁Kenn	-10632
▁Lanc	-10633
▁Mann	-10634
▁Star	-10635
▁acus	-10636
▁conj	-10637
▁jeux	-10638
▁sept	-10639
▁السي	-10640
▁منصب	-10641
▁يزال	-10642
しているの	-10643
どれですか	-10644
▁along	-10645
▁enseñ	-10646
▁every	-10647
▁until	-10648
何年のことか	-10649
▁killed	-10650
▁المواد	-10651
▁بجائزة	-10652
براطورية	-10653
▁Amerika	-10654
▁benannt	-10655
▁sociale	-10656
▁subject	-10657
▁الجنوبي	-10658
▁الرومان	-10659
▁الهندسة	-10660
ellschaft	-10661
▁Englisch	-10662
▁Pakistan	-10663
▁previous	-10664
▁البرتغال	-10665
▁النباتات	-10666
▁comúnmente	-10667
-3	-10668
SP	-10669
▁ピ	-10670
、『	-10671
朝の	-10672
ibe	-10673
روس	-10674
نائ	-10675
▁én	-10676
は誰が	-10677
当時の	-10678
avía	-10679
irió	-10680
uern	-10681
▁175	-10682
▁leb	-10683
▁oct	-10684
▁prá	-10685
▁ved	-10686
▁vig	-10687
front	-10688
ished	-10689
onian	-10690
▁Inde	-10691
▁Jeff	-10692
▁Liga	-10693
▁abge	-10694
▁seen	-10695
▁sexu	-10696
▁النح	-10697
▁تقدم	-10698
▁Größe	-10699
▁censo	-10700
▁dalle	-10701
▁perso	-10702
▁signé	-10703
▁Kompon	-10704
▁Suisse	-10705
▁affirm	-10706
▁export	-10707
▁fuente	-10708
▁pueblo	-10709
▁المفتر	-10710
stellung	-10711
▁animals	-10712
▁defensa	-10713
▁verific	-10714
▁without	-10715
したのは誰ですか	-10716
icialmente	-10717
▁ロ	-10718
の本	-10719
amt	-10720
ekt	-10721
orf	-10722
urg	-10723
utz	-10724
ابا	-10725
الف	-10726
لات	-10727
يتو	-10728
かれた	-10729
してい	-10730
フォル	-10731
adém	-10732
ocia	-10733
افية	-10734
سكان	-10735
▁Bal	-10736
▁Pir	-10737
▁She	-10738
▁erk	-10739
▁حجم	-10740
どちらか	-10741
innen	-10742
onsor	-10743
▁aere	-10744
▁chem	-10745
▁fino	-10746
▁jugó	-10747
▁pain	-10748
▁roya	-10749
▁العم	-10750
okkien	-10751
schung	-10752
▁2011,	-10753
▁autom	-10754
▁delhi	-10755
▁emplo	-10756
▁golpe	-10757
▁jours	-10758
▁villa	-10759
▁الطرق	-10760
erstand	-10761
liament	-10762
▁Landes	-10763
▁kommen	-10764
كنولوجيا	-10765
▁inaugur	-10766
▁ricerca	-10767
▁todavía	-10768
▁Caroline	-10769
▁francesi	-10770
▁involved	-10771
▁japonais	-10772
▁maggiore	-10773
▁tribunal	-10774
▁européenne	-10775
▁häufigsten	-10776
▁université	-10777
▁utilizzati	-10778
演じ	-10779
被害	-10780
put	-10781
éch	-10782
اما	-10783
تون	-10784
時点で	-10785
aban	-10786
bury	-10787
énie	-10788
موند	-10789
▁Bed	-10790
▁Day	-10791
▁Erw	-10792
▁Kup	-10793
▁lok	-10794
▁يدع	-10795
ouest	-10796
udson	-10797
▁astr	-10798
▁sopr	-10799
▁المغ	-10800
▁Conne	-10801
▁Vögel	-10802
▁cover	-10803
▁obras	-10804
▁عنوان	-10805
amentos	-10806
bellion	-10807
ontroll	-10808
▁entsch	-10809
▁infant	-10810
▁proven	-10811
▁puerto	-10812
▁توفالو	-10813
▁Airport	-10814
▁Freddie	-10815
▁fondata	-10816
▁llamaba	-10817
▁militär	-10818
▁mondial	-10819
▁related	-10820
▁نانجينج	-10821
▁Russland	-10822
▁examples	-10823
▁كارولينا	-10824
▁proprietà	-10825
▁universal	-10826
▁الرومانية	-10827
▁desarrolló	-10828
▁territoire	-10829
▁disponibles	-10830
▁information	-10831
DS	-10832
EC	-10833
時の	-10834
議員	-10835
egt	-10836
ihe	-10837
jes	-10838
uez	-10839
الن	-10840
وسي	-10841
amas	-10842
chan	-10843
oyen	-10844
umes	-10845
▁Jay	-10846
▁cic	-10847
▁ern	-10848
▁tab	-10849
▁اسس	-10850
▁توم	-10851
itude	-10852
redit	-10853
tient	-10854
▁1984	-10855
▁Sign	-10856
▁lago	-10857
▁oggi	-10858
▁unif	-10859
▁والع	-10860
▁Daten	-10861
▁parts	-10862
▁Übers	-10863
▁منظمة	-10864
▁Design	-10865
▁Prince	-10866
▁Städte	-10867
▁changé	-10868
▁halten	-10869
▁oldest	-10870
▁statut	-10871
▁اللعبة	-10872
cription	-10873
tainment	-10874
▁Austria	-10875
▁Détroit	-10876
▁consist	-10877
▁dirigió	-10878
▁modello	-10879
▁suggest	-10880
▁augmenté	-10881
▁commerce	-10882
▁elemento	-10883
▁العسكرية	-10884
▁maintenant	-10885
▁الكلاسيكية	-10886
ód	-10887
▁ó	-10888
利用	-10889
abt	-10890
ieu	-10891
iód	-10892
obs	-10893
raî	-10894
ائر	-10895
زاء	-10896
طية	-10897
すると	-10898
hood	-10899
rift	-10900
▁Boy	-10901
▁Mot	-10902
▁PIB	-10903
▁Ven	-10904
▁ash	-10905
▁dat	-10906
▁élu	-10907
はどこに	-10908
liest	-10909
unter	-10910
سيقية	-10911
▁allo	-10912
▁entw	-10913
▁luce	-10914
▁تظهر	-10915
Inseln	-10916
ettbew	-10917
ezioni	-10918
▁Moyen	-10919
▁Zweck	-10920
▁jedes	-10921
▁السري	-10922
▁الشمس	-10923
▁Sowjet	-10924
▁مقارنة	-10925
▁Service	-10926
▁Station	-10927
▁conseil	-10928
▁gekauft	-10929
▁guidato	-10930
▁matière	-10931
▁montaña	-10932
▁الاعمال	-10933
▁Künstler	-10934
▁designed	-10935
▁Luftwaffe	-10936
▁الامريكيين	-10937
▁dispositivo	-10938
▁scientifique	-10939
xt	-10940
ül	-10941
時に	-10942
ush	-10943
بيق	-10944
خفض	-10945
▁Kü	-10946
▁Of	-10947
イング	-10948
スティ	-10949
hmen	-10950
iare	-10951
isés	-10952
nell	-10953
ogue	-10954
▁Mor	-10955
▁jem	-10956
▁neu	-10957
▁كما	-10958
ワールド	-10959
icana	-10960
élior	-10961
▁Bomb	-10962
▁HDTV	-10963
▁décl	-10964
▁fast	-10965
▁gave	-10966
▁iniz	-10967
▁lamp	-10968
▁انهم	-10969
▁بناؤ	-10970
pieler	-10971
▁Sound	-10972
▁apoyo	-10973
▁congr	-10974
▁extin	-10975
▁guard	-10976
▁lleva	-10977
▁magas	-10978
▁reduz	-10979
▁مستوى	-10980
▁Schiff	-10981
▁histór	-10982
▁mesure	-10983
▁nación	-10984
▁periód	-10985
▁الحدود	-10986
▁الحكوم	-10987
▁المحيط	-10988
getreten	-10989
▁Central	-10990
▁colonie	-10991
▁humains	-10992
▁podrían	-10993
▁ranking	-10994
▁الاشارة	-10995
▁الصينية	-10996
▁المجتمع	-10997
▁Computer	-10998
▁millones	-10999
▁sexuelle	-11000
▁bacterias	-11001
▁dirección	-11002
▁corruption	-11003
▁commerciale	-11004
▁différentes	-11005
▁traditional	-11006
22	-11007
TO	-11008
äß	-11009
حو	-11010
完成	-11011
▁ار	-11012
anes	-11013
cker	-11014
izza	-11015
yens	-11016
ésil	-11017
بورن	-11018
طلسي	-11019
وائي	-11020
يطرة	-11021
▁Kop	-11022
▁One	-11023
▁Wem	-11024
▁منت	-11025
Stadt	-11026
▁Prim	-11027
▁Thur	-11028
▁côté	-11029
▁east	-11030
▁envi	-11031
▁jähr	-11032
▁près	-11033
▁السم	-11034
▁الوا	-11035
▁سوبر	-11036
▁added	-11037
▁heute	-11038
▁legno	-11039
▁march	-11040
▁بورما	-11041
▁كانون	-11042
Cuántas	-11043
imately	-11044
▁Egitto	-11045
▁father	-11046
▁Gautama	-11047
▁Supreme	-11048
▁animaux	-11049
▁ferrovi	-11050
▁ocurrió	-11051
▁التغيير	-11052
▁السيطرة	-11053
▁العملية	-11054
▁estudios	-11055
▁republic	-11056
▁stazione	-11057
▁correspond	-11058
▁officielle	-11059
▁Westminster	-11060
oo	-11061
制作	-11062
問題	-11063
考え	-11064
اته	-11065
رعة	-11066
فاض	-11067
يوخ	-11068
のため	-11069
anal	-11070
hand	-11071
last	-11072
واعد	-11073
▁erf	-11074
▁err	-11075
▁صوت	-11076
▁غزو	-11077
イタリア	-11078
entre	-11079
onien	-11080
▁1998	-11081
▁Alli	-11082
▁Pass	-11083
▁Tier	-11084
▁subs	-11085
▁توقف	-11086
▁فريد	-11087
▁وجود	-11088
cticut	-11089
indung	-11090
▁María	-11091
▁allen	-11092
▁discr	-11093
▁fight	-11094
▁infer	-11095
▁label	-11096
▁lived	-11097
▁ايران	-11098
Afrique	-11099
geführt	-11100
zlachta	-11101
étiques	-11102
▁Govern	-11103
▁Partei	-11104
▁alcune	-11105
▁cuivre	-11106
▁اكتشاف	-11107
▁Katmand	-11108
▁Problem	-11109
▁celebró	-11110
▁convers	-11111
▁demandé	-11112
▁elected	-11113
▁extranj	-11114
▁foreign	-11115
▁francés	-11116
▁mercado	-11117
▁امريكان	-11118
entemente	-11119
▁exemples	-11120
▁filosofía	-11121
▁شوارزنيجر	-11122
▁finalmente	-11123
▁gearbeitet	-11124
▁utilizzata	-11125
▁الكاثوليكية	-11126
▁internationale	-11127
-0	-11128
DP	-11129
の作	-11130
める	-11131
シー	-11132
初の	-11133
首相	-11134
aga	-11135
صلة	-11136
▁70	-11137
▁مز	-11138
できる	-11139
agen	-11140
vole	-11141
über	-11142
▁CBS	-11143
▁Rog	-11144
▁Sky	-11145
▁fur	-11146
▁دفع	-11147
▁فون	-11148
▁متح	-11149
によると	-11150
bourg	-11151
▁1996	-11152
▁bron	-11153
▁cual	-11154
▁list	-11155
▁move	-11156
▁uses	-11157
▁اقدم	-11158
▁المخ	-11159
ディズニー	-11160
▁About	-11161
▁cobre	-11162
▁hacia	-11163
▁honor	-11164
▁inner	-11165
▁molto	-11166
▁الحكم	-11167
▁السبب	-11168
▁حكومة	-11169
américa	-11170
ictions	-11171
écurité	-11172
▁deport	-11173
▁dirigé	-11174
▁früher	-11175
▁script	-11176
▁strong	-11177
▁vivent	-11178
▁étrang	-11179
empereur	-11180
▁abgesch	-11181
▁strateg	-11182
▁السنوات	-11183
▁Insekten	-11184
▁Struktur	-11185
▁scoperto	-11186
▁alrededor	-11187
▁hyderabad	-11188
▁العثمانية	-11189
▁المعمارية	-11190
▁gouverneur	-11191
▁proporciona	-11192
▁Commonwealth	-11193
غل	-11194
▁北	-11195
場所	-11196
布告	-11197
aps	-11198
ayy	-11199
hör	-11200
رين	-11201
eaux	-11202
ieux	-11203
ußen	-11204
لايا	-11205
لسفة	-11206
هوري	-11207
يامي	-11208
▁ليس	-11209
を受けた	-11210
quart	-11211
stead	-11212
طولات	-11213
وريدا	-11214
▁Jeux	-11215
▁abit	-11216
▁dado	-11217
▁krit	-11218
▁larg	-11219
▁laws	-11220
▁تحدث	-11221
▁تحمل	-11222
▁لاعب	-11223
▁Volks	-11224
▁aérea	-11225
▁corpo	-11226
▁hogar	-11227
▁اغنية	-11228
▁حديقة	-11229
▁كوريا	-11230
▁besoin	-11231
▁eléctr	-11232
▁exécut	-11233
▁gehabt	-11234
▁montag	-11235
▁risult	-11236
▁الشيوخ	-11237
ものは何ですか	-11238
ièrement	-11239
▁Prussia	-11240
▁enseign	-11241
▁könnten	-11242
▁nombres	-11243
▁الالعاب	-11244
▁economic	-11245
▁kontroll	-11246
▁untersch	-11247
▁Bakterien	-11248
▁tecnología	-11249
▁changements	-11250
▁bemerkenswer	-11251
),	-11252
23	-11253
Be	-11254
قر	-11255
مد	-11256
イス	-11257
ジン	-11258
ブル	-11259
作戦	-11260
唯一	-11261
宮崎	-11262
構成	-11263
記念	-11264
を獲得	-11265
ardo	-11266
ulas	-11267
uran	-11268
دمات	-11269
▁Kub	-11270
▁fün	-11271
▁phr	-11272
▁ماد	-11273
はいくら	-11274
anner	-11275
istán	-11276
▁Blan	-11277
▁atac	-11278
▁bein	-11279
▁casi	-11280
▁clás	-11281
▁flam	-11282
▁join	-11283
▁turn	-11284
▁Monat	-11285
▁Outre	-11286
▁decre	-11287
▁earth	-11288
▁merid	-11289
▁unico	-11290
▁اسلوب	-11291
▁علاقة	-11292
ugefügt	-11293
▁Spiele	-11294
▁alemán	-11295
▁copper	-11296
▁decade	-11297
▁existe	-11298
ivamente	-11299
▁concorr	-11300
▁grecque	-11301
▁italien	-11302
▁rejoint	-11303
▁konzentr	-11304
▁presente	-11305
▁calendario	-11306
▁concernant	-11307
▁parlamento	-11308
▁hinzugefügt	-11309
▁Presbyterian	-11310
14	-11311
DA	-11312
ij	-11313
ît	-11314
▁ル	-11315
で何	-11316
マー	-11317
بيض	-11318
راص	-11319
كين	-11320
نال	-11321
▁DV	-11322
▁Ta	-11323
ジプト	-11324
spap	-11325
▁alf	-11326
▁gut	-11327
▁بيت	-11328
▁شيء	-11329
であるか	-11330
aufen	-11331
▁1991	-11332
▁Fall	-11333
▁Glas	-11334
▁Long	-11335
▁capp	-11336
▁care	-11337
▁deve	-11338
▁free	-11339
▁mese	-11340
▁wann	-11341
▁برون	-11342
▁يملك	-11343
のタイトル	-11344
tograf	-11345
▁Instr	-11346
▁UNFPA	-11347
▁bande	-11348
▁conçu	-11349
▁kerry	-11350
▁river	-11351
▁rouge	-11352
▁según	-11353
▁siège	-11354
▁space	-11355
▁verde	-11356
▁تعيين	-11357
▁ataque	-11358
▁famosa	-11359
objectif	-11360
▁Angriff	-11361
▁التحقيق	-11362
▁الدولية	-11363
▁Muhammad	-11364
▁décennie	-11365
▁insectos	-11366
▁السياسية	-11367
▁ريتشموند	-11368
▁getroffen	-11369
▁ベ	-11370
世は	-11371
宣戦	-11372
年と	-11373
挙げ	-11374
統治	-11375
関係	-11376
ris	-11377
ucr	-11378
ymn	-11379
yst	-11380
éné	-11381
▁ox	-11382
▁sk	-11383
iegt	-11384
plor	-11385
راءة	-11386
▁Kle	-11387
▁org	-11388
宣戦布告	-11389
burgo	-11390
ficos	-11391
▁Grün	-11392
▁Juan	-11393
▁pian	-11394
▁rete	-11395
▁الشع	-11396
▁حالة	-11397
フォルニア	-11398
ionato	-11399
puesta	-11400
▁Emper	-11401
▁crise	-11402
▁diplô	-11403
▁ignor	-11404
▁isole	-11405
▁porte	-11406
▁teams	-11407
ionales	-11408
issions	-11409
▁arrest	-11410
▁cinese	-11411
▁encour	-11412
▁holand	-11413
▁humans	-11414
▁quello	-11415
▁siendo	-11416
▁داروين	-11417
▁section	-11418
▁Veränder	-11419
▁permitió	-11420
▁Billboard	-11421
▁Vergleich	-11422
▁plusieurs	-11423
▁télévision	-11424
▁información	-11425
▁independencia	-11426
نج	-11427
▁パ	-11428
さん	-11429
委員	-11430
enf	-11431
phe	-11432
▁نج	-11433
ことを	-11434
発電所	-11435
hirn	-11436
ören	-11437
لمان	-11438
نائس	-11439
▁Apr	-11440
▁paz	-11441
▁إلى	-11442
▁جلب	-11443
アルバム	-11444
avano	-11445
ieben	-11446
▁Ausw	-11447
▁Frau	-11448
▁alco	-11449
▁duré	-11450
▁lado	-11451
▁loss	-11452
▁mère	-11453
▁past	-11454
▁prév	-11455
▁المل	-11456
▁فران	-11457
atorio	-11458
cional	-11459
ändern	-11460
▁deber	-11461
▁forza	-11462
▁olímp	-11463
▁rejet	-11464
▁tanto	-11465
▁übern	-11466
▁Bundes	-11467
▁Inform	-11468
▁Joseph	-11469
▁conect	-11470
▁german	-11471
▁interr	-11472
▁musulm	-11473
▁patent	-11474
▁quería	-11475
▁بالقرب	-11476
▁Kingdom	-11477
▁Krieges	-11478
▁Youtube	-11479
▁bambini	-11480
▁consomm	-11481
▁diritti	-11482
▁المالية	-11483
▁الوحيدة	-11484
▁Anführer	-11485
▁Einfluss	-11486
▁Michigan	-11487
▁distinct	-11488
したのはいつですか	-11489
▁participé	-11490
▁الاتحادية	-11491
▁Connecticut	-11492
öffentlichung	-11493
ヘル	-11494
取り	-11495
組織	-11496
ائق	-11497
▁Ke	-11498
▁لق	-11499
gend	-11500
lers	-11501
toff	-11502
جميع	-11503
▁Don	-11504
▁Tai	-11505
ciale	-11506
ordin	-11507
porta	-11508
▁Bapt	-11509
▁Sain	-11510
▁تشكل	-11511
▁Corte	-11512
▁Spitz	-11513
▁dagli	-11514
▁linea	-11515
▁purch	-11516
▁règne	-11517
▁segur	-11518
▁zonas	-11519
▁البوذ	-11520
とは何ですか	-11521
▁appare	-11522
▁depend	-11523
▁désign	-11524
aéroport	-11525
▁ciencia	-11526
▁ميلبورن	-11527
▁Birmanie	-11528
▁Nationen	-11529
▁chiamata	-11530
▁sacrific	-11531
▁catholique	-11532
▁industrial	-11533
▁revolución	-11534
▁performance	-11535
16	-11536
cí	-11537
カル	-11538
ادر	-11539
ريب	-11540
زام	-11541
ومة	-11542
▁26	-11543
ノミネ	-11544
cido	-11545
luss	-11546
vale	-11547
ماري	-11548
▁Ans	-11549
▁Beg	-11550
▁Lis	-11551
▁Völ	-11552
▁eta	-11553
▁قرن	-11554
ストリア	-11555
aylor	-11556
ctric	-11557
ombra	-11558
venir	-11559
▁Irak	-11560
▁Sind	-11561
▁drug	-11562
▁mole	-11563
▁noms	-11564
▁proc	-11565
▁prus	-11566
▁الحض	-11567
ノミネート	-11568
フランスの	-11569
ashire	-11570
▁2000,	-11571
▁Franz	-11572
▁Fried	-11573
▁Order	-11574
▁Peter	-11575
▁aprob	-11576
▁namib	-11577
▁terzo	-11578
▁tutto	-11579
▁اعمال	-11580
▁الغذا	-11581
essione	-11582
▁Berlin	-11583
▁Campus	-11584
▁artist	-11585
▁define	-11586
▁global	-11587
▁member	-11588
▁tribus	-11589
▁Catalan	-11590
▁Wassers	-11591
▁origine	-11592
▁älteste	-11593
▁الاطلسي	-11594
▁الروسية	-11595
▁assassin	-11596
▁earliest	-11597
▁ejemplos	-11598
▁elezioni	-11599
▁iniziata	-11600
▁manufact	-11601
▁Champions	-11602
▁comercial	-11603
▁definiert	-11604
▁militares	-11605
▁السوفييتية	-11606
を出	-11607
設置	-11608
ady	-11609
íes	-11610
غيل	-11611
▁RI	-11612
atas	-11613
erto	-11614
icom	-11615
igli	-11616
ning	-11617
unds	-11618
vant	-11619
▁Dok	-11620
▁tal	-11621
▁قسم	-11622
▁قوة	-11623
▁كون	-11624
biter	-11625
ibili	-11626
itare	-11627
phalt	-11628
جيريا	-11629
▁Hind	-11630
▁acco	-11631
▁hoch	-11632
▁ipod	-11633
▁left	-11634
▁wahr	-11635
ctique	-11636
▁1980?	-11637
▁2007,	-11638
▁spect	-11639
▁store	-11640
▁البدا	-11641
▁Aparte	-11642
▁Freima	-11643
▁basket	-11644
▁envoyé	-11645
▁especí	-11646
▁slaves	-11647
▁spécif	-11648
▁ultima	-11649
▁unique	-11650
▁Destiny	-11651
▁Verteid	-11652
▁cerveza	-11653
▁complex	-11654
▁geograf	-11655
▁versión	-11656
▁الدينية	-11657
▁الرسمية	-11658
uminación	-11659
▁collabor	-11660
▁cristian	-11661
▁utilizza	-11662
▁LaserDisc	-11663
▁dirigeant	-11664
▁convertido	-11665
▁öffentlichen	-11666
▁Premierminister	-11667
GB	-11668
وث	-11669
ズの	-11670
死亡	-11671
物語	-11672
部の	-11673
acy	-11674
agd	-11675
eto	-11676
fon	-11677
فول	-11678
هاء	-11679
▁تغ	-11680
embl	-11681
ifer	-11682
öder	-11683
اعات	-11684
صدار	-11685
فساء	-11686
▁Cru	-11687
▁Sco	-11688
▁Sin	-11689
stoff	-11690
temps	-11691
▁Pear	-11692
ものですか	-11693
▁Licht	-11694
▁debut	-11695
▁empie	-11696
▁santa	-11697
▁übers	-11698
▁تسجيل	-11699
▁طريقة	-11700
▁علماء	-11701
▁Kommun	-11702
▁Septem	-11703
▁appara	-11704
▁genere	-11705
▁qualif	-11706
▁recomm	-11707
▁ارسنال	-11708
▁الفيدر	-11709
▁بروسيا	-11710
▁مادونا	-11711
▁Ireland	-11712
▁Unicode	-11713
▁denomin	-11714
▁project	-11715
▁reprodu	-11716
▁require	-11717
▁romanos	-11718
▁sarebbe	-11719
▁الممتاز	-11720
▁Mondiale	-11721
▁ancienne	-11722
▁cantante	-11723
▁capacidad	-11724
▁territory	-11725
▁iluminación	-11726
▁internazionale	-11727
2,	-11728
25	-11729
kh	-11730
▁コ	-11731
けた	-11732
ソン	-11733
anv	-11734
سام	-11735
ليب	-11736
▁fá	-11737
とする	-11738
erta	-11739
etts	-11740
hold	-11741
obre	-11742
اراة	-11743
ربعة	-11744
قيقة	-11745
كلفة	-11746
لبية	-11747
▁Eth	-11748
atory	-11749
naire	-11750
ورنيا	-11751
▁capo	-11752
▁fans	-11753
▁lect	-11754
▁nept	-11755
▁renc	-11756
▁sele	-11757
▁للمس	-11758
▁نقطة	-11759
▁يحمل	-11760
▁يلعب	-11761
derick	-11762
▁Prima	-11763
▁ampli	-11764
▁giapp	-11765
▁green	-11766
▁leyes	-11767
▁marzo	-11768
▁santé	-11769
▁share	-11770
▁stamp	-11771
▁tarde	-11772
▁القطب	-11773
▁النظر	-11774
▁تشارك	-11775
▁تعداد	-11776
▁تقديم	-11777
▁غرامي	-11778
illeurs	-11779
ulaires	-11780
▁Kupfer	-11781
▁Palace	-11782
▁bezahl	-11783
▁cattol	-11784
▁cittad	-11785
▁nuevos	-11786
▁partis	-11787
▁terres	-11788
▁يعيشون	-11789
erschaft	-11790
igration	-11791
▁Jackson	-11792
▁Konzept	-11793
▁manager	-11794
▁surface	-11795
▁Untersch	-11796
▁attività	-11797
▁nouveaux	-11798
▁البرازيل	-11799
▁September	-11800
▁agreement	-11801
▁bactéries	-11802
▁religiosa	-11803
▁économique	-11804
▁beschreiben	-11805
▁occidentales	-11806
قى	-11807
が高	-11808
の何	-11809
オブ	-11810
成立	-11811
Mus	-11812
elf	-11813
füg	-11814
ped	-11815
ادل	-11816
usal	-11817
ناصر	-11818
ويات	-11819
▁jüd	-11820
▁kam	-11821
▁kan	-11822
▁lik	-11823
▁nac	-11824
▁ماك	-11825
▁Penn	-11826
▁Slav	-11827
▁beha	-11828
▁days	-11829
▁rigu	-11830
▁فرقة	-11831
▁Besch	-11832
▁anter	-11833
▁hayek	-11834
▁rapid	-11835
▁salud	-11836
▁train	-11837
▁value	-11838
▁الترك	-11839
▁الفائ	-11840
▁ثلاثة	-11841
agement	-11842
zählung	-11843
▁Hudson	-11844
▁branch	-11845
▁creado	-11846
▁effica	-11847
▁espect	-11848
▁interc	-11849
▁popper	-11850
▁signed	-11851
▁المزيد	-11852
ähigkeit	-11853
▁Während	-11854
▁article	-11855
▁homosex	-11856
▁japones	-11857
▁romaine	-11858
▁suprema	-11859
▁zweiten	-11860
▁اسرائيل	-11861
▁العالمي	-11862
▁الهوائي	-11863
▁فلوريدا	-11864
▁Richtung	-11865
▁capacité	-11866
▁modernen	-11867
▁Président	-11868
▁representa	-11869
▁utilizados	-11870
شة	-11871
طح	-11872
に何	-11873
事業	-11874
子の	-11875
小説	-11876
建築	-11877
pez	-11878
urb	-11879
▁CE	-11880
▁ウォ	-11881
ション	-11882
abel	-11883
raum	-11884
لعاب	-11885
▁ذكر	-11886
homme	-11887
orien	-11888
▁Wars	-11889
▁jefe	-11890
▁supp	-11891
▁weiß	-11892
▁فالن	-11893
▁يطلق	-11894
سيفساء	-11895
▁Natur	-11896
▁natür	-11897
▁árbol	-11898
gesetzt	-11899
يفورنيا	-11900
▁Academ	-11901
▁Jahrze	-11902
▁además	-11903
▁cotton	-11904
▁locale	-11905
▁suppos	-11906
▁surnom	-11907
▁الحصول	-11908
▁الغربي	-11909
istische	-11910
▁Polizei	-11911
▁betrach	-11912
▁categor	-11913
▁finanzi	-11914
▁trovato	-11915
▁الصغيرة	-11916
▁فالنسيا	-11917
▁Beispiele	-11918
▁Community	-11919
▁community	-11920
▁europäischen	-11921
▁französische	-11922
▁universities	-11923
Sh	-11924
ox	-11925
pf	-11926
رد	-11927
ギリ	-11928
ゼル	-11929
多い	-11930
ckt	-11931
iée	-11932
برى	-11933
ليم	-11934
▁om	-11935
には何	-11936
誰なの	-11937
dete	-11938
ilen	-11939
ittà	-11940
émin	-11941
▁Bon	-11942
▁سام	-11943
▁سبب	-11944
▁للش	-11945
▁وسط	-11946
idenz	-11947
▁SNES	-11948
▁Uran	-11949
▁appl	-11950
▁hält	-11951
▁side	-11952
▁vacc	-11953
▁النم	-11954
▁تيتو	-11955
▁ظهرت	-11956
▁يسبب	-11957
ailles	-11958
cteurs	-11959
▁Video	-11960
▁actor	-11961
▁confl	-11962
▁entst	-11963
▁führt	-11964
▁lancé	-11965
▁llamó	-11966
▁revis	-11967
▁ميامي	-11968
したのはいつ	-11969
リフォルニア	-11970
crivere	-11971
presión	-11972
▁Histor	-11973
▁Hitler	-11974
▁Jewish	-11975
▁aplica	-11976
▁living	-11977
▁motore	-11978
▁obiett	-11979
▁traduc	-11980
▁vicino	-11981
Dynastie	-11982
▁cambios	-11983
▁problem	-11984
▁publish	-11985
▁involucr	-11986
▁mientras	-11987
▁presiden	-11988
▁pubblico	-11989
▁regional	-11990
▁versione	-11991
▁الطائرات	-11992
▁الموافقة	-11993
▁Victorias	-11994
▁comunidad	-11995
▁entstanden	-11996
▁significant	-11997
▁tradicional	-11998
▁classification	-11999
▁グ	-12000
意味	-12001
決定	-12002
ogg	-12003
rid	-12004
örd	-12005
تين	-12006
ضوع	-12007
SFSR	-12008
imal	-12009
érer	-12010
وجين	-12011
▁Ali	-12012
▁fen	-12013
▁mel	-12014
▁sic	-12015
のどちら	-12016
メンバー	-12017
発生した	-12018
elect	-12019
etzen	-12020
habit	-12021
▁Erde	-12022
▁Fahr	-12023
▁Hung	-12024
▁deal	-12025
▁fase	-12026
▁half	-12027
▁استر	-12028
▁الاث	-12029
▁تطور	-12030
▁جيمس	-12031
bridge	-12032
ettura	-12033
église	-12034
▁April	-12035
▁Arist	-12036
▁Freem	-12037
▁nennt	-12038
▁sever	-12039
▁اتفاق	-12040
▁الصيد	-12041
▁تقسيم	-12042
▁شخصية	-12043
▁يحتوي	-12044
はいつですか	-12045
▁Taylor	-12046
▁Termin	-12047
▁fiesta	-12048
▁infrar	-12049
▁medios	-12050
▁ultimo	-12051
▁الكبرى	-12052
▁امريكي	-12053
▁Politik	-12054
▁animali	-12055
▁annoncé	-12056
▁appelés	-12057
▁condado	-12058
▁mosaico	-12059
▁newspap	-12060
▁pública	-12061
▁alemanes	-12062
▁anterior	-12063
▁distance	-12064
▁politico	-12065
▁produire	-12066
ificazione	-12067
▁Consiglio	-12068
▁regarding	-12069
▁sostituito	-12070
▁wirtschaft	-12071
▁technologie	-12072
▁griechischen	-12073
▁Universitäten	-12074
bu	-12075
を指	-12076
者は	-12077
輸送	-12078
hma	-12079
rad	-12080
ram	-12081
ßen	-12082
ارب	-12083
▁Ev	-12084
▁Sü	-12085
▁Up	-12086
に位置	-12087
rief	-12088
ulos	-12089
ئوية	-12090
جلات	-12091
وقات	-12092
▁Tel	-12093
▁sau	-12094
▁sow	-12095
▁دين	-12096
▁يهو	-12097
esser	-12098
retto	-12099
▁Stal	-12100
▁très	-12101
▁النف	-12102
▁خدمة	-12103
▁مونت	-12104
entrum	-12105
▁Linie	-12106
▁Vater	-12107
▁bière	-12108
▁creen	-12109
▁indem	-12110
▁pouss	-12111
▁restr	-12112
▁while	-12113
▁البيت	-12114
▁السلة	-12115
▁اللون	-12116
▁نموذج	-12117
▁acheté	-12118
▁erfolg	-12119
▁passed	-12120
▁borough	-12121
▁défense	-12122
▁termini	-12123
▁استونيا	-12124
▁aufgrund	-12125
▁cappella	-12126
▁sécurité	-12127
▁organismo	-12128
▁personnage	-12129
▁relaciones	-12130
▁Philosophie	-12131
▁Renaissance	-12132
▁griechische	-12133
▁Constitución	-12134
▁schwarzenegger	-12135
خي	-12136
غم	-12137
を結	-12138
テン	-12139
可能	-12140
大陸	-12141
数が	-12142
東京	-12143
革命	-12144
hyd	-12145
iés	-12146
ريا	-12147
ريج	-12148
طلب	-12149
▁pá	-12150
▁سا	-12151
の名称	-12152
は何か	-12153
inte	-12154
kord	-12155
thur	-12156
vard	-12157
view	-12158
رجمة	-12159
▁cód	-12160
▁fum	-12161
▁put	-12162
▁حزب	-12163
arily	-12164
chter	-12165
هرجان	-12166
▁Does	-12167
▁empê	-12168
▁faut	-12169
cheurs	-12170
▁First	-12171
▁abbre	-12172
▁achie	-12173
▁coton	-12174
▁monta	-12175
▁schia	-12176
▁zerst	-12177
▁المئة	-12178
▁المرا	-12179
▁معروف	-12180
▁Mandol	-12181
▁Neptun	-12182
▁health	-12183
▁nutzen	-12184
▁planta	-12185
▁sector	-12186
▁sports	-12187
ierungen	-12188
▁attempt	-12189
▁concurs	-12190
▁diverse	-12191
▁enthält	-12192
▁firmato	-12193
▁neptuno	-12194
▁soprann	-12195
▁uccelli	-12196
▁التنفيذ	-12197
▁الشركات	-12198
▁création	-12199
▁erforder	-12200
▁esclavos	-12201
▁positive	-12202
▁الديمقرا	-12203
▁superiore	-12204
▁définition	-12205
ッチ	-12206
人が	-12207
初代	-12208
評価	-12209
Ges	-12210
ktr	-12211
ota	-12212
ría	-12213
sey	-12214
ترف	-12215
يغو	-12216
▁ri	-12217
▁رس	-12218
▁كر	-12219
▁وك	-12220
coli	-12221
eget	-12222
onde	-12223
ايير	-12224
▁Lag	-12225
▁emb	-12226
▁هان	-12227
appro	-12228
ellig	-12229
entum	-12230
▁Alle	-12231
▁Nank	-12232
▁beer	-12233
▁emit	-12234
▁goal	-12235
▁اباد	-12236
▁باست	-12237
▁جديد	-12238
▁كثير	-12239
アメリカの	-12240
cieron	-12241
izzare	-12242
ührung	-12243
▁Quran	-12244
▁crear	-12245
▁deriv	-12246
▁jurid	-12247
▁prend	-12248
▁promo	-12249
▁انظمة	-12250
culosis	-12251
▁Biblio	-12252
▁Schaus	-12253
▁exclus	-12254
▁herman	-12255
▁législ	-12256
▁mother	-12257
▁rechaz	-12258
▁Emperor	-12259
▁Palermo	-12260
▁climate	-12261
▁colonia	-12262
▁comcast	-12263
▁diversi	-12264
▁domaine	-12265
▁elegido	-12266
▁giocato	-12267
▁längste	-12268
▁mention	-12269
▁reconoc	-12270
▁spielen	-12271
▁venduto	-12272
▁western	-12273
▁الدستور	-12274
▁Canadian	-12275
▁citizens	-12276
▁definito	-12277
▁geograph	-12278
▁nickname	-12279
▁olandese	-12280
▁progetto	-12281
▁quantità	-12282
▁supervis	-12283
▁increased	-12284
▁montagnes	-12285
▁technique	-12286
ximadamente	-12287
▁enregistre	-12288
▁finalement	-12289
eb	-12290
に分	-12291
カン	-12292
サイ	-12293
スコ	-12294
勝利	-12295
年度	-12296
cée	-12297
ryt	-12298
▁8?	-12299
▁Rh	-12300
Team	-12301
iage	-12302
änge	-12303
▁Mas	-12304
▁NFL	-12305
▁Nuo	-12306
▁atr	-12307
▁bot	-12308
▁dip	-12309
▁fix	-12310
▁mex	-12311
▁دون	-12312
▁كول	-12313
ellow	-12314
iende	-12315
letzt	-12316
▁Hano	-12317
▁Idee	-12318
▁célé	-12319
▁estr	-12320
▁komp	-12321
▁send	-12322
▁sugg	-12323
▁اطلق	-12324
▁البط	-12325
▁الحد	-12326
▁النص	-12327
▁انضم	-12328
glises	-12329
émoins	-12330
▁Chief	-12331
▁Liter	-12332
▁Pearl	-12333
▁Serie	-12334
▁apodo	-12335
▁créer	-12336
▁lista	-12337
▁lower	-12338
▁names	-12339
▁señal	-12340
▁todas	-12341
▁white	-12342
▁ادارة	-12343
cellona	-12344
▁birman	-12345
▁formas	-12346
▁parque	-12347
▁visité	-12348
▁الكائن	-12349
▁Mercury	-12350
▁beliebt	-12351
▁conflit	-12352
▁destroy	-12353
▁décrire	-12354
▁histori	-12355
▁الكنائس	-12356
▁conflict	-12357
▁oriental	-12358
▁testigos	-12359
▁Americans	-12360
▁entworfen	-12361
▁personaje	-12362
▁travaillé	-12363
▁Barcellona	-12364
▁estaciones	-12365
▁comunicación	-12366
جز	-12367
しい	-12368
ジュ	-12369
国際	-12370
結果	-12371
gun	-12372
ols	-12373
thè	-12374
áns	-12375
راث	-12376
ريم	-12377
عيم	-12378
فية	-12379
▁Ok	-12380
▁sn	-12381
▁ul	-12382
cios	-12383
iate	-12384
ktis	-12385
ocra	-12386
ográ	-12387
pool	-12388
املة	-12389
▁000	-12390
▁19?	-12391
▁Mer	-12392
▁NBC	-12393
▁漱石が	-12394
cente	-12395
ockey	-12396
äuser	-12397
▁1999	-12398
▁Code	-12399
▁Jean	-12400
▁Sied	-12401
▁VIII	-12402
▁dejó	-12403
▁nörd	-12404
▁sole	-12405
▁tito	-12406
▁week	-12407
▁حقوق	-12408
▁Anten	-12409
▁Latin	-12410
▁RSFSR	-12411
▁Sumer	-12412
▁campe	-12413
▁fanno	-12414
▁poste	-12415
▁refle	-12416
▁urban	-12417
っていますか	-12418
アカデミー賞	-12419
istenza	-12420
▁Rennen	-12421
▁absorb	-12422
▁behaup	-12423
▁figure	-12424
▁hombre	-12425
▁policy	-12426
▁truppe	-12427
▁würden	-12428
▁اختراع	-12429
imientos	-12430
itnesses	-12431
▁Einsatz	-12432
▁amélior	-12433
▁appelée	-12434
▁coinvol	-12435
▁courant	-12436
▁sources	-12437
▁الميلاد	-12438
▁Business	-12439
▁canadien	-12440
▁concerne	-12441
▁crescita	-12442
▁encontró	-12443
▁describir	-12444
▁generally	-12445
▁municipal	-12446
▁productos	-12447
▁introdotto	-12448
▁technology	-12449
▁übernommen	-12450
▁Unterstützung	-12451
وش	-12452
アイ	-12453
acu	-12454
day	-12455
iph	-12456
mon	-12457
yer	-12458
äge	-12459
تال	-12460
دوز	-12461
ッシュ	-12462
リスト	-12463
abor	-12464
ajes	-12465
mark	-12466
▁202	-12467
▁Erd	-12468
▁Kom	-12469
▁Lie	-12470
▁Nic	-12471
▁Squ	-12472
▁asi	-12473
▁بير	-12474
▁دائ	-12475
Krieg	-12476
ittle	-12477
iving	-12478
▁aire	-12479
▁carn	-12480
▁done	-12481
▁dura	-12482
▁infe	-12483
▁lanc	-12484
▁look	-12485
▁spir	-12486
▁spos	-12487
▁weib	-12488
▁بوتر	-12489
▁حيدر	-12490
Orient	-12491
fahren	-12492
▁2016?	-12493
▁catég	-12494
▁diagn	-12495
▁lucha	-12496
▁motiv	-12497
▁métro	-12498
▁tenté	-12499
▁therm	-12500
▁الدرا	-12501
▁دييغو	-12502
▁يونيو	-12503
adstone	-12504
inition	-12505
▁Gemein	-12506
▁Inseln	-12507
▁Mutter	-12508
▁griega	-12509
▁griego	-12510
▁invers	-12511
▁manera	-12512
▁muchas	-12513
▁précéd	-12514
▁reconn	-12515
▁verbre	-12516
▁الاحمر	-12517
▁اللغات	-12518
lication	-12519
▁besiegt	-12520
▁insieme	-12521
▁partire	-12522
▁student	-12523
▁studies	-12524
ようになったのは	-12525
▁Williams	-12526
▁colonies	-12527
▁compared	-12528
▁domestic	-12529
▁franceses	-12530
▁influencé	-12531
▁quartiere	-12532
▁ubicación	-12533
▁gobernador	-12534
▁entschieden	-12535
▁normalmente	-12536
▁Philadelphia	-12537
CO	-12538
تت	-12539
كي	-12540
▁ペ	-12541
▁新	-12542
key	-12543
▁Hö	-12544
▁Sk	-12545
▁Sv	-12546
▁sí	-12547
assi	-12548
aste	-12549
eten	-12550
igér	-12551
king	-12552
oder	-12553
pern	-12554
zech	-12555
▁Bau	-12556
▁ero	-12557
▁ارم	-12558
▁لكل	-12559
▁محا	-12560
apore	-12561
cence	-12562
ption	-12563
▁1995	-12564
▁cart	-12565
▁البع	-12566
▁فازت	-12567
▁Conse	-12568
▁Thema	-12569
▁forms	-12570
▁giorn	-12571
▁suele	-12572
▁Modell	-12573
▁Monica	-12574
▁ancest	-12575
▁budget	-12576
▁cultiv	-12577
▁deriva	-12578
▁derrot	-12579
▁extend	-12580
▁things	-12581
▁النحاس	-12582
▁Eastern	-12583
▁Sklaven	-12584
▁avaient	-12585
▁informe	-12586
▁obtenir	-12587
▁división	-12588
▁gebildet	-12589
▁hospital	-12590
▁philosop	-12591
▁المقاطعة	-12592
▁bestanden	-12593
▁difficile	-12594
▁seguridad	-12595
▁progettato	-12596
▁verschiedene	-12597
▁scientifiques	-12598
俳優	-12599
برص	-12600
▁ثق	-12601
▁عق	-12602
Iran	-12603
coln	-12604
ecta	-12605
ikel	-12606
lava	-12607
ände	-12608
سابق	-12609
album	-12610
ierre	-12611
licht	-12612
uguay	-12613
راءات	-12614
▁feel	-12615
▁offr	-12616
▁soit	-12617
▁حايك	-12618
▁Città	-12619
▁Todes	-12620
▁arena	-12621
▁autob	-12622
▁brain	-12623
▁diego	-12624
▁détru	-12625
▁eigen	-12626
▁logic	-12627
▁phase	-12628
▁rendu	-12629
▁sonst	-12630
▁speed	-12631
▁الكات	-12632
▁رئيسي	-12633
はどのような	-12634
oslavia	-12635
uranium	-12636
▁Gehirn	-12637
▁course	-12638
▁décidé	-12639
▁fleuve	-12640
▁ingres	-12641
▁likely	-12642
▁müssen	-12643
▁parten	-12644
▁specif	-12645
▁études	-12646
▁الحركة	-12647
▁الدولي	-12648
▁ويندوز	-12649
▁Estland	-12650
▁Theater	-12651
▁accepté	-12652
▁certain	-12653
▁kingdom	-12654
▁memoria	-12655
▁norfolk	-12656
▁الكبيرة	-12657
▁نيجيريا	-12658
▁concepto	-12659
▁distingu	-12660
▁function	-12661
▁provided	-12662
▁Flughafen	-12663
▁Tradition	-12664
▁principio	-12665
▁reconstru	-12666
▁Gouverneur	-12667
▁Repubblica	-12668
▁olympiques	-12669
▁departamento	-12670
▁wissenschaft	-12671
IP	-12672
zy	-12673
به	-12674
حن	-12675
لت	-12676
を書	-12677
ガー	-12678
ダイ	-12679
家の	-12680
市立	-12681
bey	-12682
lad	-12683
olt	-12684
árt	-12685
يتي	-12686
▁Kh	-12687
▁cd	-12688
からか	-12689
年以降	-12690
ands	-12691
ecte	-12692
iado	-12693
odón	-12694
فولك	-12695
▁Jés	-12696
▁abg	-12697
▁ترت	-12698
▁معا	-12699
のことか	-12700
cerca	-12701
ersey	-12702
phone	-12703
▁away	-12704
▁añad	-12705
▁hijo	-12706
▁lost	-12707
▁quot	-12708
▁سيتم	-12709
▁قائد	-12710
▁مطار	-12711
した人は誰	-12712
ilding	-12713
▁Libia	-12714
▁matem	-12715
▁spagn	-12716
▁those	-12717
▁wrest	-12718
▁الضوء	-12719
▁مشروع	-12720
▁نبتون	-12721
▁Finanz	-12722
▁Klasse	-12723
▁Steven	-12724
▁extens	-12725
▁gelebt	-12726
▁hommes	-12727
▁lingue	-12728
▁online	-12729
▁peuple	-12730
▁poursu	-12731
▁target	-12732
▁المقدس	-12733
▁Floride	-12734
▁Islamic	-12735
▁Italien	-12736
▁Jehovah	-12737
▁Liberia	-12738
▁Science	-12739
▁algodón	-12740
▁automat	-12741
▁devrait	-12742
▁escrito	-12743
▁البوذية	-12744
▁المبكرة	-12745
▁نورفولك	-12746
▁insectes	-12747
▁commission	-12748
▁residentes	-12749
enseignement	-12750
indépendance	-12751
▁Olympischen	-12752
▁originariamente	-12753
AC	-12754
Sp	-12755
nd	-12756
tv	-12757
ál	-12758
ブリ	-12759
事故	-12760
小さ	-12761
Bew	-12762
iro	-12763
écn	-12764
داث	-12765
▁Jé	-12766
▁アル	-12767
ともに	-12768
cken	-12769
udas	-12770
âtre	-12771
▁sar	-12772
▁غرب	-12773
▁للك	-12774
であった	-12775
abile	-12776
forme	-12777
ienst	-12778
ienza	-12779
ämpft	-12780
▁1997	-12781
▁Temp	-12782
▁Verl	-12783
▁atra	-12784
▁bill	-12785
▁gama	-12786
▁grav	-12787
▁mots	-12788
▁retr	-12789
▁sehr	-12790
▁welt	-12791
▁اسيا	-12792
なんですか	-12793
amenti	-12794
aments	-12795
esseur	-12796
riften	-12797
selves	-12798
▁Koran	-12799
▁Platz	-12800
▁armas	-12801
▁getan	-12802
▁short	-12803
▁vendu	-12804
▁اشكال	-12805
olution	-12806
uchtung	-12807
▁chaîne	-12808
▁diseño	-12809
▁figura	-12810
▁intens	-12811
▁spazio	-12812
▁zeigen	-12813
▁الاسكا	-12814
▁النووي	-12815
▁bezieht	-12816
▁genutzt	-12817
▁griegos	-12818
▁الاخيرة	-12819
▁البشرية	-12820
▁الولاية	-12821
▁Flugzeug	-12822
▁interpre	-12823
▁quantité	-12824
▁received	-12825
▁utilizar	-12826
▁buildings	-12827
▁erreichen	-12828
▁religions	-12829
▁الاستقلال	-12830
▁Athanasius	-12831
▁estructura	-12832
▁influencia	-12833
▁successful	-12834
▁Institution	-12835
▁universités	-12836
▁durchgeführt	-12837
▁französischen	-12838
▁estadounidense	-12839
15	-12840
Ab	-12841
Ir	-12842
ny	-12843
およ	-12844
をも	-12845
機の	-12846
正式	-12847
軍は	-12848
ساس	-12849
ناة	-12850
▁أغ	-12851
どこで	-12852
here	-12853
iati	-12854
ocup	-12855
دماغ	-12856
▁dic	-12857
ivité	-12858
thers	-12859
ática	-12860
▁Mali	-12861
▁UEFA	-12862
▁Viel	-12863
▁berm	-12864
▁emot	-12865
▁epis	-12866
▁erle	-12867
▁fert	-12868
▁full	-12869
▁gall	-12870
▁المث	-12871
▁بدون	-12872
▁يمثل	-12873
lywood	-12874
treten	-12875
▁Jésus	-12876
▁adott	-12877
▁centr	-12878
▁epoca	-12879
▁médic	-12880
▁votes	-12881
▁whose	-12882
▁القوة	-12883
▁انتقل	-12884
したのは何年	-12885
griffen	-12886
istiche	-12887
▁Nombra	-12888
▁Planck	-12889
▁Verbre	-12890
▁dritte	-12891
▁editor	-12892
▁membro	-12893
▁stesso	-12894
▁voyage	-12895
▁الرسمي	-12896
▁المكتب	-12897
élection	-12898
▁Jéhovah	-12899
▁Methode	-12900
▁Princip	-12901
▁otomano	-12902
▁possède	-12903
▁seguito	-12904
▁sponsor	-12905
▁الاتفاق	-12906
▁Confeder	-12907
▁dialecto	-12908
▁fréquent	-12909
▁millions	-12910
▁minister	-12911
▁modernes	-12912
▁اليزابيث	-12913
wirtschaft	-12914
▁británica	-12915
▁candidato	-12916
▁supported	-12917
▁erschienen	-12918
▁كاليفورنيا	-12919
▁institutions	-12920
▁tuberculosis	-12921
gu	-12922
جن	-12923
なく	-12924
に就	-12925
政権	-12926
比較	-12927
dre	-12928
jas	-12929
lar	-12930
oix	-12931
étr	-12932
ضيف	-12933
وال	-12934
▁NP	-12935
▁حو	-12936
ことが	-12937
させた	-12938
ヴィル	-12939
ader	-12940
aide	-12941
eggi	-12942
▁20?	-12943
▁Bef	-12944
▁Fox	-12945
▁fís	-12946
▁فصل	-12947
▁للع	-12948
allas	-12949
corso	-12950
▁Amér	-12951
▁fire	-12952
▁impr	-12953
▁neoc	-12954
▁vain	-12955
▁تاتي	-12956
▁شهود	-12957
▁هاري	-12958
castle	-12959
ennung	-12960
izzera	-12961
▁1960?	-12962
▁Papst	-12963
▁Punkt	-12964
▁Staff	-12965
▁capaz	-12966
▁digit	-12967
▁niger	-12968
▁quatt	-12969
▁التسع	-12970
▁المرج	-12971
▁اهمية	-12972
▁ميناء	-12973
izieren	-12974
▁Brésil	-12975
▁Marine	-12976
▁bombar	-12977
▁classé	-12978
▁kathol	-12979
▁البناء	-12980
▁الكثير	-12981
▁موسيقى	-12982
issances	-12983
▁Segunda	-12984
▁collect	-12985
▁espacio	-12986
▁outside	-12987
▁palacio	-12988
▁aktuelle	-12989
▁comporte	-12990
▁gegangen	-12991
▁الأمريكي	-12992
▁الجمهوري	-12993
▁Newcastle	-12994
▁conflicto	-12995
▁diventata	-12996
▁religieux	-12997
▁conception	-12998
▁gobernante	-12999
▁pesticides	-13000
▁scientific	-13001
▁themselves	-13002
▁politischen	-13003
45	-13004
نز	-13005
ヘン	-13006
付け	-13007
爆撃	-13008
理由	-13009
hou	-13010
uum	-13011
ñor	-13012
باط	-13013
تقد	-13014
ضمن	-13015
واي	-13016
▁31	-13017
▁tw	-13018
anze	-13019
inal	-13020
less	-13021
ueba	-13022
well	-13023
çonn	-13024
émat	-13025
▁Ehe	-13026
▁alp	-13027
▁muy	-13028
▁oce	-13029
▁ينا	-13030
icket	-13031
étudi	-13032
▁1900	-13033
▁Bier	-13034
▁Clin	-13035
▁Hill	-13036
▁News	-13037
▁Roll	-13038
▁aree	-13039
▁lack	-13040
▁pena	-13041
▁publ	-13042
▁sust	-13043
▁técn	-13044
▁القص	-13045
▁حدود	-13046
▁والا	-13047
▁يهوه	-13048
espace	-13049
isches	-13050
▁1997?	-13051
▁Avant	-13052
▁Award	-13053
▁Klima	-13054
▁Obers	-13055
▁dimin	-13056
▁famil	-13057
▁formé	-13058
▁larga	-13059
▁liegt	-13060
▁traff	-13061
▁zeigt	-13062
▁القضا	-13063
▁انتهى	-13064
▁ستكون	-13065
achstum	-13066
▁Cyprus	-13067
▁Orient	-13068
▁active	-13069
▁eingef	-13070
▁fourni	-13071
▁helfen	-13072
▁terren	-13073
▁أمريكا	-13074
▁للحصول	-13075
していましたか	-13076
アメリカ合衆国	-13077
▁Conseil	-13078
▁arsenal	-13079
▁descrit	-13080
▁distrib	-13081
▁glauben	-13082
▁البداية	-13083
▁فريدريك	-13084
▁apareció	-13085
▁entfernt	-13086
▁viennent	-13087
▁البيانات	-13088
▁Soviética	-13089
▁bâtiments	-13090
▁described	-13091
▁untersche	-13092
▁الموسيقية	-13093
▁definition	-13094
▁entreprise	-13095
▁permanente	-13096
▁pourraient	-13097
▁meridionale	-13098
▁Eigenschaften	-13099
▁ム	-13100
部分	-13101
震災	-13102
ahn	-13103
hre	-13104
was	-13105
افي	-13106
لين	-13107
وام	-13108
▁27	-13109
▁ut	-13110
かけて	-13111
で優勝	-13112
に対し	-13113
ーター	-13114
Inst	-13115
mann	-13116
weig	-13117
ابيح	-13118
لكها	-13119
▁Son	-13120
▁kom	-13121
▁öst	-13122
▁فشل	-13123
arono	-13124
▁Braz	-13125
▁RIBA	-13126
▁Stan	-13127
▁adqu	-13128
▁cani	-13129
▁dati	-13130
▁elle	-13131
▁file	-13132
▁الرق	-13133
▁الور	-13134
▁منتج	-13135
▁ウォルト	-13136
によること	-13137
▁Aktiv	-13138
▁Czech	-13139
▁Group	-13140
▁Krank	-13141
▁Unión	-13142
▁carol	-13143
▁costo	-13144
▁embar	-13145
▁frase	-13146
▁learn	-13147
▁regno	-13148
▁taken	-13149
▁إصدار	-13150
▁توسان	-13151
▁نفسها	-13152
▁Jehová	-13153
▁Sainte	-13154
▁Tuscon	-13155
▁asocia	-13156
▁chemin	-13157
▁compét	-13158
▁código	-13159
▁debate	-13160
▁género	-13161
▁pasado	-13162
▁الممثل	-13163
▁النسبة	-13164
▁برونكس	-13165
ialmente	-13166
▁Familie	-13167
▁cerebro	-13168
▁cerveau	-13169
▁declaró	-13170
▁digimon	-13171
▁disminu	-13172
▁hunting	-13173
▁inventé	-13174
▁maisons	-13175
▁nuclear	-13176
▁preocup	-13177
▁recuper	-13178
▁squadre	-13179
▁المحلية	-13180
ländische	-13181
▁Columbia	-13182
▁frontera	-13183
▁geöffnet	-13184
▁ingresos	-13185
▁reported	-13186
▁zurückge	-13187
▁Forschung	-13188
▁Witnesses	-13189
▁americani	-13190
▁residents	-13191
vironnement	-13192
▁différents	-13193
▁revolution	-13194
▁adolescents	-13195
▁beschrieben	-13196
▁instruments	-13197
▁verursachen	-13198
▁Schauspieler	-13199
▁independence	-13200
▁communication	-13201
にも	-13202
asy	-13203
bas	-13204
▁22	-13205
▁78	-13206
▁CP	-13207
なのか	-13208
ものは	-13209
ブルク	-13210
agan	-13211
unft	-13212
ادات	-13213
ندوق	-13214
▁Dal	-13215
▁Hil	-13216
▁Jer	-13217
▁PCB	-13218
▁Vin	-13219
▁cav	-13220
▁cib	-13221
▁jul	-13222
▁ray	-13223
▁باك	-13224
▁جين	-13225
asile	-13226
ibiot	-13227
icato	-13228
rythr	-13229
steme	-13230
ético	-13231
▁Kons	-13232
▁Lied	-13233
▁Zink	-13234
▁béné	-13235
▁cole	-13236
▁lett	-13237
▁lose	-13238
▁marc	-13239
▁reto	-13240
▁salv	-13241
▁semp	-13242
▁trip	-13243
▁استع	-13244
metros	-13245
phabet	-13246
▁Museo	-13247
▁leave	-13248
▁negra	-13249
viation	-13250
▁Männer	-13251
▁agosto	-13252
▁dirett	-13253
▁entren	-13254
▁israel	-13255
▁parall	-13256
▁proced	-13257
▁secund	-13258
▁Israele	-13259
▁alcohol	-13260
▁contact	-13261
▁decline	-13262
▁gestion	-13263
▁million	-13264
▁ähnlich	-13265
▁economia	-13266
▁lasciato	-13267
▁principe	-13268
▁beginning	-13269
▁organisme	-13270
▁publicado	-13271
▁Californie	-13272
▁acquistato	-13273
▁ciudadanos	-13274
▁communauté	-13275
▁matrimonio	-13276
▁nécessaire	-13277
▁révolution	-13278
▁westlichen	-13279
-4	-13280
MS	-13281
TC	-13282
Tr	-13283
ذي	-13284
▁0	-13285
▁セ	-13286
の父	-13287
バル	-13288
ボー	-13289
担当	-13290
空襲	-13291
者が	-13292
Mac	-13293
ecu	-13294
▁ec	-13295
▁رؤ	-13296
▁オー	-13297
したが	-13298
スタン	-13299
Film	-13300
Ital	-13301
ered	-13302
essi	-13303
größ	-13304
irat	-13305
itas	-13306
itgl	-13307
ties	-13308
ماية	-13309
▁Eff	-13310
▁Tim	-13311
▁XXe	-13312
▁lut	-13313
arter	-13314
ouvel	-13315
▁Ghed	-13316
▁Mark	-13317
▁core	-13318
▁fils	-13319
▁grat	-13320
▁such	-13321
▁البل	-13322
▁この文書	-13323
erdisc	-13324
icanos	-13325
igment	-13326
issuto	-13327
nahmen	-13328
nehmer	-13329
▁1950?	-13330
▁1991?	-13331
▁Civil	-13332
▁White	-13333
▁atmos	-13334
▁casas	-13335
▁crime	-13336
▁decor	-13337
▁kanad	-13338
▁العلا	-13339
exemple	-13340
▁bureau	-13341
▁chinos	-13342
▁conver	-13343
▁cuándo	-13344
▁events	-13345
▁giochi	-13346
▁regist	-13347
▁reserv	-13348
▁succès	-13349
▁versch	-13350
▁الثورة	-13351
▁الرابع	-13352
▁المياه	-13353
▁الوصول	-13354
▁مختلفة	-13355
▁Congrès	-13356
▁Mission	-13357
▁Philipp	-13358
▁bestimm	-13359
▁catalan	-13360
した人は誰ですか	-13361
▁Gheddafi	-13362
▁Varsavia	-13363
▁citoyens	-13364
▁lavorato	-13365
▁nazional	-13366
▁precipit	-13367
▁primeras	-13368
▁résultat	-13369
はどれくらいですか	-13370
▁Ashkenazi	-13371
▁fondament	-13372
▁Australien	-13373
▁television	-13374
▁comparación	-13375
▁Entertainment	-13376
MA	-13377
マイ	-13378
Ger	-13379
Pre	-13380
ibr	-13381
jar	-13382
lab	-13383
ova	-13384
ovi	-13385
vey	-13386
اجة	-13387
اطق	-13388
جار	-13389
راح	-13390
سيط	-13391
قاء	-13392
يدا	-13393
▁CO	-13394
ファー	-13395
生まれ	-13396
ency	-13397
ikal	-13398
opol	-13399
rieb	-13400
ugby	-13401
افات	-13402
▁Pla	-13403
▁Tam	-13404
▁asp	-13405
▁dra	-13406
▁pav	-13407
▁زوج	-13408
▁فري	-13409
estos	-13410
ility	-13411
ucion	-13412
▁1000	-13413
▁Büro	-13414
▁Cont	-13415
▁Fire	-13416
▁Yuan	-13417
▁allí	-13418
▁hora	-13419
▁nour	-13420
▁pros	-13421
▁touj	-13422
▁upon	-13423
lungen	-13424
úsculo	-13425
▁Coran	-13426
▁Feuer	-13427
▁Jones	-13428
▁Vorte	-13429
▁fémin	-13430
▁musée	-13431
▁spend	-13432
▁صناعة	-13433
▁مناطق	-13434
ikation	-13435
▁Acerca	-13436
▁besten	-13437
▁calcul	-13438
▁conoce	-13439
▁cuenta	-13440
▁having	-13441
▁lignes	-13442
▁nobles	-13443
▁perdió	-13444
▁située	-13445
▁البابا	-13446
▁موجودة	-13447
▁Anthrop	-13448
▁Italian	-13449
▁Polonia	-13450
▁Valence	-13451
▁basiert	-13452
▁fundada	-13453
▁manière	-13454
▁samurai	-13455
▁tedesco	-13456
▁Funktion	-13457
▁Probleme	-13458
▁dialecte	-13459
▁erfunden	-13460
▁mantener	-13461
▁toujours	-13462
▁Vereinbar	-13463
▁englische	-13464
▁introdujo	-13465
されたのはいつですか	-13466
▁Constantin	-13467
▁erschaffen	-13468
▁protestant	-13469
▁Association	-13470
▁américaines	-13471
▁entreprises	-13472
▁Informationen	-13473
▁verschiedenen	-13474
HS	-13475
dy	-13476
▁ホ	-13477
ラッ	-13478
国が	-13479
採用	-13480
民主	-13481
imi	-13482
oga	-13483
ابع	-13484
ارن	-13485
بلغ	-13486
جات	-13487
▁28	-13488
▁Ku	-13489
▁hd	-13490
▁يخ	-13491
を演じ	-13492
arie	-13493
usto	-13494
ücke	-13495
▁CIA	-13496
▁Jos	-13497
▁Tar	-13498
▁Tür	-13499
▁ale	-13500
▁exc	-13501
▁آخر	-13502
▁هزم	-13503
achus	-13504
يلبرغ	-13505
▁1941	-13506
▁1979	-13507
▁1988	-13508
▁1994	-13509
▁Ober	-13510
▁link	-13511
▁rama	-13512
▁الهي	-13513
▁اولا	-13514
▁مجال	-13515
▁وقعت	-13516
▁Class	-13517
▁Terra	-13518
▁cerem	-13519
▁stamm	-13520
▁touch	-13521
▁الثان	-13522
▁الجسم	-13523
▁الجنس	-13524
▁تصميم	-13525
▁تعريف	-13526
▁Minder	-13527
▁actuel	-13528
▁autore	-13529
▁devait	-13530
▁repris	-13531
▁réussi	-13532
▁sowohl	-13533
▁spoken	-13534
▁العصور	-13535
▁Dialekt	-13536
▁eventos	-13537
▁instead	-13538
▁proport	-13539
▁revista	-13540
▁society	-13541
▁verhind	-13542
▁ارمينيا	-13543
▁العلماء	-13544
▁Division	-13545
▁Northern	-13546
▁palabras	-13547
▁permesso	-13548
▁prodotti	-13549
▁vivaient	-13550
▁البروتست	-13551
▁المسيحية	-13552
▁Antarktis	-13553
▁descubrió	-13554
▁edificios	-13555
▁البكتيريا	-13556
▁department	-13557
▁eingeführt	-13558
▁historique	-13559
▁riferimento	-13560
▁öffentliche	-13561
cm	-13562
▁三	-13563
ビル	-13564
年間	-13565
方法	-13566
irl	-13567
اتج	-13568
▁It	-13569
▁ya	-13570
alli	-13571
bird	-13572
etic	-13573
iero	-13574
irma	-13575
izin	-13576
unkt	-13577
ريات	-13578
▁Ron	-13579
▁asf	-13580
▁lac	-13581
▁اوا	-13582
▁روب	-13583
▁نام	-13584
anned	-13585
aries	-13586
iegen	-13587
illet	-13588
inesi	-13589
oming	-13590
tages	-13591
▁1989	-13592
▁Book	-13593
▁intr	-13594
▁nego	-13595
▁pint	-13596
▁poco	-13597
▁ritu	-13598
▁بالك	-13599
▁قيمة	-13600
▁يحصل	-13601
gether	-13602
ondens	-13603
onique	-13604
▁aller	-13605
▁almac	-13606
▁coast	-13607
▁cosas	-13608
▁laure	-13609
▁neigh	-13610
▁règle	-13611
▁suppl	-13612
▁table	-13613
▁اقترح	-13614
▁المدر	-13615
▁المها	-13616
のことですか	-13617
Estonie	-13618
ormente	-13619
púsculo	-13620
▁academ	-13621
▁denaro	-13622
▁glaubt	-13623
▁irgend	-13624
▁native	-13625
▁points	-13626
▁tradiz	-13627
▁التحكم	-13628
▁المنتج	-13629
▁Russell	-13630
▁ambient	-13631
▁antenna	-13632
▁attuale	-13633
▁cercato	-13634
▁contrat	-13635
▁express	-13636
▁pensait	-13637
▁vitesse	-13638
formation	-13639
▁Broadway	-13640
▁comunità	-13641
▁lanciato	-13642
▁medieval	-13643
▁novembre	-13644
▁ottenere	-13645
▁primaria	-13646
▁weltweit	-13647
▁الجامعات	-13648
▁الروماني	-13649
▁puissance	-13650
▁religioso	-13651
▁résidents	-13652
▁appartient	-13653
▁gemeinsame	-13654
▁nombreuses	-13655
▁الكهربائية	-13656
▁environment	-13657
▁البروتستانت	-13658
▁architettura	-13659
▁metropolitana	-13660
Il	-13661
の第	-13662
het	-13663
lám	-13664
ühl	-13665
ذهب	-13666
قلة	-13667
▁حر	-13668
fert	-13669
idée	-13670
ipre	-13671
tion	-13672
ypre	-13673
خفاض	-13674
لمات	-13675
▁Dra	-13676
▁Inn	-13677
▁Mur	-13678
▁Riv	-13679
▁bon	-13680
▁osc	-13681
▁ted	-13682
▁ضمن	-13683
▁لون	-13684
どちらが	-13685
Tunes	-13686
icher	-13687
yeron	-13688
▁Heil	-13689
▁Jour	-13690
▁cogn	-13691
▁once	-13692
▁semi	-13693
▁wäre	-13694
▁اساس	-13695
▁الرس	-13696
▁شارك	-13697
▁شبكة	-13698
▁يظهر	-13699
きましたか	-13700
▁Bible	-13701
▁Lodge	-13702
▁alter	-13703
▁nutzt	-13704
▁veget	-13705
▁única	-13706
▁البار	-13707
▁الخام	-13708
▁المكث	-13709
▁سيكون	-13710
▁Europä	-13711
▁Nennen	-13712
▁Premio	-13713
▁bilden	-13714
▁cambió	-13715
▁conced	-13716
▁führte	-13717
▁incend	-13718
▁solito	-13719
▁soviet	-13720
▁volvió	-13721
▁البيرة	-13722
▁Kirchen	-13723
▁Stephen	-13724
▁Wettbew	-13725
▁Zentrum	-13726
▁credeva	-13727
▁faisait	-13728
▁hauteur	-13729
▁namibia	-13730
▁العاصمة	-13731
▁Bermudes	-13732
▁Bewohner	-13733
▁November	-13734
▁Première	-13735
▁continue	-13736
▁critique	-13737
▁deutsche	-13738
▁separate	-13739
▁Millionen	-13740
▁classific	-13741
▁conocidos	-13742
▁religiöse	-13743
▁servicios	-13744
▁terrestre	-13745
▁Parlamento	-13746
▁componente	-13747
▁settlement	-13748
▁Nordamerika	-13749
▁statunitense	-13750
▁$	-13751
ころ	-13752
オン	-13753
クス	-13754
ルタ	-13755
上げ	-13756
国で	-13757
距離	-13758
des	-13759
olf	-13760
omi	-13761
êts	-13762
▁قص	-13763
の戦い	-13764
anch	-13765
chts	-13766
iPod	-13767
uebl	-13768
ادية	-13769
واتم	-13770
▁bed	-13771
▁mog	-13772
▁مان	-13773
Austr	-13774
ettes	-13775
▁Hard	-13776
▁Norm	-13777
▁cort	-13778
▁degr	-13779
▁ries	-13780
▁rifi	-13781
▁sper	-13782
▁thre	-13783
▁very	-13784
▁vole	-13785
▁اعلن	-13786
▁توجد	-13787
▁Stras	-13788
▁Terre	-13789
▁dolor	-13790
▁glass	-13791
▁means	-13792
▁toute	-13793
▁اواخر	-13794
▁Corpor	-13795
▁Nankin	-13796
▁border	-13797
▁malatt	-13798
▁ranked	-13799
piration	-13800
▁Olympic	-13801
▁collège	-13802
▁doivent	-13803
▁materia	-13804
▁spectre	-13805
▁studios	-13806
▁équipes	-13807
▁الثقافة	-13808
▁القاعدة	-13809
▁المئوية	-13810
étudiants	-13811
▁controll	-13812
▁demonstr	-13813
▁featured	-13814
▁nominato	-13815
▁publique	-13816
▁szlachta	-13817
▁française	-13818
▁actuellement	-13819
不可	-13820
含ま	-13821
平均	-13822
美術	-13823
emm	-13824
سيد	-13825
كام	-13826
كور	-13827
▁"?	-13828
▁تك	-13829
は誰の	-13830
Asie	-13831
auen	-13832
esis	-13833
iben	-13834
▁Pok	-13835
▁Wal	-13836
▁mue	-13837
▁pil	-13838
▁sun	-13839
▁مما	-13840
国はどこ	-13841
adora	-13842
urity	-13843
▁Grad	-13844
▁Text	-13845
▁Town	-13846
▁abol	-13847
▁pérd	-13848
▁reag	-13849
▁القن	-13850
▁النش	-13851
▁زعيم	-13852
▁كاني	-13853
が行われた	-13854
始めたのは	-13855
ciendo	-13856
entral	-13857
inaire	-13858
utions	-13859
▁Tower	-13860
▁aider	-13861
▁ended	-13862
▁regol	-13863
▁unità	-13864
▁words	-13865
▁اكتشف	-13866
▁الرغم	-13867
▁النهر	-13868
▁يتكون	-13869
togallo	-13870
▁Rekord	-13871
▁accomp	-13872
▁antica	-13873
▁causar	-13874
▁discut	-13875
▁dovuto	-13876
▁figlio	-13877
▁giorni	-13878
▁multip	-13879
▁phrase	-13880
▁públic	-13881
▁revenu	-13882
▁الناتج	-13883
▁النجوم	-13884
▁بيونسي	-13885
▁Kennedy	-13886
▁beyoncé	-13887
▁concess	-13888
▁locales	-13889
▁mercato	-13890
▁royaume	-13891
▁التلفزي	-13892
▁انشاؤها	-13893
▁Programm	-13894
▁studiert	-13895
▁اليهودية	-13896
▁الاولمبية	-13897
▁التسعينات	-13898
▁Herrschaft	-13899
▁Portogallo	-13900
▁bouddhisme	-13901
▁contemporáne	-13902
▁unterstützen	-13903
▁completamente	-13904
-6	-13905
äm	-13906
خذ	-13907
قف	-13908
▁ظ	-13909
が何	-13910
何軍	-13911
漫画	-13912
-10	-13913
abs	-13914
cks	-13915
ims	-13916
ائع	-13917
ارض	-13918
▁Gi	-13919
▁gh	-13920
▁وظ	-13921
までに	-13922
Form	-13923
bres	-13924
gabe	-13925
gles	-13926
imos	-13927
oner	-13928
roph	-13929
roup	-13930
welt	-13931
اعية	-13932
بيرك	-13933
وافق	-13934
▁Att	-13935
▁McC	-13936
▁feu	-13937
▁gam	-13938
▁sos	-13939
▁try	-13940
▁جيش	-13941
どの国が	-13942
arnia	-13943
isent	-13944
omini	-13945
todox	-13946
▁Abst	-13947
▁Aspe	-13948
▁Tele	-13949
▁adap	-13950
▁ball	-13951
▁chap	-13952
▁konn	-13953
▁mare	-13954
▁niño	-13955
▁reço	-13956
▁rise	-13957
▁rojo	-13958
▁self	-13959
▁vête	-13960
▁التد	-13961
▁اللي	-13962
▁كمية	-13963
▁يدير	-13964
culose	-13965
licher	-13966
▁birth	-13967
▁puebl	-13968
▁satél	-13969
▁viagg	-13970
▁victo	-13971
▁الحية	-13972
▁الزنك	-13973
▁القطن	-13974
▁اللات	-13975
▁جديدة	-13976
▁وسائل	-13977
れていますか	-13978
etzwerk	-13979
▁Jugend	-13980
▁abgele	-13981
▁ajouté	-13982
▁biolog	-13983
▁county	-13984
▁findet	-13985
▁humano	-13986
▁limite	-13987
▁parado	-13988
▁prepar	-13989
▁suelen	-13990
▁œuvres	-13991
▁الجانب	-13992
▁الدماغ	-13993
▁Clinton	-13994
▁actions	-13995
▁protect	-13996
▁الحيوية	-13997
▁beschäft	-13998
▁murieron	-13999
▁practice	-14000
▁rencontr	-14001
▁respecto	-14002
▁together	-14003
ondensator	-14004
▁Jefferson	-14005
▁comienzan	-14006
▁frontière	-14007
▁portugais	-14008
▁Lancashire	-14009
▁construido	-14010
▁construite	-14011
▁definición	-14012
▁tuberculose	-14013
bc	-14014
زا	-14015
▁Â	-14016
キア	-14017
ハー	-14018
力を	-14019
火山	-14020
Ant	-14021
pas	-14022
ued	-14023
روض	-14024
▁EU	-14025
▁Jr	-14026
▁mp	-14027
▁ví	-14028
▁éd	-14029
▁بأ	-14030
▁حس	-14031
▁فا	-14032
▁مغ	-14033
もっと	-14034
院議員	-14035
ften	-14036
wide	-14037
لابس	-14038
▁Bis	-14039
▁Cab	-14040
▁NBA	-14041
▁Rob	-14042
▁Weg	-14043
▁hem	-14044
▁vér	-14045
▁عاش	-14046
とともに	-14047
ummer	-14048
ziale	-14049
▁Elis	-14050
▁Ther	-14051
▁Yong	-14052
▁baja	-14053
▁colp	-14054
▁cruz	-14055
▁isol	-14056
▁nata	-14057
▁étud	-14058
▁تسمح	-14059
▁لعمل	-14060
oplast	-14061
upción	-14062
▁Liver	-14063
▁Markt	-14064
▁XXIII	-14065
▁comin	-14066
▁jouer	-14067
▁lejos	-14068
▁psych	-14069
▁relay	-14070
▁sconf	-14071
▁stade	-14072
▁texto	-14073
▁umani	-14074
▁تايمز	-14075
▁تراجع	-14076
▁Secret	-14077
▁matchs	-14078
▁numéro	-14079
▁stammt	-14080
▁tenuto	-14081
▁المادة	-14082
▁الموقع	-14083
▁نيومان	-14084
▁Namibie	-14085
▁alfabet	-14086
▁asfalto	-14087
▁combust	-14088
▁congreg	-14089
▁muestra	-14090
▁pensava	-14091
▁pueblos	-14092
▁quattro	-14093
▁realizó	-14094
▁Kaliforn	-14095
▁católica	-14096
▁diplomat	-14097
▁ferrocar	-14098
▁pratique	-14099
▁property	-14100
▁recorded	-14101
▁southern	-14102
▁استراليا	-14103
▁الخارجية	-14104
▁Fähigkeit	-14105
▁Liverpool	-14106
▁abgelehnt	-14107
▁classique	-14108
▁innerhalb	-14109
▁convertirse	-14110
▁características	-14111
ドル	-14112
raq	-14113
rir	-14114
اهد	-14115
داف	-14116
▁pé	-14117
になる	-14118
etze	-14119
fuer	-14120
nder	-14121
nels	-14122
äche	-14123
▁Alf	-14124
▁Pac	-14125
▁Pas	-14126
▁bib	-14127
▁fis	-14128
▁nun	-14129
▁suc	-14130
▁بيس	-14131
▁رقم	-14132
があるか	-14133
れていた	-14134
を何と呼	-14135
aught	-14136
autor	-14137
gence	-14138
mobil	-14139
onica	-14140
▁Krit	-14141
▁Nett	-14142
▁barr	-14143
▁fals	-14144
▁gymn	-14145
▁uomo	-14146
▁مصدر	-14147
▁نورث	-14148
しなかった	-14149
▁1939?	-14150
▁Sonne	-14151
▁decir	-14152
▁insed	-14153
▁parlé	-14154
▁queen	-14155
▁reign	-14156
▁stark	-14157
▁الاير	-14158
▁البعض	-14159
▁الجوي	-14160
▁الحمض	-14161
▁مليون	-14162
名は何ですか	-14163
▁antena	-14164
▁ascend	-14165
▁célébr	-14166
▁dépend	-14167
▁erster	-14168
▁simple	-14169
▁الفضاء	-14170
▁الكلية	-14171
irkungen	-14172
▁Element	-14173
▁Gebiete	-14174
▁anunció	-14175
▁branche	-14176
▁florida	-14177
▁indígen	-14178
▁settore	-14179
▁الفيديو	-14180
▁بيونسيه	-14181
▁ناميبيا	-14182
▁Kongress	-14183
▁arbeiten	-14184
▁berühmte	-14185
▁commence	-14186
▁distrito	-14187
▁القوانين	-14188
▁Jahrzehnt	-14189
▁Katmandou	-14190
▁chrétiens	-14191
▁compagnie	-14192
▁genocidio	-14193
▁periódico	-14194
geschrieben	-14195
▁Amerikaner	-14196
▁Protestant	-14197
▁beschreibt	-14198
▁experience	-14199
▁transporte	-14200
ministration	-14201
▁angegriffen	-14202
▁chinesische	-14203
▁britanniques	-14204
äg	-14205
وه	-14206
中に	-14207
地球	-14208
新聞	-14209
جون	-14210
▁dû	-14211
▁قر	-14212
▁وي	-14213
.000	-14214
aign	-14215
asto	-14216
icon	-14217
imen	-14218
likt	-14219
ossa	-14220
shof	-14221
▁Abd	-14222
▁Jac	-14223
▁boy	-14224
▁hér	-14225
izona	-14226
ledge	-14227
ختلفة	-14228
▁Prof	-14229
▁chil	-14230
▁hubo	-14231
▁mong	-14232
▁sagt	-14233
▁surv	-14234
▁التف	-14235
vement	-14236
▁Locke	-14237
▁Medio	-14238
▁birra	-14239
▁block	-14240
▁cessé	-14241
▁firmó	-14242
▁gehen	-14243
▁right	-14244
▁رسميا	-14245
はどれくらい	-14246
Univers	-14247
iamenti	-14248
oconfer	-14249
▁Chypre	-14250
▁Grenze	-14251
▁Newton	-14252
▁Satell	-14253
▁Varsov	-14254
▁afferm	-14255
▁humain	-14256
▁joueur	-14257
▁lettre	-14258
▁mammif	-14259
▁series	-14260
▁الكبير	-14261
▁المناخ	-14262
▁Johnson	-14263
▁Katalan	-14264
▁Portugu	-14265
▁biggest	-14266
▁defined	-14267
▁eritrea	-14268
▁irgendw	-14269
▁polizia	-14270
▁reconna	-14271
▁الاعلان	-14272
▁الشخصية	-14273
sterreich	-14274
▁Français	-14275
▁Mahayana	-14276
▁campagne	-14277
▁churches	-14278
▁famiglia	-14279
▁ehemalige	-14280
▁introduit	-14281
▁newspaper	-14282
▁presbiter	-14283
▁Definition	-14284
▁diferencia	-14285
▁transistor	-14286
27	-14287
90	-14288
AF	-14289
ظا	-14290
ナダ	-14291
レク	-14292
川の	-14293
月の	-14294
発売	-14295
西暦	-14296
降伏	-14297
際に	-14298
nos	-14299
ددة	-14300
ريس	-14301
が始ま	-14302
の種類	-14303
州知事	-14304
死んだ	-14305
ktor	-14306
legt	-14307
orse	-14308
oule	-14309
tail	-14310
upta	-14311
vahi	-14312
vere	-14313
راعة	-14314
فينة	-14315
نائي	-14316
▁160	-14317
▁DVD	-14318
▁Dev	-14319
▁End	-14320
▁sav	-14321
▁ايف	-14322
▁فوق	-14323
した人物	-14324
inois	-14325
lines	-14326
éraux	-14327
▁1944	-14328
▁Bewe	-14329
▁Blue	-14330
▁cert	-14331
▁giur	-14332
▁ship	-14333
▁weil	-14334
▁يؤثر	-14335
ailand	-14336
ativen	-14337
encial	-14338
▁Feder	-14339
▁Obama	-14340
▁afirm	-14341
▁envió	-14342
▁frühe	-14343
▁monte	-14344
▁médec	-14345
▁neben	-14346
▁texte	-14347
▁überw	-14348
▁الجزر	-14349
▁الشكل	-14350
になったのは	-14351
ducción	-14352
▁Argent	-14353
▁España	-14354
▁Golden	-14355
▁Israël	-14356
▁Papier	-14357
▁Zeugen	-14358
▁Zypern	-14359
▁envahi	-14360
▁female	-14361
▁führen	-14362
▁origen	-14363
▁palais	-14364
▁solare	-14365
▁المرتب	-14366
isierung	-14367
lisabeth	-14368
▁Artikel	-14369
▁Jehovas	-14370
▁الاعلام	-14371
▁الخلايا	-14372
▁ايرلندا	-14373
achusetts	-14374
▁ambiente	-14375
▁iglesias	-14376
▁mandolin	-14377
▁problemi	-14378
▁sociétés	-14379
▁الاجمالي	-14380
▁behauptet	-14381
▁élections	-14382
▁Convention	-14383
▁angenommen	-14384
▁englischen	-14385
▁Gerichtshof	-14386
▁Volkszählung	-14387
..	-14388
خب	-14389
▁ポ	-14390
ンダ	-14391
一般	-14392
史上	-14393
社会	-14394
連邦	-14395
RSS	-14396
aja	-14397
deo	-14398
ila	-14399
mäß	-14400
vre	-14401
بيع	-14402
▁Vi	-14403
▁ta	-14404
▁بق	-14405
ジョン	-14406
共和党	-14407
時代に	-14408
azar	-14409
gere	-14410
idet	-14411
ielo	-14412
iéta	-14413
mont	-14414
▁Cat	-14415
▁Tad	-14416
▁map	-14417
▁pul	-14418
▁saw	-14419
▁تتح	-14420
▁صمم	-14421
Unter	-14422
uegos	-14423
▁Fest	-14424
▁Kore	-14425
▁einf	-14426
▁gepl	-14427
▁mené	-14428
▁sito	-14429
▁tens	-14430
▁سينا	-14431
▁يقول	-14432
nement	-14433
▁Corán	-14434
▁Seite	-14435
▁Smith	-14436
▁deben	-14437
▁doing	-14438
▁giust	-14439
▁indig	-14440
▁ligue	-14441
▁opere	-14442
▁plane	-14443
▁النقل	-14444
tazione	-14445
▁Edison	-14446
▁Kandid	-14447
▁Luther	-14448
▁Report	-14449
▁circad	-14450
▁iTunes	-14451
▁profit	-14452
▁pronun	-14453
▁récord	-14454
▁انخفاض	-14455
▁ويليام	-14456
▁aiutato	-14457
▁apporté	-14458
▁catalán	-14459
▁monarca	-14460
▁produjo	-14461
▁qualité	-14462
▁Ministro	-14463
▁artículo	-14464
▁sociales	-14465
▁القياسية	-14466
▁المختلفة	-14467
ländischen	-14468
▁Brasilien	-14469
▁angeboten	-14470
▁documents	-14471
▁permanent	-14472
▁Portuguese	-14473
▁Produktion	-14474
▁financière	-14475
▁indigenous	-14476
▁soprannome	-14477
▁électrique	-14478
▁امبراطورية	-14479
▁Katalanisch	-14480
▁aufgetreten	-14481
▁comunemente	-14482
▁menschlichen	-14483
At	-14484
▁リ	-14485
即位	-14486
導入	-14487
次に	-14488
観測	-14489
aye	-14490
idu	-14491
xis	-14492
▁SA	-14493
▁WH	-14494
などの	-14495
フィン	-14496
SCII	-14497
Stud	-14498
amos	-14499
ccan	-14500
mage	-14501
onds	-14502
otes	-14503
ätze	-14504
عمرة	-14505
لزال	-14506
▁Bat	-14507
▁Bil	-14508
▁réf	-14509
▁saf	-14510
▁فرع	-14511
▁فرق	-14512
▁للا	-14513
▁フラン	-14514
いくつの	-14515
を行った	-14516
iesen	-14517
othic	-14518
usión	-14519
ypoth	-14520
بيعات	-14521
▁Just	-14522
▁Sher	-14523
▁Tage	-14524
▁Wahr	-14525
▁bord	-14526
▁dann	-14527
▁path	-14528
▁snes	-14529
▁تحصل	-14530
▁فكرة	-14531
▁قبرص	-14532
▁フランス	-14533
の中で最も	-14534
rature	-14535
tragen	-14536
▁Baumw	-14537
▁Hindu	-14538
▁Teile	-14539
▁apart	-14540
▁ayant	-14541
▁bring	-14542
▁femen	-14543
▁pruss	-14544
▁retra	-14545
▁tomar	-14546
▁troph	-14547
▁tutte	-14548
▁verso	-14549
▁viejo	-14550
▁اعلنت	-14551
▁تحتاج	-14552
▁يساعد	-14553
▁Aktion	-14554
▁Warner	-14555
▁caract	-14556
▁census	-14557
▁digest	-14558
▁formes	-14559
▁mosaic	-14560
▁papier	-14561
▁prueba	-14562
▁reduce	-14563
▁relais	-14564
▁sozial	-14565
▁späten	-14566
▁اقتصاد	-14567
▁مباراة	-14568
▁Hokkien	-14569
▁Species	-14570
▁abandon	-14571
▁anciens	-14572
▁attaqué	-14573
▁ausgest	-14574
▁compare	-14575
▁détient	-14576
▁vissuto	-14577
▁الثلاثة	-14578
▁مستعمرة	-14579
▁Armenien	-14580
▁Mathemat	-14581
▁dominant	-14582
▁hydrogen	-14583
▁invasion	-14584
université	-14585
▁Frederick	-14586
▁Herrscher	-14587
▁Spitzname	-14588
▁stabilito	-14589
▁اللاتينية	-14590
▁abgehalten	-14591
▁immigrants	-14592
▁videoconfer	-14593
.5	-14594
yc	-14595
أس	-14596
でも	-14597
また	-14598
マネ	-14599
cés	-14600
zio	-14601
يرا	-14602
▁36	-14603
の映画	-14604
不可侵	-14605
geno	-14606
roat	-14607
تتاح	-14608
ثافة	-14609
مودا	-14610
▁Cas	-14611
▁Ern	-14612
▁Imm	-14613
▁Vat	-14614
▁Zug	-14615
▁كاس	-14616
▁مبا	-14617
▁وفي	-14618
▁ロシア	-14619
aches	-14620
ianza	-14621
ollar	-14622
omans	-14623
quier	-14624
الوني	-14625
▁Auss	-14626
▁Auto	-14627
▁Conc	-14628
▁Kiev	-14629
▁Verk	-14630
▁ever	-14631
▁guad	-14632
▁riun	-14633
▁secr	-14634
▁قوات	-14635
▁مبكر	-14636
▁والح	-14637
▁وصلت	-14638
▁يفوز	-14639
不可侵条約	-14640
heirat	-14641
naires	-14642
▁1989?	-14643
▁1995?	-14644
▁Brief	-14645
▁Field	-14646
▁close	-14647
▁cloth	-14648
▁descr	-14649
▁empez	-14650
▁lesqu	-14651
▁moved	-14652
▁souff	-14653
▁tasso	-14654
▁Änder	-14655
▁الكتب	-14656
▁اوائل	-14657
▁يعتمد	-14658
していたのは	-14659
untains	-14660
▁Beginn	-14661
▁autour	-14662
▁beteil	-14663
▁double	-14664
▁medida	-14665
▁moteur	-14666
▁powers	-14667
▁spread	-14668
▁المراه	-14669
▁المسلم	-14670
▁Academy	-14671
▁Mississ	-14672
▁assunto	-14673
▁besides	-14674
▁conduct	-14675
▁couvert	-14676
▁einigen	-14677
▁empieza	-14678
▁estadio	-14679
▁posible	-14680
▁primäre	-14681
▁الجنسية	-14682
▁السابقة	-14683
▁chiamati	-14684
▁ferrovia	-14685
▁francesa	-14686
▁gleichen	-14687
▁mountain	-14688
▁nombrado	-14689
▁producto	-14690
▁zerstört	-14691
▁constante	-14692
▁direzione	-14693
▁influenza	-14694
▁instituto	-14695
▁الفيدرالي	-14696
▁alternative	-14697
▁Massachusetts	-14698
RC	-14699
メル	-14700
代表	-14701
国王	-14702
運動	-14703
300	-14704
Kon	-14705
hrt	-14706
isp	-14707
œur	-14708
ترع	-14709
حية	-14710
هدف	-14711
ورت	-14712
▁ku	-14713
▁ذا	-14714
▁لس	-14715
▁مض	-14716
と同じ	-14717
現在の	-14718
icus	-14719
igne	-14720
rage	-14721
uren	-14722
èles	-14723
ésie	-14724
▁Cir	-14725
▁Dre	-14726
▁usu	-14727
▁Âge	-14728
▁ذهب	-14729
▁راس	-14730
▁محل	-14731
はどんな	-14732
ahara	-14733
illas	-14734
light	-14735
ocide	-14736
onnes	-14737
uebas	-14738
▁Four	-14739
▁June	-14740
▁aidé	-14741
▁caza	-14742
▁giov	-14743
▁metà	-14744
▁segn	-14745
▁أصغر	-14746
▁ممثل	-14747
größte	-14748
ighten	-14749
ultura	-14750
étaire	-14751
▁1998?	-14752
▁Antes	-14753
▁March	-14754
▁Other	-14755
▁Zivil	-14756
▁burke	-14757
▁cuadr	-14758
▁eston	-14759
▁kilom	-14760
▁niedr	-14761
▁ruled	-14762
▁sumer	-14763
▁torre	-14764
▁usare	-14765
▁الامر	-14766
▁السفن	-14767
▁تنتمي	-14768
ammlung	-14769
iedades	-14770
▁Handel	-14771
▁Romans	-14772
▁eletto	-14773
▁esfuer	-14774
▁faible	-14775
▁milieu	-14776
▁petrol	-14777
▁potenz	-14778
▁schwar	-14779
▁الشرطة	-14780
▁القديم	-14781
▁الكونغ	-14782
▁Harvard	-14783
▁Nettuno	-14784
▁artiste	-14785
▁benefit	-14786
▁fornito	-14787
▁globale	-14788
▁jugador	-14789
▁partner	-14790
▁segment	-14791
▁trovare	-14792
▁working	-14793
▁الجامعة	-14794
▁مجموعات	-14795
▁Familien	-14796
▁ensemble	-14797
▁frédéric	-14798
▁geändert	-14799
▁officiel	-14800
▁unabhäng	-14801
▁الأوسكار	-14802
▁Parlement	-14803
▁besonders	-14804
▁spielberg	-14805
▁britannica	-14806
▁Kalifornien	-14807
▁europäische	-14808
UN	-14809
فظ	-14810
نغ	-14811
が長	-14812
であ	-14813
りの	-14814
運河	-14815
ائب	-14816
افر	-14817
عام	-14818
فيد	-14819
يلة	-14820
および	-14821
ックス	-14822
ナルド	-14823
戦争は	-14824
最後の	-14825
alty	-14826
arta	-14827
bank	-14828
tico	-14829
لاحظ	-14830
▁Bab	-14831
▁bic	-14832
▁bin	-14833
▁hip	-14834
▁née	-14835
▁pén	-14836
▁مشت	-14837
▁يفز	-14838
Oscar	-14839
elehr	-14840
olars	-14841
onese	-14842
quenz	-14843
ánica	-14844
لافات	-14845
وتيوب	-14846
▁1976	-14847
▁Ages	-14848
▁Iraq	-14849
▁Love	-14850
▁Orth	-14851
▁bass	-14852
▁cath	-14853
▁mars	-14854
▁mode	-14855
▁pant	-14856
▁prín	-14857
▁samo	-14858
▁بعمل	-14859
▁تشمل	-14860
▁توفر	-14861
▁لمدة	-14862
▁وجدت	-14863
hedral	-14864
orient	-14865
▁Distr	-14866
▁Jesús	-14867
▁Pacif	-14868
▁Tiere	-14869
▁adapt	-14870
▁avanz	-14871
▁chose	-14872
▁divid	-14873
▁espos	-14874
▁fonte	-14875
▁greco	-14876
▁jeune	-14877
▁könig	-14878
▁masse	-14879
▁peint	-14880
▁البحث	-14881
▁تحقيق	-14882
▁تسيطر	-14883
▁رواية	-14884
▁موجود	-14885
almente	-14886
entlich	-14887
▁Antárt	-14888
▁Madrid	-14889
▁Mongol	-14890
▁Zeiten	-14891
▁analog	-14892
▁camino	-14893
▁choses	-14894
▁device	-14895
▁entità	-14896
▁genoma	-14897
▁latino	-14898
▁spielt	-14899
▁unidad	-14900
▁uomini	-14901
▁verano	-14902
▁église	-14903
▁الأولى	-14904
▁الهيدر	-14905
されたのはいつ	-14906
ximately	-14907
▁Mexique	-14908
▁artific	-14909
▁aviones	-14910
▁display	-14911
▁equival	-14912
▁inférie	-14913
▁inviato	-14914
▁majeure	-14915
▁modific	-14916
▁proclam	-14917
▁المحافظ	-14918
▁candidat	-14919
▁comunica	-14920
▁höchsten	-14921
▁interdit	-14922
▁neighbor	-14923
▁provoqué	-14924
▁temprano	-14925
▁verboten	-14926
▁Erwachsen	-14927
▁currently	-14928
▁jugadores	-14929
▁Commission	-14930
▁Instrument	-14931
▁collection	-14932
▁orientales	-14933
▁littérature	-14934
▁partecipato	-14935
▁publicación	-14936
▁indipendenza	-14937
تو	-14938
なる	-14939
所属	-14940
dis	-14941
kha	-14942
lée	-14943
mus	-14944
ève	-14945
éma	-14946
عال	-14947
▁PA	-14948
▁pc	-14949
▁sf	-14950
はどう	-14951
ールの	-14952
aner	-14953
iget	-14954
lett	-14955
teor	-14956
بوبر	-14957
كسية	-14958
لامة	-14959
▁168	-14960
▁ADN	-14961
▁Ban	-14962
▁Sic	-14963
▁Syn	-14964
▁bás	-14965
▁cay	-14966
▁lím	-14967
▁mét	-14968
▁nas	-14969
▁sco	-14970
▁امر	-14971
▁ترش	-14972
▁دخل	-14973
▁زاد	-14974
▁فان	-14975
ciare	-14976
eschi	-14977
lying	-14978
omagn	-14979
recht	-14980
▁1993	-14981
▁Gand	-14982
▁LEDs	-14983
▁Navy	-14984
▁Stad	-14985
▁pape	-14986
▁vécu	-14987
▁بالح	-14988
▁للمن	-14989
▁معها	-14990
▁يحدد	-14991
ources	-14992
schech	-14993
schein	-14994
thèque	-14995
ördert	-14996
▁2013,	-14997
▁Alpes	-14998
▁Board	-14999
▁Jusqu	-15000
▁metro	-15001
▁migli	-15002
▁rusos	-15003
▁score	-15004
▁servi	-15005
▁ارسال	-15006
▁Führer	-15007
▁Margar	-15008
▁bekann	-15009
▁bereit	-15010
▁bitume	-15011
▁connus	-15012
▁domest	-15013
▁estuvo	-15014
▁osserv	-15015
▁prince	-15016
▁propag	-15017
▁settim	-15018
▁souver	-15019
▁tienda	-15020
▁البلاد	-15021
▁الحفاظ	-15022
▁الفنان	-15023
isations	-15024
▁Command	-15025
▁Machine	-15026
▁beinhal	-15027
▁ortodox	-15028
▁partage	-15029
▁pruebas	-15030
▁respond	-15031
▁windows	-15032
▁الاسلحة	-15033
▁التجارة	-15034
▁الخواتم	-15035
▁confront	-15036
▁creación	-15037
▁interior	-15038
▁proviene	-15039
▁versions	-15040
▁البرلمان	-15041
▁الكائنات	-15042
▁المركزية	-15043
▁انتخابات	-15044
▁divisione	-15045
▁Manchester	-15046
▁cristianos	-15047
▁dirigeants	-15048
▁historical	-15049
▁competition	-15050
▁influenzato	-15051
▁contemporary	-15052
ET	-15053
SI	-15054
عى	-15055
هل	-15056
▁ド	-15057
キシ	-15058
ニコ	-15059
古代	-15060
対象	-15061
工事	-15062
登録	-15063
Imp	-15064
bus	-15065
zos	-15066
لسل	-15067
يلي	-15068
▁لر	-15069
キング	-15070
Alas	-15071
ania	-15072
aren	-15073
atha	-15074
azia	-15075
chia	-15076
dess	-15077
ició	-15078
ivas	-15079
mers	-15080
omer	-15081
▁Fle	-15082
▁Pur	-15083
▁Rap	-15084
▁Sem	-15085
▁Tol	-15086
▁Wur	-15087
▁avo	-15088
▁emo	-15089
▁ras	-15090
▁عاد	-15091
▁قطع	-15092
▁يصف	-15093
どの地域	-15094
achal	-15095
▁Jagd	-15096
▁Main	-15097
▁Wert	-15098
▁cach	-15099
▁clor	-15100
▁copa	-15101
▁frat	-15102
▁rame	-15103
▁tchè	-15104
▁vivo	-15105
▁ارسل	-15106
▁الذه	-15107
▁فعلت	-15108
▁لوصف	-15109
▁ينتج	-15110
と呼ばれる	-15111
Alaska	-15112
Gruppe	-15113
atoire	-15114
emment	-15115
iation	-15116
▁2004,	-15117
▁Brook	-15118
▁Manch	-15119
▁Paese	-15120
▁Primo	-15121
▁Según	-15122
▁Turqu	-15123
▁behav	-15124
▁bomba	-15125
▁coleg	-15126
▁leggi	-15127
▁norme	-15128
▁polac	-15129
▁resul	-15130
▁russo	-15131
▁sales	-15132
▁sites	-15133
▁slave	-15134
▁تعتمد	-15135
Arménie	-15136
ibilità	-15137
▁Briten	-15138
▁Disney	-15139
▁Prusse	-15140
▁carbon	-15141
▁conduc	-15142
▁engine	-15143
▁اختبار	-15144
▁لتحديد	-15145
▁يوتيوب	-15146
schaften	-15147
▁Antenne	-15148
▁Zustand	-15149
▁institu	-15150
▁measure	-15151
▁operate	-15152
▁portogh	-15153
▁reinado	-15154
▁الاساسي	-15155
▁الافلام	-15156
▁سبيلبرغ	-15157
issements	-15158
▁Dokument	-15159
▁differen	-15160
▁occurred	-15161
▁sprechen	-15162
▁Francisco	-15163
▁Gladstone	-15164
▁candidats	-15165
▁divisions	-15166
▁estimated	-15167
▁portugies	-15168
▁primarily	-15169
▁التحقيقات	-15170
▁Antarctica	-15171
▁chercheurs	-15172
▁enfermedad	-15173
▁istruzione	-15174
▁utilizzare	-15175
▁Bürgerkrieg	-15176
▁erfolgreich	-15177
▁produzieren	-15178
▁konzentriert	-15179
EA	-15180
UE	-15181
江戸	-15182
要な	-15183
DNA	-15184
acr	-15185
dam	-15186
شور	-15187
صائ	-15188
قين	-15189
ينة	-15190
▁AD	-15191
▁Ep	-15192
▁Ga	-15193
▁Sä	-15194
▁أو	-15195
▁بك	-15196
▁عب	-15197
とした	-15198
までの	-15199
リッツ	-15200
名は何	-15201
帝国の	-15202
Tube	-15203
ghis	-15204
ielt	-15205
درات	-15206
يرات	-15207
▁Ken	-15208
▁gaz	-15209
▁gez	-15210
▁spr	-15211
▁اثر	-15212
が初めて	-15213
ativi	-15214
estas	-15215
icain	-15216
olith	-15217
primé	-15218
zeuge	-15219
مارسة	-15220
▁Down	-15221
▁bapt	-15222
▁getr	-15223
▁janv	-15224
▁puer	-15225
▁sais	-15226
▁toda	-15227
▁voit	-15228
▁yale	-15229
▁évol	-15230
▁البث	-15231
▁قضية	-15232
▁متحف	-15233
▁نشات	-15234
iteurs	-15235
▁Dinge	-15236
▁Gener	-15237
▁Trade	-15238
▁annex	-15239
▁dafür	-15240
▁depos	-15241
▁deten	-15242
▁divin	-15243
▁effet	-15244
▁explo	-15245
▁illeg	-15246
▁lengu	-15247
▁photo	-15248
▁young	-15249
▁اعطاء	-15250
▁تنفيذ	-15251
▁حاليا	-15252
▁مدارس	-15253
▁مفهوم	-15254
schulen	-15255
▁Puerto	-15256
▁bieten	-15257
▁cathéd	-15258
▁crimin	-15259
▁expuls	-15260
▁montré	-15261
▁médias	-15262
▁parent	-15263
▁piante	-15264
▁player	-15265
▁quotid	-15266
▁اختيار	-15267
▁القدرة	-15268
▁النمسا	-15269
▁الهجوم	-15270
▁برمودا	-15271
▁Angeles	-15272
▁Develop	-15273
▁douleur	-15274
▁janvier	-15275
▁lugares	-15276
▁riguard	-15277
Präsident	-15278
▁Konflikt	-15279
▁Somerset	-15280
▁Svizzera	-15281
▁contract	-15282
▁esclaves	-15283
▁europeos	-15284
▁producir	-15285
▁quelques	-15286
▁الكونغرس	-15287
▁Mississip	-15288
▁beteiligt	-15289
▁following	-15290
▁الجمهورية	-15291
▁presentato	-15292
▁actualmente	-15293
▁affirmative	-15294
▁constructed	-15295
▁officiellement	-15296
De	-15297
ui	-15298
رز	-15299
▁シ	-15300
ゴン	-15301
デー	-15302
上陸	-15303
前の	-15304
間で	-15305
alo	-15306
sta	-15307
اسة	-15308
رال	-15309
فلت	-15310
وجه	-15311
ويا	-15312
▁35	-15313
▁EE	-15314
▁Ko	-15315
▁rh	-15316
▁äl	-15317
▁طب	-15318
フェル	-15319
委員会	-15320
cars	-15321
iges	-15322
imil	-15323
uche	-15324
usta	-15325
utto	-15326
بدال	-15327
ريمة	-15328
▁120	-15329
▁Hub	-15330
▁Loi	-15331
▁MTV	-15332
▁Sol	-15333
▁cum	-15334
▁cup	-15335
▁cóm	-15336
▁dst	-15337
▁ere	-15338
▁ألب	-15339
▁ارض	-15340
▁سيد	-15341
▁هول	-15342
chine	-15343
ottes	-15344
richt	-15345
urato	-15346
▁Sous	-15347
▁mitt	-15348
▁tall	-15349
▁tomó	-15350
▁vino	-15351
▁ثلاث	-15352
▁للاع	-15353
bliche	-15354
gangen	-15355
قتصادي	-15356
▁Ident	-15357
▁Route	-15358
▁acept	-15359
▁armée	-15360
▁carre	-15361
▁circa	-15362
▁conci	-15363
▁davon	-15364
▁gramm	-15365
▁lider	-15366
▁plans	-15367
▁tribu	-15368
▁الارث	-15369
▁الزمن	-15370
▁المطل	-15371
▁بعيدا	-15372
▁محكمة	-15373
イングランド	-15374
atrième	-15375
iterran	-15376
publica	-15377
station	-15378
▁Sicher	-15379
▁amenaz	-15380
▁chante	-15381
▁cinesi	-15382
▁comics	-15383
▁compró	-15384
▁größer	-15385
▁impres	-15386
▁indire	-15387
▁kultur	-15388
▁länger	-15389
▁nuevas	-15390
▁opened	-15391
▁quiere	-15392
▁servir	-15393
▁simile	-15394
▁العنصر	-15395
▁المجلس	-15396
▁تشارلز	-15397
heiratet	-15398
▁Seconda	-15399
▁associé	-15400
▁cellule	-15401
▁dimostr	-15402
▁disques	-15403
▁incluso	-15404
▁maladie	-15405
▁proposé	-15406
▁Einstein	-15407
▁comprend	-15408
▁exterior	-15409
▁negocios	-15410
▁Kontinent	-15411
▁condition	-15412
▁dialectes	-15413
▁obiettivo	-15414
▁prominent	-15415
▁struttura	-15416
▁المعلومات	-15417
▁comenzaron	-15418
▁musulmanes	-15419
▁personajes	-15420
▁Sowjetunion	-15421
▁independent	-15422
",	-15423
Er	-15424
▁プ	-15425
主張	-15426
候補	-15427
引き	-15428
指定	-15429
自由	-15430
表現	-15431
電力	-15432
Gen	-15433
uri	-15434
ائج	-15435
اجر	-15436
▁Az	-15437
ファン	-15438
少ない	-15439
alle	-15440
edom	-15441
idal	-15442
ängt	-15443
رتبط	-15444
سيقي	-15445
▁Hum	-15446
▁Mär	-15447
▁pac	-15448
▁pad	-15449
▁ايط	-15450
▁طبي	-15451
Produ	-15452
ccion	-15453
ensus	-15454
shire	-15455
ticos	-15456
uáles	-15457
ماندو	-15458
▁1975	-15459
▁Afro	-15460
▁Herz	-15461
▁Höhe	-15462
▁Komm	-15463
▁Völk	-15464
▁Wind	-15465
▁arrê	-15466
▁bian	-15467
▁gram	-15468
▁mise	-15469
▁verm	-15470
▁voir	-15471
▁تعني	-15472
▁تغير	-15473
▁سباق	-15474
▁مهمة	-15475
egnato	-15476
porter	-15477
usalem	-15478
وذكسية	-15479
▁Earth	-15480
▁Haben	-15481
▁cinco	-15482
▁divor	-15483
▁verte	-15484
▁الايط	-15485
cession	-15486
▁Brazil	-15487
▁Jersey	-15488
▁académ	-15489
▁darwin	-15490
▁decide	-15491
▁inició	-15492
▁metodo	-15493
▁racial	-15494
▁règles	-15495
▁résist	-15496
▁sonido	-15497
▁الاساس	-15498
▁الحقوق	-15499
▁انشاؤه	-15500
utiliser	-15501
▁Aristot	-15502
▁Genghis	-15503
▁Lincoln	-15504
▁Romains	-15505
▁Stanley	-15506
▁Version	-15507
▁Website	-15508
▁YouTube	-15509
▁intorno	-15510
▁joueurs	-15511
▁parents	-15512
▁المعركة	-15513
▁completo	-15514
▁italiano	-15515
▁probabil	-15516
▁products	-15517
▁richmond	-15518
▁الاقليات	-15519
▁الرئاسية	-15520
▁allemande	-15521
▁autrefois	-15522
▁außerhalb	-15523
▁considère	-15524
▁discrimin	-15525
▁evolution	-15526
▁offiziell	-15527
▁reemplazó	-15528
▁Australian	-15529
▁Christians	-15530
▁Crepúsculo	-15531
▁Zustimmung	-15532
▁conosciuta	-15533
▁considérés	-15534
▁precedente	-15535
▁nationalité	-15536
▁الارثوذكسية	-15537
▁Verteidigung	-15538
▁ursprüngliche	-15539
Ch	-15540
ザン	-15541
内に	-15542
出版	-15543
勃発	-15544
太平	-15545
種の	-15546
終わ	-15547
Aut	-15548
Esp	-15549
cro	-15550
ائف	-15551
اون	-15552
ذكر	-15553
▁AA	-15554
ディー	-15555
alte	-15556
enso	-15557
irsi	-15558
tect	-15559
uego	-15560
unge	-15561
▁Mos	-15562
▁Pic	-15563
▁Spr	-15564
▁Wel	-15565
▁Yug	-15566
▁oil	-15567
▁vid	-15568
▁لله	-15569
に関する	-15570
のことを	-15571
ciata	-15572
embly	-15573
icani	-15574
itage	-15575
nisse	-15576
uring	-15577
انيين	-15578
▁1948	-15579
▁Pict	-15580
▁Rail	-15581
▁Suez	-15582
▁avan	-15583
▁dict	-15584
▁fant	-15585
▁indu	-15586
▁qued	-15587
▁virt	-15588
▁اطول	-15589
▁الوظ	-15590
▁تصبح	-15591
と何ですか	-15592
éments	-15593
▁Wrest	-15594
▁islám	-15595
▁renov	-15596
▁renun	-15597
▁stava	-15598
▁étude	-15599
▁اجزاء	-15600
▁تسمية	-15601
▁تكلفة	-15602
ivement	-15603
teilung	-15604
▁Harper	-15605
▁Medien	-15606
▁Narnia	-15607
▁Sommer	-15608
▁deciso	-15609
▁defend	-15610
▁esiste	-15611
▁mechan	-15612
▁millas	-15613
▁propre	-15614
▁royale	-15615
▁vivono	-15616
▁الحاكم	-15617
▁بطولات	-15618
ánscrito	-15619
▁avevano	-15620
▁calidad	-15621
▁comunes	-15622
▁dollars	-15623
▁intelle	-15624
▁interpr	-15625
▁pouvait	-15626
▁prendre	-15627
▁singolo	-15628
▁الاغنية	-15629
▁التسجيل	-15630
▁العربية	-15631
▁第二次世界大戦	-15632
partement	-15633
▁Congress	-15634
▁dialects	-15635
▁evidence	-15636
▁géograph	-15637
▁monument	-15638
▁problems	-15639
▁provides	-15640
▁Grundlage	-15641
▁comprende	-15642
▁materiale	-15643
▁oficiales	-15644
▁Angleterre	-15645
▁comandante	-15646
▁financiera	-15647
▁importance	-15648
▁événements	-15649
▁الاجتماعية	-15650
▁Kondensator	-15651
▁continental	-15652
▁típicamente	-15653
CC	-15654
سط	-15655
▁â	-15656
▁ボ	-15657
▁ユ	-15658
とア	-15659
カイ	-15660
ーマ	-15661
人は	-15662
内で	-15663
反対	-15664
国に	-15665
確認	-15666
Mod	-15667
bon	-15668
uck	-15669
uré	-15670
ycl	-15671
وجب	-15672
▁第一	-15673
に参加	-15674
ように	-15675
トラン	-15676
トラー	-15677
太平洋	-15678
番目の	-15679
ghan	-15680
inta	-15681
uber	-15682
رتون	-15683
ريست	-15684
▁Aff	-15685
▁Bio	-15686
▁Occ	-15687
▁Ray	-15688
▁Rel	-15689
▁Wii	-15690
▁afl	-15691
▁fro	-15692
▁sab	-15693
▁vul	-15694
▁حفل	-15695
▁شبه	-15696
▁مهم	-15697
▁ييل	-15698
astic	-15699
const	-15700
endum	-15701
estre	-15702
ienti	-15703
riers	-15704
uesto	-15705
زيارة	-15706
▁ader	-15707
▁aktu	-15708
▁ebra	-15709
▁erud	-15710
▁mach	-15711
▁poll	-15712
▁rain	-15713
▁recl	-15714
▁voie	-15715
▁لوحة	-15716
▁مارس	-15717
▁ملعب	-15718
brauch	-15719
change	-15720
fallen	-15721
rógeno	-15722
▁Boden	-15723
▁Kampf	-15724
▁Nepal	-15725
▁Progr	-15726
▁board	-15727
▁coron	-15728
▁droga	-15729
▁esegu	-15730
▁geben	-15731
▁journ	-15732
▁sumin	-15733
▁valle	-15734
▁اتحاد	-15735
▁الشفق	-15736
▁بموجب	-15737
▁رئيسا	-15738
▁ヨーロッパ	-15739
issioni	-15740
lighten	-15741
▁Chipre	-15742
▁acteur	-15743
▁annual	-15744
▁comida	-15745
▁contea	-15746
▁ground	-15747
▁mandat	-15748
▁needed	-15749
▁parole	-15750
▁tragen	-15751
▁voluto	-15752
▁الاكبر	-15753
▁الخدمة	-15754
▁السريع	-15755
▁المؤلف	-15756
▁يملكها	-15757
国はどこですか	-15758
Institut	-15759
▁Arbeits	-15760
▁Dominic	-15761
▁Gesetze	-15762
▁Monarch	-15763
▁Staates	-15764
▁Stadium	-15765
▁accordé	-15766
▁aspects	-15767
▁budismo	-15768
▁classes	-15769
▁confirm	-15770
▁effetto	-15771
▁efforts	-15772
▁estatal	-15773
▁facteur	-15774
▁guadagn	-15775
▁machine	-15776
▁madonna	-15777
▁matéria	-15778
▁produtt	-15779
▁soutien	-15780
▁tercera	-15781
▁التنمية	-15782
▁المشترك	-15783
▁المفترض	-15784
▁Southern	-15785
▁artistas	-15786
▁campaign	-15787
▁defeated	-15788
▁gewinnen	-15789
▁monaster	-15790
▁terminal	-15791
▁velocità	-15792
▁الانتهاء	-15793
▁الثانوية	-15794
▁approvato	-15795
▁beneficio	-15796
▁quatrième	-15797
▁raggiunto	-15798
▁sánscrito	-15799
されたのは何年ですか	-15800
▁betrachtet	-15801
▁descrivere	-15802
▁déterminer	-15803
▁religiösen	-15804
▁verificato	-15805
▁übertragen	-15806
▁declaración	-15807
▁personaggio	-15808
.1	-15809
Ex	-15810
jà	-15811
を見	-15812
バス	-15813
ワシ	-15814
名称	-15815
Mar	-15816
pie	-15817
ürz	-15818
وسع	-15819
のある	-15820
agno	-15821
alde	-15822
bile	-15823
dern	-15824
rang	-15825
tégr	-15826
wert	-15827
älle	-15828
ظيمة	-15829
وحيد	-15830
▁ONU	-15831
▁Pet	-15832
▁dan	-15833
▁jün	-15834
▁lié	-15835
▁الظ	-15836
▁شهد	-15837
エジプト	-15838
エンジン	-15839
avant	-15840
etter	-15841
gende	-15842
igned	-15843
olosi	-15844
oster	-15845
usätz	-15846
▁Hund	-15847
▁Kill	-15848
▁Life	-15849
▁Sant	-15850
▁alum	-15851
▁asma	-15852
▁déjà	-15853
▁even	-15854
▁juin	-15855
▁keep	-15856
▁secu	-15857
▁sufr	-15858
▁vous	-15859
▁wear	-15860
▁التر	-15861
▁يؤدي	-15862
enario	-15863
istico	-15864
izzata	-15865
▁Beruf	-15866
▁Grecs	-15867
▁Hanno	-15868
▁Hause	-15869
▁Light	-15870
▁Somal	-15871
▁Treat	-15872
▁assum	-15873
▁basée	-15874
▁cated	-15875
▁chien	-15876
▁falta	-15877
▁fuoco	-15878
▁gènes	-15879
▁junto	-15880
▁juris	-15881
▁menor	-15882
▁morts	-15883
▁respe	-15884
▁sette	-15885
▁المنت	-15886
▁بوصفه	-15887
▁تحويل	-15888
どっちの方が	-15889
▁appell	-15890
▁arrive	-15891
▁compil	-15892
▁destac	-15893
▁entraî	-15894
[...]
