<unk>	0
<s>	0
</s>	0
<es>	0
<fr>	0
<it>	0
<de>	0
<ar>	0
<ja>	0
<en>	0
▁d	-0
er	-1
en	-2
▁ا	-3
▁ال	-4
in	-5
on	-6
an	-7
at	-8
es	-9
el	-10
▁s	-11
▁t	-12
▁c	-13
al	-14
▁l	-15
▁p	-16
ar	-17
ch	-18
as	-19
or	-20
is	-21
▁w	-22
▁de	-23
os	-24
▁a	-25
it	-26
he	-27
▁di	-28
un	-29
▁m	-30
re	-31
▁h	-32
▁f	-33
▁in	-34
ic	-35
Qu	-36
ent	-37
▁the	-38
▁v	-39
▁م	-40
om	-41
▁g	-42
▁la	-43
il	-44
▁o	-45
Wh	-46
ed	-47
ad	-48
qu	-49
▁b	-50
▁n	-51
ion	-52
ro	-53
ما	-54
ol	-55
te	-56
ur	-57
▁e	-58
us	-59
▁S	-60
▁qu	-61
في	-62
am	-63
ci	-64
ie	-65
im	-66
▁of	-67
and	-68
▁un	-69
▁es	-70
▁el	-71
id	-72
ist	-73
What	-74
et	-75
ig	-76
▁en	-77
▁A	-78
▁ه	-79
▁في	-80
ان	-81
▁ت	-82
▁der	-83
▁ع	-84
▁die	-85
le	-86
ra	-87
ich	-88
▁del	-89
ية	-90
▁ha	-91
▁se	-92
▁B	-93
ut	-94
▁con	-95
ale	-96
▁M	-97
▁الم	-98
▁ب	-99
▁C	-100
▁r	-101
ال	-102
la	-103
elch	-104
▁P	-105
ers	-106
Qué	-107
ing	-108
iv	-109
em	-110
▁ل	-111
▁st	-112
▁ي	-113
▁من	-114
to	-115
▁al	-116
▁1	-117
ia	-118
ato	-119
▁re	-120
ir	-121
▁الت	-122
▁G	-123
▁الا	-124
um	-125
uá	-126
ón	-127
ين	-128
▁ك	-129
▁to	-130
ta	-131
▁è	-132
▁N	-133
ات	-134
▁was	-135
Cuá	-136
▁E	-137
ter	-138
In	-139
de	-140
ul	-141
▁T	-142
▁com	-143
▁hat	-144
▁R	-145
▁an	-146
io	-147
▁pr	-148
▁von	-149
eg	-150
Was	-151
st	-152
▁wh	-153
ere	-154
▁is	-155
20	-156
ام	-157
iz	-158
▁par	-159
ول	-160
▁los	-161
▁K	-162
▁il	-163
ow	-164
ue	-165
▁F	-166
▁الذ	-167
▁z	-168
ct	-169
▁L	-170
ten	-171
▁J	-172
hr	-173
ier	-174
▁qué	-175
ري	-176
est	-177
ها	-178
ung	-179
op	-180
▁20	-181
Welch	-182
▁ein	-183
▁D	-184
▁H	-185
▁ist	-186
ib	-187
▁did	-188
▁هو	-189
▁pro	-190
▁الذي	-191
do	-192
▁هي	-193
▁و	-194
are	-195
ce	-196
▁التي	-197
▁er	-198
ag	-199
ann	-200
▁be	-201
▁per	-202
した	-203
isch	-204
up	-205
すか	-206
ation	-207
▁des	-208
ار	-209
hi	-210
▁for	-211
▁U	-212
ud	-213
ون	-214
ant	-215
ica	-216
▁what	-217
ien	-218
▁V	-219
▁y	-220
▁19	-221
ot	-222
▁ن	-223
▁que	-224
ov	-225
ente	-226
▁كان	-227
ass	-228
▁le	-229
▁k	-230
ción	-231
▁im	-232
den	-233
iel	-234
▁W	-235
▁war	-236
if	-237
tr	-238
▁س	-239
ub	-240
pe	-241
po	-242
ort	-243
ですか	-244
من	-245
▁welch	-246
der	-247
▁عل	-248
ür	-249
▁اي	-250
ado	-251
را	-252
ess	-253
ione	-254
ge	-255
Wie	-256
▁ان	-257
دي	-258
▁ق	-259
Cuán	-260
ell	-261
én	-262
uf	-263
ac	-264
▁wur	-265
▁fue	-266
▁est	-267
ab	-268
ست	-269
ran	-270
all	-271
Cuál	-272
▁zu	-273
ién	-274
▁I	-275
ap	-276
▁"	-277
ach	-278
ور	-279
▁son	-280
ben	-281
osa	-282
▁ver	-283
▁las	-284
ian	-285
Quale	-286
Qual	-287
のは	-288
▁th	-289
▁الع	-290
uer	-291
▁and	-292
اي	-293
rit	-294
ay	-295
ind	-296
ahr	-297
ew	-298
▁ج	-299
▁St	-300
az	-301
▁i	-302
▁do	-303
Welche	-304
li	-305
ug	-306
▁ح	-307
▁das	-308
دة	-309
▁على	-310
ير	-311
end	-312
ate	-313
▁den	-314
▁para	-315
ando	-316
▁gr	-317
per	-318
▁O	-319
od	-320
▁für	-321
ber	-322
▁una	-323
ذا	-324
Quién	-325
▁man	-326
Who	-327
▁su	-328
سي	-329
ff	-330
كم	-331
▁or	-332
▁wurde	-333
How	-334
ens	-335
og	-336
▁Jahr	-337
ata	-338
▁prim	-339
lich	-340
▁che	-341
ame	-342
▁تم	-343
▁200	-344
Wer	-345
▁ar	-346
ía	-347
▁us	-348
▁الح	-349
ine	-350
ico	-351
は何	-352
▁as	-353
▁quale	-354
اب	-355
ve	-356
▁Ar	-357
ante	-358
no	-359
eit	-360
▁Un	-361
mo	-362
Chi	-363
th	-364
▁j	-365
ore	-366
▁comp	-367
▁tr	-368
▁الق	-369
▁era	-370
En	-371
▁201	-372
und	-373
▁und	-374
ento	-375
▁ف	-376
▁are	-377
mer	-378
▁nel	-379
▁ge	-380
سم	-381
▁viel	-382
▁on	-383
ischen	-384
ne	-385
▁الب	-386
ity	-387
った	-388
▁ما	-389
▁ex	-390
ás	-391
したか	-392
▁cosa	-393
▁della	-394
▁عام	-395
ec	-396
▁por	-397
ik	-398
oc	-399
▁لل	-400
▁at	-401
され	-402
ob	-403
مت	-404
Che	-405
ond	-406
ome	-407
وا	-408
ost	-409
دد	-410
▁?	-411
يا	-412
ano	-413
ma	-414
▁In	-415
▁si	-416
▁ش	-417
cia	-418
▁الج	-419
men	-420
▁sono	-421
ici	-422
av	-423
ati	-424
erm	-425
▁(	-426
▁welchem	-427
وع	-428
▁stato	-429
▁fr	-430
نا	-431
uch	-432
uc	-433
tro	-434
▁الس	-435
ito	-436
ard	-437
ina	-438
pr	-439
▁الى	-440
عل	-441
▁auf	-442
omb	-443
▁más	-444
▁عدد	-445
za	-446
▁many	-447
▁dur	-448
▁Z	-449
kt	-450
▁ch	-451
▁ac	-452
When	-453
ese	-454
ly	-455
sch	-456
▁viele	-457
ada	-458
てい	-459
▁Ch	-460
ang	-461
ith	-462
ische	-463
ult	-464
يل	-465
▁أ	-466
▁ti	-467
ió	-468
iert	-469
▁ent	-470
mp	-471
ord	-472
رة	-473
▁ab	-474
pp	-475
ong	-476
ados	-477
▁مع	-478
▁الك	-479
ear	-480
متى	-481
▁pre	-482
icht	-483
رب	-484
▁als	-485
▁res	-486
Cuándo	-487
دا	-488
ak	-489
lo	-490
وب	-491
دم	-492
ies	-493
ive	-494
aj	-495
▁ser	-496
▁rel	-497
تح	-498
ast	-499
▁haben	-500
▁mit	-501
▁cons	-502
Cuánt	-503
▁añ	-504
▁الش	-505
ect	-506
va	-507
▁um	-508
▁sind	-509
▁dis	-510
▁with	-511
ver	-512
Wann	-513
▁الن	-514
▁reg	-515
▁cre	-516
▁ad	-517
Quando	-518
▁sich	-519
ton	-520
▁no	-521
cu	-522
▁tipo	-523
▁Sch	-524
▁that	-525
port	-526
قة	-527
▁co	-528
▁Be	-529
▁me	-530
▁were	-531
▁gen	-532
▁eine	-533
مل	-534
af	-535
▁does	-536
igh	-537
ación	-538
رو	-539
▁dem	-540
fer	-541
art	-542
oci	-543
▁عن	-544
ماذا	-545
▁An	-546
▁pi	-547
ivers	-548
وم	-549
▁part	-550
orm	-551
رك	-552
land	-553
はど	-554
ido	-555
▁خ	-556
ated	-557
ide	-558
att	-559
Which	-560
erson	-561
لي	-562
لا	-563
ern	-564
ales	-565
▁pa	-566
تم	-567
▁by	-568
▁cl	-569
ste	-570
du	-571
▁pres	-572
كن	-573
▁18	-574
▁col	-575
aus	-576
▁year	-577
esch	-578
iones	-579
された	-580
out	-581
än	-582
▁الد	-583
gen	-584
ign	-585
ائ	-586
anti	-587
00	-588
gr	-589
▁più	-590
amp	-591
és	-592
ied	-593
▁الف	-594
ican	-595
tab	-596
ment	-597
ze	-598
كي	-599
▁Re	-600
يس	-601
بر	-602
enn	-603
▁د	-604
idad	-605
ali	-606
▁pol	-607
▁كانت	-608
con	-609
▁sp	-610
▁بال	-611
ill	-612
▁pl	-613
iliz	-614
▁from	-615
ork	-616
ino	-617
ck	-618
rie	-619
▁Pr	-620
اء	-621
ましたか	-622
▁aus	-623
▁tra	-624
se	-625
itt	-626
▁وال	-627
▁da	-628
ird	-629
ure	-630
ión	-631
▁inter	-632
Welcher	-633
▁dell	-634
ónde	-635
uro	-636
▁ut	-637
azione	-638
اد	-639
iene	-640
▁ind	-641
▁mon	-642
ident	-643
ستخ	-644
▁ر	-645
▁pop	-646
▁primer	-647
ett	-648
▁can	-649
hn	-650
uto	-651
▁person	-652
co	-653
ura	-654
بل	-655
▁Y	-656
▁ne	-657
ire	-658
ial	-659
▁Ver	-660
ip	-661
zione	-662
▁anno	-663
▁año	-664
▁Sp	-665
chen	-666
▁utiliz	-667
lam	-668
án	-669
وق	-670
cent	-671
مة	-672
we	-673
ite	-674
سب	-675
19	-676
iss	-677
0?	-678
age	-679
▁ers	-680
▁te	-681
▁fir	-682
▁Gr	-683
▁como	-684
▁ci	-685
Where	-686
Wo	-687
▁all	-688
▁wer	-689
ios	-690
tra	-691
اع	-692
▁car	-693
▁الر	-694
▁he	-695
▁New	-696
lic	-697
▁الص	-698
▁En	-699
▁tem	-700
ove	-701
uss	-702
eb	-703
▁it	-704
▁ra	-705
acht	-706
ole	-707
は誰	-708
man	-709
na	-710
che	-711
▁Al	-712
ans	-713
ca	-714
▁pub	-715
▁inv	-716
▁Art	-717
▁cu	-718
▁inf	-719
どの	-720
▁gro	-721
▁nomb	-722
me	-723
ile	-724
から	-725
Welches	-726
les	-727
olog	-728
▁lo	-729
mente	-730
hl	-731
كل	-732
▁am	-733
▁parte	-734
▁الط	-735
ér	-736
cip	-737
▁sch	-738
▁الي	-739
▁pu	-740
ioni	-741
▁have	-742
oss	-743
"?	-744
ish	-745
▁cent	-746
يو	-747
cr	-748
▁wird	-749
▁Pro	-750
our	-751
ador	-752
ific	-753
ict	-754
▁نوع	-755
▁ty	-756
Cuántos	-757
اف	-758
nen	-759
▁Mar	-760
▁werden	-761
ater	-762
عة	-763
ice	-764
anno	-765
▁fin	-766
▁'	-767
▁chi	-768
▁grand	-769
Dónde	-770
cl	-771
صل	-772
gan	-773
▁يم	-774
La	-775
▁cr	-776
▁يع	-777
ede	-778
نة	-779
ous	-780
▁الان	-781
oria	-782
one	-783
▁lib	-784
ain	-785
▁estab	-786
elt	-787
▁cap	-788
ior	-789
ità	-790
▁form	-791
▁Le	-792
etz	-793
pt	-794
▁المتح	-795
cc	-796
▁av	-797
ition	-798
▁tro	-799
▁first	-800
hen	-801
جل	-802
▁fuer	-803
▁nombre	-804
▁ü	-805
▁term	-806
いつ	-807
her	-808
▁sol	-809
ود	-810
▁name	-811
▁ro	-812
gl	-813
▁ev	-814
elle	-815
▁stata	-816
uerra	-817
▁الام	-818
ómo	-819
ön	-820
▁المتحدة	-821
▁غ	-822
تب	-823
اين	-824
amb	-825
ces	-826
▁بع	-827
هم	-828
▁اسم	-829
▁prin	-830
The	-831
هل	-832
ism	-833
خر	-834
كان	-835
ase	-836
▁US	-837
▁mus	-838
حت	-839
ons	-840
▁ed	-841
▁mar	-842
▁welcher	-843
▁hanno	-844
▁ant	-845
▁Amer	-846
▁الث	-847
▁cor	-848
こと	-849
ますか	-850
ند	-851
ger	-852
iste	-853
▁يمكن	-854
▁اله	-855
▁sc	-856
▁pe	-857
ثر	-858
اح	-859
▁wurden	-860
Quanti	-861
رن	-862
ori	-863
ider	-864
amente	-865
▁sup	-866
▁ag	-867
اس	-868
▁caus	-869
▁div	-870
▁med	-871
ungen	-872
دين	-873
する	-874
ono	-875
be	-876
したのは	-877
any	-878
enz	-879
▁af	-880
ok	-881
جم	-882
ني	-883
ün	-884
▁اك	-885
لة	-886
▁über	-887
Cómo	-888
ايات	-889
عب	-890
ry	-891
وس	-892
▁2	-893
▁Te	-894
ís	-895
ight	-896
▁dei	-897
▁come	-898
que	-899
itu	-900
ical	-901
ero	-902
▁beg	-903
▁الخ	-904
tet	-905
ولايات	-906
isten	-907
▁durante	-908
pa	-909
بي	-910
لال	-911
قد	-912
)?	-913
ラン	-914
udad	-915
▁verw	-916
ista	-917
▁fil	-918
tern	-919
izo	-920
▁which	-921
anz	-922
hal	-923
▁199	-924
▁ص	-925
Quali	-926
▁princip	-927
ary	-928
▁dass	-929
▁nome	-930
▁non	-931
oma	-932
por	-933
▁ciudad	-934
ft	-935
olo	-936
▁3	-937
شر	-938
eral	-939
▁الل	-940
igen	-941
▁geg	-942
▁قبل	-943
▁ماذا	-944
▁stud	-945
كون	-946
str	-947
ivo	-948
ally	-949
▁hizo	-950
pos	-951
ている	-952
▁gem	-953
الم	-954
▁em	-955
▁has	-956
وج	-957
omin	-958
igin	-959
go	-960
▁sec	-961
▁Par	-962
اص	-963
ita	-964
ke	-965
▁consider	-966
▁mo	-967
min	-968
uv	-969
ida	-970
▁nach	-971
▁Fran	-972
ren	-973
▁Reg	-974
▁The	-975
▁é	-976
▁guerra	-977
▁type	-978
▁ط	-979
▁act	-980
ستخدم	-981
▁ter	-982
peci	-983
▁grup	-984
▁used	-985
ti	-986
▁def	-987
▁produ	-988
iem	-989
はどこ	-990
ario	-991
اري	-992
ئيس	-993
▁Is	-994
erst	-995
▁sh	-996
ional	-997
▁يتم	-998
▁po	-999
rans	-1000
دينة	-1001
1?	-1002
▁الذين	-1003
ade	-1004
مال	-1005
lt	-1006
▁ob	-1007
して	-1008
مان	-1009
idos	-1010
れた	-1011
▁rec	-1012
▁may	-1013
ild	-1014
は何ですか	-1015
ick	-1016
yste	-1017
pl	-1018
▁لا	-1019
يد	-1020
▁تق	-1021
▁gli	-1022
何年	-1023
▁تع	-1024
pres	-1025
ちら	-1026
ieren	-1027
▁Name	-1028
▁sein	-1029
5?	-1030
يم	-1031
wo	-1032
リー	-1033
ven	-1034
ual	-1035
▁fo	-1036
ents	-1037
gli	-1038
ower	-1039
liche	-1040
ri	-1041
▁ins	-1042
でしたか	-1043
endet	-1044
ustr	-1045
res	-1046
ek	-1047
▁tiene	-1048
▁univers	-1049
▁الأ	-1050
يت	-1051
▁leg	-1052
Un	-1053
▁Br	-1054
ld	-1055
▁nicht	-1056
Dove	-1057
كية	-1058
▁الولايات	-1059
tin	-1060
▁loc	-1061
iento	-1062
▁Est	-1063
▁delle	-1064
adt	-1065
yon	-1066
ime	-1067
ht	-1068
ولة	-1069
ational	-1070
pu	-1071
▁الو	-1072
aron	-1073
▁contro	-1074
▁cos	-1075
▁popul	-1076
▁لدي	-1077
iti	-1078
enti	-1079
lichen	-1080
ors	-1081
encia	-1082
ah	-1083
ations	-1084
▁pla	-1085
ari	-1086
4?	-1087
ins	-1088
▁coun	-1089
aft	-1090
ona	-1091
ions	-1092
erg	-1093
▁gew	-1094
▁vol	-1095
▁seg	-1096
ath	-1097
▁Euro	-1098
vel	-1099
ystem	-1100
ät	-1101
によ	-1102
▁most	-1103
▁relig	-1104
amm	-1105
▁país	-1106
ohn	-1107
▁not	-1108
ros	-1109
ana	-1110
▁Univers	-1111
▁organ	-1112
▁grande	-1113
urs	-1114
▁Er	-1115
Die	-1116
anto	-1117
ert	-1118
ara	-1119
▁wie	-1120
رت	-1121
3?	-1122
ele	-1123
طل	-1124
bl	-1125
اني	-1126
uld	-1127
ph	-1128
▁vers	-1129
وري	-1130
دث	-1131
outh	-1132
▁gov	-1133
annt	-1134
يرة	-1135
ommen	-1136
▁ass	-1137
▁لم	-1138
▁min	-1139
▁sie	-1140
ismo	-1141
ther	-1142
▁pos	-1143
ates	-1144
▁cuá	-1145
ilit	-1146
رض	-1147
ったのは	-1148
8?	-1149
ähr	-1150
▁ap	-1151
ige	-1152
ある	-1153
طة	-1154
lu	-1155
▁aut	-1156
▁Com	-1157
ارة	-1158
ni	-1159
▁sign	-1160
Cuántas	-1161
▁Ind	-1162
سة	-1163
icos	-1164
era	-1165
▁met	-1166
▁dal	-1167
jo	-1168
▁siste	-1169
2?	-1170
در	-1171
cid	-1172
▁está	-1173
▁قام	-1174
▁much	-1175
ريق	-1176
▁llam	-1177
▁trans	-1178
▁verwendet	-1179
opin	-1180
▁fam	-1181
▁ten	-1182
ركة	-1183
▁علي	-1184
▁origin	-1185
رق	-1186
Quante	-1187
▁fe	-1188
iff	-1189
▁Gre	-1190
كيف	-1191
cht	-1192
صر	-1193
▁cas	-1194
9?	-1195
ople	-1196
aten	-1197
ble	-1198
▁Se	-1199
own	-1200
▁Or	-1201
▁fueron	-1202
▁welche	-1203
▁198	-1204
▁app	-1205
▁سنة	-1206
pen	-1207
▁اول	-1208
erc	-1209
zen	-1210
esso	-1211
ديد	-1212
▁wo	-1213
El	-1214
iet	-1215
▁call	-1216
▁acc	-1217
7?	-1218
ise	-1219
▁تح	-1220
▁state	-1221
Cosa	-1222
▁off	-1223
oro	-1224
▁Land	-1225
▁اع	-1226
هر	-1227
▁bas	-1228
▁المع	-1229
اج	-1230
▁nella	-1231
ou	-1232
int	-1233
idente	-1234
ake	-1235
وت	-1236
▁art	-1237
▁الاس	-1238
orth	-1239
انية	-1240
▁prima	-1241
ef	-1242
▁pas	-1243
▁197	-1244
▁comm	-1245
iva	-1246
ola	-1247
▁lar	-1248
▁sul	-1249
▁mayor	-1250
▁American	-1251
ていた	-1252
▁alla	-1253
ua	-1254
▁waren	-1255
فة	-1256
hil	-1257
▁dist	-1258
▁ges	-1259
ats	-1260
リカ	-1261
▁Sta	-1262
قا	-1263
▁Qu	-1264
ient	-1265
▁bef	-1266
قت	-1267
ust	-1268
年に	-1269
▁fa	-1270
▁gemacht	-1271
öff	-1272
ühr	-1273
unt	-1274
▁percent	-1275
ima	-1276
الي	-1277
▁York	-1278
ama	-1279
▁serv	-1280
gi	-1281
▁people	-1282
▁neg	-1283
▁citt	-1284
وي	-1285
red	-1286
▁gesch	-1287
crib	-1288
لك	-1289
ll	-1290
▁einen	-1291
De	-1292
▁ام	-1293
atur	-1294
iale	-1295
gest	-1296
▁العالم	-1297
▁vor	-1298
obre	-1299
▁bet	-1300
sen	-1301
▁Mon	-1302
▁cal	-1303
fr	-1304
ument	-1305
atto	-1306
ose	-1307
vol	-1308
ictoria	-1309
▁import	-1310
erv	-1311
yn	-1312
▁المن	-1313
صب	-1314
au	-1315
▁countr	-1316
▁bes	-1317
▁mag	-1318
▁بين	-1319
どちら	-1320
▁soci	-1321
▁trad	-1322
▁اس	-1323
6?	-1324
Quel	-1325
▁other	-1326
جموع	-1327
▁du	-1328
orte	-1329
▁است	-1330
ifica	-1331
▁Mens	-1332
▁estado	-1333
なの	-1334
▁inc	-1335
da	-1336
▁Me	-1337
▁their	-1338
onnen	-1339
▁str	-1340
ادة	-1341
▁id	-1342
▁prem	-1343
ール	-1344
▁mem	-1345
ction	-1346
▁brit	-1347
▁plus	-1348
ör	-1349
▁Mus	-1350
▁zw	-1351
ores	-1352
pués	-1353
ced	-1354
قل	-1355
▁تش	-1356
▁erste	-1357
ret	-1358
antes	-1359
▁مت	-1360
خت	-1361
rieg	-1362
غة	-1363
ena	-1364
▁new	-1365
iche	-1366
izz	-1367
▁sistema	-1368
cer	-1369
▁einer	-1370
unto	-1371
adas	-1372
nt	-1373
▁17	-1374
unden	-1375
لم	-1376
piel	-1377
▁città	-1378
ution	-1379
almente	-1380
par	-1381
▁Zeit	-1382
▁Lond	-1383
ún	-1384
ory	-1385
▁pass	-1386
ierung	-1387
▁his	-1388
heit	-1389
▁bel	-1390
▁amer	-1391
كت	-1392
ít	-1393
▁so	-1394
▁Menschen	-1395
رية	-1396
▁ess	-1397
▁Kon	-1398
dert	-1399
▁polit	-1400
Al	-1401
از	-1402
iempo	-1403
▁للم	-1404
▁comun	-1405
ank	-1406
▁Fl	-1407
oman	-1408
▁how	-1409
rem	-1410
▁degli	-1411
▁gef	-1412
▁gan	-1413
▁tiempo	-1414
فعل	-1415
orld	-1416
▁بعد	-1417
▁cult	-1418
▁oder	-1419
▁moder	-1420
ence	-1421
▁primo	-1422
▁بش	-1423
▁fran	-1424
oll	-1425
Por	-1426
bre	-1427
▁Beyon	-1428
▁encu	-1429
ack	-1430
▁bec	-1431
▁geb	-1432
▁city	-1433
▁stati	-1434
alt	-1435
son	-1436
able	-1437
ange	-1438
ool	-1439
▁group	-1440
▁المح	-1441
uy	-1442
وف	-1443
atz	-1444
ieron	-1445
iger	-1446
▁الغ	-1447
▁Stadt	-1448
▁quién	-1449
▁جز	-1450
ック	-1451
ein	-1452
ker	-1453
form	-1454
دام	-1455
▁oc	-1456
duc	-1457
▁nue	-1458
▁خلال	-1459
öß	-1460
▁long	-1461
▁As	-1462
▁194	-1463
▁مح	-1464
▁kön	-1465
ars	-1466
アメ	-1467
▁einem	-1468
▁Ne	-1469
öffent	-1470
قي	-1471
cio	-1472
アメリカ	-1473
reich	-1474
▁durch	-1475
صف	-1476
اض	-1477
▁5	-1478
▁two	-1479
apole	-1480
▁iniz	-1481
▁bek	-1482
▁called	-1483
als	-1484
▁Car	-1485
▁sus	-1486
▁sobre	-1487
▁govern	-1488
▁one	-1489
ciones	-1490
▁resp	-1491
▁ben	-1492
▁hist	-1493
日本	-1494
ury	-1495
▁film	-1496
▁et	-1497
▁Con	-1498
وات	-1499
▁كل	-1500
etto	-1501
äs	-1502
يع	-1503
▁encuent	-1504
wn	-1505
ium	-1506
gt	-1507
スト	-1508
▁esc	-1509
▁presidente	-1510
▁انت	-1511
▁الال	-1512
ka	-1513
▁kann	-1514
ance	-1515
ئي	-1516
är	-1517
زة	-1518
سية	-1519
のこと	-1520
▁mov	-1521
وية	-1522
beit	-1523
は誰ですか	-1524
▁dos	-1525
▁entre	-1526
▁men	-1527
されたのは	-1528
oy	-1529
▁lang	-1530
طور	-1531
▁when	-1532
▁perio	-1533
▁مدينة	-1534
ken	-1535
kla	-1536
ras	-1537
ner	-1538
etro	-1539
▁oper	-1540
طقة	-1541
どこ	-1542
イン	-1543
▁hel	-1544
atal	-1545
▁during	-1546
isen	-1547
▁prov	-1548
▁puede	-1549
lass	-1550
▁Tr	-1551
▁De	-1552
▁sub	-1553
▁196	-1554
▁after	-1555
最も	-1556
▁influ	-1557
fl	-1558
▁X	-1559
▁sur	-1560
▁milit	-1561
War	-1562
zt	-1563
ings	-1564
▁City	-1565
ement	-1566
▁El	-1567
ones	-1568
▁Ab	-1569
▁South	-1570
اق	-1571
ics	-1572
halten	-1573
aciones	-1574
öl	-1575
▁use	-1576
undo	-1577
net	-1578
opo	-1579
ili	-1580
anye	-1581
amento	-1582
どの国	-1583
ío	-1584
▁kn	-1585
▁John	-1586
▁después	-1587
aria	-1588
▁capit	-1589
icas	-1590
▁المو	-1591
▁alg	-1592
▁fatto	-1593
II	-1594
▁عند	-1595
راء	-1596
▁speci	-1597
▁han	-1598
ährend	-1599
▁vis	-1600
erein	-1601
افة	-1602
▁imp	-1603
▁Napole	-1604
▁primera	-1605
▁mod	-1606
ha	-1607
bum	-1608
▁lle	-1609
سبة	-1610
urch	-1611
▁emp	-1612
esse	-1613
aje	-1614
Cuáles	-1615
Why	-1616
stit	-1617
▁Id	-1618
▁imper	-1619
▁نيو	-1620
▁groß	-1621
خص	-1622
رف	-1623
▁ض	-1624
hed	-1625
▁bei	-1626
aff	-1627
old	-1628
▁ej	-1629
▁دي	-1630
igt	-1631
▁hum	-1632
▁Chopin	-1633
Ét	-1634
▁4	-1635
▁sig	-1636
▁á	-1637
▁بها	-1638
orn	-1639
▁num	-1640
▁ول	-1641
として	-1642
iano	-1643
▁its	-1644
▁meisten	-1645
▁كم	-1646
▁port	-1647
ute	-1648
aven	-1649
▁/	-1650
An	-1651
▁essere	-1652
imes	-1653
▁equ	-1654
▁Ge	-1655
ناء	-1656
ugh	-1657
▁سي	-1658
▁go	-1659
だった	-1660
▁Was	-1661
▁progr	-1662
▁Unidos	-1663
ho	-1664
▁ز	-1665
▁او	-1666
iato	-1667
sten	-1668
▁Estados	-1669
رج	-1670
Cuánto	-1671
▁Brit	-1672
▁ث	-1673
enza	-1674
ienen	-1675
lación	-1676
keit	-1677
فعله	-1678
▁found	-1679
ajo	-1680
▁يح	-1681
▁alle	-1682
schaft	-1683
▁bu	-1684
▁pob	-1685
▁utilizz	-1686
tru	-1687
نية	-1688
acter	-1689
▁المت	-1690
▁class	-1691
うち	-1692
let	-1693
▁libro	-1694
لد	-1695
▁يق	-1696
este	-1697
cul	-1698
St	-1699
emp	-1700
▁bo	-1701
لماذا	-1702
اه	-1703
جموعة	-1704
ler	-1705
▁اكثر	-1706
ドイ	-1707
▁dec	-1708
のうち	-1709
▁constr	-1710
ueg	-1711
ines	-1712
مر	-1713
ais	-1714
Quanto	-1715
▁están	-1716
ative	-1717
tal	-1718
▁dire	-1719
▁langu	-1720
aut	-1721
▁vin	-1722
▁اخر	-1723
▁prof	-1724
war	-1725
▁sal	-1726
gel	-1727
▁elect	-1728
ctor	-1729
▁Teil	-1730
Dur	-1731
▁up	-1732
over	-1733
لس	-1734
▁disc	-1735
▁gest	-1736
▁conf	-1737
▁work	-1738
مات	-1739
ドイツ	-1740
▁195	-1741
asser	-1742
ited	-1743
▁الحرب	-1744
egr	-1745
▁u	-1746
ible	-1747
ición	-1748
▁diff	-1749
▁Haven	-1750
cial	-1751
▁fun	-1752
ريكية	-1753
▁camb	-1754
▁estud	-1755
مو	-1756
▁econ	-1757
فض	-1758
ello	-1759
▁suo	-1760
برا	-1761
▁incl	-1762
▁الاش	-1763
Il	-1764
▁años	-1765
▁defin	-1766
▁system	-1767
▁Hous	-1768
あり	-1769
▁Welt	-1770
لب	-1771
の中	-1772
▁popol	-1773
▁Idol	-1774
يش	-1775
يف	-1776
▁verb	-1777
▁während	-1778
ays	-1779
ück	-1780
▁يعت	-1781
imo	-1782
▁ris	-1783
Con	-1784
test	-1785
▁بد	-1786
▁Victoria	-1787
▁gu	-1788
ys	-1789
?"	-1790
ció	-1791
▁اث	-1792
vers	-1793
▁had	-1794
▁tér	-1795
▁belie	-1796
iere	-1797
present	-1798
▁Ét	-1799
年の	-1800
ظام	-1801
▁tre	-1802
oso	-1803
▁Verein	-1804
ート	-1805
▁Ein	-1806
▁we	-1807
▁poss	-1808
pect	-1809
にな	-1810
eder	-1811
ez	-1812
▁euro	-1813
▁رئيس	-1814
▁الاول	-1815
▁cuando	-1816
▁fre	-1817
rieben	-1818
hip	-1819
ilt	-1820
eren	-1821
ellt	-1822
uth	-1823
attle	-1824
▁Grup	-1825
ugar	-1826
öffentlich	-1827
كا	-1828
▁ide	-1829
▁conc	-1830
▁ih	-1831
▁due	-1832
▁pal	-1833
Warum	-1834
▁größ	-1835
▁time	-1836
▁area	-1837
▁located	-1838
▁يت	-1839
etzt	-1840
▁Bar	-1841
ule	-1842
▁who	-1843
▁193	-1844
▁country	-1845
▁با	-1846
▁trab	-1847
ason	-1848
▁lead	-1849
Per	-1850
▁been	-1851
▁contr	-1852
▁Sh	-1853
iden	-1854
irt	-1855
adores	-1856
の名	-1857
Los	-1858
ünd	-1859
indet	-1860
يب	-1861
▁eff	-1862
raf	-1863
entes	-1864
▁chiam	-1865
▁control	-1866
ward	-1867
ionale	-1868
▁mot	-1869
▁Proz	-1870
▁camp	-1871
سيا	-1872
▁تن	-1873
▁hab	-1874
ammen	-1875
ival	-1876
ature	-1877
▁energ	-1878
▁لت	-1879
▁Spiel	-1880
cha	-1881
ral	-1882
olle	-1883
ague	-1884
▁النا	-1885
tag	-1886
adio	-1887
▁المس	-1888
▁فيها	-1889
よう	-1890
▁contin	-1891
انون	-1892
▁Chr	-1893
egriff	-1894
omm	-1895
ikan	-1896
▁الجن	-1897
völ	-1898
fol	-1899
يان	-1900
ont	-1901
▁sim	-1902
سبب	-1903
tain	-1904
onia	-1905
▁عندما	-1906
eben	-1907
では	-1908
ibt	-1909
ween	-1910
▁Russ	-1911
▁tras	-1912
ora	-1913
sel	-1914
ga	-1915
ias	-1916
ität	-1917
▁encuentra	-1918
andard	-1919
Qui	-1920
ativ	-1921
▁Kön	-1922
リア	-1923
▁San	-1924
hun	-1925
▁Jap	-1926
atore	-1927
▁بشكل	-1928
ستخدام	-1929
lio	-1930
vis	-1931
حة	-1932
▁ذ	-1933
▁end	-1934
▁North	-1935
▁public	-1936
ator	-1937
erman	-1938
ない	-1939
klah	-1940
chi	-1941
はいつ	-1942
hmen	-1943
اريخ	-1944
▁occ	-1945
▁غير	-1946
しましたか	-1947
pub	-1948
wei	-1949
▁about	-1950
رس	-1951
▁Pa	-1952
▁Spra	-1953
upt	-1954
▁get	-1955
änder	-1956
▁población	-1957
▁Gen	-1958
▁يكون	-1959
ampton	-1960
▁her	-1961
▁Co	-1962
zo	-1963
って	-1964
▁ot	-1965
ames	-1966
bers	-1967
より	-1968
ock	-1969
ister	-1970
▁Stati	-1971
üt	-1972
ucht	-1973
itz	-1974
ktion	-1975
▁الرئيس	-1976
uale	-1977
▁val	-1978
▁begin	-1979
▁unter	-1980
リン	-1981
▁uno	-1982
▁intern	-1983
▁اليه	-1984
▁به	-1985
ター	-1986
azioni	-1987
▁population	-1988
يز	-1989
とな	-1990
▁unt	-1991
▁respons	-1992
lav	-1993
▁high	-1994
بال	-1995
iana	-1996
isenh	-1997
▁West	-1998
▁Can	-1999
ús	-2000
ثل	-2001
ini	-2002
abet	-2003
▁ear	-2004
فل	-2005
▁forma	-2006
وروب	-2007
▁الز	-2008
klahoma	-2009
▁some	-2010
völker	-2011
ظم	-2012
isenhower	-2013
▁بعض	-2014
▁gran	-2015
لف	-2016
eleb	-2017
bor	-2018
▁cuánt	-2019
äsident	-2020
völkerung	-2021
BC	-2022
با	-2023
laub	-2024
▁personas	-2025
ular	-2026
▁lugar	-2027
▁second	-2028
ーム	-2029
▁grupo	-2030
▁عليها	-2031
▁estaba	-2032
فس	-2033
▁super	-2034
▁gio	-2035
▁organiz	-2036
▁ir	-2037
▁ref	-2038
▁known	-2039
▁cer	-2040
▁mehr	-2041
كة	-2042
otre	-2043
▁pel	-2044
cé	-2045
▁ai	-2046
▁tempo	-2047
ges	-2048
▁gener	-2049
▁paese	-2050
dot	-2051
▁Fil	-2052
ants	-2053
ink	-2054
▁zwei	-2055
▁between	-2056
uft	-2057
تاب	-2058
bert	-2059
▁trat	-2060
uen	-2061
hing	-2062
▁Pol	-2063
▁out	-2064
▁dopo	-2065
▁econom	-2066
ディ	-2067
onna	-2068
▁Ges	-2069
戦争	-2070
▁zur	-2071
usammen	-2072
aw	-2073
بت	-2074
リス	-2075
▁into	-2076
▁الوق	-2077
uvo	-2078
▁Char	-2079
car	-2080
ball	-2081
▁إ	-2082
▁Oklahoma	-2083
imento	-2084
▁trova	-2085
يج	-2086
ech	-2087
وان	-2088
▁lí	-2089
▁États	-2090
iter	-2091
▁ling	-2092
براطور	-2093
▁Jahrhun	-2094
geb	-2095
mouth	-2096
bar	-2097
▁century	-2098
▁anim	-2099
sh	-2100
tre	-2101
cess	-2102
▁واح	-2103
▁لديها	-2104
▁gre	-2105
▁Am	-2106
gio	-2107
عية	-2108
▁يج	-2109
esta	-2110
▁conoci	-2111
ellen	-2112
▁Kanye	-2113
een	-2114
▁عمل	-2115
▁pat	-2116
▁مص	-2117
▁aff	-2118
wick	-2119
▁University	-2120
▁arch	-2121
pi	-2122
ille	-2123
▁ihr	-2124
▁play	-2125
elb	-2126
▁fu	-2127
▁kind	-2128
ela	-2129
▁mig	-2130
▁more	-2131
▁8	-2132
▁mad	-2133
▁prop	-2134
▁idi	-2135
▁proble	-2136
▁quando	-2137
▁cop	-2138
lymouth	-2139
▁zwischen	-2140
كر	-2141
erk	-2142
▁قد	-2143
ensch	-2144
▁persone	-2145
▁Jahrhundert	-2146
طول	-2147
بع	-2148
ترة	-2149
ريط	-2150
▁real	-2151
erry	-2152
▁music	-2153
▁بي	-2154
istr	-2155
uz	-2156
ize	-2157
▁comenz	-2158
ava	-2159
bol	-2160
ティ	-2161
▁prom	-2162
▁الاخر	-2163
▁Prem	-2164
▁الاست	-2165
している	-2166
obier	-2167
かった	-2168
▁Begriff	-2169
▁اين	-2170
▁bekannt	-2171
▁مس	-2172
ritto	-2173
▁made	-2174
▁Vereinig	-2175
ams	-2176
▁Geb	-2177
▁over	-2178
▁2010?	-2179
ai	-2180
世界	-2181
ace	-2182
▁perm	-2183
▁pap	-2184
يور	-2185
たのは	-2186
cion	-2187
Unis	-2188
arro	-2189
▁cui	-2190
vi	-2191
كس	-2192
000	-2193
Come	-2194
▁deb	-2195
▁Austr	-2196
▁Uniti	-2197
وسط	-2198
▁mat	-2199
▁الرو	-2200
rea	-2201
▁zum	-2202
▁térm	-2203
▁result	-2204
▁language	-2205
ضا	-2206
▁الوقت	-2207
▁Europa	-2208
vo	-2209
اث	-2210
▁exp	-2211
▁Staaten	-2212
ians	-2213
عي	-2214
esa	-2215
▁ين	-2216
▁wicht	-2217
كثر	-2218
▁sci	-2219
velop	-2220
▁veröffentlich	-2221
18	-2222
▁Th	-2223
ities	-2224
▁universidad	-2225
تج	-2226
وز	-2227
ely	-2228
▁الاج	-2229
フラン	-2230
iam	-2231
▁Port	-2232
▁would	-2233
▁16	-2234
ña	-2235
▁gobier	-2236
وني	-2237
▁ur	-2238
▁jueg	-2239
▁industr	-2240
ott	-2241
▁comb	-2242
には	-2243
ows	-2244
▁br	-2245
▁welchen	-2246
▁erano	-2247
▁ident	-2248
acional	-2249
سيق	-2250
izione	-2251
▁siglo	-2252
lan	-2253
▁بدا	-2254
icial	-2255
▁school	-2256
▁describ	-2257
ركز	-2258
▁hay	-2259
▁Bevölkerung	-2260
▁ann	-2261
▁Phil	-2262
▁escu	-2263
Mit	-2264
▁lav	-2265
▁trov	-2266
eng	-2267
▁اللغة	-2268
▁término	-2269
られ	-2270
▁sin	-2271
▁popular	-2272
الية	-2273
ika	-2274
▁tod	-2275
▁colle	-2276
▁american	-2277
anj	-2278
une	-2279
▁befindet	-2280
▁veröffentlicht	-2281
las	-2282
gior	-2283
▁liv	-2284
▁sua	-2285
▁7	-2286
ュー	-2287
واع	-2288
▁anni	-2289
▁arm	-2290
daf	-2291
الى	-2292
eden	-2293
esto	-2294
▁Mad	-2295
▁wenn	-2296
▁period	-2297
uß	-2298
▁السي	-2299
▁الدولة	-2300
▁this	-2301
▁algun	-2302
▁USA	-2303
الة	-2304
▁les	-2305
nolog	-2306
▁può	-2307
▁اصب	-2308
▁decl	-2309
▁يستخدم	-2310
ランド	-2311
▁weit	-2312
194	-2313
▁حصل	-2314
▁fund	-2315
Da	-2316
alu	-2317
▁Aus	-2318
ished	-2319
cept	-2320
▁مرة	-2321
▁اب	-2322
による	-2323
ロー	-2324
▁Stud	-2325
▁government	-2326
の中で	-2327
▁تحت	-2328
iß	-2329
esi	-2330
ومة	-2331
▁15	-2332
iven	-2333
▁record	-2334
دار	-2335
ree	-2336
▁مو	-2337
atura	-2338
▁Rich	-2339
ていますか	-2340
▁eines	-2341
ric	-2342
▁char	-2343
▁المص	-2344
▁Har	-2345
▁Lib	-2346
▁Sup	-2347
▁att	-2348
▁rom	-2349
iment	-2350
▁Europe	-2351
▁6	-2352
ists	-2353
▁Nam	-2354
▁cam	-2355
ismus	-2356
▁رو	-2357
eh	-2358
fen	-2359
▁Im	-2360
▁nu	-2361
oren	-2362
▁int	-2363
▁otro	-2364
▁som	-2365
▁ihre	-2366
▁London	-2367
▁Vereinigten	-2368
ئة	-2369
ット	-2370
▁جزء	-2371
utsch	-2372
▁mundo	-2373
bbe	-2374
eces	-2375
▁civ	-2376
▁percentage	-2377
▁Bur	-2378
انت	-2379
▁best	-2380
▁Krieg	-2381
▁andere	-2382
fic	-2383
cast	-2384
▁tit	-2385
▁rele	-2386
على	-2387
▁pelí	-2388
まで	-2389
▁fl	-2390
ündet	-2391
▁يفعله	-2392
هد	-2393
▁plan	-2394
▁besch	-2395
▁tienen	-2396
دى	-2397
atori	-2398
▁Queen	-2399
▁produc	-2400
pon	-2401
▁Gu	-2402
▁cond	-2403
▁porcent	-2404
rop	-2405
راج	-2406
▁ست	-2407
oph	-2408
▁Ant	-2409
▁League	-2410
▁general	-2411
اقة	-2412
▁celeb	-2413
▁Nasser	-2414
ajor	-2415
▁اجل	-2416
umento	-2417
amiento	-2418
▁Fr	-2419
▁porcentaje	-2420
ذه	-2421
▁intro	-2422
▁alc	-2423
achen	-2424
▁eing	-2425
▁loro	-2426
أي	-2427
▁spe	-2428
▁fond	-2429
كبر	-2430
▁حدث	-2431
▁Cent	-2432
▁Jahren	-2433
▁ersten	-2434
خل	-2435
egger	-2436
▁eran	-2437
▁centro	-2438
にお	-2439
odr	-2440
▁ley	-2441
0,	-2442
とい	-2443
way	-2444
により	-2445
فت	-2446
▁than	-2447
urr	-2448
dafi	-2449
olina	-2450
いく	-2451
osp	-2452
arch	-2453
▁stat	-2454
▁Präsident	-2455
いて	-2456
warzen	-2457
▁Sprache	-2458
ux	-2459
ciato	-2460
▁الفي	-2461
ts	-2462
ño	-2463
▁Min	-2464
head	-2465
ideo	-2466
▁For	-2467
▁ric	-2468
▁dónde	-2469
jet	-2470
▁تص	-2471
blic	-2472
▁law	-2473
▁riv	-2474
gy	-2475
ため	-2476
rael	-2477
زل	-2478
国の	-2479
▁din	-2480
▁cant	-2481
▁الاح	-2482
▁refer	-2483
ró	-2484
▁Wh	-2485
▁Nord	-2486
▁qual	-2487
ريكي	-2488
▁typ	-2489
▁cost	-2490
bo	-2491
▁نسبة	-2492
estern	-2493
▁succ	-2494
enden	-2495
▁König	-2496
imm	-2497
امعة	-2498
▁Houston	-2499
uda	-2500
▁At	-2501
▁Cl	-2502
▁domin	-2503
▁الانت	-2504
▁المنا	-2505
▁Bo	-2506
▁بو	-2507
▁grie	-2508
▁zona	-2509
▁لديه	-2510
ationen	-2511
▁Eisenhower	-2512
▁there	-2513
اش	-2514
▁contra	-2515
▁maggior	-2516
نين	-2517
orto	-2518
▁mater	-2519
ähl	-2520
istas	-2521
▁India	-2522
▁Gruppe	-2523
يني	-2524
▁dep	-2525
▁War	-2526
ありますか	-2527
▁especi	-2528
▁Fre	-2529
▁Beyonce	-2530
▁gobierno	-2531
سا	-2532
gef	-2533
ella	-2534
▁Med	-2535
▁quali	-2536
▁القرن	-2537
طلح	-2538
▁مق	-2539
ased	-2540
▁main	-2541
hington	-2542
▁Ä	-2543
▁bro	-2544
▁اكبر	-2545
مالية	-2546
▁Prin	-2547
▁altro	-2548
▁human	-2549
▁Island	-2550
▁gi	-2551
▁norm	-2552
get	-2553
▁trib	-2554
▁comenzó	-2555
▁العام	-2556
ührt	-2557
stitu	-2558
▁become	-2559
ix	-2560
もの	-2561
ject	-2562
▁App	-2563
▁Pres	-2564
▁band	-2565
▁الما	-2566
cy	-2567
alia	-2568
éd	-2569
بير	-2570
ught	-2571
vent	-2572
▁ste	-2573
▁gewonnen	-2574
ضاء	-2575
▁viene	-2576
ks	-2577
▁12	-2578
の名前	-2579
▁Afr	-2580
▁sett	-2581
▁world	-2582
انب	-2583
oston	-2584
Le	-2585
uta	-2586
▁Washington	-2587
▁ay	-2588
▁uso	-2589
▁Southampton	-2590
act	-2591
اية	-2592
▁tempor	-2593
▁develop	-2594
▁Fe	-2595
teil	-2596
▁frü	-2597
▁اج	-2598
igkeit	-2599
▁represent	-2600
▁Ex	-2601
ateg	-2602
▁major	-2603
▁seine	-2604
▁desarro	-2605
ían	-2606
berg	-2607
▁Geor	-2608
uan	-2609
blica	-2610
▁gegr	-2611
▁nell	-2612
▁عليه	-2613
▁divent	-2614
تش	-2615
▁جم	-2616
▁start	-2617
▁gegründet	-2618
دل	-2619
▁air	-2620
▁geh	-2621
ament	-2622
▁avuto	-2623
ثة	-2624
agt	-2625
▁مب	-2626
▁rif	-2627
▁Francia	-2628
كرة	-2629
pro	-2630
مانية	-2631
▁المش	-2632
ennesse	-2633
▁hatte	-2634
映画	-2635
agn	-2636
äng	-2637
reet	-2638
ennessee	-2639
udd	-2640
anza	-2641
▁Val	-2642
▁بر	-2643
はどの	-2644
▁otr	-2645
Quelle	-2646
▁prote	-2647
esehen	-2648
▁العمل	-2649
warzenegger	-2650
ギリス	-2651
▁Bez	-2652
▁المدينة	-2653
contr	-2654
はどこですか	-2655
ved	-2656
▁estable	-2657
win	-2658
▁bar	-2659
イギリス	-2660
▁acqu	-2661
cident	-2662
▁hacer	-2663
▁9	-2664
سمى	-2665
cula	-2666
▁cont	-2667
▁polít	-2668
▁منطقة	-2669
يث	-2670
▁take	-2671
رح	-2672
ps	-2673
زي	-2674
スの	-2675
200	-2676
▁present	-2677
ريد	-2678
يات	-2679
▁educ	-2680
▁inform	-2681
Der	-2682
ourne	-2683
▁auch	-2684
itehead	-2685
ته	-2686
▁Del	-2687
angen	-2688
▁China	-2689
▁europe	-2690
ym	-2691
が多	-2692
▁تت	-2693
▁common	-2694
10	-2695
▁Sw	-2696
▁مست	-2697
▁atta	-2698
▁tur	-2699
を受	-2700
ält	-2701
abil	-2702
▁vend	-2703
▁importante	-2704
▁complet	-2705
ضع	-2706
▁causa	-2707
uvalu	-2708
▁sulla	-2709
▁Portug	-2710
▁10	-2711
▁cir	-2712
▁gel	-2713
▁Engl	-2714
ンの	-2715
nis	-2716
▁ét	-2717
▁sing	-2718
يري	-2719
▁فاز	-2720
▁Comm	-2721
▁utiliza	-2722
cel	-2723
▁Som	-2724
ieder	-2725
ederal	-2726
▁begonnen	-2727
rab	-2728
▁bomb	-2729
▁dest	-2730
▁British	-2731
最初	-2732
▁ig	-2733
ibet	-2734
لسلة	-2735
shall	-2736
▁dies	-2737
▁mu	-2738
temp	-2739
▁ang	-2740
▁kon	-2741
▁mol	-2742
عم	-2743
▁dé	-2744
رات	-2745
▁bis	-2746
▁podr	-2747
▁Tennessee	-2748
▁الامبراطور	-2749
ane	-2750
vert	-2751
▁requ	-2752
▁World	-2753
▁يعتقد	-2754
▁anderen	-2755
uel	-2756
uso	-2757
▁ph	-2758
tait	-2759
dem	-2760
▁Ale	-2761
していた	-2762
zeich	-2763
▁كتب	-2764
▁deter	-2765
▁invest	-2766
ax	-2767
▁desc	-2768
▁happ	-2769
▁gruppo	-2770
▁territ	-2771
▁Beyoncé	-2772
Im	-2773
地域	-2774
である	-2775
cias	-2776
▁أم	-2777
▁Man	-2778
▁alto	-2779
▁casa	-2780
▁conv	-2781
Durante	-2782
▁capital	-2783
▁الأم	-2784
▁سكان	-2785
▁الدول	-2786
ناك	-2787
omas	-2788
▁Gro	-2789
▁Plymouth	-2790
作品	-2791
atter	-2792
いた	-2793
▁Pop	-2794
▁تستخدم	-2795
ías	-2796
▁Mex	-2797
誰ですか	-2798
for	-2799
mond	-2800
itect	-2801
▁este	-2802
▁السكان	-2803
ئيسي	-2804
▁ganó	-2805
▁فيلم	-2806
undial	-2807
▁mayoría	-2808
▁post	-2809
▁tuvo	-2810
▁Christ	-2811
▁United	-2812
ös	-2813
Para	-2814
▁Mit	-2815
▁lange	-2816
ave	-2817
uzione	-2818
▁können	-2819
はどれ	-2820
كومة	-2821
▁visit	-2822
imiento	-2823
▁Eng	-2824
lished	-2825
▁escrib	-2826
ظر	-2827
صول	-2828
▁esta	-2829
▁البح	-2830
mar	-2831
▁الهند	-2832
wer	-2833
ارات	-2834
▁og	-2835
isto	-2836
▁apo	-2837
affen	-2838
▁gibt	-2839
imon	-2840
▁being	-2841
▁popolazione	-2842
とは	-2843
ides	-2844
▁انه	-2845
▁Boston	-2846
▁German	-2847
▁costru	-2848
▁Premier	-2849
üd	-2850
ius	-2851
تحاد	-2852
وريا	-2853
▁Ste	-2854
▁add	-2855
▁2009?	-2856
elbourne	-2857
genommen	-2858
▁norte	-2859
▁را	-2860
▁mur	-2861
ious	-2862
▁don	-2863
▁Japan	-2864
▁wichtig	-2865
On	-2866
جلس	-2867
addafi	-2868
▁media	-2869
▁National	-2870
大統	-2871
inn	-2872
大統領	-2873
▁Pal	-2874
▁dalla	-2875
▁vinto	-2876
▁considered	-2877
owl	-2878
られた	-2879
▁Dame	-2880
▁where	-2881
ًا	-2882
cen	-2883
ude	-2884
amer	-2885
▁était	-2886
ondiale	-2887
ily	-2888
いのは	-2889
▁Dar	-2890
abeth	-2891
íodo	-2892
▁Kir	-2893
ission	-2894
hm	-2895
マン	-2896
レー	-2897
els	-2898
▁La	-2899
▁bre	-2900
▁mús	-2901
zioni	-2902
▁Notre	-2903
بات	-2904
したの	-2905
▁لعب	-2906
▁gegen	-2907
▁países	-2908
▁Seattle	-2909
ورة	-2910
ares	-2911
▁ايضا	-2912
erstüt	-2913
▁período	-2914
Auf	-2915
امل	-2916
▁Ir	-2917
orea	-2918
▁reci	-2919
▁termin	-2920
▁significa	-2921
لق	-2922
ديم	-2923
は何年に	-2924
▁tele	-2925
ession	-2926
▁differ	-2927
اط	-2928
änd	-2929
فين	-2930
▁tut	-2931
ersch	-2932
▁geschrieben	-2933
▁Ed	-2934
▁Times	-2935
▁colon	-2936
▁temper	-2937
ée	-2938
ín	-2939
▁Os	-2940
▁vi	-2941
▁سب	-2942
ativo	-2943
▁test	-2944
▁الاع	-2945
▁معظم	-2946
nehmen	-2947
▁antes	-2948
▁constru	-2949
unk	-2950
▁Ha	-2951
▁design	-2952
▁idioma	-2953
br	-2954
by	-2955
عات	-2956
cito	-2957
ander	-2958
▁event	-2959
osten	-2960
▁pueden	-2961
vil	-2962
という	-2963
▁tor	-2964
▁2007	-2965
▁crit	-2966
▁الاف	-2967
▁الوط	-2968
▁هناك	-2969
▁standard	-2970
▁Regierung	-2971
ニア	-2972
▁dr	-2973
▁jud	-2974
▁make	-2975
▁Niger	-2976
▁termine	-2977
▁استخدام	-2978
جر	-2979
▁Ro	-2980
▁club	-2981
▁película	-2982
ودة	-2983
▁they	-2984
sp	-2985
err	-2986
imin	-2987
▁alta	-2988
▁hace	-2989
▁lanz	-2990
▁writ	-2991
▁2013?	-2992
بية	-2993
Comb	-2994
▁red	-2995
▁لكي	-2996
▁data	-2997
▁السل	-2998
▁2008	-2999
Combien	-3000
ét	-3001
▁لها	-3002
▁zuerst	-3003
▁iniziato	-3004
دف	-3005
فضل	-3006
▁Mac	-3007
▁scu	-3008
▁separ	-3009
حي	-3010
▁He	-3011
▁imm	-3012
▁pens	-3013
▁cuántos	-3014
وائ	-3015
▁far	-3016
▁place	-3017
▁estaban	-3018
pla	-3019
▁Napoleon	-3020
▁ale	-3021
▁squ	-3022
▁Ital	-3023
▁priv	-3024
▁تاريخ	-3025
eter	-3026
▁contrib	-3027
esc	-3028
راض	-3029
enten	-3030
▁Apple	-3031
▁Unter	-3032
▁years	-3033
▁percentuale	-3034
行わ	-3035
اعد	-3036
سيقى	-3037
▁ave	-3038
▁natur	-3039
▁volta	-3040
▁wür	-3041
ران	-3042
▁اخ	-3043
ating	-3044
ba	-3045
▁à	-3046
خاب	-3047
▁Ger	-3048
▁المل	-3049
Welchen	-3050
etti	-3051
▁2011?	-3052
▁Madonna	-3053
ision	-3054
raft	-3055
fe	-3056
ecut	-3057
elli	-3058
▁Bre	-3059
table	-3060
▁Film	-3061
▁dove	-3062
▁Repub	-3063
▁nueva	-3064
ipo	-3065
اسي	-3066
▁الكل	-3067
bur	-3068
cil	-3069
ظمة	-3070
فية	-3071
▁Cr	-3072
▁aver	-3073
▁könn	-3074
xt	-3075
ahl	-3076
izabeth	-3077
▁Carolina	-3078
نع	-3079
ファ	-3080
ostr	-3081
▁191	-3082
▁arg	-3083
اضافة	-3084
ésident	-3085
át	-3086
▁vez	-3087
▁via	-3088
▁التح	-3089
▁2007?	-3090
▁under	-3091
igu	-3092
its	-3093
utt	-3094
asil	-3095
▁بول	-3096
Along	-3097
▁2008?	-3098
eln	-3099
▁شركة	-3100
図書	-3101
iami	-3102
▁lim	-3103
▁viv	-3104
▁بلد	-3105
▁ingl	-3106
▁عادة	-3107
icación	-3108
eld	-3109
lim	-3110
icio	-3111
▁inde	-3112
▁nuov	-3113
▁color	-3114
▁britán	-3115
▁ú	-3116
وير	-3117
▁تج	-3118
illi	-3119
▁Bron	-3120
▁Grand	-3121
▁serie	-3122
▁England	-3123
خاص	-3124
▁Mo	-3125
▁مش	-3126
▁انش	-3127
▁hous	-3128
▁exper	-3129
▁mondo	-3130
▁power	-3131
▁leader	-3132
▁estados	-3133
uter	-3134
arios	-3135
ライ	-3136
▁Melbourne	-3137
▁principal	-3138
バー	-3139
ivid	-3140
▁mas	-3141
▁compr	-3142
▁مجموعة	-3143
ultur	-3144
▁2009	-3145
▁المست	-3146
▁الاخرى	-3147
ey	-3148
▁Ent	-3149
▁يجب	-3150
ket	-3151
▁Ad	-3152
▁الامريكية	-3153
ارك	-3154
يورك	-3155
isión	-3156
other	-3157
▁mand	-3158
▁Gesch	-3159
▁الناس	-3160
ltre	-3161
etroit	-3162
kl	-3163
col	-3164
▁الجز	-3165
▁igles	-3166
▁evento	-3167
وة	-3168
▁جامعة	-3169
▁pubblic	-3170
▁support	-3171
"؟	-3172
فا	-3173
▁uu	-3174
▁خط	-3175
▁zweit	-3176
▁Detroit	-3177
▁trabajo	-3178
قاط	-3179
▁Bro	-3180
▁نظام	-3181
▁final	-3182
▁nelle	-3183
▁سلسلة	-3184
وك	-3185
weit	-3186
▁word	-3187
▁Colle	-3188
▁appro	-3189
▁الملك	-3190
▁اش	-3191
entr	-3192
rest	-3193
▁led	-3194
▁negli	-3195
▁encontr	-3196
▁passiert	-3197
▁aer	-3198
▁doc	-3199
▁العث	-3200
▁created	-3201
uff	-3202
ندا	-3203
▁cin	-3204
▁تقع	-3205
gesch	-3206
▁base	-3207
▁rank	-3208
▁stag	-3209
▁Armen	-3210
▁protest	-3211
cho	-3212
ital	-3213
いですか	-3214
▁Comp	-3215
▁land	-3216
-1	-3217
äd	-3218
ادي	-3219
▁ren	-3220
inder	-3221
▁corr	-3222
▁date	-3223
▁album	-3224
▁desde	-3225
に対	-3226
▁hö	-3227
zahl	-3228
▁gegeben	-3229
▁ee	-3230
▁iP	-3231
▁sex	-3232
▁heiß	-3233
▁المك	-3234
▁música	-3235
▁entwick	-3236
▁problem	-3237
ya	-3238
oth	-3239
▁op	-3240
▁قامت	-3241
▁program	-3242
omen	-3243
ierte	-3244
entsatz	-3245
▁Kerry	-3246
▁Roman	-3247
ized	-3248
▁Auf	-3249
anjing	-3250
▁autor	-3251
▁größte	-3252
ja	-3253
▁vie	-3254
かったのは	-3255
▁company	-3256
▁Prozentsatz	-3257
قط	-3258
ルト	-3259
ائزة	-3260
Junto	-3261
▁secolo	-3262
ley	-3263
reg	-3264
iles	-3265
tend	-3266
ungs	-3267
▁distr	-3268
▁اليون	-3269
وار	-3270
وفي	-3271
ucson	-3272
▁اثنين	-3273
volution	-3274
cos	-3275
▁lu	-3276
▁Länder	-3277
▁العالمية	-3278
201	-3279
▁Fo	-3280
ware	-3281
ativa	-3282
▁compar	-3283
لاق	-3284
▁Bell	-3285
▁societ	-3286
سك	-3287
van	-3288
utzt	-3289
▁Air	-3290
▁été	-3291
senal	-3292
lement	-3293
かに	-3294
unda	-3295
▁palab	-3296
je	-3297
طي	-3298
ene	-3299
وقع	-3300
▁مؤ	-3301
rig	-3302
▁dar	-3303
▁الاط	-3304
▁lingua	-3305
فال	-3306
trag	-3307
racht	-3308
▁again	-3309
نى	-3310
istro	-3311
▁pers	-3312
▁could	-3313
▁نيويورك	-3314
يسة	-3315
isce	-3316
▁Ber	-3317
▁Bew	-3318
▁2014	-3319
▁iPod	-3320
estival	-3321
▁largest	-3322
シア	-3323
ンド	-3324
وبر	-3325
▁192	-3326
▁Cor	-3327
ually	-3328
▁crist	-3329
añ	-3330
ages	-3331
▁Buch	-3332
▁الاخ	-3333
▁بدات	-3334
▁فترة	-3335
▁difer	-3336
▁II	-3337
▁هذه	-3338
ución	-3339
▁Intern	-3340
▁season	-3341
▁signific	-3342
Be	-3343
مع	-3344
ント	-3345
lie	-3346
▁az	-3347
▁يش	-3348
リーズ	-3349
はどちら	-3350
▁Gran	-3351
▁Miami	-3352
▁modern	-3353
Zusammen	-3354
▁national	-3355
iè	-3356
▁nú	-3357
osci	-3358
tere	-3359
▁oft	-3360
krieg	-3361
▁فريق	-3362
▁الاتحاد	-3363
طن	-3364
ヨー	-3365
inos	-3366
▁الاص	-3367
▁build	-3368
▁scritto	-3369
▁escribió	-3370
ينا	-3371
▁acuer	-3372
▁Pl	-3373
glich	-3374
Des	-3375
▁Arten	-3376
iver	-3377
vilup	-3378
▁جانب	-3379
hem	-3380
ecto	-3381
اعدة	-3382
▁wem	-3383
での	-3384
ienda	-3385
▁sido	-3386
▁große	-3387
▁persona	-3388
▁Elizabeth	-3389
▁Schwarzenegger	-3390
いくつ	-3391
▁ven	-3392
▁tamb	-3393
▁radio	-3394
iemb	-3395
اسية	-3396
▁fem	-3397
▁gior	-3398
▁Arbeit	-3399
▁another	-3400
▁original	-3401
Pro	-3402
amo	-3403
▁Imper	-3404
وى	-3405
▁التق	-3406
パー	-3407
Für	-3408
ché	-3409
▁nam	-3410
▁Arch	-3411
されましたか	-3412
▁الاشخاص	-3413
ife	-3414
▁اح	-3415
▁orient	-3416
▁الرئيسية	-3417
رائ	-3418
▁últ	-3419
ynast	-3420
érica	-3421
▁gente	-3422
▁llama	-3423
▁13	-3424
bern	-3425
ينية	-3426
▁Iran	-3427
▁miemb	-3428
▁divers	-3429
lack	-3430
▁line	-3431
どちらですか	-3432
▁tradition	-3433
▁rap	-3434
▁vot	-3435
▁العل	-3436
ificio	-3437
▁Portugal	-3438
と呼	-3439
▁sa	-3440
図書館	-3441
erno	-3442
▁2012	-3443
▁memb	-3444
▁poder	-3445
▁genannt	-3446
▁chiamato	-3447
ジョ	-3448
▁alt	-3449
▁Organ	-3450
▁svilup	-3451
دير	-3452
▁اد	-3453
▁2010	-3454
▁المب	-3455
▁الرئيسي	-3456
isc	-3457
ほかに	-3458
inas	-3459
▁اخت	-3460
▁show	-3461
len	-3462
▁help	-3463
▁south	-3464
▁escuela	-3465
▁también	-3466
▁gefunden	-3467
lia	-3468
lymp	-3469
▁verurs	-3470
▁occident	-3471
▁temporada	-3472
cto	-3473
تما	-3474
▁اغ	-3475
▁وج	-3476
ique	-3477
▁cab	-3478
▁cultur	-3479
يام	-3480
ivos	-3481
lung	-3482
rito	-3483
▁edad	-3484
▁America	-3485
▁televis	-3486
.?	-3487
ング	-3488
هور	-3489
▁تس	-3490
シリーズ	-3491
▁dise	-3492
▁produce	-3493
igr	-3494
orr	-3495
▁هذا	-3496
miento	-3497
irg	-3498
uck	-3499
ملكة	-3500
arbeit	-3501
▁2015?	-3502
される	-3503
ices	-3504
▁tier	-3505
▁west	-3506
▁tenía	-3507
ser	-3508
ترا	-3509
دات	-3510
ield	-3511
▁التن	-3512
gar	-3513
がある	-3514
▁وقت	-3515
▁2012?	-3516
▁Israel	-3517
ミー	-3518
íst	-3519
illa	-3520
انيا	-3521
▁Emp	-3522
▁Yale	-3523
▁Paris	-3524
▁premier	-3525
فق	-3526
▁Nor	-3527
leich	-3528
ording	-3529
otball	-3530
のは何	-3531
aison	-3532
ather	-3533
celona	-3534
▁Delhi	-3535
▁governo	-3536
Das	-3537
han	-3538
▁mal	-3539
osoph	-3540
▁الاق	-3541
▁común	-3542
アル	-3543
ody	-3544
▁شي	-3545
idas	-3546
▁bus	-3547
▁jug	-3548
▁ult	-3549
▁early	-3550
▁nomin	-3551
▁George	-3552
atta	-3553
andid	-3554
▁númer	-3555
▁compos	-3556
▁quanti	-3557
▁البريط	-3558
めて	-3559
pol	-3560
▁أول	-3561
uerto	-3562
▁Marshall	-3563
▁Richmond	-3564
▁لع	-3565
abad	-3566
ennen	-3567
▁Part	-3568
▁التج	-3569
gestellt	-3570
▁gl	-3571
folk	-3572
▁Hol	-3573
▁2011	-3574
▁الاسم	-3575
▁الموا	-3576
▁الثاني	-3577
▁القوات	-3578
▁countries	-3579
iga	-3580
▁Sec	-3581
▁san	-3582
▁mill	-3583
▁بت	-3584
▁nei	-3585
▁carr	-3586
▁often	-3587
▁Tuvalu	-3588
egn	-3589
دول	-3590
▁جن	-3591
▁Die	-3592
▁Rom	-3593
icano	-3594
▁team	-3595
▁المجموعة	-3596
▁14	-3597
した人	-3598
▁hic	-3599
laubt	-3600
▁equipo	-3601
رم	-3602
タイ	-3603
ポー	-3604
ube	-3605
ques	-3606
▁Haupt	-3607
uti	-3608
▁ضد	-3609
ense	-3610
zeit	-3611
▁Roy	-3612
kr	-3613
▁Cal	-3614
▁Fra	-3615
▁tan	-3616
何年のこと	-3617
▁nuevo	-3618
▁الثانية	-3619
▁utilizzato	-3620
▁اق	-3621
elig	-3622
▁mej	-3623
▁2014?	-3624
azionale	-3625
▁Nigeria	-3626
نيسة	-3627
▁fig	-3628
▁المج	-3629
▁acuerdo	-3630
▁mondiale	-3631
egen	-3632
icip	-3633
▁Dell	-3634
▁machen	-3635
オー	-3636
ony	-3637
adre	-3638
cted	-3639
▁الض	-3640
orben	-3641
▁only	-3642
▁Es	-3643
▁Ph	-3644
▁ber	-3645
▁عرض	-3646
mania	-3647
▁prev	-3648
▁rece	-3649
indows	-3650
▁الجنوب	-3651
stitution	-3652
フィ	-3653
▁تكون	-3654
▁incre	-3655
▁nacional	-3656
At	-3657
ラー	-3658
Von	-3659
ike	-3660
▁له	-3661
▁finan	-3662
'?	-3663
NA	-3664
íf	-3665
َن	-3666
edes	-3667
▁let	-3668
▁dijo	-3669
▁أكبر	-3670
▁واحد	-3671
▁podría	-3672
▁English	-3673
▁against	-3674
▁Ü	-3675
ula	-3676
とは何	-3677
▁ayud	-3678
óm	-3679
ديو	-3680
ماء	-3681
▁sov	-3682
▁East	-3683
▁Groß	-3684
derabad	-3685
▁weiter	-3686
ulo	-3687
▁شخص	-3688
▁noch	-3689
irtschaft	-3690
フォ	-3691
ヴィ	-3692
大き	-3693
isti	-3694
▁Aut	-3695
▁2013	-3696
▁Darwin	-3697
enschaft	-3698
▁Whitehead	-3699
都市	-3700
كمة	-3701
▁fer	-3702
▁tun	-3703
▁Frank	-3704
▁examp	-3705
▁College	-3706
FL	-3707
多く	-3708
dotto	-3709
▁Street	-3710
▁gebaut	-3711
▁zurück	-3712
漱石	-3713
مَن	-3714
▁na	-3715
▁letz	-3716
何年ですか	-3717
ED	-3718
▁diale	-3719
▁estudi	-3720
▁periodo	-3721
▁nav	-3722
▁بان	-3723
ionen	-3724
▁benef	-3725
▁premio	-3726
yderabad	-3727
▁الأمريكية	-3728
▁الامبراطورية	-3729
bt	-3730
raph	-3731
درسة	-3732
ونسي	-3733
ichte	-3734
▁Bronx	-3735
▁Musik	-3736
▁comer	-3737
▁Tucson	-3738
▁compet	-3739
▁numero	-3740
▁imperio	-3741
▁Valencia	-3742
▁Barcelona	-3743
هو	-3744
pend	-3745
انات	-3746
iente	-3747
▁Alas	-3748
▁model	-3749
▁empres	-3750
äuf	-3751
ويل	-3752
▁book	-3753
▁pays	-3754
isation	-3755
▁القانون	-3756
Ab	-3757
▁Super	-3758
▁invol	-3759
▁Sov	-3760
▁sold	-3761
▁happen	-3762
▁invent	-3763
▁المنطقة	-3764
▁اص	-3765
lant	-3766
▁lung	-3767
رش	-3768
▁pra	-3769
▁sel	-3770
athol	-3771
rench	-3772
▁dall	-3773
غي	-3774
▁وضع	-3775
▁also	-3776
ev	-3777
aba	-3778
lin	-3779
▁Form	-3780
▁commer	-3781
eo	-3782
eta	-3783
طار	-3784
▁llev	-3785
▁associ	-3786
▁gobern	-3787
▁trabaj	-3788
fo	-3789
▁ري	-3790
تبار	-3791
▁teor	-3792
▁propor	-3793
人の	-3794
Las	-3795
▁vo	-3796
▁einz	-3797
りましたか	-3798
▁spiel	-3799
▁iglesia	-3800
▁individ	-3801
iot	-3802
ayek	-3803
▁agr	-3804
▁ged	-3805
▁Kirche	-3806
▁victoria	-3807
▁hin	-3808
ispiel	-3809
ilo	-3810
pir	-3811
قيق	-3812
itzer	-3813
▁arte	-3814
▁باسم	-3815
▁child	-3816
▁الغرب	-3817
zz	-3818
jer	-3819
ños	-3820
essen	-3821
rough	-3822
umann	-3823
▁exist	-3824
▁الشمالية	-3825
جلي	-3826
otto	-3827
▁183	-3828
▁187	-3829
▁wen	-3830
▁مار	-3831
▁hicieron	-3832
ham	-3833
ظهر	-3834
taña	-3835
▁Beispiel	-3836
اول	-3837
▁pú	-3838
atum	-3839
oper	-3840
▁Guerra	-3841
ارع	-3842
▁bl	-3843
uito	-3844
▁ret	-3845
▁King	-3846
▁plant	-3847
▁الحيو	-3848
▁قانون	-3849
▁States	-3850
▁algunos	-3851
yl	-3852
▁ca	-3853
▁ke	-3854
ليون	-3855
▁التع	-3856
icamente	-3857
urt	-3858
▁ho	-3859
▁sug	-3860
iendo	-3861
kommen	-3862
▁frances	-3863
ابق	-3864
▁Kar	-3865
▁الحدي	-3866
▁chopin	-3867
الث	-3868
▁بح	-3869
▁French	-3870
▁الحكومة	-3871
▁Um	-3872
ibia	-3873
なかった	-3874
▁dans	-3875
▁primero	-3876
▁stagione	-3877
asa	-3878
فاع	-3879
atos	-3880
ette	-3881
▁100	-3882
▁mass	-3883
▁اصبح	-3884
▁otros	-3885
▁declar	-3886
▁gesagt	-3887
▁الاكثر	-3888
uni	-3889
ような	-3890
▁rest	-3891
▁entwickelt	-3892
äre	-3893
▁cla	-3894
▁occur	-3895
▁Brasil	-3896
▁dinast	-3897
▁convert	-3898
وث	-3899
会社	-3900
▁حق	-3901
▁dio	-3902
▁histor	-3903
▁produz	-3904
でし	-3905
itor	-3906
において	-3907
いつですか	-3908
During	-3909
▁britann	-3910
▁process	-3911
▁principale	-3912
هام	-3913
▁كتاب	-3914
▁conqu	-3915
▁Alaska	-3916
▁aument	-3917
وط	-3918
一番	-3919
eso	-3920
rei	-3921
▁log	-3922
▁redu	-3923
idades	-3924
بالاضافة	-3925
▁territor	-3926
▁ها	-3927
mand	-3928
ديدة	-3929
▁verl	-3930
▁welches	-3931
▁president	-3932
بة	-3933
ala	-3934
▁Ba	-3935
ったか	-3936
▁tec	-3937
▁Budd	-3938
▁muer	-3939
▁كانوا	-3940
▁könnte	-3941
どれ	-3942
ニー	-3943
رير	-3944
▁دا	-3945
alen	-3946
ynman	-3947
▁mosa	-3948
▁usato	-3949
▁العديد	-3950
▁capitale	-3951
Ar	-3952
تر	-3953
ウル	-3954
omp	-3955
كار	-3956
ktur	-3957
▁sir	-3958
▁compañ	-3959
ょう	-3960
ジャ	-3961
anst	-3962
のほかに	-3963
▁cuál	-3964
gs	-3965
くら	-3966
時代	-3967
Ein	-3968
ark	-3969
▁Ur	-3970
▁ma	-3971
atro	-3972
だったの	-3973
▁الرا	-3974
emente	-3975
とも	-3976
への	-3977
▁day	-3978
▁dig	-3979
anden	-3980
▁firm	-3981
▁Hayek	-3982
▁heißt	-3983
▁seiner	-3984
▁determin	-3985
▁erhalten	-3986
▁desarroll	-3987
rom	-3988
anos	-3989
iani	-3990
wend	-3991
wort	-3992
Nel	-3993
ani	-3994
زال	-3995
▁jo	-3996
▁lat	-3997
▁شكل	-3998
されたか	-3999
ically	-4000
▁البلد	-4001
فع	-4002
▁%	-4003
azi	-4004
ves	-4005
غير	-4006
▁Wort	-4007
▁المؤ	-4008
▁Reich	-4009
▁Gaddafi	-4010
تي	-4011
udo	-4012
iben	-4013
iten	-4014
ندية	-4015
يادة	-4016
▁حرب	-4017
フランス	-4018
▁fall	-4019
▁last	-4020
▁مجلس	-4021
▁Leben	-4022
▁statt	-4023
▁partic	-4024
▁edificio	-4025
قتص	-4026
schn	-4027
でしょう	-4028
ology	-4029
▁2000	-4030
くな	-4031
と何	-4032
ades	-4033
lica	-4034
▁isla	-4035
▁pred	-4036
izzazione	-4037
aty	-4038
bra	-4039
lik	-4040
▁uc	-4041
初めて	-4042
▁det	-4043
▁apoy	-4044
▁الشرق	-4045
▁derech	-4046
▁palabra	-4047
▁الاوروب	-4048
60	-4049
ron	-4050
ört	-4051
▁ä	-4052
uno	-4053
▁ات	-4054
▁فعل	-4055
stadt	-4056
uerre	-4057
▁phil	-4058
▁tech	-4059
▁temp	-4060
▁capac	-4061
▁secon	-4062
زب	-4063
cis	-4064
ired	-4065
▁Tur	-4066
وروبا	-4067
▁sent	-4068
▁simil	-4069
▁Center	-4070
zeichnet	-4071
▁federal	-4072
opt	-4073
مار	-4074
eston	-4075
▁remp	-4076
▁sost	-4077
▁líder	-4078
▁lavoro	-4079
▁social	-4080
▁الاولى	-4081
▁الموسيقى	-4082
▁Far	-4083
▁bra	-4084
▁tar	-4085
▁Virg	-4086
▁Tibet	-4087
▁القدم	-4088
cir	-4089
anas	-4090
▁Met	-4091
▁merc	-4092
▁كبير	-4093
▁aveva	-4094
▁before	-4095
▁Deutsch	-4096
▁investig	-4097
▁verbunden	-4098
▁Q	-4099
シュ	-4100
una	-4101
▁Em	-4102
وبان	-4103
▁cens	-4104
▁large	-4105
▁الكتاب	-4106
▁Arsenal	-4107
▁notable	-4108
▁unterstüt	-4109
17	-4110
BI	-4111
▁hal	-4112
▁mer	-4113
▁مات	-4114
▁يقع	-4115
▁evol	-4116
▁بوصف	-4117
▁الفرن	-4118
▁church	-4119
侵攻	-4120
ubs	-4121
دية	-4122
dens	-4123
itto	-4124
▁Namen	-4125
▁fecha	-4126
▁اليها	-4127
▁ولاية	-4128
▁compon	-4129
▁mundial	-4130
▁secondo	-4131
سر	-4132
を何	-4133
زية	-4134
alth	-4135
▁mis	-4136
▁opp	-4137
▁مثل	-4138
行われた	-4139
pielt	-4140
▁entr	-4141
▁rice	-4142
altung	-4143
▁Willi	-4144
▁الطاقة	-4145
Di	-4146
ago	-4147
ogen	-4148
yonce	-4149
▁held	-4150
されている	-4151
▁attra	-4152
▁واحدة	-4153
▁número	-4154
ارج	-4155
édér	-4156
▁184	-4157
▁rag	-4158
▁نها	-4159
iforn	-4160
▁Greek	-4161
▁minor	-4162
▁study	-4163
▁Mitgli	-4164
oli	-4165
▁ni	-4166
▁ange	-4167
▁الجم	-4168
▁جميع	-4169
كتوريا	-4170
▁Insel	-4171
▁aerop	-4172
▁instr	-4173
▁würde	-4174
▁Grecia	-4175
ald	-4176
▁Ma	-4177
aler	-4178
▁Bus	-4179
▁dim	-4180
▁الاد	-4181
▁Olymp	-4182
pä	-4183
れる	-4184
▁فر	-4185
▁مك	-4186
ahre	-4187
ison	-4188
prün	-4189
As	-4190
جة	-4191
番目	-4192
ريكا	-4193
▁allow	-4194
ける	-4195
▁Eg	-4196
▁We	-4197
wood	-4198
▁Ser	-4199
▁amb	-4200
esten	-4201
▁number	-4202
zza	-4203
▁sum	-4204
▁bajo	-4205
uffici	-4206
▁franc	-4207
▁الياب	-4208
スタ	-4209
use	-4210
داد	-4211
فات	-4212
lish	-4213
▁arr	-4214
▁sat	-4215
▁المد	-4216
▁dello	-4217
▁caused	-4218
▁effect	-4219
▁quanto	-4220
▁Unternehmen	-4221
Es	-4222
Sch	-4223
ume	-4224
وقف	-4225
▁لو	-4226
▁uran	-4227
▁viol	-4228
ソ連	-4229
▁ef	-4230
▁ub	-4231
▁سن	-4232
adem	-4233
orie	-4234
اهدة	-4235
Perché	-4236
▁occup	-4237
▁sosten	-4238
▁président	-4239
▁11	-4240
ause	-4241
graf	-4242
اثير	-4243
▁día	-4244
▁idea	-4245
leston	-4246
▁Royal	-4247
▁provin	-4248
▁region	-4249
▁gespielt	-4250
cas	-4251
▁Gl	-4252
最初の	-4253
▁Col	-4254
▁tierra	-4255
▁tratado	-4256
▁conocido	-4257
▁utilizan	-4258
يط	-4259
▁mor	-4260
▁rev	-4261
▁urs	-4262
▁inst	-4263
lassen	-4264
▁grandes	-4265
▁الامريكي	-4266
ound	-4267
غيير	-4268
▁Vers	-4269
▁pasó	-4270
▁School	-4271
قع	-4272
アン	-4273
اليا	-4274
▁dev	-4275
▁ارس	-4276
▁نفس	-4277
▁otra	-4278
▁macht	-4279
▁France	-4280
▁through	-4281
nam	-4282
eros	-4283
ieme	-4284
vano	-4285
▁Tod	-4286
だったか	-4287
ights	-4288
▁clas	-4289
▁ejér	-4290
atalla	-4291
ていましたか	-4292
▁political	-4293
▁aufgenommen	-4294
▁ou	-4295
اصمة	-4296
▁segunda	-4297
ئية	-4298
erca	-4299
iens	-4300
iness	-4301
▁Paul	-4302
▁أطول	-4303
▁invas	-4304
▁يعتبر	-4305
この	-4306
ؤول	-4307
▁مل	-4308
ifiz	-4309
رنسا	-4310
▁fac	-4311
▁gra	-4312
▁Park	-4313
▁Stato	-4314
cimiento	-4315
üs	-4316
シャ	-4317
国は	-4318
har	-4319
▁ze	-4320
▁Bür	-4321
ielle	-4322
▁بسبب	-4323
ierten	-4324
▁2006?	-4325
▁liter	-4326
▁großen	-4327
▁proporcion	-4328
uk	-4329
los	-4330
▁تط	-4331
▁2006	-4332
édéric	-4333
▁product	-4334
بد	-4335
グラ	-4336
生ま	-4337
iza	-4338
ceso	-4339
line	-4340
äten	-4341
▁mean	-4342
▁Diego	-4343
yr	-4344
زن	-4345
との	-4346
がより	-4347
ピック	-4348
fall	-4349
Oltre	-4350
▁Bere	-4351
▁anal	-4352
▁neue	-4353
▁Relig	-4354
▁Empire	-4355
▁creato	-4356
▁remport	-4357
azz	-4358
▁سا	-4359
ミー賞	-4360
ählt	-4361
igung	-4362
▁versch	-4363
▁Londres	-4364
hor	-4365
رتب	-4366
▁قال	-4367
▁كرة	-4368
schnitt	-4369
▁Spielberg	-4370
人口	-4371
idd	-4372
▁UN	-4373
الات	-4374
▁Str	-4375
▁cat	-4376
▁dom	-4377
▁فيه	-4378
されたの	-4379
aggio	-4380
▁Stra	-4381
▁Union	-4382
▁neces	-4383
▁objet	-4384
▁bacter	-4385
▁Estonia	-4386
▁batalla	-4387
▁military	-4388
でき	-4389
ايا	-4390
▁BBC	-4391
▁fon	-4392
▁built	-4393
▁dispos	-4394
▁possono	-4395
مي	-4396
uct	-4397
ندن	-4398
▁ún	-4399
zung	-4400
فريق	-4401
▁pur	-4402
▁rul	-4403
abile	-4404
acion	-4405
▁Schla	-4406
▁tratt	-4407
▁Gesetz	-4408
▁perform	-4409
ES	-4410
ós	-4411
ハン	-4412
inc	-4413
▁Ass	-4414
▁Unt	-4415
▁gab	-4416
kauft	-4417
▁perd	-4418
▁tres	-4419
▁Staat	-4420
▁propr	-4421
▁المسي	-4422
▁Saison	-4423
tt	-4424
▁cuer	-4425
▁reino	-4426
▁Neumann	-4427
issenschaft	-4428
öm	-4429
ues	-4430
iang	-4431
▁قاد	-4432
▁Cong	-4433
▁Span	-4434
▁actual	-4435
▁material	-4436
▁resident	-4437
Pr	-4438
カー	-4439
事件	-4440
発生	-4441
ece	-4442
لاح	-4443
ffen	-4444
ness	-4445
olar	-4446
utch	-4447
zeug	-4448
بتون	-4449
راسة	-4450
▁FBI	-4451
▁aud	-4452
ieden	-4453
▁لاول	-4454
▁offer	-4455
▁commun	-4456
ائل	-4457
كيل	-4458
▁sm	-4459
itato	-4460
▁Tito	-4461
▁sede	-4462
▁السن	-4463
▁James	-4464
▁china	-4465
んだ	-4466
cep	-4467
ift	-4468
rado	-4469
ريقة	-4470
▁Rus	-4471
▁نشر	-4472
▁حصلت	-4473
▁لندن	-4474
▁activ	-4475
▁مصطلح	-4476
▁تد	-4477
▁Act	-4478
weise	-4479
▁death	-4480
inación	-4481
▁menudo	-4482
トル	-4483
▁VI	-4484
▁ep	-4485
cher	-4486
▁pag	-4487
orden	-4488
▁orden	-4489
▁filoso	-4490
▁ursprün	-4491
▁فيكتوريا	-4492
の方	-4493
ッド	-4494
vor	-4495
سمح	-4496
オリン	-4497
▁cuán	-4498
▁espa	-4499
▁geog	-4500
▁انها	-4501
▁adopt	-4502
▁solar	-4503
▁الشخص	-4504
▁interp	-4505
▁Windows	-4506
ivi	-4507
oft	-4508
امج	-4509
ولي	-4510
▁os	-4511
tera	-4512
unta	-4513
عليم	-4514
▁185	-4515
▁190	-4516
▁Vor	-4517
▁fine	-4518
▁höch	-4519
▁will	-4520
▁الاصل	-4521
western	-4522
▁religi	-4523
▁الانجلي	-4524
نت	-4525
させ	-4526
فلام	-4527
▁sud	-4528
▁top	-4529
▁cree	-4530
▁cause	-4531
▁الانس	-4532
オリンピック	-4533
▁conten	-4534
▁einige	-4535
▁النظام	-4536
▁società	-4537
ST	-4538
Su	-4539
チャ	-4540
eum	-4541
▁ré	-4542
▁Arm	-4543
▁tom	-4544
orida	-4545
▁gioc	-4546
▁vida	-4547
▁تسمى	-4548
ikanischen	-4549
TV	-4550
fte	-4551
vin	-4552
▁Jew	-4553
ancia	-4554
▁live	-4555
▁بناء	-4556
▁liber	-4557
▁veces	-4558
▁report	-4559
▁cultura	-4560
▁verursacht	-4561
دارس	-4562
▁prog	-4563
▁them	-4564
▁mejor	-4565
▁three	-4566
▁became	-4567
▁Nanjing	-4568
▁CD	-4569
crip	-4570
ehov	-4571
ueva	-4572
verton	-4573
▁based	-4574
غو	-4575
lle	-4576
ritt	-4577
▁mom	-4578
▁old	-4579
▁rad	-4580
▁run	-4581
▁Ingl	-4582
▁الاسل	-4583
▁conosci	-4584
▁members	-4585
▁European	-4586
大学	-4587
isl	-4588
rag	-4589
جين	-4590
enta	-4591
rote	-4592
▁Hel	-4593
▁mac	-4594
▁own	-4595
tempor	-4596
▁anche	-4597
▁pubblicato	-4598
aint	-4599
idge	-4600
ined	-4601
ites	-4602
▁fav	-4603
▁estr	-4604
▁roman	-4605
▁البرت	-4606
▁energía	-4607
▁caracter	-4608
▁released	-4609
ياء	-4610
▁يد	-4611
▁186	-4612
▁Chi	-4613
▁Tag	-4614
▁akt	-4615
▁bir	-4616
▁2005?	-4617
▁offiz	-4618
▁elimin	-4619
▁Australia	-4620
دمة	-4621
طلق	-4622
itel	-4623
▁win	-4624
▁Canad	-4625
▁emper	-4626
▁haven	-4627
▁الموج	-4628
▁believe	-4629
▁success	-4630
めた	-4631
建設	-4632
oni	-4633
yan	-4634
zös	-4635
iera	-4636
ufen	-4637
▁Pap	-4638
anzen	-4639
قاطعة	-4640
▁يحدث	-4641
outube	-4642
pectre	-4643
penden	-4644
▁frequ	-4645
▁punto	-4646
▁uffici	-4647
▁compañía	-4648
▁Frankreich	-4649
uyó	-4650
inal	-4651
utet	-4652
▁Mal	-4653
▁río	-4654
▁cada	-4655
▁ital	-4656
stitut	-4657
▁diese	-4658
▁Popper	-4659
▁founded	-4660
ór	-4661
طق	-4662
スー	-4663
何を	-4664
For	-4665
ctr	-4666
tri	-4667
يين	-4668
▁ib	-4669
ilas	-4670
inese	-4671
ossen	-4672
▁الشم	-4673
▁total	-4674
▁describe	-4675
▁historia	-4676
adr	-4677
dos	-4678
äch	-4679
دود	-4680
isis	-4681
ress	-4682
▁rey	-4683
▁للح	-4684
▁lleg	-4685
▁اخرى	-4686
▁استخ	-4687
▁Jahre	-4688
▁Jehov	-4689
▁اليوم	-4690
▁attack	-4691
▁groups	-4692
▁important	-4693
▁-	-4694
ンが	-4695
ling	-4696
ulen	-4697
▁Sud	-4698
▁osp	-4699
▁الري	-4700
ucción	-4701
▁gebracht	-4702
ning	-4703
▁nov	-4704
▁vac	-4705
cción	-4706
▁proc	-4707
▁Datum	-4708
▁ferro	-4709
▁given	-4710
▁papel	-4711
antwort	-4712
▁ejército	-4713
hö	-4714
ils	-4715
gypt	-4716
tendo	-4717
▁mult	-4718
▁russ	-4719
▁System	-4720
▁dieser	-4721
Se	-4722
帝国	-4723
راع	-4724
rale	-4725
▁Lut	-4726
▁jap	-4727
iland	-4728
▁2005	-4729
▁open	-4730
▁tour	-4731
▁Grund	-4732
▁اصبحت	-4733
▁Königreich	-4734
BM	-4735
ルー	-4736
جيل	-4737
فاق	-4738
amil	-4739
istan	-4740
aterra	-4741
▁تفعله	-4742
razione	-4743
▁segundo	-4744
تل	-4745
سات	-4746
نيف	-4747
وتر	-4748
itar	-4749
oles	-4750
▁Jes	-4751
▁esp	-4752
▁stand	-4753
صة	-4754
yle	-4755
سون	-4756
▁مث	-4757
culo	-4758
اسيس	-4759
emein	-4760
lantic	-4761
urrent	-4762
▁video	-4763
▁water	-4764
ty	-4765
شل	-4766
軍が	-4767
inea	-4768
▁divis	-4769
▁local	-4770
ieg	-4771
ورن	-4772
▁عمر	-4773
▁situ	-4774
▁legge	-4775
▁murió	-4776
ダム	-4777
irk	-4778
odo	-4779
iapp	-4780
خلال	-4781
▁188	-4782
▁abb	-4783
▁ing	-4784
▁tít	-4785
▁حول	-4786
emplo	-4787
estic	-4788
▁insect	-4789
▁island	-4790
▁similar	-4791
▁التاريخ	-4792
を行	-4793
زيل	-4794
▁ban	-4795
▁dif	-4796
▁شعب	-4797
▁bede	-4798
▁líne	-4799
▁trav	-4800
▁Islam	-4801
▁juego	-4802
▁ricev	-4803
▁تاسيس	-4804
▁antigu	-4805
Is	-4806
هي	-4807
193	-4808
hod	-4809
اكم	-4810
▁env	-4811
▁back	-4812
▁head	-4813
▁remporté	-4814
▁Weltkrieg	-4815
▁Inglaterra	-4816
21	-4817
روف	-4818
▁نهر	-4819
ouver	-4820
▁migr	-4821
▁الاب	-4822
▁Nueva	-4823
▁propos	-4824
BA	-4825
yd	-4826
mas	-4827
مية	-4828
ennt	-4829
▁lie	-4830
▁recon	-4831
▁Norfolk	-4832
ロッ	-4833
hib	-4834
امي	-4835
häng	-4836
▁set	-4837
▁Gramm	-4838
▁hecho	-4839
▁الصين	-4840
▁gestorben	-4841
اة	-4842
hnt	-4843
يست	-4844
▁mé	-4845
ローマ	-4846
olit	-4847
tens	-4848
▁2020	-4849
▁modo	-4850
▁الاغ	-4851
▁بشان	-4852
▁Burke	-4853
▁wrote	-4854
▁فرنسا	-4855
▁Person	-4856
▁اوروبا	-4857
サン	-4858
条約	-4859
واس	-4860
▁Bl	-4861
▁ru	-4862
▁LED	-4863
▁درج	-4864
▁2000?	-4865
▁sport	-4866
▁muerte	-4867
▁formato	-4868
ban	-4869
thn	-4870
orma	-4871
▁sop	-4872
assen	-4873
iblio	-4874
▁catt	-4875
▁armen	-4876
▁finanz	-4877
▁grupos	-4878
▁الوطني	-4879
▁اليهود	-4880
▁miembros	-4881
ches	-4882
itos	-4883
▁Roma	-4884
▁down	-4885
ポーランド	-4886
جموعات	-4887
▁Vertrag	-4888
▁partido	-4889
ificación	-4890
▁different	-4891
▁established	-4892
50	-4893
mi	-4894
طر	-4895
apt	-4896
▁وا	-4897
hung	-4898
▁صنع	-4899
icios	-4900
▁soll	-4901
▁Church	-4902
▁escrit	-4903
▁cantidad	-4904
その	-4905
pas	-4906
امة	-4907
▁Pe	-4908
▁foc	-4909
▁tie	-4910
▁منذ	-4911
wards	-4912
▁منها	-4913
▁Monte	-4914
▁todos	-4915
intendo	-4916
riechen	-4917
▁feature	-4918
▁diventato	-4919
wh	-4920
当時	-4921
für	-4922
ogo	-4923
▁جون	-4924
▁يوم	-4925
▁drei	-4926
▁nord	-4927
▁whom	-4928
▁había	-4929
▁famoso	-4930
él	-4931
óg	-4932
▁&	-4933
ード	-4934
rió	-4935
حية	-4936
وجد	-4937
aden	-4938
ولوج	-4939
▁qui	-4940
▁idol	-4941
▁rifer	-4942
▁species	-4943
199	-4944
احة	-4945
▁ál	-4946
eron	-4947
▁cod	-4948
ittel	-4949
▁rock	-4950
▁التص	-4951
▁consum	-4952
▁región	-4953
تن	-4954
hol	-4955
ull	-4956
▁amp	-4957
▁dai	-4958
▁raz	-4959
▁عقد	-4960
▁otten	-4961
▁polic	-4962
▁stabil	-4963
▁dialect	-4964
gh	-4965
ky	-4966
キャ	-4967
何の	-4968
دمت	-4969
ures	-4970
▁يعمل	-4971
▁north	-4972
▁Charles	-4973
▁convirt	-4974
of	-4975
xim	-4976
اعة	-4977
نان	-4978
▁XX	-4979
▁مج	-4980
ارية	-4981
بيرة	-4982
▁189	-4983
▁agua	-4984
▁appe	-4985
▁cerc	-4986
▁fare	-4987
▁rich	-4988
▁القدي	-4989
▁través	-4990
زو	-4991
eda	-4992
スーパー	-4993
▁largo	-4994
▁lavor	-4995
▁mujer	-4996
▁depart	-4997
▁current	-4998
始ま	-4999
ema	-5000
ney	-5001
جوم	-5002
ياة	-5003
elas	-5004
▁Mag	-5005
▁kle	-5006
▁حكم	-5007
aften	-5008
▁agen	-5009
▁body	-5010
▁اعلى	-5011
▁بريط	-5012
attagl	-5013
▁House	-5014
▁anten	-5015
▁campo	-5016
▁álbum	-5017
▁شوبان	-5018
▁نهاية	-5019
▁scient	-5020
▁transm	-5021
▁العثور	-5022
▁central	-5023
iko	-5024
あった	-5025
で最も	-5026
unde	-5027
▁Gal	-5028
▁قدم	-5029
▁ناب	-5030
っていた	-5031
istor	-5032
▁cell	-5033
▁view	-5034
▁الحر	-5035
▁mostr	-5036
▁Albert	-5037
ám	-5038
asse	-5039
▁Cre	-5040
ified	-5041
press	-5042
▁Mess	-5043
▁expl	-5044
▁hold	-5045
▁الار	-5046
▁دولة	-5047
▁يعرف	-5048
▁altri	-5049
▁paesi	-5050
▁recib	-5051
stitute	-5052
▁scuola	-5053
▁seconda	-5054
▁المستخدم	-5055
هة	-5056
داء	-5057
を受け	-5058
ilia	-5059
uman	-5060
▁each	-5061
▁hacen	-5062
▁ihren	-5063
▁padre	-5064
▁squad	-5065
▁beiden	-5066
▁energy	-5067
▁religion	-5068
Ins	-5069
اصر	-5070
▁بم	-5071
oten	-5072
▁gas	-5073
▁hol	-5074
▁iss	-5075
جلترا	-5076
▁home	-5077
▁soft	-5078
ología	-5079
▁rilas	-5080
▁juegos	-5081
▁البريطانية	-5082
ルの	-5083
ogn	-5084
ريك	-5085
مالي	-5086
▁Jud	-5087
▁pen	-5088
▁sort	-5089
▁chang	-5090
▁nuovo	-5091
▁natural	-5092
を受賞	-5093
▁III	-5094
どの国の	-5095
ibile	-5096
خابات	-5097
▁Straß	-5098
▁esemp	-5099
▁poten	-5100
▁seinen	-5101
▁Gericht	-5102
▁svilupp	-5103
▁المملكة	-5104
▁Schlacht	-5105
誰か	-5106
تها	-5107
يريا	-5108
▁Pun	-5109
▁anc	-5110
▁sac	-5111
となった	-5112
▁permit	-5113
Cu	-5114
ويس	-5115
ロシア	-5116
anda	-5117
▁sag	-5118
▁مخت	-5119
blico	-5120
▁aper	-5121
▁need	-5122
▁inglés	-5123
út	-5124
mee	-5125
بعد	-5126
▁nut	-5127
どの国か	-5128
▁fium	-5129
▁usar	-5130
▁المز	-5131
▁تسبب	-5132
▁جنوب	-5133
▁light	-5134
▁الارض	-5135
esearch	-5136
▁candid	-5137
▁الجوية	-5138
▁استخدمت	-5139
▁problema	-5140
ضر	-5141
Ist	-5142
edi	-5143
lag	-5144
يار	-5145
cido	-5146
halt	-5147
ster	-5148
ومات	-5149
▁Jul	-5150
▁rem	-5151
aiser	-5152
▁Alex	-5153
▁verd	-5154
▁incor	-5155
▁tener	-5156
▁Kinder	-5157
▁dispon	-5158
▁General	-5159
▁conflic	-5160
▁filosof	-5161
To	-5162
に出	-5163
合衆	-5164
val	-5165
فيذ	-5166
ería	-5167
▁كار	-5168
قتصاد	-5169
terior	-5170
▁change	-5171
▁continu	-5172
▁الانجليزية	-5173
Aus	-5174
eno	-5175
▁Dem	-5176
▁Pat	-5177
▁ava	-5178
▁cub	-5179
▁Coun	-5180
▁Kong	-5181
▁rule	-5182
でしょうか	-5183
▁Dutch	-5184
▁ايدول	-5185
▁critic	-5186
▁states	-5187
▁المركز	-5188
▁بوصفها	-5189
▁example	-5190
▁introdu	-5191
▁estableció	-5192
FA	-5193
大会	-5194
erb	-5195
vic	-5196
ثير	-5197
▁أي	-5198
unid	-5199
سمية	-5200
▁Geg	-5201
ility	-5202
▁2015	-5203
▁Herr	-5204
▁ogni	-5205
▁areas	-5206
▁Soviet	-5207
▁questo	-5208
▁الملكة	-5209
▁Namibia	-5210
12	-5211
ーン	-5212
عاب	-5213
allo	-5214
arse	-5215
▁Ide	-5216
▁Kan	-5217
▁gol	-5218
▁say	-5219
▁stor	-5220
ermuda	-5221
▁Corea	-5222
▁ersch	-5223
▁party	-5224
ministr	-5225
▁Irland	-5226
▁gesehen	-5227
▁produziert	-5228
ウィ	-5229
ウェ	-5230
gyp	-5231
irm	-5232
はどこの	-5233
útbol	-5234
▁Ende	-5235
▁High	-5236
▁homb	-5237
▁مركز	-5238
▁Produ	-5239
▁معاهدة	-5240
▁momento	-5241
▁الاحيان	-5242
▁rappresent	-5243
تبر	-5244
وست	-5245
▁Kr	-5246
etta	-5247
▁mes	-5248
▁prob	-5249
osition	-5250
▁nation	-5251
▁الثالث	-5252
▁ministro	-5253
▁política	-5254
Te	-5255
を持	-5256
eri	-5257
الب	-5258
ينغ	-5259
▁هم	-5260
edad	-5261
によって	-5262
alter	-5263
▁dato	-5264
▁luch	-5265
▁solo	-5266
▁التس	-5267
▁Regel	-5268
▁serviz	-5269
▁الدوري	-5270
▁نابليون	-5271
▁Napoleón	-5272
Af	-5273
فر	-5274
ジェ	-5275
jos	-5276
▁if	-5277
▁ps	-5278
eria	-5279
ركات	-5280
▁Han	-5281
▁حيث	-5282
stell	-5283
▁Kath	-5284
▁arqu	-5285
ificato	-5286
▁fútbol	-5287
▁regard	-5288
▁studio	-5289
▁squadra	-5290
▁Griechen	-5291
▁versucht	-5292
▁architect	-5293
▁estadounid	-5294
aro	-5295
ckt	-5296
omo	-5297
جرة	-5298
ford	-5299
▁Süd	-5300
▁sho	-5301
icina	-5302
▁want	-5303
▁الفر	-5304
▁Saint	-5305
▁Religion	-5306
▁relación	-5307
ウォ	-5308
開発	-5309
علق	-5310
▁HD	-5311
は何人	-5312
ived	-5313
work	-5314
▁asc	-5315
▁rim	-5316
▁القط	-5317
▁beste	-5318
▁ihrer	-5319
▁الخاص	-5320
▁influen	-5321
ikanische	-5322
▁primeros	-5323
zas	-5324
Nach	-5325
▁ذلك	-5326
▁ميل	-5327
▁erst	-5328
isiert	-5329
▁celebr	-5330
▁griech	-5331
▁estudio	-5332
▁الكنيسة	-5333
▁official	-5334
▁tecnolog	-5335
▁Hauptstadt	-5336
-2	-5337
んな	-5338
ベル	-5339
日に	-5340
اتي	-5341
واج	-5342
umen	-5343
▁röm	-5344
▁Bowl	-5345
▁Tech	-5346
▁häuf	-5347
ietnam	-5348
▁dirig	-5349
▁William	-5350
▁característ	-5351
▁estudiantes	-5352
世紀	-5353
大戦	-5354
▁Sc	-5355
rich	-5356
ظرية	-5357
▁Dis	-5358
▁vom	-5359
における	-5360
akter	-5361
▁creó	-5362
▁agric	-5363
▁reina	-5364
▁verantwort	-5365
オス	-5366
remo	-5367
▁ترك	-5368
▁دور	-5369
atica	-5370
einfl	-5371
lagen	-5372
örper	-5373
▁game	-5374
はどちらが	-5375
▁categ	-5376
▁corte	-5377
▁morte	-5378
▁musul	-5379
▁pract	-5380
▁battagl	-5381
▁organization	-5382
رل	-5383
ديل	-5384
وين	-5385
▁Dr	-5386
,000	-5387
brit	-5388
cada	-5389
ided	-5390
▁Aug	-5391
▁Pre	-5392
ianos	-5393
واسطة	-5394
▁demo	-5395
▁elem	-5396
▁glob	-5397
▁افضل	-5398
▁antib	-5399
▁steht	-5400
▁انشاء	-5401
起こ	-5402
urn	-5403
▁اط	-5404
▁تب	-5405
ために	-5406
ache	-5407
ergie	-5408
▁1990	-5409
▁foll	-5410
▁grow	-5411
▁star	-5412
▁يسمى	-5413
▁französ	-5414
سل	-5415
誰が	-5416
dom	-5417
وفر	-5418
neur	-5419
érie	-5420
▁Fir	-5421
▁ont	-5422
mandu	-5423
▁Gebä	-5424
System	-5425
izzato	-5426
ración	-5427
▁order	-5428
アメリカ合衆	-5429
▁بواسطة	-5430
▁organización	-5431
rio	-5432
vas	-5433
nung	-5434
▁اقل	-5435
▁estim	-5436
▁menos	-5437
▁الجيش	-5438
▁includ	-5439
▁single	-5440
▁contempor	-5441
っち	-5442
何か	-5443
uls	-5444
▁rit	-5445
▁State	-5446
▁eserc	-5447
▁kanye	-5448
▁types	-5449
▁perman	-5450
▁beeinfl	-5451
▁ejemplo	-5452
▁الجديدة	-5453
▁Hyderabad	-5454
11	-5455
وح	-5456
198	-5457
omet	-5458
ucle	-5459
▁Lou	-5460
▁var	-5461
▁اعل	-5462
ührer	-5463
atalan	-5464
iencia	-5465
▁cambi	-5466
▁esper	-5467
のどちらですか	-5468
▁Veranst	-5469
▁especies	-5470
▁verantwortlich	-5471
Acc	-5472
ged	-5473
igo	-5474
enry	-5475
itud	-5476
▁pie	-5477
ologie	-5478
▁islas	-5479
▁visto	-5480
▁لديهم	-5481
▁Chinese	-5482
▁cuántas	-5483
▁الانواع	-5484
▁geschaffen	-5485
اسع	-5486
يجة	-5487
zone	-5488
ينات	-5489
▁Fin	-5490
▁Sen	-5491
▁dov	-5492
いますか	-5493
▁sens	-5494
▁يعيش	-5495
▁altra	-5496
▁Canada	-5497
▁treaty	-5498
▁students	-5499
▁utilizado	-5500
▁Revolution	-5501
سخ	-5502
Dov	-5503
تمع	-5504
▁وس	-5505
▁byu	-5506
ommun	-5507
▁لعبة	-5508
▁austr	-5509
▁اعادة	-5510
▁الطائ	-5511
▁average	-5512
مز	-5513
ash	-5514
تمد	-5515
هزة	-5516
ordo	-5517
ينيا	-5518
▁Verf	-5519
▁grad	-5520
▁trasm	-5521
▁الاحت	-5522
▁هافين	-5523
▁Helena	-5524
▁comien	-5525
▁cuerpo	-5526
▁grandi	-5527
▁festival	-5528
フェ	-5529
ヴァ	-5530
ニュー	-5531
▁Pfl	-5532
petto	-5533
venue	-5534
▁Bern	-5535
▁agli	-5536
▁führ	-5537
▁América	-5538
的な	-5539
高い	-5540
loy	-5541
íos	-5542
rach	-5543
xico	-5544
▁sea	-5545
reten	-5546
▁rate	-5547
▁posit	-5548
britann	-5549
▁campus	-5550
▁culture	-5551
▁caratter	-5552
▁Kathmandu	-5553
▁wichtigste	-5554
ステ	-5555
ابل	-5556
▁هل	-5557
Wenn	-5558
atic	-5559
▁cit	-5560
▁tub	-5561
Wofür	-5562
▁2004	-5563
▁الات	-5564
▁Burma	-5565
▁Regno	-5566
▁civil	-5567
▁repla	-5568
▁الاسب	-5569
▁العصر	-5570
▁università	-5571
ipp	-5572
▁بن	-5573
と呼ば	-5574
ロッパ	-5575
rano	-5576
ماني	-5577
▁lan	-5578
▁موج	-5579
Cuando	-5580
▁Trans	-5581
ización	-5582
▁Region	-5583
▁altern	-5584
▁disposit	-5585
何月	-5586
III	-5587
umb	-5588
▁hi	-5589
ième	-5590
ünst	-5591
▁Las	-5592
▁gar	-5593
▁hom	-5594
rebbe	-5595
▁apro	-5596
▁البي	-5597
ヨーロッパ	-5598
▁manten	-5599
▁Gruppen	-5600
stitución	-5601
▁happened	-5602
▁religios	-5603
▁religión	-5604
▁بريطانيا	-5605
YU	-5606
Zu	-5607
hu	-5608
ブル	-5609
ليل	-5610
endo	-5611
ivel	-5612
toff	-5613
▁Res	-5614
▁Ter	-5615
ember	-5616
▁said	-5617
▁apare	-5618
▁speak	-5619
▁Proble	-5620
▁alcuni	-5621
▁الجديد	-5622
According	-5623
▁character	-5624
▁international	-5625
学校	-5626
bel	-5627
gos	-5628
علم	-5629
▁au	-5630
が最も	-5631
ager	-5632
town	-5633
▁Tem	-5634
▁لكرة	-5635
▁house	-5636
▁peque	-5637
▁جزيرة	-5638
▁azienda	-5639
▁schools	-5640
▁Standard	-5641
CA	-5642
かけ	-5643
につ	-5644
ops	-5645
uir	-5646
لاب	-5647
▁tí	-5648
iker	-5649
▁tot	-5650
▁une	-5651
▁يحت	-5652
Spiel	-5653
▁Haus	-5654
▁Mary	-5655
reiben	-5656
▁equip	-5657
▁lungo	-5658
▁neuen	-5659
▁nivel	-5660
▁volte	-5661
▁Kultur	-5662
▁spesso	-5663
▁Bretaña	-5664
▁canción	-5665
▁usually	-5666
▁المصطلح	-5667
▁bedeutet	-5668
▁territorio	-5669
ショ	-5670
mal	-5671
ueb	-5672
سمي	-5673
ゲーム	-5674
uppe	-5675
▁Bra	-5676
▁mil	-5677
éxico	-5678
▁Mich	-5679
▁Nept	-5680
▁potre	-5681
▁letzte	-5682
can	-5683
صبح	-5684
▁Tw	-5685
▁je	-5686
の方が	-5687
تيجة	-5688
▁Lin	-5689
teilt	-5690
▁Verb	-5691
▁ment	-5692
ientos	-5693
itario	-5694
▁fuera	-5695
▁انواع	-5696
▁Africa	-5697
▁título	-5698
▁indigen	-5699
وء	-5700
以降	-5701
的に	-5702
eck	-5703
ful	-5704
▁Kom	-5705
▁nur	-5706
▁احت	-5707
▁Titel	-5708
▁migli	-5709
▁using	-5710
▁Schule	-5711
▁preced	-5712
▁attravers	-5713
人物	-5714
اتل	-5715
From	-5716
irse	-5717
ives	-5718
todo	-5719
راضي	-5720
▁señ	-5721
ようにな	-5722
▁Nach	-5723
▁Rock	-5724
▁sotto	-5725
▁particip	-5726
▁zusammen	-5727
ジア	-5728
第二	-5729
lay	-5730
put	-5731
▁AC	-5732
▁يس	-5733
uert	-5734
issau	-5735
▁host	-5736
▁الله	-5737
▁بالل	-5738
▁nucle	-5739
▁Guinea	-5740
▁Marvel	-5741
▁Bereich	-5742
▁Vietnam	-5743
▁published	-5744
ep	-5745
ضم	-5746
فن	-5747
後の	-5748
誰の	-5749
laz	-5750
هرب	-5751
ende	-5752
klär	-5753
▁afr	-5754
▁اذا	-5755
▁1980	-5756
▁cred	-5757
▁المط	-5758
abhäng	-5759
▁Egypt	-5760
▁adult	-5761
▁dichi	-5762
▁medio	-5763
lamento	-5764
▁legisl	-5765
anischen	-5766
▁Bermuda	-5767
▁Frédéric	-5768
▁escuelas	-5769
▁للولايات	-5770
▁Universal	-5771
ーの	-5772
▁ri	-5773
チーム	-5774
zept	-5775
▁BYU	-5776
▁ord	-5777
▁tho	-5778
▁نور	-5779
▁teil	-5780
はどれくら	-5781
▁fiume	-5782
▁الشعب	-5783
▁membri	-5784
▁Britain	-5785
▁encuentran	-5786
nes	-5787
zie	-5788
にある	-5789
akes	-5790
▁DST	-5791
▁beh	-5792
▁sit	-5793
ments	-5794
terra	-5795
änger	-5796
▁geme	-5797
スーパーボ	-5798
▁benutzt	-5799
▁portato	-5800
▁proceso	-5801
ól	-5802
優勝	-5803
the	-5804
▁يف	-5805
ondo	-5806
trop	-5807
▁Ann	-5808
▁Sal	-5809
▁علم	-5810
れている	-5811
rogen	-5812
▁Plan	-5813
▁الوح	-5814
れましたか	-5815
Bissau	-5816
▁conne	-5817
▁named	-5818
▁الدين	-5819
▁Company	-5820
▁temperatura	-5821
Do	-5822
▁وز	-5823
▁bie	-5824
▁suf	-5825
▁vel	-5826
▁عشر	-5827
▁موا	-5828
istic	-5829
▁Germ	-5830
▁dice	-5831
▁habl	-5832
▁broad	-5833
▁leben	-5834
がありますか	-5835
anische	-5836
iciones	-5837
▁quante	-5838
▁computer	-5839
▁document	-5840
▁geworden	-5841
▁position	-5842
▁battaglia	-5843
▁convirtió	-5844
▁movimiento	-5845
▁Großbritann	-5846
▁unterstützt	-5847
تى	-5848
のか	-5849
ira	-5850
بار	-5851
يمة	-5852
▁ol	-5853
番目に	-5854
into	-5855
طولة	-5856
▁Sun	-5857
▁luz	-5858
っている	-5859
ものは何	-5860
duced	-5861
achsen	-5862
▁Bezug	-5863
▁regul	-5864
▁tipos	-5865
Quiénes	-5866
▁Everton	-5867
▁regione	-5868
▁آ	-5869
kte	-5870
org	-5871
▁عض	-5872
リング	-5873
name	-5874
ائية	-5875
▁baj	-5876
▁eng	-5877
どちらの	-5878
世界大戦	-5879
ética	-5880
▁berü	-5881
▁rang	-5882
اخ	-5883
ンは	-5884
dar	-5885
ets	-5886
orb	-5887
سيك	-5888
どっち	-5889
gono	-5890
▁fle	-5891
▁سانت	-5892
▁claim	-5893
▁gioco	-5894
▁these	-5895
▁México	-5896
▁Atlantic	-5897
▁weiterer	-5898
世の	-5899
ieß	-5900
الح	-5901
راق	-5902
arts	-5903
enna	-5904
▁abs	-5905
▁pot	-5906
▁يست	-5907
ونسيه	-5908
▁king	-5909
▁التش	-5910
▁legal	-5911
▁repub	-5912
▁market	-5913
▁musica	-5914
▁parola	-5915
▁Austral	-5916
▁Florida	-5917
▁building	-5918
llo	-5919
bero	-5920
inen	-5921
zion	-5922
▁Tes	-5923
uppen	-5924
▁elec	-5925
overed	-5926
▁famous	-5927
▁tribun	-5928
▁Ö	-5929
dic	-5930
▁Bü	-5931
▁Ra	-5932
Adem	-5933
ettr	-5934
▁erhö	-5935
▁ethn	-5936
▁todo	-5937
Además	-5938
▁indic	-5939
▁invad	-5940
issione	-5941
▁appear	-5942
▁estilo	-5943
▁formed	-5944
▁العامة	-5945
▁dichiar	-5946
▁service	-5947
▁contiene	-5948
▁arquitect	-5949
▁principales	-5950
alk	-5951
osh	-5952
ova	-5953
ريت	-5954
▁NA	-5955
kten	-5956
▁Des	-5957
▁bil	-5958
▁sta	-5959
▁ارت	-5960
▁Camp	-5961
▁times	-5962
▁title	-5963
▁يتعلق	-5964
▁Mexico	-5965
▁descub	-5966
▁oficial	-5967
▁utilizó	-5968
▁القديمة	-5969
▁industria	-5970
▁responsible	-5971
hne	-5972
yth	-5973
راه	-5974
▁تخ	-5975
onom	-5976
▁asi	-5977
▁جعل	-5978
aster	-5979
▁Sich	-5980
▁بالن	-5981
次世界大戦	-5982
▁Buddh	-5983
▁الأول	-5984
▁Spectre	-5985
の名前は何ですか	-5986
▁controll	-5987
▁developed	-5988
▁relations	-5989
▁independen	-5990
影響	-5991
ابة	-5992
▁Fa	-5993
asso	-5994
chte	-5995
▁way	-5996
▁اعط	-5997
▁برو	-5998
▁متى	-5999
icago	-6000
▁engl	-6001
▁zinc	-6002
▁لعام	-6003
▁causó	-6004
▁unido	-6005
▁Museum	-6006
▁nasser	-6007
▁wieder	-6008
▁gewählt	-6009
▁registr	-6010
▁البلدان	-6011
▁اليونان	-6012
に入	-6013
ria	-6014
ثلة	-6015
راد	-6016
ورج	-6017
は何年	-6018
clus	-6019
unst	-6020
▁Jan	-6021
▁apr	-6022
▁har	-6023
▁nec	-6024
▁حتى	-6025
uelle	-6026
▁1970	-6027
▁Armee	-6028
▁berühm	-6029
▁nachdem	-6030
▁angesehen	-6031
PA	-6032
アー	-6033
azu	-6034
▁Jo	-6035
▁TV	-6036
▁Ze	-6037
urre	-6038
▁usa	-6039
▁dazu	-6040
▁inte	-6041
▁معدل	-6042
▁Party	-6043
▁catal	-6044
▁inizi	-6045
▁línea	-6046
▁style	-6047
▁المال	-6048
▁معركة	-6049
▁follow	-6050
▁السوفي	-6051
▁concept	-6052
▁Christian	-6053
▁verwenden	-6054
の最	-6055
後に	-6056
00?	-6057
iso	-6058
ood	-6059
▁Su	-6060
▁XI	-6061
亡くな	-6062
erei	-6063
uras	-6064
▁Tra	-6065
▁اخذ	-6066
entro	-6067
ining	-6068
▁Luft	-6069
▁Soci	-6070
▁Ziel	-6071
▁bird	-6072
▁capt	-6073
▁song	-6074
▁ناصر	-6075
lossen	-6076
▁Bezie	-6077
▁Inter	-6078
▁cient	-6079
▁grado	-6080
▁المناطق	-6081
と言	-6082
ロン	-6083
ワイ	-6084
abe	-6085
▁يؤ	-6086
日本の	-6087
mpos	-6088
ستور	-6089
▁amo	-6090
مانيا	-6091
▁Song	-6092
▁suoi	-6093
öglich	-6094
▁Fluss	-6095
▁Louis	-6096
▁canad	-6097
▁النبات	-6098
عد	-6099
ップ	-6100
uge	-6101
ämp	-6102
عمل	-6103
hält	-6104
ulos	-6105
▁Anf	-6106
▁Nob	-6107
inden	-6108
throp	-6109
▁العن	-6110
▁اثناء	-6111
▁عاصمة	-6112
▁häufig	-6113
▁profess	-6114
▁philosoph	-6115
▁Organisation	-6116
ex	-6117
レイ	-6118
oco	-6119
ivil	-6120
▁Bas	-6121
▁Tor	-6122
▁ger	-6123
▁net	-6124
icros	-6125
otter	-6126
▁اكتش	-6127
▁طريق	-6128
encias	-6129
▁Schwe	-6130
▁great	-6131
▁quest	-6132
▁aleman	-6133
▁muchos	-6134
▁الموسم	-6135
▁Institute	-6136
By	-6137
عر	-6138
時期	-6139
طرة	-6140
هاز	-6141
▁PC	-6142
▁بج	-6143
onda	-6144
tini	-6145
umin	-6146
ving	-6147
روفة	-6148
▁age	-6149
▁كات	-6150
▁Flug	-6151
▁text	-6152
▁باري	-6153
▁ولكن	-6154
▁Tesla	-6155
▁تشكيل	-6156
wendung	-6157
▁libros	-6158
▁montag	-6159
▁sexual	-6160
▁öffent	-6161
▁idiomas	-6162
▁المحكمة	-6163
▁Californ	-6164
قر	-6165
先に	-6166
وبة	-6167
ghil	-6168
▁Ott	-6169
▁nob	-6170
▁pun	-6171
▁تاي	-6172
▁لاع	-6173
▁لاي	-6174
▁ماي	-6175
▁pero	-6176
▁الاعل	-6177
▁الصنا	-6178
▁الطبي	-6179
▁profes	-6180
ghilterra	-6181
▁languages	-6182
▁Charleston	-6183
▁Geschichte	-6184
▁ظ	-6185
アフ	-6186
レン	-6187
ief	-6188
nal	-6189
لمن	-6190
anta	-6191
ocid	-6192
▁bew	-6193
▁يتح	-6194
ahren	-6195
▁Fort	-6196
▁Milit	-6197
▁revol	-6198
▁Grammy	-6199
▁Mexiko	-6200
▁البرتغ	-6201
▁الفيلم	-6202
▁highest	-6203
▁الافراج	-6204
▁organism	-6205
وذ	-6206
arn	-6207
▁ah	-6208
izar	-6209
what	-6210
uchen	-6211
▁anci	-6212
▁liga	-6213
▁woll	-6214
aleigh	-6215
▁década	-6216
▁partir	-6217
▁استخدم	-6218
▁aliment	-6219
▁tiempos	-6220
▁studenti	-6221
▁principalmente	-6222
law	-6223
طاق	-6224
لول	-6225
lage	-6226
orso	-6227
▁ABC	-6228
▁sen	-6229
▁برن	-6230
▁منح	-6231
▁مثال	-6232
▁serve	-6233
▁author	-6234
▁factor	-6235
▁fuerza	-6236
▁necess	-6237
▁unidos	-6238
▁algunas	-6239
▁empresa	-6240
▁geführt	-6241
▁emperador	-6242
gew	-6243
بول	-6244
جاج	-6245
▁NY	-6246
▁Ob	-6247
▁Dav	-6248
▁pic	-6249
▁sue	-6250
iante	-6251
▁elev	-6252
▁ever	-6253
▁svol	-6254
▁Ägyp	-6255
▁متوسط	-6256
ynastie	-6257
▁scuole	-6258
▁theory	-6259
▁vielen	-6260
▁الاطفال	-6261
▁research	-6262
▁servicio	-6263
▁Napoleone	-6264
▁continent	-6265
▁interpret	-6266
開催	-6267
▁PS	-6268
cell	-6269
▁bud	-6270
▁مقد	-6271
▁وصل	-6272
▁Club	-6273
▁eleg	-6274
▁Über	-6275
tinent	-6276
▁2004?	-6277
▁cerca	-6278
▁genet	-6279
▁Lutero	-6280
▁Armenia	-6281
▁costitu	-6282
▁Großbritannien	-6283
Ch	-6284
軍の	-6285
Cos	-6286
rot	-6287
▁sw	-6288
▁لي	-6289
enze	-6290
reas	-6291
▁Ele	-6292
▁Gott	-6293
▁Henry	-6294
▁decid	-6295
▁point	-6296
▁primi	-6297
Insieme	-6298
▁direct	-6299
▁inglese	-6300
ナル	-6301
ーズ	-6302
Hat	-6303
▁Vol	-6304
▁dej	-6305
▁won	-6306
omano	-6307
ilight	-6308
▁Domin	-6309
▁carta	-6310
▁السنة	-6311
▁college	-6312
▁software	-6313
エン	-6314
連合	-6315
Ver	-6316
ائد	-6317
مثل	-6318
▁شب	-6319
لاثة	-6320
iddle	-6321
▁caso	-6322
▁بالت	-6323
ußball	-6324
▁inici	-6325
は誰でしたか	-6326
▁calend	-6327
▁europä	-6328
▁الاصلي	-6329
▁aumento	-6330
▁científ	-6331
▁انجلترا	-6332
▁ricevuto	-6333
yp	-6334
開始	-6335
ندي	-6336
▁جي	-6337
usst	-6338
▁Bill	-6339
▁Mill	-6340
▁Tour	-6341
▁Wahl	-6342
▁mort	-6343
▁vari	-6344
lauben	-6345
▁Ergeb	-6346
▁River	-6347
▁madre	-6348
▁البشر	-6349
▁النها	-6350
▁Kontro	-6351
▁amount	-6352
▁animal	-6353
▁method	-6354
▁zweite	-6355
▁esercito	-6356
▁considera	-6357
計画	-6358
ساء	-6359
burg	-6360
ipto	-6361
ären	-6362
▁big	-6363
▁bit	-6364
▁caz	-6365
▁سان	-6366
▁vent	-6367
izioni	-6368
▁conse	-6369
▁favor	-6370
▁crisis	-6371
▁gemeins	-6372
▁argument	-6373
受賞	-6374
دون	-6375
فقة	-6376
لفة	-6377
iken	-6378
itan	-6379
وفقا	-6380
▁May	-6381
▁Sie	-6382
▁USB	-6383
inado	-6384
▁clim	-6385
▁fact	-6386
▁vide	-6387
▁Unito	-6388
▁Greece	-6389
▁Virgin	-6390
▁romano	-6391
minister	-6392
▁artista	-6393
▁esempio	-6394
スが	-6395
مون	-6396
▁لج	-6397
afen	-6398
edio	-6399
▁Tex	-6400
▁bur	-6401
▁you	-6402
▁Oper	-6403
▁find	-6404
▁life	-6405
▁Antar	-6406
▁frühen	-6407
▁اليابان	-6408
▁responsabile	-6409
前に	-6410
戦い	-6411
発表	-6412
ólo	-6413
▁نق	-6414
られる	-6415
インド	-6416
arsi	-6417
dern	-6418
otel	-6419
▁chr	-6420
▁pes	-6421
▁لان	-6422
▁لغة	-6423
▁Hand	-6424
▁ofre	-6425
▁hasta	-6426
▁isola	-6427
▁month	-6428
▁specie	-6429
▁transl	-6430
▁الفترة	-6431
▁educación	-6432
▁desarrollo	-6433
ダー	-6434
マー	-6435
獲得	-6436
تمي	-6437
ظيم	-6438
cono	-6439
sche	-6440
هاور	-6441
▁تست	-6442
▁يسمح	-6443
ildung	-6444
▁condu	-6445
▁focus	-6446
▁somet	-6447
▁الجام	-6448
▁الهدف	-6449
▁الرياض	-6450
lichkeit	-6451
▁gedacht	-6452
▁llamado	-6453
▁refiere	-6454
30	-6455
يح	-6456
んで	-6457
Una	-6458
pec	-6459
halb	-6460
vest	-6461
▁fus	-6462
▁ساوث	-6463
▁مكتب	-6464
どのような	-6465
▁Black	-6466
▁Japón	-6467
▁court	-6468
▁frecu	-6469
▁quant	-6470
▁عملية	-6471
▁confer	-6472
▁create	-6473
▁höchste	-6474
▁thought	-6475
Re	-6476
شب	-6477
アカ	-6478
コー	-6479
gia	-6480
ugu	-6481
ktiv	-6482
▁خلق	-6483
After	-6484
Neben	-6485
▁seit	-6486
▁درجة	-6487
Después	-6488
▁Gebäude	-6489
▁Schweiz	-6490
▁terminó	-6491
▁trovano	-6492
▁Ergebnis	-6493
▁football	-6494
▁„	-6495
リオ	-6496
öst	-6497
ارد	-6498
icia	-6499
kehr	-6500
länd	-6501
serv	-6502
▁Bes	-6503
▁Gew	-6504
▁Men	-6505
れたのは	-6506
jiang	-6507
pollo	-6508
▁cómo	-6509
▁otras	-6510
▁terms	-6511
▁تعتبر	-6512
prochen	-6513
▁Egipto	-6514
▁امريكا	-6515
スーパーボウル	-6516
▁Energie	-6517
▁allowed	-6518
▁:	-6519
イル	-6520
使用	-6521
数が多	-6522
affe	-6523
edor	-6524
unch	-6525
▁fal	-6526
egung	-6527
ritti	-6528
▁Erit	-6529
▁Konf	-6530
▁شارع	-6531
ettato	-6532
▁among	-6533
▁bevor	-6534
▁level	-6535
▁money	-6536
هامبتون	-6537
▁distrib	-6538
▁business	-6539
▁prodotto	-6540
▁Northwestern	-6541
40	-6542
asi	-6543
ونة	-6544
▁مه	-6545
▁erm	-6546
▁inm	-6547
▁rus	-6548
▁ملك	-6549
はいくつ	-6550
frica	-6551
lands	-6552
owjet	-6553
rimon	-6554
▁Cina	-6555
▁ases	-6556
▁case	-6557
▁kill	-6558
▁calle	-6559
▁الكون	-6560
▁انتاج	-6561
vicenna	-6562
▁teoría	-6563
▁الانسان	-6564
▁gehalten	-6565
▁musulman	-6566
Am	-6567
غر	-6568
met	-6569
▁Cy	-6570
hken	-6571
äfte	-6572
▁فقط	-6573
cript	-6574
▁شعبية	-6575
は何でしたか	-6576
▁Alemania	-6577
▁الجنوبية	-6578
ッツ	-6579
ブラ	-6580
ror	-6581
عند	-6582
folg	-6583
ords	-6584
▁Kre	-6585
▁بور	-6586
▁لاح	-6587
▁Cons	-6588
▁else	-6589
▁proy	-6590
▁sull	-6591
▁área	-6592
ändert	-6593
زنهاور	-6594
▁Music	-6595
▁museo	-6596
▁tutti	-6597
▁Londra	-6598
▁militar	-6599
▁receive	-6600
▁المدارس	-6601
▁الالمانية	-6602
SR	-6603
航空	-6604
記録	-6605
isi	-6606
بيل	-6607
ommt	-6608
teca	-6609
ural	-6610
▁Pub	-6611
▁Pul	-6612
▁ata	-6613
オースト	-6614
amura	-6615
ators	-6616
▁Arab	-6617
▁fron	-6618
istica	-6619
▁feder	-6620
▁islam	-6621
▁morto	-6622
▁جائزة	-6623
Beyonce	-6624
▁Kaiser	-6625
▁dentro	-6626
▁distin	-6627
▁الشركة	-6628
▁deutsch	-6629
▁Football	-6630
▁independ	-6631
▁religious	-6632
▁vorgestellt	-6633
oz	-6634
ify	-6635
leg	-6636
صار	-6637
غات	-6638
▁وف	-6639
ring	-6640
كاني	-6641
▁Sum	-6642
▁any	-6643
▁kom	-6644
▁naz	-6645
▁rid	-6646
▁مصر	-6647
iedad	-6648
▁Mont	-6649
▁hard	-6650
▁leng	-6651
▁القر	-6652
▁artic	-6653
▁niños	-6654
▁تصنيف	-6655
ichtung	-6656
▁inizio	-6657
▁uranio	-6658
▁conserv	-6659
ذج	-6660
占領	-6661
ilm	-6662
izó	-6663
mon	-6664
لعب	-6665
▁God	-6666
▁bor	-6667
▁lic	-6668
▁she	-6669
▁جبل	-6670
▁لتح	-6671
▁spre	-6672
▁sólo	-6673
▁detto	-6674
▁reemp	-6675
▁Bürger	-6676
▁scoper	-6677
▁Entwick	-6678
▁canzone	-6679
▁internet	-6680
▁normaler	-6681
▁trattato	-6682
▁President	-6683
▁x	-6684
▁Á	-6685
erd	-6686
opp	-6687
▁Ag	-6688
▁تف	-6689
からの	-6690
essa	-6691
ktor	-6692
البا	-6693
▁360	-6694
▁Div	-6695
▁cot	-6696
▁دول	-6697
▁عصر	-6698
アフリカ	-6699
orias	-6700
▁four	-6701
▁أكثر	-6702
itäten	-6703
فريقيا	-6704
▁Commun	-6705
▁الطيور	-6706
▁geboren	-6707
▁الوطنية	-6708
▁Avicenna	-6709
▁movement	-6710
▁durchschnitt	-6711
Gr	-6712
セン	-6713
bit	-6714
rar	-6715
ensa	-6716
لالة	-6717
▁Def	-6718
▁web	-6719
gramm	-6720
scher	-6721
▁2001	-6722
▁vict	-6723
assung	-6724
reicht	-6725
▁Zweit	-6726
▁quelle	-6727
▁increase	-6728
▁Universität	-6729
äh	-6730
ッホ	-6731
ラス	-6732
igi	-6733
زاب	-6734
▁Je	-6735
▁قر	-6736
▁AFL	-6737
▁enf	-6738
▁rat	-6739
▁aves	-6740
▁fort	-6741
gleich	-6742
ischer	-6743
▁india	-6744
▁llegó	-6745
▁small	-6746
▁still	-6747
▁debido	-6748
▁reform	-6749
ualmente	-6750
▁concent	-6751
▁Minister	-6752
▁bekommen	-6753
▁diferentes	-6754
▁southampton	-6755
▁normalerweise	-6756
áf	-6757
プロ	-6758
種類	-6759
Sec	-6760
idi	-6761
كين	-6762
▁UK	-6763
▁Zw	-6764
adel	-6765
part	-6766
side	-6767
▁ولد	-6768
▁Cork	-6769
▁Test	-6770
▁parl	-6771
ologia	-6772
▁Farbe	-6773
▁diret	-6774
▁Anzahl	-6775
▁insegn	-6776
▁existen	-6777
▁25	-6778
Laut	-6779
▁All	-6780
▁IBM	-6781
▁tel	-6782
▁الإ	-6783
▁Geld	-6784
▁Stat	-6785
▁anti	-6786
▁circ	-6787
▁must	-6788
▁الكم	-6789
いつのこと	-6790
▁Macht	-6791
▁limit	-6792
はどれですか	-6793
▁begann	-6794
▁cambio	-6795
▁should	-6796
▁باللغة	-6797
▁Chicago	-6798
▁produced	-6799
▁الموجودة	-6800
▁ساوثهامبتون	-6801
▁organizzazione	-6802
ety	-6803
▁بل	-6804
ゴッホ	-6805
krit	-6806
Unter	-6807
culas	-6808
video	-6809
▁Sand	-6810
▁mark	-6811
▁prod	-6812
▁يعني	-6813
▁Famil	-6814
▁Pruss	-6815
なかったのは	-6816
▁cuánto	-6817
▁prefer	-6818
▁Feynman	-6819
▁المكسيك	-6820
▁Internet	-6821
▁ciudades	-6822
▁Studenten	-6823
▁americano	-6824
14	-6825
ru	-6826
目の	-6827
Reg	-6828
pod	-6829
ールド	-6830
▁sia	-6831
▁mont	-6832
▁الخط	-6833
astern	-6834
▁habit	-6835
▁luogo	-6836
▁مقدار	-6837
▁attend	-6838
▁comune	-6839
▁Archite	-6840
▁Federal	-6841
▁الاصلية	-6842
▁erreicht	-6843
現在	-6844
بين	-6845
▁قط	-6846
iore	-6847
ised	-6848
ológ	-6849
وائز	-6850
▁Rec	-6851
▁سجل	-6852
enses	-6853
▁aber	-6854
どこですか	-6855
▁raggi	-6856
▁الجزء	-6857
hejiang	-6858
▁Thomas	-6859
▁comple	-6860
▁titolo	-6861
▁Germania	-6862
月に	-6863
jab	-6864
olon	-6865
ußer	-6866
▁DNA	-6867
▁Seg	-6868
▁bio	-6869
icana	-6870
minos	-6871
هورية	-6872
▁card	-6873
▁rema	-6874
▁sour	-6875
▁tasa	-6876
heiten	-6877
ولندية	-6878
▁Parte	-6879
▁llevó	-6880
▁rivol	-6881
▁باريس	-6882
▁Mittel	-6883
▁giorno	-6884
▁considerato	-6885
Lo	-6886
ühl	-6887
▁Mc	-6888
▁aé	-6889
▁اض	-6890
スター	-6891
▁Team	-6892
▁attr	-6893
▁took	-6894
▁Apollo	-6895
▁letter	-6896
▁Mundial	-6897
▁europea	-6898
▁addition	-6899
▁individu	-6900
本土	-6901
app	-6902
واء	-6903
アカデ	-6904
aris	-6905
back	-6906
iend	-6907
izia	-6908
ière	-6909
▁Eig	-6910
▁Ira	-6911
▁Lee	-6912
▁Los	-6913
▁Mod	-6914
▁erw	-6915
▁obl	-6916
▁نقل	-6917
▁ocup	-6918
▁المض	-6919
▁محطة	-6920
▁prime	-6921
▁المعما	-6922
icrosoft	-6923
▁youtube	-6924
▁partecip	-6925
▁successo	-6926
هب	-6927
たち	-6928
原因	-6929
攻撃	-6930
時点	-6931
結婚	-6932
بيو	-6933
ektr	-6934
itet	-6935
▁aux	-6936
▁van	-6937
▁paar	-6938
▁conta	-6939
▁الاخت	-6940
▁mandol	-6941
▁dinastía	-6942
▁servizio	-6943
▁encontrar	-6944
▁politische	-6945
▁International	-6946
key	-6947
och	-6948
pre	-6949
ارل	-6950
رنت	-6951
هود	-6952
▁رب	-6953
▁غر	-6954
▁لن	-6955
最初に	-6956
osto	-6957
قافة	-6958
▁cro	-6959
▁قتل	-6960
enzen	-6961
stant	-6962
truct	-6963
▁Sans	-6964
▁grab	-6965
▁nato	-6966
▁النو	-6967
からですか	-6968
▁resta	-6969
▁Wasser	-6970
▁metrop	-6971
▁moderno	-6972
▁private	-6973
▁التعليم	-6974
▁francese	-6975
▁potrebbe	-6976
▁verkauft	-6977
▁resultado	-6978
▁responsable	-6979
▁Wissenschaft	-6980
だと	-6981
ナー	-6982
位置	-6983
研究	-6984
agli	-6985
ream	-6986
teur	-6987
▁Ath	-6988
▁alm	-6989
▁سيا	-6990
izado	-6991
▁Mass	-6992
▁debe	-6993
▁forn	-6994
▁like	-6995
▁السب	-6996
▁موسم	-6997
▁Sport	-6998
▁field	-6999
▁since	-7000
▁المقد	-7001
▁الوسط	-7002
していますか	-7003
▁chiama	-7004
▁ganado	-7005
▁condens	-7006
▁element	-7007
▁financi	-7008
▁größten	-7009
▁Pulitzer	-7010
▁derechos	-7011
▁experiment	-7012
ii	-7013
vió	-7014
zug	-7015
افظ	-7016
▁وت	-7017
ったの	-7018
1945	-7019
empl	-7020
▁but	-7021
▁gla	-7022
▁nom	-7023
▁anun	-7024
▁hand	-7025
▁same	-7026
▁corre	-7027
▁العسك	-7028
▁Cathol	-7029
▁elettr	-7030
▁einzige	-7031
▁sostitu	-7032
▁conquist	-7033
▁verlassen	-7034
pú	-7035
اؤ	-7036
غط	-7037
チェ	-7038
設立	-7039
قرا	-7040
▁30	-7041
Punk	-7042
▁يون	-7043
▁Cubs	-7044
▁descr	-7045
▁ricon	-7046
ünstler	-7047
▁perros	-7048
▁unters	-7049
▁Council	-7050
▁Position	-7051
▁commerci	-7052
▁plymouth	-7053
▁Inghilterra	-7054
hme	-7055
tem	-7056
いくら	-7057
hire	-7058
nell	-7059
osse	-7060
▁Kal	-7061
▁cad	-7062
▁hog	-7063
に対して	-7064
عندما	-7065
▁blan	-7066
▁late	-7067
ential	-7068
tación	-7069
▁conte	-7070
▁keine	-7071
▁manch	-7072
▁اللعب	-7073
ization	-7074
▁guerre	-7075
▁negoci	-7076
arbeitet	-7077
▁Schulen	-7078
共和	-7079
ids	-7080
ray	-7081
ril	-7082
uve	-7083
多くの	-7084
amen	-7085
anni	-7086
▁pan	-7087
▁برا	-7088
lavos	-7089
ragen	-7090
▁able	-7091
▁agre	-7092
グラミー賞	-7093
▁Album	-7094
▁quart	-7095
▁within	-7096
▁estándar	-7097
▁posición	-7098
▁Verwendung	-7099
ár	-7100
コン	-7101
メン	-7102
hin	-7103
▁Do	-7104
▁eg	-7105
▁Leg	-7106
▁vic	-7107
craft	-7108
itori	-7109
nahme	-7110
round	-7111
▁both	-7112
▁muss	-7113
▁resid	-7114
▁think	-7115
rimonio	-7116
▁approv	-7117
▁former	-7118
▁madera	-7119
▁fondato	-7120
▁trasfer	-7121
▁electric	-7122
▁propriet	-7123
女性	-7124
州の	-7125
197	-7126
äus	-7127
شرين	-7128
▁جزر	-7129
iales	-7130
▁Cour	-7131
▁Samo	-7132
▁give	-7133
▁ساعد	-7134
ynasty	-7135
▁París	-7136
▁ocurr	-7137
▁seinem	-7138
▁Western	-7139
▁المدرسة	-7140
▁Nintendo	-7141
▁Pflanzen	-7142
▁processo	-7143
▁الحيوانات	-7144
Th	-7145
bs	-7146
uh	-7147
zu	-7148
äl	-7149
など	-7150
戦闘	-7151
皇帝	-7152
Gli	-7153
ربة	-7154
▁sí	-7155
igur	-7156
odox	-7157
▁Gol	-7158
▁Kat	-7159
▁bem	-7160
▁ähn	-7161
ately	-7162
grund	-7163
idung	-7164
iglio	-7165
اثولي	-7166
بيوتر	-7167
▁Hall	-7168
▁vuel	-7169
▁الدا	-7170
▁يجعل	-7171
yanmar	-7172
▁Maria	-7173
▁nació	-7174
▁opera	-7175
▁somal	-7176
▁Russia	-7177
▁cities	-7178
▁holand	-7179
▁ingles	-7180
▁Zweiten	-7181
▁contain	-7182
▁llamada	-7183
▁الاراضي	-7184
▁الغربية	-7185
▁Festival	-7186
▁children	-7187
▁términos	-7188
▁americana	-7189
▁bezeichnet	-7190
▁Veranstaltung	-7191
島の	-7192
اسة	-7193
ريف	-7194
▁24	-7195
iali	-7196
وستن	-7197
▁Top	-7198
▁ابن	-7199
ないのは	-7200
eland	-7201
▁2003	-7202
▁list	-7203
▁vita	-7204
▁Juden	-7205
▁Mater	-7206
▁Prinz	-7207
▁cargo	-7208
▁tibet	-7209
▁انشاؤ	-7210
▁Avenue	-7211
▁Körper	-7212
▁empire	-7213
▁الحياة	-7214
▁العليا	-7215
▁humanos	-7216
▁religiö	-7217
▁Jahrhunderts	-7218
قم	-7219
ウス	-7220
クロ	-7221
ums	-7222
uns	-7223
äft	-7224
arth	-7225
▁ott	-7226
▁sui	-7227
すること	-7228
▁Schw	-7229
▁aggi	-7230
▁aiut	-7231
▁guid	-7232
▁ingr	-7233
▁يقوم	-7234
nology	-7235
▁antig	-7236
▁clima	-7237
▁sirve	-7238
▁نتيجة	-7239
▁Frauen	-7240
▁Provin	-7241
▁chines	-7242
▁employ	-7243
▁fuerzas	-7244
▁objetivo	-7245
▁administr	-7246
▁education	-7247
第一	-7248
عار	-7249
موث	-7250
▁Nä	-7251
▁ta	-7252
何年に	-7253
igos	-7254
äter	-7255
ígen	-7256
ابقة	-7257
▁oss	-7258
▁pet	-7259
▁اصل	-7260
▁تمت	-7261
▁لمن	-7262
angel	-7263
avano	-7264
itore	-7265
▁نطاق	-7266
▁ويست	-7267
▁Kunst	-7268
▁diseñ	-7269
▁women	-7270
▁Gegend	-7271
▁Indien	-7272
▁around	-7273
▁satell	-7274
▁Ottoman	-7275
▁energia	-7276
▁interno	-7277
▁partito	-7278
▁written	-7279
▁الاجتما	-7280
▁الملكية	-7281
▁Mitglieder	-7282
▁beeinflusst	-7283
▁internacional	-7284
utz	-7285
لية	-7286
▁لح	-7287
▁مي	-7288
teid	-7289
▁dro	-7290
▁erf	-7291
▁مدى	-7292
ierto	-7293
رائيل	-7294
▁Kran	-7295
▁Städ	-7296
▁edif	-7297
▁vice	-7298
amurai	-7299
ingham	-7300
▁crede	-7301
▁Robert	-7302
▁storia	-7303
▁tuberc	-7304
▁الطلاب	-7305
▁Comcast	-7306
▁Prozess	-7307
istischen	-7308
▁superior	-7309
▁السوفييت	-7310
▁الكاثولي	-7311
uj	-7312
الن	-7313
ميم	-7314
となる	-7315
どこの	-7316
▁179	-7317
▁NYC	-7318
▁جاء	-7319
zentr	-7320
▁Zust	-7321
▁rapp	-7322
▁wood	-7323
▁تعمل	-7324
iellen	-7325
▁Nobel	-7326
▁emple	-7327
▁might	-7328
▁prior	-7329
ination	-7330
peratur	-7331
▁último	-7332
▁Messico	-7333
▁mujeres	-7334
▁plantas	-7335
▁station	-7336
▁reemplaz	-7337
▁posizione	-7338
▁particular	-7339
15	-7340
いる	-7341
osi	-7342
تون	-7343
▁FC	-7344
iede	-7345
pose	-7346
▁Lat	-7347
▁Mat	-7348
▁Red	-7349
ficie	-7350
ingia	-7351
olare	-7352
▁Jews	-7353
▁hunt	-7354
▁miss	-7355
▁ubic	-7356
▁يشير	-7357
▁2003?	-7358
▁Diale	-7359
▁Great	-7360
▁Leute	-7361
▁autom	-7362
▁oblig	-7363
▁senza	-7364
▁العلم	-7365
pública	-7366
▁Straße	-7367
▁center	-7368
▁istitu	-7369
▁recent	-7370
▁contest	-7371
▁Sprachen	-7372
▁personal	-7373
Os	-7374
si	-7375
iew	-7376
▁تر	-7377
▁تو	-7378
▁سل	-7379
anze	-7380
enci	-7381
ibil	-7382
ieri	-7383
شرات	-7384
موذج	-7385
▁ext	-7386
▁him	-7387
賞を受賞	-7388
ildet	-7389
ingen	-7390
ليموث	-7391
▁Sing	-7392
▁cabo	-7393
▁يوجد	-7394
▁Force	-7395
▁integr	-7396
▁llaman	-7397
▁potere	-7398
▁الحديد	-7399
▁الوسطى	-7400
▁هيوستن	-7401
▁Russian	-7402
▁الجزيرة	-7403
▁conocida	-7404
▁industry	-7405
何が	-7406
hab	-7407
ote	-7408
oto	-7409
لاث	-7410
نطن	-7411
ickt	-7412
غيرة	-7413
▁Ori	-7414
▁dam	-7415
▁now	-7416
▁حدي	-7417
▁عنه	-7418
▁للب	-7419
tagon	-7420
▁less	-7421
▁موقع	-7422
ionali	-7423
▁estar	-7424
▁porto	-7425
▁série	-7426
▁Studie	-7427
▁comput	-7428
▁dismin	-7429
▁Francis	-7430
▁Republik	-7431
▁experien	-7432
▁superficie	-7433
▁investigación	-7434
サー	-7435
文書	-7436
chio	-7437
éctr	-7438
▁Gef	-7439
▁dol	-7440
point	-7441
▁شمال	-7442
▁Polit	-7443
▁accus	-7444
▁motor	-7445
▁اعضاء	-7446
▁غالبا	-7447
ampions	-7448
▁Indian	-7449
▁chiesa	-7450
▁hatten	-7451
▁reason	-7452
▁teoria	-7453
▁الكهرب	-7454
▁Irlanda	-7455
▁Prozent	-7456
▁ersetzt	-7457
▁restaur	-7458
▁الشرقية	-7459
▁gekommen	-7460
▁generale	-7461
▁programa	-7462
▁verloren	-7463
▁الفرنسية	-7464
▁britische	-7465
▁britischen	-7466
BS	-7467
áp	-7468
デル	-7469
勢力	-7470
مام	-7471
asth	-7472
haus	-7473
▁Son	-7474
▁gek	-7475
estra	-7476
يانات	-7477
▁Baum	-7478
▁Bush	-7479
▁Mart	-7480
▁crít	-7481
▁role	-7482
▁الول	-7483
ichtet	-7484
▁reach	-7485
▁الحزب	-7486
▁الصوت	-7487
ありましたか	-7488
▁ascens	-7489
▁release	-7490
▁rispetto	-7491
▁الاوروبي	-7492
▁nazionale	-7493
▁metropolit	-7494
▁university	-7495
▁ursprünglich	-7496
6,	-7497
Si	-7498
زم	-7499
ヴェ	-7500
参加	-7501
tes	-7502
فاء	-7503
▁نش	-7504
Dopo	-7505
colo	-7506
ured	-7507
▁Jug	-7508
▁اسب	-7509
タイトル	-7510
ibles	-7511
pecto	-7512
▁deux	-7513
▁المق	-7514
nahmen	-7515
▁asoci	-7516
▁black	-7517
▁entde	-7518
▁posto	-7519
▁torch	-7520
▁مدرسة	-7521
▁Canadá	-7522
▁Chiesa	-7523
▁Italia	-7524
▁family	-7525
▁impero	-7526
▁proper	-7527
アメリカ合衆国	-7528
▁Königin	-7529
▁Protest	-7530
▁austral	-7531
▁consejo	-7532
▁Philosoph	-7533
▁religione	-7534
▁Montevideo	-7535
▁Presidente	-7536
▁conosciuto	-7537
レオ	-7538
選手	-7539
ترو	-7540
كال	-7541
poca	-7542
▁Bir	-7543
▁Hit	-7544
▁cur	-7545
▁fra	-7546
▁spo	-7547
▁try	-7548
▁رفض	-7549
▁للق	-7550
ctica	-7551
elbst	-7552
▁Bund	-7553
▁Mand	-7554
▁food	-7555
▁كلمة	-7556
ervice	-7557
öffnet	-7558
▁Autor	-7559
▁began	-7560
▁molti	-7561
▁تطوير	-7562
▁struct	-7563
▁المنظمة	-7564
ification	-7565
▁movimento	-7566
fs	-7567
öt	-7568
タン	-7569
存在	-7570
早く	-7571
選挙	-7572
Bes	-7573
ورد	-7574
▁Kl	-7575
inge	-7576
لاسي	-7577
▁انح	-7578
zeigt	-7579
▁tema	-7580
▁ثاني	-7581
▁جورج	-7582
▁مكان	-7583
▁acqua	-7584
▁appar	-7585
▁tedes	-7586
▁البرو	-7587
▁acerca	-7588
▁attemp	-7589
▁gehört	-7590
▁prohib	-7591
▁promin	-7592
▁مقاطعة	-7593
▁Ägypten	-7594
つの	-7595
air	-7596
iell	-7597
onas	-7598
orno	-7599
▁Ära	-7600
troll	-7601
▁Sony	-7602
▁bamb	-7603
▁came	-7604
▁nied	-7605
ctions	-7606
▁Jesus	-7607
▁enter	-7608
▁البحر	-7609
▁الساد	-7610
▁المفت	-7611
▁تحديد	-7612
▁August	-7613
▁Gemein	-7614
▁Myanmar	-7615
▁accordo	-7616
▁because	-7617
▁history	-7618
▁primary	-7619
▁weniger	-7620
iblioteca	-7621
▁transport	-7622
mán	-7623
ربع	-7624
فيا	-7625
は何歳	-7626
Zeit	-7627
äger	-7628
ونيا	-7629
▁Off	-7630
▁Old	-7631
▁Per	-7632
▁واش	-7633
めたのは	-7634
Whose	-7635
▁Nähe	-7636
▁near	-7637
▁phys	-7638
وتردام	-7639
▁2002?	-7640
▁Solar	-7641
▁angeb	-7642
▁único	-7643
▁اسمها	-7644
▁نظرية	-7645
▁regist	-7646
▁African	-7647
▁Fußball	-7648
▁provide	-7649
▁specific	-7650
ij	-7651
イタ	-7652
スは	-7653
マイ	-7654
出身	-7655
生産	-7656
aco	-7657
bew	-7658
com	-7659
pez	-7660
ímp	-7661
اكل	-7662
▁fab	-7663
▁يكن	-7664
▁Miss	-7665
▁يريد	-7666
いましたか	-7667
▁Oscar	-7668
▁außer	-7669
▁banda	-7670
▁forze	-7671
▁sehen	-7672
▁affect	-7673
▁forces	-7674
▁helped	-7675
▁league	-7676
▁السلطة	-7677
▁الفريق	-7678
▁Germany	-7679
▁Kontrolle	-7680
▁costruito	-7681
▁eisenhower	-7682
▁relationship	-7683
SA	-7684
の主	-7685
知事	-7686
▁bi	-7687
atte	-7688
osen	-7689
▁Cup	-7690
▁età	-7691
▁باي	-7692
orcha	-7693
▁drit	-7694
▁دوري	-7695
atures	-7696
▁Radio	-7697
▁regla	-7698
▁viven	-7699
▁تاثير	-7700
ifiziert	-7701
▁antorcha	-7702
▁الانترنت	-7703
▁Microsoft	-7704
▁elecciones	-7705
▁development	-7706
▁generalmente	-7707
تق	-7708
カリ	-7709
サイ	-7710
ائن	-7711
الو	-7712
طات	-7713
يبيا	-7714
▁ucc	-7715
▁usb	-7716
▁voc	-7717
owers	-7718
ático	-7719
▁Asia	-7720
▁defe	-7721
▁ebre	-7722
▁gilt	-7723
▁حاول	-7724
▁ahora	-7725
▁datos	-7726
▁later	-7727
▁واشنطن	-7728
▁diritto	-7729
▁نوتردام	-7730
▁frequent	-7731
▁majority	-7732
▁documento	-7733
▁construcción	-7734
شف	-7735
期間	-7736
cle	-7737
ملة	-7738
▁Il	-7739
▁يب	-7740
スティ	-7741
ستان	-7742
يران	-7743
▁Den	-7744
▁fol	-7745
▁rot	-7746
▁soz	-7747
▁vec	-7748
ريكان	-7749
▁Dios	-7750
▁فيما	-7751
ements	-7752
▁indip	-7753
▁unico	-7754
▁Edward	-7755
▁Guerre	-7756
▁dinero	-7757
▁plants	-7758
▁antigua	-7759
▁carrera	-7760
▁broadcast	-7761
▁typically	-7762
▁introduced	-7763
▁principali	-7764
▁temperature	-7765
يق	-7766
ネル	-7767
調査	-7768
قبل	-7769
▁سم	-7770
▁وح	-7771
osso	-7772
ذافي	-7773
▁ält	-7774
▁بار	-7775
▁خاص	-7776
したこと	-7777
plica	-7778
▁Post	-7779
▁Rück	-7780
▁schw	-7781
▁york	-7782
ikaner	-7783
▁Harry	-7784
▁Osman	-7785
▁avail	-7786
▁اطلاق	-7787
aziland	-7788
▁ciento	-7789
▁regina	-7790
▁Militär	-7791
▁economía	-7792
▁militare	-7793
▁politica	-7794
▁popolare	-7795
▁transfer	-7796
が出	-7797
どう	-7798
エル	-7799
クの	-7800
ump	-7801
áne	-7802
アルバ	-7803
امية	-7804
▁Fun	-7805
▁Kor	-7806
▁Tre	-7807
▁enc	-7808
▁mic	-7809
وانين	-7810
▁Khan	-7811
▁army	-7812
▁sell	-7813
▁الحك	-7814
itness	-7815
▁Korea	-7816
▁angef	-7817
▁دراسة	-7818
▁كبيرة	-7819
▁determ	-7820
▁finden	-7821
▁launch	-7822
▁mensch	-7823
▁partes	-7824
▁última	-7825
▁الدفاع	-7826
▁derecho	-7827
▁erlaubt	-7828
▁funzion	-7829
▁lanzado	-7830
▁Mitglied	-7831
▁centrale	-7832
▁establish	-7833
IC	-7834
ye	-7835
スペ	-7836
ビア	-7837
監督	-7838
ots	-7839
اند	-7840
reme	-7841
اليف	-7842
▁Law	-7843
▁Män	-7844
▁mun	-7845
▁بيل	-7846
りますか	-7847
イタリア	-7848
atico	-7849
▁bell	-7850
▁الاز	-7851
▁تعرف	-7852
▁كيري	-7853
▁rango	-7854
Secondo	-7855
rededor	-7856
truktur	-7857
▁Lebens	-7858
▁بليموث	-7859
ouverneur	-7860
▁Brasilia	-7861
▁Princess	-7862
▁Twilight	-7863
▁incorpor	-7864
▁relacion	-7865
▁Alexander	-7866
▁Temperatur	-7867
Com	-7868
raw	-7869
rón	-7870
uye	-7871
وعة	-7872
atch	-7873
▁اهم	-7874
▁ويل	-7875
ansas	-7876
bbero	-7877
▁clos	-7878
▁orig	-7879
▁pour	-7880
▁stop	-7881
▁الشي	-7882
▁الوز	-7883
▁ريتش	-7884
uption	-7885
▁Count	-7886
▁Shell	-7887
▁award	-7888
▁games	-7889
▁medie	-7890
ktionen	-7891
▁ancora	-7892
▁belong	-7893
▁status	-7894
▁التاسع	-7895
▁funcion	-7896
▁القذافي	-7897
▁aeropuerto	-7898
ki	-7899
プト	-7900
公開	-7901
面積	-7902
ads	-7903
die	-7904
ñas	-7905
▁CA	-7906
eras	-7907
esen	-7908
سيطر	-7909
▁deg	-7910
▁low	-7911
について	-7912
griff	-7913
▁evid	-7914
▁giud	-7915
▁الصو	-7916
etzung	-7917
intosh	-7918
itions	-7919
lament	-7920
orough	-7921
▁2001?	-7922
▁ayudó	-7923
▁congr	-7924
▁mismo	-7925
▁announ	-7926
▁battle	-7927
▁inspir	-7928
▁played	-7929
▁street	-7930
olescent	-7931
▁Theorie	-7932
▁بالنسبة	-7933
▁entdeckt	-7934
▁estación	-7935
▁ottenuto	-7936
▁الاقتصاد	-7937
▁británico	-7938
▁rilasciato	-7939
ál	-7940
ضة	-7941
の一	-7942
人々	-7943
発見	-7944
avy	-7945
زني	-7946
どんな	-7947
年から	-7948
jekt	-7949
▁XIX	-7950
▁kil	-7951
▁ادى	-7952
▁توس	-7953
▁عضو	-7954
aking	-7955
ينيسي	-7956
▁Rome	-7957
▁acto	-7958
▁coin	-7959
▁كلية	-7960
▁Giapp	-7961
▁Santa	-7962
▁nativ	-7963
▁sound	-7964
▁aspect	-7965
▁tradic	-7966
▁الحديث	-7967
▁الخارج	-7968
▁السابق	-7969
▁dynasty	-7970
▁الطريقة	-7971
▁empresas	-7972
▁político	-7973
▁construyó	-7974
▁enthalten	-7975
رع	-7976
فه	-7977
ミネ	-7978
led	-7979
ohl	-7980
شرة	-7981
ندو	-7982
ases	-7983
لفزي	-7984
▁Sci	-7985
▁ciò	-7986
▁fut	-7987
▁inn	-7988
▁see	-7989
▁ابل	-7990
fluss	-7991
oslav	-7992
▁früh	-7993
▁laws	-7994
▁läng	-7995
▁noto	-7996
▁الفن	-7997
▁audio	-7998
▁clase	-7999
▁ideal	-8000
▁sería	-8001
▁التبت	-8002
▁القيا	-8003
landese	-8004
▁Anteil	-8005
▁Battle	-8006
▁Raleigh	-8007
▁estruct	-8008
▁الحرارة	-8009
▁الفرنسي	-8010
▁Sanskrit	-8011
▁Università	-8012
▁individual	-8013
▁Deutschland	-8014
ee	-8015
lem	-8016
roy	-8017
urz	-8018
vos	-8019
سين	-8020
ضية	-8021
يبد	-8022
يرا	-8023
▁Af	-8024
unit	-8025
ارنة	-8026
▁Gio	-8027
▁احد	-8028
allen	-8029
untos	-8030
درالي	-8031
▁1950	-8032
▁Holz	-8033
▁Jack	-8034
▁Play	-8035
▁bran	-8036
▁capa	-8037
▁meas	-8038
▁rail	-8039
▁ship	-8040
▁vive	-8041
▁نادي	-8042
immung	-8043
▁monde	-8044
▁مسؤول	-8045
▁Bretag	-8046
▁arbeit	-8047
▁perten	-8048
▁resist	-8049
▁strada	-8050
▁انتخاب	-8051
▁oficina	-8052
▁systems	-8053
▁الحديثة	-8054
▁adolescent	-8055
▁producción	-8056
off	-8057
pan	-8058
viv	-8059
ätz	-8060
▁AD	-8061
▁ak	-8062
punk	-8063
▁asp	-8064
▁نان	-8065
immen	-8066
lasse	-8067
ymbol	-8068
زابيث	-8069
▁emer	-8070
ciales	-8071
▁ofici	-8072
▁المدن	-8073
Station	-8074
▁Harbor	-8075
▁batter	-8076
▁judíos	-8077
▁pestic	-8078
▁África	-8079
▁الخاصة	-8080
▁network	-8081
▁المسؤول	-8082
▁Catholic	-8083
▁controllo	-8084
▁wichtigsten	-8085
16	-8086
ノー	-8087
▁No	-8088
いつか	-8089
▁Her	-8090
iesta	-8091
inato	-8092
سياسي	-8093
▁1960	-8094
▁Mehr	-8095
▁alte	-8096
▁carb	-8097
▁dipl	-8098
▁dogs	-8099
▁suel	-8100
アメリカの	-8101
▁Rolle	-8102
▁asent	-8103
▁impro	-8104
▁libri	-8105
▁monar	-8106
▁parti	-8107
▁preso	-8108
▁سلالة	-8109
glichen	-8110
▁antrop	-8111
▁efecto	-8112
▁المنزل	-8113
▁economy	-8114
▁europeo	-8115
▁الكلاسي	-8116
▁Giappone	-8117
▁المجموعات	-8118
▁característica	-8119
えた	-8120
シェ	-8121
cif	-8122
uez	-8123
رشح	-8124
ربية	-8125
شروع	-8126
ورية	-8127
ونية	-8128
▁flu	-8129
▁طول	-8130
▁ياش	-8131
asons	-8132
stone	-8133
▁bere	-8134
▁dens	-8135
▁gain	-8136
▁reun	-8137
▁scon	-8138
▁tama	-8139
▁البن	-8140
▁انته	-8141
▁altre	-8142
▁circu	-8143
▁maggi	-8144
ciación	-8145
reichen	-8146
▁cuatro	-8147
▁ياشيبد	-8148
▁avrebbe	-8149
▁causato	-8150
▁moderna	-8151
▁publicó	-8152
▁believed	-8153
dr	-8154
王国	-8155
Ind	-8156
bet	-8157
iac	-8158
ued	-8159
الف	-8160
▁Ca	-8161
▁MP	-8162
は何の	-8163
cipe	-8164
قلال	-8165
▁Ort	-8166
▁bal	-8167
▁hub	-8168
▁tex	-8169
▁típ	-8170
▁ذات	-8171
▁شرق	-8172
▁طلب	-8173
ackel	-8174
ammad	-8175
▁Berg	-8176
▁cere	-8177
▁sequ	-8178
▁الرب	-8179
▁اللا	-8180
▁عنها	-8181
▁Recht	-8182
▁dedic	-8183
▁ebrei	-8184
▁press	-8185
▁stile	-8186
▁المشت	-8187
人は誰ですか	-8188
▁aperto	-8189
▁observ	-8190
▁tercer	-8191
▁Somalia	-8192
▁antiguo	-8193
▁categor	-8194
▁gaddafi	-8195
▁recibió	-8196
▁influenz	-8197
▁sistemas	-8198
▁Wirtschaft	-8199
▁instrument	-8200
éc	-8201
に関	-8202
時間	-8203
درة	-8204
▁sl	-8205
1940	-8206
chie	-8207
immt	-8208
▁Bel	-8209
▁Dec	-8210
▁Gar	-8211
▁ill	-8212
▁وقع	-8213
crito	-8214
▁well	-8215
▁بانه	-8216
engono	-8217
▁Rusia	-8218
▁avere	-8219
▁extra	-8220
▁lanzó	-8221
▁razón	-8222
▁جوائز	-8223
となったのは	-8224
stituto	-8225
▁السياسي	-8226
▁Imperial	-8227
▁Japanese	-8228
▁Mehrheit	-8229
▁Virginia	-8230
▁animales	-8231
▁continente	-8232
▁occidental	-8233
▁architecture	-8234
▁arquitectura	-8235
▁estadounidenses	-8236
デン	-8237
以上	-8238
同盟	-8239
سسة	-8240
فاظ	-8241
▁Sa	-8242
▁از	-8243
With	-8244
heim	-8245
site	-8246
▁Bay	-8247
▁Cap	-8248
▁Ost	-8249
▁Urs	-8250
▁Guam	-8251
▁arab	-8252
▁bien	-8253
▁المخ	-8254
▁والم	-8255
▁2014,	-8256
▁campa	-8257
▁costa	-8258
▁disco	-8259
▁metal	-8260
▁انحاء	-8261
بيونسيه	-8262
▁gruppi	-8263
▁comport	-8264
▁finales	-8265
▁include	-8266
▁البحرية	-8267
▁promedio	-8268
▁المعروفة	-8269
▁República	-8270
▁propiedad	-8271
▁associated	-8272
▁offizielle	-8273
bn	-8274
政府	-8275
東京	-8276
登場	-8277
iqu	-8278
هير	-8279
ディズ	-8280
aken	-8281
arto	-8282
ermo	-8283
iner	-8284
uted	-8285
▁ora	-8286
▁tab	-8287
▁بيت	-8288
▁للت	-8289
onato	-8290
otion	-8291
stand	-8292
▁Qing	-8293
▁actu	-8294
▁ehem	-8295
▁quat	-8296
▁جزءا	-8297
▁سويس	-8298
enswer	-8299
كنولوج	-8300
▁Gebie	-8301
▁attiv	-8302
▁birds	-8303
▁estos	-8304
▁famig	-8305
▁fundó	-8306
▁sulle	-8307
▁التوق	-8308
▁الميل	-8309
▁gleich	-8310
▁الاقلي	-8311
▁Islands	-8312
ariamente	-8313
▁dinastia	-8314
▁Entwicklung	-8315
▁universidades	-8316
80	-8317
لى	-8318
アイ	-8319
明治	-8320
最大	-8321
ael	-8322
osc	-8323
wor	-8324
ريا	-8325
ملك	-8326
▁بق	-8327
وائل	-8328
▁اقت	-8329
▁حقق	-8330
arias	-8331
inner	-8332
parte	-8333
▁USAF	-8334
▁dame	-8335
▁fatt	-8336
▁داخل	-8337
Wessen	-8338
▁Texas	-8339
▁cerve	-8340
▁donde	-8341
▁ihrem	-8342
▁movie	-8343
▁trade	-8344
▁روسيا	-8345
amerika	-8346
▁Gebiet	-8347
▁erklär	-8348
▁Eritrea	-8349
▁erstellt	-8350
▁geschickt	-8351
▁influence	-8352
▁Griechenland	-8353
ms	-8354
wa	-8355
يك	-8356
キー	-8357
主義	-8358
地方	-8359
occ	-8360
zan	-8361
ügt	-8362
شار	-8363
هرت	-8364
▁ve	-8365
者は誰	-8366
seln	-8367
ögel	-8368
▁Lab	-8369
▁cav	-8370
▁لدى	-8371
zogen	-8372
اريات	-8373
▁Bank	-8374
▁Ming	-8375
▁Vars	-8376
▁cast	-8377
▁dial	-8378
▁ense	-8379
▁الحق	-8380
▁الحم	-8381
▁خارج	-8382
▁initi	-8383
▁Nation	-8384
▁ehemal	-8385
▁libert	-8386
▁sollte	-8387
▁teatro	-8388
▁troops	-8389
▁usando	-8390
▁تينيسي	-8391
▁attempt	-8392
▁miglior	-8393
▁المانيا	-8394
▁comercio	-8395
geschlagen	-8396
▁ufficiale	-8397
▁gesprochen	-8398
▁originally	-8399
▁televisión	-8400
5,	-8401
トン	-8402
機関	-8403
bro	-8404
كلة	-8405
ジョー	-8406
irat	-8407
rema	-8408
ريبا	-8409
وسطن	-8410
▁Pak	-8411
▁Sir	-8412
▁emo	-8413
▁منه	-8414
はどこで	-8415
attan	-8416
onstr	-8417
وسكار	-8418
▁Skla	-8419
▁tipi	-8420
▁بالق	-8421
andelt	-8422
▁David	-8423
▁jetzt	-8424
▁الامم	-8425
ospital	-8426
▁Muslim	-8427
▁compan	-8428
▁expand	-8429
▁modelo	-8430
▁secret	-8431
▁hombres	-8432
▁moderne	-8433
▁purpose	-8434
▁started	-8435
▁الوزراء	-8436
▁available	-8437
▁profession	-8438
▁sviluppato	-8439
▁amerikanischen	-8440
IA	-8441
活動	-8442
iny	-8443
obb	-8444
rad	-8445
Name	-8446
agne	-8447
▁Wer	-8448
▁hor	-8449
▁wir	-8450
▁مقر	-8451
いたのは	-8452
▁Stil	-8453
▁basa	-8454
▁spaz	-8455
▁تقوم	-8456
▁Kraft	-8457
▁aufge	-8458
▁colla	-8459
▁manif	-8460
▁áreas	-8461
▁اجهزة	-8462
▁الحدث	-8463
▁الخشب	-8464
▁tuvalu	-8465
▁concern	-8466
▁regiert	-8467
▁special	-8468
▁referred	-8469
▁according	-8470
▁produzione	-8471
-9	-8472
جز	-8473
える	-8474
部隊	-8475
領土	-8476
ipe	-8477
zia	-8478
وعا	-8479
▁ár	-8480
人は誰	-8481
cing	-8482
erve	-8483
hood	-8484
ingu	-8485
omos	-8486
ابات	-8487
يناء	-8488
▁Pra	-8489
▁hyd	-8490
▁دار	-8491
の名前は	-8492
altet	-8493
board	-8494
itive	-8495
ليدية	-8496
▁sare	-8497
▁بالم	-8498
ección	-8499
imenti	-8500
▁ruolo	-8501
▁varia	-8502
▁ville	-8503
▁Jahres	-8504
▁colore	-8505
▁propós	-8506
▁المحلي	-8507
▁Richard	-8508
▁Spanish	-8509
▁Republic	-8510
▁pubblica	-8511
▁attraverso	-8512
▁Architektur	-8513
▁considerado	-8514
??	-8515
oms	-8516
rif	-8517
جال	-8518
جمع	-8519
ورا	-8520
▁KU	-8521
▁ba	-8522
▁فل	-8523
oung	-8524
دونا	-8525
▁flo	-8526
▁hid	-8527
▁hoy	-8528
▁rib	-8529
▁باع	-8530
▁صحي	-8531
adium	-8532
atten	-8533
reibt	-8534
▁1920	-8535
▁Inse	-8536
▁erit	-8537
▁extr	-8538
▁meno	-8539
▁كندا	-8540
▁Brown	-8541
▁Court	-8542
▁cresc	-8543
▁haber	-8544
▁today	-8545
▁المخت	-8546
vention	-8547
▁immigr	-8548
▁minist	-8549
▁prodot	-8550
▁tamaño	-8551
▁travel	-8552
▁الحالي	-8553
▁برنامج	-8554
▁nazione	-8555
▁التاثير	-8556
▁cultural	-8557
If	-8558
so	-8559
حو	-8560
以外	-8561
使わ	-8562
地震	-8563
独立	-8564
電所	-8565
fra	-8566
oce	-8567
خرج	-8568
سيم	-8569
لاف	-8570
وقد	-8571
▁éx	-8572
▁تؤ	-8573
urso	-8574
تجاه	-8575
▁اسل	-8576
▁رسم	-8577
▁وجد	-8578
artet	-8579
byter	-8580
onfer	-8581
وفالو	-8582
▁Army	-8583
▁size	-8584
▁جبال	-8585
▁españ	-8586
▁vista	-8587
▁تحتوي	-8588
▁كارول	-8589
▁ayudar	-8590
▁bemerk	-8591
▁tropas	-8592
第二次世界大戦	-8593
▁gezeigt	-8594
▁happens	-8595
▁افريقيا	-8596
▁الشمسية	-8597
▁Bretagna	-8598
▁Gerichts	-8599
▁bacteria	-8600
▁befinden	-8601
▁genommen	-8602
▁imperial	-8603
▁الحديدية	-8604
▁problemas	-8605
▁whitehead	-8606
▁angefangen	-8607
▁discovered	-8608
ód	-8609
の著	-8610
長い	-8611
Mus	-8612
aug	-8613
انا	-8614
は何を	-8615
agna	-8616
hnen	-8617
tech	-8618
▁hit	-8619
▁sor	-8620
▁هيل	-8621
Desde	-8622
ترويت	-8623
▁Janu	-8624
▁cató	-8625
▁ipod	-8626
▁السك	-8627
▁بدلا	-8628
كتيريا	-8629
▁Metro	-8630
▁labor	-8631
▁oltre	-8632
▁paper	-8633
▁County	-8634
▁Fackel	-8635
▁Philip	-8636
▁recogn	-8637
▁السادس	-8638
▁الطريق	-8639
▁combatt	-8640
▁familia	-8641
▁miembro	-8642
▁commonly	-8643
▁interest	-8644
▁programm	-8645
▁sometimes	-8646
ウム	-8647
動物	-8648
同じ	-8649
öße	-8650
ستر	-8651
سخة	-8652
هار	-8653
▁40	-8654
▁Po	-8655
Amer	-8656
aben	-8657
eite	-8658
isse	-8659
onte	-8660
رحلة	-8661
▁Cro	-8662
▁وين	-8663
▁Bede	-8664
▁ohne	-8665
▁opin	-8666
▁papa	-8667
▁town	-8668
されていた	-8669
hungen	-8670
ichten	-8671
▁1990?	-8672
▁Barts	-8673
▁alten	-8674
▁estat	-8675
▁أفلام	-8676
▁الفرق	-8677
▁Potter	-8678
▁archit	-8679
▁bietet	-8680
▁formal	-8681
▁später	-8682
▁wollte	-8683
براطورية	-8684
▁changes	-8685
▁musical	-8686
▁trovava	-8687
entemente	-8688
▁Birmania	-8689
▁clasific	-8690
▁sociedad	-8691
▁programma	-8692
▁Präsidenten	-8693
▁vorgeschlagen	-8694
、「	-8695
それ	-8696
もっ	-8697
何日	-8698
aya	-8699
ota	-8700
try	-8701
تبع	-8702
لاد	-8703
▁Sm	-8704
▁لش	-8705
avia	-8706
hode	-8707
ائلة	-8708
ستون	-8709
مبية	-8710
▁180	-8711
▁gén	-8712
▁بيع	-8713
▁جدا	-8714
▁جيم	-8715
▁فتح	-8716
count	-8717
utung	-8718
زنيجر	-8719
▁Band	-8720
▁Meer	-8721
▁الرئ	-8722
▁عالم	-8723
▁Angel	-8724
▁Suiza	-8725
▁annun	-8726
▁كنيسة	-8727
▁attrib	-8728
▁diffic	-8729
▁dimens	-8730
▁elektr	-8731
▁القيام	-8732
▁الكلمة	-8733
▁público	-8734
▁vengono	-8735
▁replaced	-8736
▁financial	-8737
▁originale	-8738
▁Verfassung	-8739
▁production	-8740
ジラ	-8741
arr	-8742
علة	-8743
▁sk	-8744
bell	-8745
taat	-8746
uten	-8747
werk	-8748
▁Nov	-8749
▁بنا	-8750
culos	-8751
▁Kamp	-8752
▁Lage	-8753
▁Verl	-8754
▁bank	-8755
▁just	-8756
▁meet	-8757
▁read	-8758
▁روما	-8759
▁والت	-8760
hattan	-8761
▁ganar	-8762
▁teach	-8763
▁العرق	-8764
▁Impero	-8765
▁romana	-8766
▁الكلاب	-8767
ological	-8768
stellung	-8769
وارزنيجر	-8770
▁acquist	-8771
▁informa	-8772
何年のことですか	-8773
▁included	-8774
▁اليونانية	-8775
▁الانتخابات	-8776
▁costruzione	-8777
▁crecimiento	-8778
ém	-8779
زا	-8780
の大	-8781
の間	-8782
スク	-8783
モン	-8784
Wen	-8785
صور	-8786
منذ	-8787
arte	-8788
erva	-8789
otte	-8790
▁got	-8791
▁wid	-8792
▁ديل	-8793
▁صنا	-8794
に対する	-8795
embre	-8796
inger	-8797
itter	-8798
تبارا	-8799
▁Stre	-8800
▁artí	-8801
▁deci	-8802
▁pasa	-8803
▁quel	-8804
▁vier	-8805
▁الطب	-8806
remoto	-8807
▁Flugh	-8808
▁klass	-8809
▁kommt	-8810
▁الزمن	-8811
▁الممت	-8812
▁Kanada	-8813
▁Nieder	-8814
▁action	-8815
▁ejecut	-8816
▁enferm	-8817
▁tenido	-8818
▁uscito	-8819
▁beyonce	-8820
▁ديترويت	-8821
▁director	-8822
▁التجارية	-8823
▁companies	-8824
▁California	-8825
▁influenced	-8826
▁principios	-8827
▁q	-8828
とき	-8829
adi	-8830
ría	-8831
حول	-8832
▁UE	-8833
Eine	-8834
alto	-8835
hren	-8836
kien	-8837
vizz	-8838
هوما	-8839
▁182	-8840
▁Dig	-8841
▁Raj	-8842
▁avo	-8843
ウォルト	-8844
図書館の	-8845
▁Vict	-8846
▁born	-8847
▁viag	-8848
▁1970?	-8849
▁Arbor	-8850
▁bezie	-8851
▁genes	-8852
▁resol	-8853
▁الماء	-8854
▁يتحدث	-8855
ecutive	-8856
hkenazi	-8857
adamente	-8858
▁feynman	-8859
▁location	-8860
▁naciones	-8861
▁proyecto	-8862
▁required	-8863
▁الاساسية	-8864
▁باستخدام	-8865
enschaften	-8866
▁frecuencia	-8867
▁philosophy	-8868
▁originalmente	-8869
数は	-8870
eme	-8871
اما	-8872
هات	-8873
هرج	-8874
▁FI	-8875
▁Zy	-8876
illo	-8877
sers	-8878
vard	-8879
生まれた	-8880
achst	-8881
estos	-8882
illos	-8883
overn	-8884
porte	-8885
られたのは	-8886
▁Firma	-8887
▁force	-8888
▁lingu	-8889
▁works	-8890
▁تشارل	-8891
▁Origin	-8892
▁calcio	-8893
▁económ	-8894
▁método	-8895
▁Sichuan	-8896
▁eingest	-8897
▁equipos	-8898
▁marshall	-8899
▁Beziehung	-8900
▁terremoto	-8901
▁الكمبيوتر	-8902
▁biblioteca	-8903
اك	-8904
ダル	-8905
首都	-8906
wan	-8907
ياس	-8908
▁21	-8909
▁TB	-8910
▁eu	-8911
edia	-8912
eign	-8913
gang	-8914
ways	-8915
ötet	-8916
سكان	-8917
▁Mor	-8918
▁cac	-8919
▁بود	-8920
▁شهر	-8921
▁عبر	-8922
azine	-8923
ender	-8924
▁Best	-8925
▁días	-8926
▁repr	-8927
▁vitt	-8928
▁ينظر	-8929
られている	-8930
▁cross	-8931
▁prest	-8932
者は誰ですか	-8933
▁questa	-8934
▁Truppen	-8935
▁statunit	-8936
▁الاوروبية	-8937
▁البريطاني	-8938
を務	-8939
カル	-8940
世が	-8941
生息	-8942
شاء	-8943
شال	-8944
ولد	-8945
يال	-8946
ياه	-8947
▁va	-8948
▁أص	-8949
▁أل	-8950
▁لأ	-8951
ジョン	-8952
alis	-8953
lach	-8954
zähl	-8955
▁Bet	-8956
▁Bib	-8957
▁oro	-8958
になった	-8959
eller	-8960
▁mant	-8961
▁الصح	-8962
▁للمن	-8963
iscono	-8964
▁ideas	-8965
▁البرا	-8966
▁Middle	-8967
▁finale	-8968
▁ارتفاع	-8969
▁سويسرا	-8970
されていますか	-8971
▁airport	-8972
▁discuss	-8973
acionales	-8974
▁sviluppo	-8975
▁gestartet	-8976
▁sostenuto	-8977
▁occidentale	-8978
ラム	-8979
鉄道	-8980
eto	-8981
olt	-8982
تمر	-8983
زين	-8984
ヨーク	-8985
ートル	-8986
otos	-8987
uego	-8988
ائمة	-8989
واية	-8990
cipit	-8991
etzen	-8992
issen	-8993
waffe	-8994
▁Mosa	-8995
▁fest	-8996
▁حاكم	-8997
▁والد	-8998
▁Menge	-8999
▁ayuda	-9000
▁fuori	-9001
▁gradu	-9002
▁بداية	-9003
▁بطولة	-9004
▁سياتل	-9005
▁Unione	-9006
▁selbst	-9007
▁ancient	-9008
▁livello	-9009
▁nanjing	-9010
▁premios	-9011
▁geglaubt	-9012
▁naturale	-9013
▁Unterstüt	-9014
▁implement	-9015
▁imperatore	-9016
Sh	-9017
مم	-9018
يه	-9019
クス	-9020
年代	-9021
者の	-9022
geg	-9023
lor	-9024
rän	-9025
écn	-9026
انة	-9027
جلة	-9028
iett	-9029
▁Dio	-9030
▁etn	-9031
▁syn	-9032
anten	-9033
شلونة	-9034
▁died	-9035
▁fail	-9036
▁pron	-9037
▁المه	-9038
▁مبنى	-9039
▁منزل	-9040
stituc	-9041
▁abrió	-9042
▁denen	-9043
▁esist	-9044
▁formó	-9045
▁inten	-9046
▁oeste	-9047
▁range	-9048
▁salió	-9049
▁third	-9050
▁تغيير	-9051
▁object	-9052
▁presid	-9053
▁Bildung	-9054
▁Ländern	-9055
itzerland	-9056
▁Bewegung	-9057
▁aircraft	-9058
▁rapporto	-9059
▁Manhattan	-9060
▁aeroporto	-9061
▁películas	-9062
▁propósito	-9063
▁provincia	-9064
▁الهولندية	-9065
abhängigkeit	-9066
▁contribuito	-9067
きた	-9068
なん	-9069
hir	-9070
ايك	-9071
رطة	-9072
غرا	-9073
▁Ac	-9074
▁Lu	-9075
▁دم	-9076
▁مد	-9077
amin	-9078
ثناء	-9079
▁181	-9080
▁Cop	-9081
▁للط	-9082
▁للن	-9083
何ですか	-9084
inter	-9085
ueblo	-9086
▁Reno	-9087
▁allg	-9088
▁batt	-9089
▁irán	-9090
▁race	-9091
▁tent	-9092
endere	-9093
ership	-9094
gliche	-9095
▁asist	-9096
▁citiz	-9097
▁guard	-9098
▁nuova	-9099
▁write	-9100
▁الجما	-9101
アカデミー賞	-9102
ientras	-9103
▁acción	-9104
▁comand	-9105
▁concep	-9106
▁rights	-9107
▁الشعلة	-9108
▁beendet	-9109
▁beliebt	-9110
▁besteht	-9111
▁besucht	-9112
▁erklärt	-9113
▁letzten	-9114
▁prevent	-9115
uckingham	-9116
▁conflict	-9117
▁election	-9118
▁Bedeutung	-9119
いの	-9120
Are	-9121
ägt	-9122
▁لد	-9123
aged	-9124
iest	-9125
uern	-9126
جينج	-9127
▁Arg	-9128
▁Dan	-9129
▁jef	-9130
▁nor	-9131
▁عدم	-9132
▁وصف	-9133
▁auto	-9134
▁hieß	-9135
▁nick	-9136
▁note	-9137
▁saga	-9138
▁vinc	-9139
▁مرتب	-9140
の名前は何	-9141
▁habla	-9142
▁terra	-9143
▁شيوعا	-9144
▁Parigi	-9145
▁entfer	-9146
▁totale	-9147
▁policía	-9148
▁regular	-9149
▁Zhejiang	-9150
▁manchmal	-9151
▁precipit	-9152
▁römischen	-9153
▁Unabhängigkeit	-9154
3,	-9155
اذ	-9156
支配	-9157
pal	-9158
ابا	-9159
وتي	-9160
で一番	-9161
の作品	-9162
当時の	-9163
aton	-9164
ctic	-9165
ugen	-9166
راجع	-9167
موند	-9168
▁mec	-9169
しますか	-9170
スペイン	-9171
▁Pers	-9172
▁Rang	-9173
▁fand	-9174
▁kein	-9175
▁جهاز	-9176
علومات	-9177
▁Alter	-9178
▁afect	-9179
▁fosse	-9180
▁immer	-9181
▁nello	-9182
▁piano	-9183
▁sitio	-9184
▁staat	-9185
▁unión	-9186
▁wegen	-9187
▁éxito	-9188
Besides	-9189
▁Somali	-9190
▁Virgil	-9191
▁office	-9192
▁strutt	-9193
▁tenían	-9194
byterian	-9195
▁consist	-9196
▁involuc	-9197
▁permite	-9198
▁project	-9199
▁britannico	-9200
▁dichiarato	-9201
▁Switzerland	-9202
▁amerikanische	-9203
年は	-9204
日の	-9205
ery	-9206
roc	-9207
برغ	-9208
تهي	-9209
▁Ta	-9210
▁تز	-9211
どこに	-9212
大きな	-9213
lied	-9214
uper	-9215
▁Sub	-9216
▁bul	-9217
▁mai	-9218
▁mid	-9219
▁süd	-9220
▁tax	-9221
▁vio	-9222
eitet	-9223
olfen	-9224
verse	-9225
äsent	-9226
üssen	-9227
▁1930	-9228
▁Cypr	-9229
▁verf	-9230
▁وفقا	-9231
minist	-9232
▁inaug	-9233
▁الالب	-9234
▁الديم	-9235
▁السكك	-9236
▁العلا	-9237
▁اهوما	-9238
anasius	-9239
▁Punjab	-9240
▁civile	-9241
▁ethnic	-9242
▁format	-9243
▁fuerte	-9244
▁growth	-9245
▁intent	-9246
akterien	-9247
▁brought	-9248
▁digital	-9249
▁getötet	-9250
▁cristian	-9251
▁geholfen	-9252
▁protagon	-9253
▁المستخدمة	-9254
▁británicos	-9255
CM	-9256
イス	-9257
195	-9258
Vor	-9259
لات	-9260
▁GE	-9261
▁مر	-9262
ゴジラ	-9263
less	-9264
odge	-9265
play	-9266
rary	-9267
▁176	-9268
▁500	-9269
▁nie	-9270
▁ráp	-9271
▁دعم	-9272
▁فقد	-9273
▁مون	-9274
iados	-9275
ianza	-9276
uscon	-9277
▁acus	-9278
▁park	-9279
▁sang	-9280
▁اللي	-9281
▁منصب	-9282
▁يزال	-9283
しているの	-9284
どれですか	-9285
▁enseñ	-9286
▁every	-9287
▁makes	-9288
▁medic	-9289
▁notre	-9290
何年のことか	-9291
▁ejempl	-9292
▁erhöht	-9293
▁famili	-9294
▁higher	-9295
▁kommen	-9296
▁الوحيد	-9297
▁بجائزة	-9298
▁مارشال	-9299
getreten	-9300
▁benannt	-9301
▁records	-9302
▁الجنوبي	-9303
▁الحشرات	-9304
▁برشلونة	-9305
▁Englisch	-9306
▁البرتغال	-9307
▁ايزنهاور	-9308
▁comúnmente	-9309
غل	-9310
、『	-9311
スコ	-9312
朝の	-9313
bes	-9314
اذا	-9315
نائ	-9316
▁50	-9317
▁90	-9318
は誰が	-9319
acio	-9320
avía	-9321
bour	-9322
gers	-9323
irió	-9324
izei	-9325
ouse	-9326
▁Kap	-9327
▁Sep	-9328
▁neu	-9329
▁prá	-9330
cidad	-9331
▁anne	-9332
▁العق	-9333
▁القب	-9334
untain	-9335
▁2010,	-9336
▁Größe	-9337
▁along	-9338
▁censo	-9339
▁dalle	-9340
▁decis	-9341
▁glaci	-9342
▁perso	-9343
▁البوم	-9344
▁قاعدة	-9345
▁applic	-9346
▁fuente	-9347
▁killed	-9348
▁source	-9349
▁target	-9350
▁البروت	-9351
▁الهجرة	-9352
pression	-9353
▁defensa	-9354
▁municip	-9355
したのは誰ですか	-9356
ellschaft	-9357
▁previous	-9358
دو	-9359
يتو	-9360
▁80	-9361
▁má	-9362
かれた	-9363
してい	-9364
フォル	-9365
bten	-9366
emon	-9367
tico	-9368
▁Mut	-9369
▁erk	-9370
▁nat	-9371
この文書	-9372
どちらか	-9373
▁Gold	-9374
▁Norm	-9375
▁aere	-9376
▁coll	-9377
▁fino	-9378
▁foto	-9379
▁jugó	-9380
▁seen	-9381
▁spez	-9382
▁المر	-9383
▁حركة	-9384
▁والع	-9385
amenti	-9386
asthan	-9387
ettura	-9388
schung	-9389
▁Kolon	-9390
▁delhi	-9391
▁golpe	-9392
▁hinzu	-9393
▁issue	-9394
▁بوسطن	-9395
▁والتي	-9396
erstand	-9397
▁Afrika	-9398
▁Bundes	-9399
▁Landes	-9400
▁Amerika	-9401
▁animals	-9402
▁ricerca	-9403
▁todavía	-9404
▁verific	-9405
▁without	-9406
▁الرومان	-9407
▁francesi	-9408
▁maggiore	-9409
▁النباتات	-9410
▁häufigsten	-9411
▁utilizzati	-9412
の国	-9413
演じ	-9414
被害	-9415
egt	-9416
gor	-9417
طية	-9418
لاك	-9419
時点で	-9420
osex	-9421
rige	-9422
▁Erw	-9423
▁anf	-9424
▁lok	-9425
▁pay	-9426
▁حجم	-9427
▁يدع	-9428
stein	-9429
▁Eins	-9430
▁sopr	-9431
▁verh	-9432
▁تقدم	-9433
▁فريد	-9434
ezioni	-9435
▁Hunde	-9436
▁arriv	-9437
▁getro	-9438
▁miles	-9439
▁obras	-9440
▁الطرق	-9441
amentos	-9442
liament	-9443
▁entsch	-9444
▁pueblo	-9445
▁puerto	-9446
▁المواد	-9447
▁توفالو	-9448
كنولوجيا	-9449
▁fondata	-9450
▁llamaba	-9451
▁militär	-9452
▁الهندسة	-9453
▁Material	-9454
▁proprietà	-9455
▁الرومانية	-9456
▁desarrolló	-9457
の本	-9458
カン	-9459
ビル	-9460
時の	-9461
議員	-9462
اطق	-9463
▁ار	-9464
gere	-9465
ills	-9466
itch	-9467
mpre	-9468
▁Ben	-9469
▁cic	-9470
▁ern	-9471
▁gal	-9472
▁gut	-9473
▁mut	-9474
▁فون	-9475
アルバム	-9476
elect	-9477
onian	-9478
ufact	-9479
▁lago	-9480
▁oggi	-9481
▁تشير	-9482
Inseln	-9483
érique	-9484
▁Green	-9485
▁until	-9486
▁عنوان	-9487
▁Kompon	-9488
▁deport	-9489
▁halten	-9490
▁nieder	-9491
▁oldest	-9492
▁اللعبة	-9493
▁dirigió	-9494
▁modello	-9495
▁related	-9496
▁science	-9497
▁Russland	-9498
▁elemento	-9499
▁involved	-9500
▁العسكرية	-9501
▁الكلاسيكية	-9502
üg	-9503
▁ó	-9504
利用	-9505
abt	-9506
elf	-9507
iód	-9508
ram	-9509
الت	-9510
▁Op	-9511
すると	-9512
ipro	-9513
itte	-9514
rift	-9515
▁Kup	-9516
▁méd	-9517
▁roy	-9518
▁sil	-9519
▁اسس	-9520
はどこに	-9521
ohner	-9522
posed	-9523
ville	-9524
سيقية	-9525
▁Conf	-9526
▁Cost	-9527
▁Gall	-9528
▁Show	-9529
▁afro	-9530
▁doll	-9531
▁luce	-9532
▁تظهر	-9533
autama	-9534
ettbew	-9535
ionato	-9536
itaria	-9537
pieler	-9538
▁Durch	-9539
▁Zweck	-9540
▁cover	-9541
▁immun	-9542
▁jedes	-9543
▁Übers	-9544
▁السري	-9545
▁الشمس	-9546
▁Sowjet	-9547
▁Städte	-9548
▁Austria	-9549
▁Montini	-9550
▁gekauft	-9551
▁guidato	-9552
▁montaña	-9553
▁subject	-9554
▁uranium	-9555
▁version	-9556
▁الاعمال	-9557
▁نانجينج	-9558
▁Künstler	-9559
▁designed	-9560
▁الامريكيين	-9561
▁dispositivo	-9562
Or	-9563
バル	-9564
時に	-9565
190	-9566
Did	-9567
het	-9568
ovo	-9569
بيق	-9570
حاس	-9571
▁On	-9572
イング	-9573
漱石が	-9574
aker	-9575
ußen	-9576
جميع	-9577
▁hon	-9578
▁jem	-9579
ワールド	-9580
Stadt	-9581
field	-9582
liest	-9583
ption	-9584
▁Real	-9585
▁gave	-9586
▁mong	-9587
▁بناؤ	-9588
▁سوبر	-9589
▁Daten	-9590
▁Vögel	-9591
▁apoyo	-9592
▁divid	-9593
▁lleva	-9594
▁reduz	-9595
▁valor	-9596
▁زيادة	-9597
▁histór	-9598
▁nación	-9599
▁periód	-9600
▁return	-9601
▁المحيط	-9602
▁celebra	-9603
▁podrían	-9604
▁ranking	-9605
▁millones	-9606
▁bacterias	-9607
▁dirección	-9608
▁information	-9609
äß	-9610
シー	-9611
完成	-9612
300	-9613
bil	-9614
ulg	-9615
فاض	-9616
▁Ak	-9617
▁BC	-9618
▁أن	-9619
-200	-9620
بورن	-9621
طلسي	-9622
فهوم	-9623
وائي	-9624
▁Pan	-9625
▁jur	-9626
▁mez	-9627
▁ved	-9628
▁منت	-9629
ances	-9630
unter	-9631
yoncé	-9632
▁Eton	-9633
▁jähr	-9634
icanos	-9635
▁erfor	-9636
▁heute	-9637
▁legno	-9638
▁proto	-9639
▁الوحي	-9640
▁كانون	-9641
geführt	-9642
▁Buddha	-9643
▁Schiff	-9644
▁father	-9645
▁الحدود	-9646
▁Industr	-9647
▁Society	-9648
▁ferrovi	-9649
▁ocurrió	-9650
▁الاشارة	-9651
▁الصينية	-9652
▁امريكان	-9653
▁estudios	-9654
▁examples	-9655
▁stazione	-9656
エジ	-9657
制作	-9658
問題	-9659
考え	-9660
Cuy	-9661
Wem	-9662
amt	-9663
edy	-9664
itr	-9665
خفض	-9666
روس	-9667
يوخ	-9668
のため	-9669
ires	-9670
über	-9671
واعد	-9672
▁177	-9673
▁cul	-9674
Quand	-9675
atell	-9676
vanni	-9677
▁Mann	-9678
▁budd	-9679
▁east	-9680
▁envi	-9681
▁fast	-9682
▁rech	-9683
▁supp	-9684
gefügt	-9685
indung	-9686
▁María	-9687
▁allen	-9688
▁fight	-9689
▁sconf	-9690
▁بورما	-9691
▁مستوى	-9692
▁Egitto	-9693
▁Partei	-9694
▁access	-9695
▁alcune	-9696
▁instal	-9697
▁celebró	-9698
▁elected	-9699
▁extranj	-9700
▁francés	-9701
▁mercado	-9702
▁العملية	-9703
▁agricult	-9704
▁district	-9705
▁كارولينا	-9706
▁filosofía	-9707
▁finalmente	-9708
▁gearbeitet	-9709
▁utilizzata	-9710
▁traditional	-9711
8,	-9712
iy	-9713
خي	-9714
める	-9715
ジン	-9716
作戦	-9717
初の	-9718
首相	-9719
acy	-9720
ibe	-9721
ائق	-9722
صلة	-9723
できる	-9724
aban	-9725
chan	-9726
▁max	-9727
▁دفع	-9728
▁صوت	-9729
によると	-9730
imaur	-9731
طولات	-9732
▁Fred	-9733
▁Sign	-9734
▁Trib	-9735
▁cour	-9736
▁cual	-9737
▁move	-9738
▁racc	-9739
▁المغ	-9740
▁الوا	-9741
▁انهم	-9742
ディズニー	-9743
puesta	-9744
▁added	-9745
▁cobre	-9746
▁hacia	-9747
▁infer	-9748
▁inner	-9749
▁lived	-9750
▁molto	-9751
▁conven	-9752
▁explor	-9753
▁früher	-9754
▁portug	-9755
▁Problem	-9756
▁abgesch	-9757
▁foreign	-9758
▁strateg	-9759
▁suggest	-9760
▁السنوات	-9761
▁المجتمع	-9762
▁antibiot	-9763
▁scoperto	-9764
▁alrededor	-9765
▁hyderabad	-9766
▁العثمانية	-9767
▁المعمارية	-9768
▁proporciona	-9769
▁الكاثوليكية	-9770
22	-9771
ラク	-9772
場所	-9773
布告	-9774
auf	-9775
بيض	-9776
رعة	-9777
صال	-9778
John	-9779
bury	-9780
emor	-9781
igan	-9782
دمات	-9783
لسفة	-9784
هوري	-9785
يامي	-9786
▁178	-9787
▁mix	-9788
▁كما	-9789
を受けた	-9790
elehr	-9791
innen	-9792
mento	-9793
redit	-9794
وريدا	-9795
▁Merc	-9796
▁abit	-9797
▁allo	-9798
▁dado	-9799
▁krit	-9800
▁uses	-9801
▁الخل	-9802
▁برون	-9803
▁تحدث	-9804
▁تحمل	-9805
▁لاعب	-9806
▁وجود	-9807
▁aérea	-9808
▁corpo	-9809
▁hogar	-9810
▁الحكم	-9811
▁السبب	-9812
▁كوريا	-9813
▁eléctr	-9814
▁gehabt	-9815
▁risult	-9816
▁الشيوخ	-9817
ものは何ですか	-9818
▁Supreme	-9819
▁appoint	-9820
▁geograf	-9821
▁könnten	-9822
▁السيطرة	-9823
▁Struktur	-9824
▁kontroll	-9825
▁untersch	-9826
▁Bakterien	-9827
▁tecnología	-9828
▁bemerkenswer	-9829
▁construction	-9830
ko	-9831
sa	-9832
唯一	-9833
宮崎	-9834
構成	-9835
記念	-9836
rav	-9837
tel	-9838
تقد	-9839
غام	-9840
غيل	-9841
▁FA	-9842
▁حل	-9843
を獲得	-9844
acto	-9845
agen	-9846
crit	-9847
merz	-9848
onde	-9849
schl	-9850
uido	-9851
▁Ang	-9852
▁Mid	-9853
▁Web	-9854
▁fün	-9855
▁sem	-9856
▁كون	-9857
▁ليس	-9858
はいくら	-9859
istán	-9860
stead	-9861
▁2002	-9862
▁Term	-9863
▁Tier	-9864
▁atac	-9865
▁bein	-9866
▁capo	-9867
▁casi	-9868
▁clás	-9869
▁farm	-9870
▁pubs	-9871
wealth	-9872
▁Human	-9873
▁Volks	-9874
▁année	-9875
▁earth	-9876
▁extin	-9877
▁merid	-9878
▁oppos	-9879
▁theor	-9880
▁verde	-9881
▁ايران	-9882
▁حكومة	-9883
▁علاقة	-9884
▁alemán	-9885
▁copper	-9886
▁corpor	-9887
▁strong	-9888
▁اكتشاف	-9889
▁concorr	-9890
▁التغيير	-9891
▁economic	-9892
▁konzentr	-9893
▁presente	-9894
▁calendario	-9895
▁parlamento	-9896
▁hinzugefügt	-9897
RA	-9898
مد	-9899
で何	-9900
の作	-9901
orf	-9902
pes	-9903
نال	-9904
▁حر	-9905
2020	-9906
cita	-9907
▁Bed	-9908
▁Ibn	-9909
▁Kop	-9910
▁blo	-9911
▁كيف	-9912
▁متح	-9913
であるか	-9914
エジプト	-9915
▁Hong	-9916
▁Kind	-9917
▁conj	-9918
▁mese	-9919
▁torn	-9920
▁wann	-9921
▁يملك	-9922
のタイトル	-9923
▁Monat	-9924
▁kerry	-9925
▁revis	-9926
▁según	-9927
▁space	-9928
endenza	-9929
▁Spiele	-9930
▁ataque	-9931
▁famosa	-9932
▁offici	-9933
▁police	-9934
▁Angriff	-9935
▁Neptune	-9936
▁الدولية	-9937
▁Philadel	-9938
▁insectos	-9939
▁السياسية	-9940
▁getroffen	-9941
Er	-9942
SC	-9943
TO	-9944
世は	-9945
宣戦	-9946
年と	-9947
挙げ	-9948
統治	-9949
関係	-9950
Ant	-9951
FPA	-9952
ayy	-9953
mos	-9954
zer	-9955
راص	-9956
ويت	-9957
▁Kü	-9958
1939	-9959
1943	-9960
ajes	-9961
ardo	-9962
esis	-9963
iegt	-9964
راءة	-9965
▁Ord	-9966
▁alf	-9967
▁شيء	-9968
宣戦布告	-9969
ienza	-9970
ónica	-9971
▁brev	-9972
▁care	-9973
▁rete	-9974
▁État	-9975
フォルニア	-9976
uments	-9977
▁2008,	-9978
▁espec	-9979
▁grant	-9980
▁teams	-9981
▁ultim	-9982
▁المحت	-9983
▁تعيين	-9984
ionales	-9985
tazione	-9986
▁Martin	-9987
▁cinese	-9988
▁decade	-9989
▁eingef	-9990
▁humans	-9991
▁quello	-9992
▁siendo	-9993
▁داروين	-9994
ivamente	-9995
▁Prussia	-9996
▁الالعاب	-9997
▁التحقيق	-9998
▁permitió	-9999
▁Vergleich	-10000
▁شوارزنيجر	-10001
▁información	-10002
▁independencia	-10003
),	-10004
ox	-10005
رد	-10006
さん	-10007
委員	-10008
emb	-10009
▁مز	-10010
ことを	-10011
発電所	-10012
hoto	-10013
olas	-10014
ulas	-10015
نائس	-10016
▁cru	-10017
▁ted	-10018
▁جلب	-10019
▁غزو	-10020
quart	-10021
▁Ausw	-10022
▁Liga	-10023
▁Slav	-10024
▁iran	-10025
▁lado	-10026
▁loss	-10027
▁pian	-10028
▁prot	-10029
▁اقدم	-10030
atorio	-10031
ensive	-10032
ändern	-10033
▁Arena	-10034
▁avant	-10035
▁deber	-10036
▁forza	-10037
▁isole	-10038
▁olímp	-10039
▁parts	-10040
▁segur	-10041
▁übern	-10042
▁اسلوب	-10043
▁Design	-10044
▁Grande	-10045
▁Kansas	-10046
▁conect	-10047
▁expans	-10048
▁patent	-10049
▁quería	-10050
▁Krieges	-10051
▁bambini	-10052
▁diritti	-10053
▁المالية	-10054
▁الوحيدة	-10055
▁Anführer	-10056
▁Division	-10057
▁Einfluss	-10058
▁Veränder	-10059
▁institut	-10060
▁première	-10061
▁ريتشموند	-10062
したのはいつですか	-10063
▁satellite	-10064
▁الاتحادية	-10065
öffentlichung	-10066
23	-10067
بط	-10068
وص	-10069
オブ	-10070
ズの	-10071
ブリ	-10072
ヘル	-10073
取り	-10074
大陸	-10075
組織	-10076
Pre	-10077
row	-10078
ائر	-10079
زاء	-10080
يدر	-10081
Stud	-10082
ered	-10083
face	-10084
iron	-10085
▁And	-10086
▁Net	-10087
▁Frau	-10088
▁Link	-10089
▁join	-10090
▁salv	-10091
▁تشكل	-10092
▁حالة	-10093
ournal	-10094
▁Spitz	-10095
▁dagli	-10096
▁linea	-10097
▁purch	-10098
▁share	-10099
▁tanto	-10100
▁zonas	-10101
▁اغنية	-10102
とは何ですか	-10103
▁artist	-10104
▁discip	-10105
▁Kingdom	-10106
▁ciencia	-10107
▁Computer	-10108
▁Nationen	-10109
▁chiamata	-10110
▁universal	-10111
▁Philadelph	-10112
▁revolución	-10113
▁Presbyterian	-10114
ジュ	-10115
ハー	-10116
Ges	-10117
ité	-10118
lex	-10119
ريب	-10120
▁23	-10121
▁Ap	-10122
▁نج	-10123
ノミネ	-10124
asta	-10125
iers	-10126
oven	-10127
▁Beg	-10128
▁Völ	-10129
▁ign	-10130
▁vid	-10131
▁قرن	-10132
ombra	-10133
▁Fall	-10134
▁Live	-10135
▁drug	-10136
▁prus	-10137
▁الشع	-10138
▁فران	-10139
▁ماري	-10140
ノミネート	-10141
フランスの	-10142
endant	-10143
uellen	-10144
▁Corte	-10145
▁Samoa	-10146
▁aprob	-10147
▁river	-10148
▁terzo	-10149
▁الغذا	-10150
▁منظمة	-10151
オーストリア	-10152
▁Inform	-10153
▁define	-10154
▁anthrop	-10155
▁älteste	-10156
▁الاطلسي	-10157
▁الروسية	-10158
▁earliest	-10159
▁ejemplos	-10160
▁elezioni	-10161
▁iniziata	-10162
▁montagne	-10163
▁definiert	-10164
▁identific	-10165
▁militares	-10166
▁السوفييتية	-10167
25	-10168
قب	-10169
وض	-10170
を出	-10171
設置	-10172
isa	-10173
ple	-10174
íes	-10175
ادر	-10176
فول	-10177
ليب	-10178
هاء	-10179
▁XV	-10180
dete	-10181
gend	-10182
unes	-10183
▁Sur	-10184
▁dav	-10185
▁للش	-10186
オスマン	-10187
andon	-10188
ibili	-10189
▁Grün	-10190
▁chem	-10191
▁deve	-10192
▁hoch	-10193
▁sont	-10194
▁للمس	-10195
Aparte	-10196
tember	-10197
▁1980?	-10198
▁Emper	-10199
▁Instr	-10200
▁Order	-10201
▁livre	-10202
▁store	-10203
▁tutto	-10204
▁حديقة	-10205
cidente	-10206
▁besond	-10207
▁specif	-10208
▁ultima	-10209
▁Verteid	-10210
▁Wassers	-10211
▁cerveza	-10212
▁install	-10213
▁relativ	-10214
▁versión	-10215
▁الدينية	-10216
▁الرسمية	-10217
uminación	-10218
▁convertido	-10219
▁öffentlichen	-10220
▁Premierminister	-10221
ヒト	-10222
死亡	-10223
物語	-10224
部の	-10225
teg	-10226
▁Nu	-10227
▁اف	-10228
アジア	-10229
カール	-10230
hand	-10231
hirn	-10232
osop	-10233
phen	-10234
öder	-10235
صدار	-10236
فساء	-10237
ناصر	-10238
▁Apr	-10239
▁Dok	-10240
▁Erf	-10241
▁Tai	-10242
▁fib	-10243
ambre	-10244
ivere	-10245
oline	-10246
▁2021	-10247
▁Bond	-10248
▁Dire	-10249
▁impa	-10250
▁left	-10251
▁orth	-10252
▁past	-10253
▁stim	-10254
▁turn	-10255
ものですか	-10256
▁decre	-10257
▁empie	-10258
▁films	-10259
▁santa	-10260
▁studi	-10261
▁übers	-10262
ニューヨーク	-10263
chester	-10264
▁genere	-10265
▁member	-10266
▁Airport	-10267
▁Catalan	-10268
▁denomin	-10269
▁require	-10270
▁romanos	-10271
▁sarebbe	-10272
▁الممتاز	-10273
▁Mondiale	-10274
▁cantante	-10275
▁capacidad	-10276
▁orientale	-10277
▁territory	-10278
▁controvers	-10279
▁iluminación	-10280
▁internazionale	-10281
けた	-10282
ソン	-10283
マル	-10284
rat	-10285
▁ec	-10286
▁fá	-10287
▁تغ	-10288
とする	-10289
amas	-10290
cord	-10291
hmer	-10292
kins	-10293
spap	-10294
utto	-10295
اراة	-10296
جلات	-10297
قيقة	-10298
كلفة	-10299
لبية	-10300
▁CBC	-10301
▁افت	-10302
▁الظ	-10303
▁قوة	-10304
ورنيا	-10305
▁1940	-10306
▁نقطة	-10307
▁يحمل	-10308
▁يلعب	-10309
ientes	-10310
▁Broad	-10311
▁Licht	-10312
▁ampli	-10313
▁giapp	-10314
▁green	-10315
▁leyes	-10316
▁marzo	-10317
▁retir	-10318
▁sorti	-10319
▁tarde	-10320
▁اعمال	-10321
▁البدا	-10322
▁النظر	-10323
▁تشارك	-10324
▁تعداد	-10325
▁غرامي	-10326
▁Campus	-10327
▁Kommun	-10328
▁arrest	-10329
▁bezahl	-10330
▁cattol	-10331
▁cittad	-10332
▁nuevos	-10333
▁مقارنة	-10334
▁يعيشون	-10335
erschaft	-10336
▁Konzept	-10337
▁Records	-10338
▁attività	-10339
▁البرازيل	-10340
▁agreement	-10341
▁religiosa	-10342
▁beschreiben	-10343
9,	-10344
TA	-10345
نك	-10346
成立	-10347
cra	-10348
hof	-10349
ادل	-10350
جون	-10351
▁مم	-10352
2000	-10353
anad	-10354
erto	-10355
hang	-10356
igli	-10357
uild	-10358
رجمة	-10359
▁Les	-10360
▁dog	-10361
▁jüd	-10362
▁lik	-10363
▁pér	-10364
biter	-10365
ieben	-10366
▁beha	-10367
▁days	-10368
▁rigu	-10369
▁فرقة	-10370
▁deriv	-10371
▁hayek	-10372
▁salud	-10373
▁spagn	-10374
▁uccis	-10375
▁value	-10376
▁الدرا	-10377
▁القطب	-10378
▁تسجيل	-10379
▁تقديم	-10380
Während	-10381
zählung	-10382
▁Govern	-10383
▁Kupfer	-10384
▁creado	-10385
▁democr	-10386
▁espect	-10387
▁popper	-10388
▁ارسنال	-10389
▁بروسيا	-10390
ähigkeit	-10391
▁japones	-10392
▁suprema	-10393
▁zweiten	-10394
▁العالمي	-10395
▁المعروف	-10396
▁فلوريدا	-10397
▁Giovanni	-10398
▁Richtung	-10399
▁modernen	-10400
▁الأمريكي	-10401
▁representa	-10402
▁utilizados	-10403
-0	-10404
1,	-10405
DS	-10406
شة	-10407
に何	-10408
事業	-10409
子の	-10410
小説	-10411
建築	-10412
Kon	-10413
jes	-10414
nel	-10415
صائ	-10416
▁Da	-10417
▁él	-10418
ション	-10419
emás	-10420
ilen	-10421
otor	-10422
ربعة	-10423
▁ble	-10424
▁kam	-10425
▁shi	-10426
▁vir	-10427
▁دون	-10428
▁ذكر	-10429
▁للع	-10430
About	-10431
entum	-10432
▁Fest	-10433
▁Prim	-10434
▁jefe	-10435
▁nept	-10436
▁weiß	-10437
▁استع	-10438
▁ايرل	-10439
▁يطلق	-10440
سيفساء	-10441
▁advan	-10442
▁natür	-10443
▁remov	-10444
▁árbol	-10445
▁الفائ	-10446
▁طريقة	-10447
▁علماء	-10448
▁يونيو	-10449
gesetzt	-10450
▁Jahrze	-10451
▁accept	-10452
▁además	-10453
▁signed	-10454
▁الغربي	-10455
istische	-10456
▁betrach	-10457
▁madaris	-10458
▁trovato	-10459
▁الصغيرة	-10460
▁ميلبورن	-10461
اليفورنيا	-10462
▁Freimaur	-10463
▁Untersch	-10464
▁Beispiele	-10465
▁September	-10466
▁community	-10467
▁europäischen	-10468
▁französische	-10469
▁universities	-10470
DP	-10471
SP	-10472
SS	-10473
جن	-10474
لت	-10475
の何	-10476
ギリ	-10477
ゼル	-10478
ワー	-10479
多い	-10480
oca	-10481
برى	-10482
طلب	-10483
▁DC	-10484
には何	-10485
誰なの	-10486
essi	-10487
ises	-10488
ittà	-10489
▁Kub	-10490
▁قسم	-10491
▁محا	-10492
▁free	-10493
▁hält	-10494
▁secu	-10495
▁الحض	-10496
▁النم	-10497
▁ظهرت	-10498
▁فالن	-10499
▁يسبب	-10500
iembre	-10501
▁2009,	-10502
▁Power	-10503
▁Sound	-10504
▁actor	-10505
▁führt	-10506
▁llamó	-10507
▁porta	-10508
▁sever	-10509
したのはいつ	-10510
▁Common	-10511
▁cotton	-10512
▁diplom	-10513
▁living	-10514
▁motore	-10515
▁obiett	-10516
▁vicino	-10517
▁الحصول	-10518
カリフォルニア	-10519
Dynastie	-10520
▁Polizei	-10521
▁Service	-10522
▁cambios	-10523
▁publish	-10524
▁الهوائي	-10525
▁فالنسيا	-10526
▁mientras	-10527
▁presiden	-10528
▁pubblico	-10529
▁regional	-10530
▁versione	-10531
▁الطائرات	-10532
▁comunidad	-10533
▁significant	-10534
▁tradicional	-10535
4,	-10536
が高	-10537
意味	-10538
決定	-10539
Bew	-10540
agd	-10541
örd	-10542
ارب	-10543
افر	-10544
ضوع	-10545
▁45	-10546
eten	-10547
ويات	-10548
▁Kie	-10549
▁ogg	-10550
▁org	-10551
▁tip	-10552
▁سبب	-10553
メンバー	-10554
発生した	-10555
ables	-10556
atory	-10557
ayana	-10558
ífico	-10559
▁Erde	-10560
▁Pass	-10561
▁cong	-10562
▁fase	-10563
▁الاث	-10564
iética	-10565
▁Franz	-10566
▁nennt	-10567
▁stamp	-10568
▁الترك	-10569
▁تقسيم	-10570
はいつですか	-10571
▁branch	-10572
▁expect	-10573
▁fiesta	-10574
▁impres	-10575
▁medios	-10576
▁ultimo	-10577
▁الكبرى	-10578
▁المزيد	-10579
▁امريكي	-10580
▁Station	-10581
▁animali	-10582
▁condado	-10583
▁mosaico	-10584
▁pública	-10585
▁alemanes	-10586
▁anterior	-10587
ificazione	-10588
▁Consiglio	-10589
▁regarding	-10590
▁structure	-10591
▁sostituito	-10592
▁wirtschaft	-10593
▁griechischen	-10594
7,	-10595
Sp	-10596
ím	-10597
を指	-10598
者は	-10599
輸送	-10600
ihe	-10601
rib	-10602
upl	-10603
ارس	-10604
قال	-10605
に位置	-10606
eget	-10607
llen	-10608
vant	-10609
ئوية	-10610
وقات	-10611
▁Cub	-10612
▁Mah	-10613
▁Tom	-10614
▁Zel	-10615
▁ero	-10616
▁sow	-10617
▁وسط	-10618
どちらが	-10619
elebt	-10620
retto	-10621
▁astr	-10622
▁disp	-10623
entrum	-10624
▁Linie	-10625
▁Speci	-10626
▁Vater	-10627
▁creen	-10628
▁donne	-10629
▁entst	-10630
▁zerst	-10631
▁البوذ	-10632
▁السلة	-10633
▁ثلاثة	-10634
▁شخصية	-10635
▁ميامي	-10636
▁attacc	-10637
▁erfolg	-10638
istencia	-10639
▁Ireland	-10640
▁Politik	-10641
▁monarch	-10642
▁termini	-10643
▁استونيا	-10644
▁aufgrund	-10645
▁politico	-10646
▁organismo	-10647
▁entstanden	-10648
▁relaciones	-10649
▁Philosophie	-10650
▁griechische	-10651
▁Constitución	-10652
▁schwarzenegger	-10653
PC	-10654
ظي	-10655
を結	-10656
可能	-10657
数が	-10658
革命	-10659
راث	-10660
سام	-10661
▁Sü	-10662
の名称	-10663
は何か	-10664
alin	-10665
alla	-10666
eggi	-10667
kord	-10668
rief	-10669
vole	-10670
هلية	-10671
▁Ast	-10672
▁Haw	-10673
▁cód	-10674
▁ibn	-10675
▁lit	-10676
▁إلى	-10677
▁حزب	-10678
▁دين	-10679
▁وما	-10680
▁يهو	-10681
porto	-10682
ultan	-10683
هرجان	-10684
▁Auss	-10685
▁guer	-10686
▁mach	-10687
▁side	-10688
▁النف	-10689
▁تطور	-10690
▁خدمة	-10691
worfen	-10692
▁April	-10693
▁Laser	-10694
▁giorn	-10695
▁monta	-10696
▁schia	-10697
▁البيت	-10698
▁اللون	-10699
▁المئة	-10700
▁nutzen	-10701
▁passed	-10702
▁planta	-10703
▁sector	-10704
ierungen	-10705
▁civiliz	-10706
▁concurs	-10707
▁enthält	-10708
▁firmato	-10709
▁neptuno	-10710
▁soprann	-10711
▁uccelli	-10712
▁التنفيذ	-10713
▁deuxième	-10714
▁esclavos	-10715
▁manufact	-10716
▁reconoci	-10717
▁الديمقرا	-10718
▁الموافقة	-10719
▁superiore	-10720
ضي	-10721
قى	-10722
ッチ	-10723
テン	-10724
人が	-10725
初代	-10726
評価	-10727
New	-10728
bey	-10729
tol	-10730
ush	-10731
الد	-10732
Sind	-10733
Team	-10734
raum	-10735
ايير	-10736
▁Muh	-10737
▁god	-10738
▁put	-10739
▁rep	-10740
▁sab	-10741
▁sic	-10742
▁كول	-10743
Krieg	-10744
▁Game	-10745
▁abge	-10746
▁beer	-10747
▁deal	-10748
▁goal	-10749
▁good	-10750
▁half	-10751
▁اباد	-10752
▁العب	-10753
▁توقف	-10754
▁جديد	-10755
▁جيمس	-10756
▁كثير	-10757
cieron	-10758
iedene	-10759
ührung	-10760
▁Enter	-10761
▁Natur	-10762
▁abbre	-10763
▁achie	-10764
▁crear	-10765
▁اتفاق	-10766
▁Neptun	-10767
▁christ	-10768
▁health	-10769
▁mother	-10770
▁rechaz	-10771
▁symbol	-10772
▁comcast	-10773
▁diverse	-10774
▁diversi	-10775
▁elegido	-10776
▁giocato	-10777
▁längste	-10778
▁mission	-10779
▁newspap	-10780
▁spielen	-10781
▁student	-10782
▁venduto	-10783
▁citizens	-10784
▁definito	-10785
▁nickname	-10786
▁olandese	-10787
▁progetto	-10788
▁quantità	-10789
▁Champions	-10790
▁Macintosh	-10791
▁riconosci	-10792
ximadamente	-10793
▁Universitäten	-10794
Of	-10795
خط	-10796
に分	-10797
勝利	-10798
年度	-10799
uit	-10800
يغو	-10801
▁8?	-10802
▁ce	-10803
coli	-10804
erse	-10805
▁Cas	-10806
▁Kle	-10807
▁Weg	-10808
▁abg	-10809
▁jun	-10810
▁sar	-10811
▁مما	-10812
arily	-10813
ateur	-10814
iende	-10815
produ	-10816
▁Idee	-10817
▁Trad	-10818
▁nave	-10819
▁الهي	-10820
▁تيتو	-10821
iction	-10822
ograph	-10823
▁Congo	-10824
▁Serie	-10825
▁Video	-10826
▁apodo	-10827
▁libre	-10828
▁lista	-10829
▁memor	-10830
▁names	-10831
▁señal	-10832
▁todas	-10833
▁while	-10834
▁الصيد	-10835
▁يحتوي	-10836
cellona	-10837
▁Schaus	-10838
▁colleg	-10839
▁formas	-10840
▁parque	-10841
▁scritt	-10842
ironment	-10843
▁Central	-10844
▁account	-10845
▁climate	-10846
▁finanzi	-10847
▁testigos	-10848
▁utilizza	-10849
▁comercial	-10850
▁entworfen	-10851
▁increased	-10852
▁personaje	-10853
▁estaciones	-10854
▁PlayStation	-10855
▁comunicación	-10856
xi	-10857
بح	-10858
جي	-10859
しい	-10860
国際	-10861
結果	-10862
jas	-10863
áns	-10864
راة	-10865
رفي	-10866
ريم	-10867
قاء	-10868
مين	-10869
ورك	-10870
▁Du	-10871
▁mp	-10872
▁وك	-10873
cios	-10874
eses	-10875
ikal	-10876
izza	-10877
ktis	-10878
ließ	-10879
املة	-10880
▁19?	-10881
▁Hal	-10882
▁Tro	-10883
▁adm	-10884
▁nas	-10885
▁sla	-10886
▁tal	-10887
▁مان	-10888
äuser	-10889
▁FIFA	-10890
▁Lord	-10891
▁Sied	-10892
▁Uran	-10893
▁Wars	-10894
▁dejó	-10895
▁nörd	-10896
▁الرغ	-10897
▁حقوق	-10898
▁ويند	-10899
licher	-10900
▁Besch	-10901
▁Quran	-10902
▁campe	-10903
▁fanno	-10904
▁indem	-10905
▁petro	-10906
▁refle	-10907
▁white	-10908
▁ادارة	-10909
っていますか	-10910
istenza	-10911
minster	-10912
▁Academ	-10913
▁Jewish	-10914
▁behaup	-10915
▁global	-10916
▁hombre	-10917
▁policy	-10918
▁truppe	-10919
▁würden	-10920
itnesses	-10921
▁Einsatz	-10922
▁Emperor	-10923
▁coinvol	-10924
▁الشركات	-10925
▁الميلاد	-10926
▁Canadian	-10927
▁crescita	-10928
▁encontró	-10929
▁Président	-10930
▁describir	-10931
▁productos	-10932
▁introdotto	-10933
▁technology	-10934
▁übernommen	-10935
حن	-10936
طح	-10937
ガー	-10938
マネ	-10939
Hay	-10940
äge	-10941
تال	-10942
スタン	-10943
ッシュ	-10944
abel	-10945
esos	-10946
pond	-10947
▁Lan	-10948
▁cho	-10949
▁urb	-10950
▁دائ	-10951
▁Hind	-10952
▁alco	-10953
▁done	-10954
▁foss	-10955
▁rein	-10956
▁spos	-10957
▁weib	-10958
▁اطلق	-10959
▁النص	-10960
▁بوتر	-10961
▁2016?	-10962
▁دييغو	-10963
▁Mutter	-10964
▁Rennen	-10965
▁derrot	-10966
▁griega	-10967
▁griego	-10968
▁manera	-10969
▁muchas	-10970
▁verbre	-10971
▁الكائن	-10972
▁Digimon	-10973
▁besiegt	-10974
▁consent	-10975
▁destroy	-10976
▁insieme	-10977
▁partire	-10978
▁studies	-10979
▁الدستور	-10980
ようになったのは	-10981
▁compared	-10982
▁concentr	-10983
▁especial	-10984
▁Americans	-10985
▁franceses	-10986
▁generally	-10987
▁quartiere	-10988
▁ubicación	-10989
▁Barcellona	-10990
▁gobernador	-10991
▁entschieden	-10992
▁normalmente	-10993
▁Unterstützung	-10994
13	-10995
gu	-10996
Gen	-10997
aga	-10998
fon	-10999
ère	-11000
▁60	-11001
▁Kn	-11002
▁رس	-11003
リスト	-11004
Does	-11005
aggi	-11006
änge	-11007
سابق	-11008
▁Sil	-11009
▁job	-11010
▁pir	-11011
▁scr	-11012
▁نيج	-11013
▁Sina	-11014
▁Star	-11015
▁cruz	-11016
▁dura	-11017
▁tito	-11018
▁الحد	-11019
▁حيدر	-11020
▁فازت	-11021
▁Chief	-11022
▁Latin	-11023
▁attac	-11024
▁digit	-11025
▁lower	-11026
▁maxim	-11027
▁suele	-11028
▁نموذج	-11029
▁Associ	-11030
▁Inseln	-11031
▁Modell	-11032
▁extend	-11033
▁influy	-11034
▁things	-11035
▁اختراع	-11036
▁اللغات	-11037
▁Palermo	-11038
▁colonia	-11039
▁genocid	-11040
▁división	-11041
▁gebildet	-11042
▁seguridad	-11043
▁progettato	-11044
▁verschiedene	-11045
ذي	-11046
俳優	-11047
برص	-11048
بعض	-11049
داث	-11050
عيم	-11051
▁CE	-11052
▁Hö	-11053
Film	-11054
iati	-11055
ikel	-11056
ände	-11057
▁Der	-11058
▁بير	-11059
ahlen	-11060
burgo	-11061
esser	-11062
ester	-11063
licht	-11064
umbia	-11065
راءات	-11066
▁Hung	-11067
▁feel	-11068
▁herm	-11069
▁tend	-11070
▁استر	-11071
▁البع	-11072
▁العم	-11073
▁حايك	-11074
derick	-11075
▁Thema	-11076
▁Todes	-11077
▁arena	-11078
▁diego	-11079
▁eigen	-11080
▁forms	-11081
▁sonst	-11082
▁انظمة	-11083
▁رئيسي	-11084
はどのような	-11085
nologie	-11086
oslavia	-11087
▁Gehirn	-11088
▁likely	-11089
▁müssen	-11090
▁الدولي	-11091
▁ويندوز	-11092
tainment	-11093
▁Estland	-11094
▁Sklaven	-11095
▁kingdom	-11096
▁memoria	-11097
▁norfolk	-11098
▁tempran	-11099
▁western	-11100
▁اسرائيل	-11101
▁الكبيرة	-11102
▁concepto	-11103
▁geograph	-11104
▁provided	-11105
▁المقاطعة	-11106
▁Flughafen	-11107
▁bestanden	-11108
▁principio	-11109
▁Gouverneur	-11110
▁Repubblica	-11111
▁verschieden	-11112
▁departamento	-11113
▁wissenschaft	-11114
به	-11115
を書	-11116
カナ	-11117
ダイ	-11118
ース	-11119
家の	-11120
市立	-11121
Mar	-11122
ady	-11123
aux	-11124
hör	-11125
top	-11126
اون	-11127
وال	-11128
▁IV	-11129
▁To	-11130
▁cd	-11131
▁pá	-11132
▁تك	-11133
からか	-11134
年以降	-11135
odón	-11136
onen	-11137
teri	-11138
zech	-11139
فولك	-11140
▁Erd	-11141
▁NES	-11142
▁opt	-11143
▁ترت	-11144
のことか	-11145
apore	-11146
aries	-11147
cerca	-11148
ialen	-11149
under	-11150
ético	-11151
▁Lied	-11152
▁away	-11153
▁añad	-11154
▁hijo	-11155
▁segu	-11156
▁slav	-11157
▁سيتم	-11158
▁قائد	-11159
した人は誰	-11160
ulosis	-11161
▁Anten	-11162
▁Koran	-11163
▁Kreuz	-11164
▁Libia	-11165
▁UNFPA	-11166
▁brain	-11167
▁dimin	-11168
▁klein	-11169
▁lucha	-11170
▁matem	-11171
▁speed	-11172
▁those	-11173
▁البرل	-11174
▁الضوء	-11175
▁الكات	-11176
▁نبتون	-11177
▁Awards	-11178
▁Klasse	-11179
▁gelebt	-11180
▁lingue	-11181
▁الاحمر	-11182
▁المقدس	-11183
▁النحاس	-11184
ationale	-11185
▁algodón	-11186
▁escrito	-11187
▁informe	-11188
▁nombres	-11189
▁الكنائس	-11190
▁المبكرة	-11191
▁نورفولك	-11192
▁possible	-11193
▁residentes	-11194
▁Olympischen	-11195
▁Philadelphia	-11196
▁originariamente	-11197
事故	-11198
小さ	-11199
bte	-11200
lad	-11201
uum	-11202
راح	-11203
ماغ	-11204
ويم	-11205
ともに	-11206
arie	-11207
enne	-11208
pern	-11209
غنية	-11210
▁Tel	-11211
▁غرب	-11212
であった	-11213
ienst	-11214
rique	-11215
ämpft	-11216
▁Inde	-11217
▁adot	-11218
▁atra	-11219
▁bill	-11220
▁gama	-11221
▁phon	-11222
▁sehr	-11223
▁wahr	-11224
▁welt	-11225
▁الاي	-11226
なんですか	-11227
ennung	-11228
riften	-11229
treten	-11230
▁Città	-11231
▁Platz	-11232
▁armas	-11233
▁getan	-11234
atische	-11235
inition	-11236
istiche	-11237
uchtung	-11238
▁Finanz	-11239
▁diseño	-11240
▁online	-11241
▁reserv	-11242
▁spazio	-11243
▁zeigen	-11244
▁النووي	-11245
Amérique	-11246
▁Italien	-11247
▁genutzt	-11248
▁griegos	-11249
▁inaugur	-11250
▁الاخيرة	-11251
▁البشرية	-11252
▁الولاية	-11253
▁Flugzeug	-11254
▁received	-11255
▁utilizar	-11256
▁buildings	-11257
▁erreichen	-11258
▁الاستقلال	-11259
▁estructura	-11260
▁influencia	-11261
▁durchgeführt	-11262
▁französischen	-11263
▁estadounidense	-11264
وش	-11265
およ	-11266
をも	-11267
機の	-11268
正式	-11269
軍は	-11270
ped	-11271
ابس	-11272
ضمن	-11273
لاء	-11274
ناة	-11275
▁ox	-11276
どこで	-11277
ハワイ	-11278
assi	-11279
edge	-11280
ocup	-11281
onic	-11282
tage	-11283
unds	-11284
▁175	-11285
▁Sam	-11286
▁cli	-11287
▁بما	-11288
▁جين	-11289
▁سام	-11290
▁للا	-11291
arono	-11292
onsor	-11293
raele	-11294
uales	-11295
ática	-11296
▁Dest	-11297
▁aire	-11298
▁emot	-11299
▁lamp	-11300
▁lost	-11301
▁neut	-11302
▁الصي	-11303
▁المث	-11304
▁مطار	-11305
▁يمثل	-11306
okkien	-11307
selves	-11308
▁Child	-11309
▁adott	-11310
▁epoca	-11311
▁whose	-11312
▁القوة	-11313
したのは何年	-11314
essione	-11315
stantin	-11316
▁Prince	-11317
▁Verbre	-11318
▁affili	-11319
▁dritte	-11320
▁export	-11321
▁membro	-11322
▁stesso	-11323
▁الاسكا	-11324
▁الحركة	-11325
▁الرسمي	-11326
▁بالقرب	-11327
▁Methode	-11328
▁bezieht	-11329
▁otomano	-11330
▁seguito	-11331
▁Confeder	-11332
▁dialecto	-11333
▁minister	-11334
▁اليزابيث	-11335
▁بالاضافة	-11336
wirtschaft	-11337
▁británica	-11338
▁candidato	-11339
▁direction	-11340
▁dominante	-11341
▁erschienen	-11342
▁industrial	-11343
▁كاليفورنيا	-11344
2,	-11345
SO	-11346
なく	-11347
に就	-11348
政権	-11349
比較	-11350
atr	-11351
جاب	-11352
ضيف	-11353
▁ll	-11354
ことが	-11355
させた	-11356
ヴィル	-11357
ecta	-11358
udas	-11359
▁20?	-11360
▁Bau	-11361
▁Day	-11362
▁Gra	-11363
▁Spe	-11364
▁Way	-11365
▁fís	-11366
anner	-11367
ciare	-11368
iegen	-11369
itare	-11370
tener	-11371
zlach	-11372
▁Text	-11373
▁enco	-11374
▁fire	-11375
▁full	-11376
▁impr	-11377
▁look	-11378
▁week	-11379
▁اسيا	-11380
▁المم	-11381
▁تاتي	-11382
▁هاري	-11383
Nombra	-11384
izzare	-11385
▁1960?	-11386
▁2012,	-11387
▁Porto	-11388
▁Punkt	-11389
▁capaz	-11390
▁lider	-11391
▁niger	-11392
▁التسع	-11393
▁المرج	-11394
vizzera	-11395
▁Palace	-11396
▁assass	-11397
▁incand	-11398
▁kathol	-11399
▁proven	-11400
▁reject	-11401
▁مادونا	-11402
▁Eastern	-11403
▁Islamic	-11404
▁Michael	-11405
▁Segunda	-11406
▁américa	-11407
▁compren	-11408
▁console	-11409
▁espacio	-11410
▁outside	-11411
▁palacio	-11412
▁نيجيريا	-11413
▁Muhammad	-11414
▁aktuelle	-11415
▁gegangen	-11416
▁hospital	-11417
▁الجمهوري	-11418
▁conflicto	-11419
▁diventata	-11420
▁nationale	-11421
▁supported	-11422
▁gobernante	-11423
▁successful	-11424
▁politischen	-11425
▁verursachen	-11426
.0	-11427
SF	-11428
ヘン	-11429
付け	-11430
爆撃	-11431
理由	-11432
ris	-11433
ych	-11434
ñor	-11435
اير	-11436
ليم	-11437
وام	-11438
▁Ev	-11439
▁Go	-11440
hner	-11441
iero	-11442
ueba	-11443
▁muy	-11444
▁oce	-11445
▁زوج	-11446
▁فصل	-11447
▁لكل	-11448
legen	-11449
ograf	-11450
sicht	-11451
▁Bier	-11452
▁aree	-11453
▁lack	-11454
▁neoc	-11455
▁nota	-11456
▁pena	-11457
▁send	-11458
▁sust	-11459
▁técn	-11460
▁zone	-11461
▁حدود	-11462
▁والا	-11463
▁يهوه	-11464
isches	-11465
▁1997?	-11466
▁2011,	-11467
▁Klima	-11468
▁Obers	-11469
▁larga	-11470
▁liegt	-11471
▁seman	-11472
▁traff	-11473
▁wrest	-11474
▁zeigt	-11475
▁اشكال	-11476
▁ستكون	-11477
achstum	-11478
▁classe	-11479
▁deriva	-11480
▁helfen	-11481
▁impact	-11482
▁infant	-11483
▁أمريكا	-11484
▁البناء	-11485
▁المكتب	-11486
していましたか	-11487
egriffen	-11488
▁glauben	-11489
▁البداية	-11490
▁فريدريك	-11491
▁apareció	-11492
▁consiste	-11493
▁entfernt	-11494
▁probable	-11495
▁Community	-11496
▁Soviética	-11497
▁Swaziland	-11498
▁الموسيقية	-11499
▁definition	-11500
▁themselves	-11501
▁meridionale	-11502
▁Schauspieler	-11503
▁Eigenschaften	-11504
yo	-11505
部分	-11506
震災	-11507
Dou	-11508
ahn	-11509
eva	-11510
▁عق	-11511
かけて	-11512
で優勝	-11513
に対し	-11514
Form	-11515
utes	-11516
ابيح	-11517
▁Bei	-11518
▁TCM	-11519
▁aso	-11520
▁err	-11521
▁öst	-11522
erset	-11523
iving	-11524
udson	-11525
▁Hann	-11526
▁adqu	-11527
▁atom	-11528
▁bron	-11529
▁cani	-11530
▁coup	-11531
▁dati	-11532
▁gene	-11533
▁الرق	-11534
によること	-11535
▁Aktiv	-11536
▁Arist	-11537
▁Unión	-11538
▁costo	-11539
▁doctr	-11540
▁frase	-11541
▁regno	-11542
▁royal	-11543
▁taken	-11544
▁urban	-11545
▁إصدار	-11546
▁انتقل	-11547
▁انتهى	-11548
▁اهمية	-11549
▁توسان	-11550
▁نفسها	-11551
issance	-11552
▁código	-11553
▁debate	-11554
▁género	-11555
▁interc	-11556
▁pasado	-11557
▁soviet	-11558
▁superv	-11559
▁terren	-11560
▁terror	-11561
▁الممثل	-11562
▁النسبة	-11563
▁برونكس	-11564
ialmente	-11565
▁Familie	-11566
▁Jackson	-11567
▁arsenal	-11568
▁cerebro	-11569
▁declaró	-11570
▁hunting	-11571
▁pendant	-11572
▁preocup	-11573
▁recuper	-11574
▁squadre	-11575
▁الاتفاق	-11576
▁المحلية	-11577
ländische	-11578
▁frontera	-11579
▁geöffnet	-11580
▁ingresos	-11581
▁reported	-11582
▁البيانات	-11583
▁Witnesses	-11584
▁americani	-11585
▁untersche	-11586
▁revolution	-11587
▁beschrieben	-11588
▁independence	-11589
gn	-11590
zi	-11591
أس	-11592
にも	-11593
クラ	-11594
バン	-11595
بلغ	-11596
جار	-11597
▁Ok	-11598
▁SN	-11599
なのか	-11600
ものは	-11601
ーター	-11602
last	-11603
lies	-11604
unft	-11605
weig	-11606
ören	-11607
ندوق	-11608
▁jou	-11609
▁rin	-11610
▁ارم	-11611
ciata	-11612
illes	-11613
olesc	-11614
oseph	-11615
▁Kons	-11616
▁بدون	-11617
▁منتج	-11618
ysteme	-11619
▁Fried	-11620
▁Invas	-11621
▁compu	-11622
▁forte	-11623
▁leave	-11624
▁micro	-11625
▁negra	-11626
▁مشروع	-11627
▁ميناء	-11628
▁Männer	-11629
▁agosto	-11630
▁destin	-11631
▁dirett	-11632
▁entren	-11633
▁infect	-11634
▁israel	-11635
▁meille	-11636
▁proced	-11637
▁secund	-11638
▁Freddie	-11639
▁Jehovah	-11640
▁alcohol	-11641
▁decline	-11642
▁nuclear	-11643
▁origine	-11644
▁economia	-11645
▁lasciato	-11646
▁stations	-11647
▁Forschung	-11648
▁beginning	-11649
▁described	-11650
▁publicado	-11651
▁residents	-11652
▁acquistato	-11653
▁ciudadanos	-11654
▁matrimonio	-11655
▁westlichen	-11656
▁Institution	-11657
pf	-11658
رر	-11659
▁â	-11660
ボー	-11661
担当	-11662
空襲	-11663
者が	-11664
189	-11665
Seg	-11666
hlt	-11667
اخذ	-11668
جات	-11669
▁sn	-11670
▁رؤ	-11671
▁كث	-11672
したが	-11673
ファー	-11674
cken	-11675
größ	-11676
اعات	-11677
ريات	-11678
ماية	-11679
▁Ven	-11680
▁océ	-11681
▁sog	-11682
ended	-11683
iform	-11684
quipe	-11685
ucion	-11686
▁2016	-11687
▁Bapt	-11688
▁Ghed	-11689
▁Jeff	-11690
▁Kenn	-11691
▁core	-11692
▁istr	-11693
▁lose	-11694
issuto	-11695
nehmer	-11696
▁1950?	-11697
▁1991?	-11698
▁First	-11699
▁Freem	-11700
▁Krank	-11701
▁autob	-11702
▁canal	-11703
▁casas	-11704
▁decor	-11705
▁kanad	-11706
▁rival	-11707
▁Jehová	-11708
▁assent	-11709
▁chinos	-11710
▁cuándo	-11711
▁events	-11712
▁giochi	-11713
▁الرابع	-11714
▁الوصول	-11715
▁للحصول	-11716
▁مختلفة	-11717
▁bestimm	-11718
▁borough	-11719
▁tedesch	-11720
▁terrest	-11721
▁البوذية	-11722
した人は誰ですか	-11723
▁Gheddafi	-11724
▁Varsavia	-11725
▁domestic	-11726
▁lavorato	-11727
▁nazional	-11728
▁primeras	-11729
はどれくらいですか	-11730
▁comparación	-11731
▁tuberculosis	-11732
Als	-11733
rew	-11734
was	-11735
اتج	-11736
اجة	-11737
قاف	-11738
▁Ol	-11739
▁ya	-11740
▁حس	-11741
日本で	-11742
生まれ	-11743
imal	-11744
lava	-11745
rieb	-11746
▁عاد	-11747
▁مبي	-11748
▁هان	-11749
0,000	-11750
allas	-11751
olars	-11752
▁Büro	-11753
▁allí	-11754
▁gall	-11755
▁magn	-11756
▁reag	-11757
▁such	-11758
▁upon	-11759
▁القص	-11760
▁شهود	-11761
Acerca	-11762
castle	-11763
cement	-11764
ington	-11765
úsculo	-11766
▁Czech	-11767
▁Sumer	-11768
▁Vorte	-11769
▁concl	-11770
▁honor	-11771
▁restr	-11772
ikation	-11773
zlachta	-11774
▁Cyprus	-11775
▁besten	-11776
▁conoce	-11777
▁cuenta	-11778
▁having	-11779
▁perdió	-11780
▁reclam	-11781
▁المياه	-11782
▁موجودة	-11783
▁موسيقى	-11784
▁Montana	-11785
▁basiert	-11786
▁fundada	-11787
▁samurai	-11788
▁tedesco	-11789
▁Probleme	-11790
▁erfunden	-11791
▁mantener	-11792
▁Vereinbar	-11793
▁englische	-11794
▁introdujo	-11795
されたのはいつですか	-11796
▁Athanasius	-11797
▁erschaffen	-11798
▁television	-11799
▁Informationen	-11800
▁verschiedenen	-11801
Um	-11802
tv	-11803
نز	-11804
国が	-11805
採用	-11806
民主	-11807
day	-11808
lar	-11809
ráf	-11810
ابع	-11811
ذهب	-11812
راف	-11813
▁70	-11814
▁NP	-11815
▁hd	-11816
を演じ	-11817
ards	-11818
unge	-11819
usto	-11820
ücke	-11821
لكها	-11822
▁Loc	-11823
▁آخر	-11824
▁ضمن	-11825
▁لون	-11826
anned	-11827
يلبرغ	-11828
▁Glas	-11829
▁Irak	-11830
▁Pear	-11831
▁rama	-11832
▁subs	-11833
▁البل	-11834
▁المي	-11835
▁الور	-11836
▁اولا	-11837
▁قدمت	-11838
▁مجال	-11839
cticut	-11840
▁Feuer	-11841
▁Liter	-11842
▁short	-11843
▁stamm	-11844
▁الثان	-11845
▁الجسم	-11846
▁الجنس	-11847
▁autore	-11848
▁electr	-11849
▁sowohl	-11850
▁spoken	-11851
▁الثورة	-11852
▁Dialekt	-11853
▁Italian	-11854
▁eventos	-11855
▁instead	-11856
▁revista	-11857
▁palabras	-11858
▁permesso	-11859
▁prodotti	-11860
▁المسيحية	-11861
▁Antarktis	-11862
▁descubrió	-11863
▁edificios	-11864
▁البكتيريا	-11865
▁Australien	-11866
▁department	-11867
▁eingeführt	-11868
▁riferimento	-11869
▁öffentliche	-11870
Fl	-11871
IP	-11872
او	-11873
川の	-11874
年間	-11875
方法	-11876
hre	-11877
lit	-11878
urb	-11879
ارن	-11880
فيد	-11881
▁26	-11882
▁يخ	-11883
abor	-11884
ands	-11885
izin	-11886
kauf	-11887
▁Boy	-11888
▁Eff	-11889
▁Von	-11890
▁asf	-11891
▁reb	-11892
▁اوا	-11893
▁روب	-11894
▁فشل	-11895
arter	-11896
inesi	-11897
organ	-11898
ستانت	-11899
▁Time	-11900
▁Zink	-11901
▁emit	-11902
▁poco	-11903
▁التد	-11904
▁قيمة	-11905
▁يحصل	-11906
gether	-11907
▁Papst	-11908
▁almac	-11909
▁alter	-11910
▁coast	-11911
▁cosas	-11912
▁efect	-11913
▁laure	-11914
▁negoz	-11915
▁neigh	-11916
▁المدر	-11917
▁صناعة	-11918
▁مناطق	-11919
のことですか	-11920
ormente	-11921
púsculo	-11922
▁academ	-11923
▁bilden	-11924
▁bombar	-11925
▁denaro	-11926
▁dirige	-11927
▁editor	-11928
▁glaubt	-11929
▁irgend	-11930
▁tenden	-11931
▁tradiz	-11932
▁التحكم	-11933
▁العصور	-11934
▁Organis	-11935
▁antenna	-11936
▁attuale	-11937
▁cercato	-11938
▁schnell	-11939
▁society	-11940
▁ارمينيا	-11941
ettbewerb	-11942
▁Funktion	-11943
▁Insekten	-11944
▁communic	-11945
▁comunità	-11946
▁lanciato	-11947
▁ottenere	-11948
▁primaria	-11949
▁weltweit	-11950
▁الروماني	-11951
▁Billboard	-11952
▁religioso	-11953
▁commercial	-11954
▁gemeinsame	-11955
▁الكهربائية	-11956
▁environment	-11957
▁architettura	-11958
▁metropolitana	-11959
bc	-11960
cm	-11961
زر	-11962
オン	-11963
国で	-11964
box	-11965
jar	-11966
lám	-11967
ope	-11968
سيد	-11969
قلة	-11970
ينت	-11971
▁Wo	-11972
▁وث	-11973
ラリア	-11974
asto	-11975
etts	-11976
fert	-11977
king	-11978
ties	-11979
unkt	-11980
خفاض	-11981
▁Deb	-11982
▁Sky	-11983
▁fum	-11984
▁vig	-11985
国はどこ	-11986
ering	-11987
geben	-11988
iance	-11989
▁Heil	-11990
▁Juan	-11991
▁VIII	-11992
▁link	-11993
▁publ	-11994
▁site	-11995
▁vote	-11996
▁wäre	-11997
▁بالك	-11998
▁يظهر	-11999
きましたか	-12000
Nennen	-12001
erheit	-12002
▁Conne	-12003
▁canon	-12004
▁nutzt	-12005
▁veget	-12006
▁única	-12007
▁البار	-12008
▁المكث	-12009
▁سيكون	-12010
gegeben	-12011
undheit	-12012
▁BeiDou	-12013
▁Europä	-12014
▁Lancas	-12015
▁Minder	-12016
▁assist	-12017
▁cambió	-12018
▁causes	-12019
▁combin	-12020
▁conced	-12021
▁figura	-12022
▁führte	-12023
▁proteg	-12024
▁solito	-12025
▁volvió	-12026
▁البيرة	-12027
▁الصيني	-12028
▁المنتج	-12029
▁Polonia	-12030
▁Zentrum	-12031
▁connect	-12032
▁credeva	-12033
▁namibia	-12034
▁Michigan	-12035
▁deutsche	-12036
▁separate	-12037
▁الجامعات	-12038
▁Newcastle	-12039
▁conocidos	-12040
▁religiöse	-12041
▁servicios	-12042
▁Parlamento	-12043
▁componente	-12044
▁settlement	-12045
▁Nordamerika	-12046
▁statunitense	-12047
ころ	-12048
の父	-12049
上げ	-12050
距離	-12051
قية	-12052
كور	-12053
يتي	-12054
▁PI	-12055
▁om	-12056
▁لف	-12057
gram	-12058
mann	-12059
uebl	-12060
uyen	-12061
واتم	-12062
▁CBS	-12063
▁She	-12064
▁Tür	-12065
▁gir	-12066
▁للك	-12067
icien	-12068
thers	-12069
▁adul	-12070
▁capp	-12071
▁cort	-12072
▁once	-12073
▁retr	-12074
▁ries	-12075
▁rifi	-12076
▁tard	-12077
▁trip	-12078
▁شبكة	-12079
▁وقعت	-12080
entral	-12081
▁Staff	-12082
▁Terra	-12083
▁adapt	-12084
▁dolor	-12085
▁glass	-12086
▁means	-12087
▁veloc	-12088
▁اواخر	-12089
▁تصميم	-12090
ception	-12091
iazione	-12092
ikistan	-12093
▁Premio	-12094
▁ancest	-12095
▁border	-12096
▁malatt	-12097
▁native	-12098
▁ranked	-12099
▁Anthrop	-12100
▁Kirchen	-12101
▁Theater	-12102
▁bombard	-12103
▁convers	-12104
▁materia	-12105
▁ähnlich	-12106
▁الثقافة	-12107
▁العاصمة	-12108
▁المئوية	-12109
▁Bewohner	-12110
▁November	-12111
▁Pakistan	-12112
▁demonstr	-12113
▁medieval	-12114
▁nominato	-12115
▁Luftwaffe	-12116
▁Millionen	-12117
▁unterstützen	-12118
äm	-12119
وه	-12120
不可	-12121
含ま	-12122
平均	-12123
美術	-12124
ارض	-12125
▁"?	-12126
▁tw	-12127
は誰の	-12128
aren	-12129
ifer	-12130
mark	-12131
▁Mel	-12132
▁Pok	-12133
▁bed	-12134
▁hem	-12135
▁نام	-12136
Under	-12137
adora	-12138
aylor	-12139
gallo	-12140
icani	-12141
urity	-12142
▁1992	-12143
▁Braz	-12144
▁file	-12145
▁pérd	-12146
▁الرس	-12147
▁القض	-12148
▁النش	-12149
▁توجد	-12150
▁شارك	-12151
が行われた	-12152
始めたのは	-12153
ciendo	-12154
elehnt	-12155
▁confr	-12156
▁ended	-12157
▁regol	-12158
▁treat	-12159
▁unità	-12160
▁اقترح	-12161
▁الخام	-12162
▁الرغم	-12163
▁Rekord	-12164
▁antica	-12165
▁causar	-12166
▁dovuto	-12167
▁figlio	-12168
▁fornis	-12169
▁giorni	-12170
▁públic	-12171
▁الحكوم	-12172
▁الناتج	-12173
▁النجوم	-12174
ifornien	-12175
▁adolesc	-12176
▁beyoncé	-12177
▁mercato	-12178
▁التلفزي	-12179
▁العلماء	-12180
▁انشاؤها	-12181
▁apparten	-12182
▁featured	-12183
▁musicale	-12184
▁sprechen	-12185
▁studiert	-12186
▁الاولمبية	-12187
▁التسعينات	-12188
▁Herrschaft	-12189
▁Portogallo	-12190
▁scientific	-12191
▁contemporáne	-12192
▁completamente	-12193
EC	-12194
Ex	-12195
Ne	-12196
が何	-12197
何軍	-12198
漫画	-12199
ehm	-12200
tic	-12201
ymp	-12202
árt	-12203
ائع	-12204
بيد	-12205
▁Sk	-12206
▁قص	-12207
までに	-12208
-201	-12209
erie	-12210
erme	-12211
icom	-12212
imen	-12213
paña	-12214
plor	-12215
reib	-12216
welt	-12217
zant	-12218
اتية	-12219
بيرك	-12220
وافق	-12221
▁Ehe	-12222
▁Jer	-12223
▁Mil	-12224
▁Pir	-12225
▁roi	-12226
▁فري	-12227
どの国が	-12228
Quels	-12229
antas	-12230
omini	-12231
uegos	-12232
▁Aspe	-12233
▁code	-12234
▁konn	-12235
▁mare	-12236
▁niño	-12237
▁pint	-12238
▁pros	-12239
▁rise	-12240
▁rojo	-12241
▁very	-12242
▁القن	-12243
▁يدير	-12244
cional	-12245
erdisc	-12246
lungen	-12247
▁birth	-12248
▁puebl	-12249
▁satél	-12250
▁الحية	-12251
▁القطن	-12252
▁اللات	-12253
▁جديدة	-12254
▁يتكون	-12255
れていますか	-12256
etzwerk	-12257
▁corres	-12258
▁county	-12259
▁findet	-12260
▁humano	-12261
▁suelen	-12262
▁البابا	-12263
densator	-12264
▁Seconde	-12265
▁Youtube	-12266
▁manager	-12267
▁protect	-12268
▁الحيوية	-12269
▁القاعدة	-12270
▁beschäft	-12271
▁murieron	-12272
▁respecto	-12273
▁together	-12274
▁اليهودية	-12275
▁comienzan	-12276
▁construido	-12277
▁definición	-12278
▁constitution	-12279
キア	-12280
中央	-12281
力を	-12282
火山	-12283
196	-12284
bas	-12285
eth	-12286
nik	-12287
xis	-12288
روض	-12289
▁gh	-12290
▁ví	-12291
もっと	-12292
院議員	-12293
Dans	-12294
▁Bon	-12295
▁paz	-12296
▁ton	-12297
▁جيش	-12298
とともに	-12299
のどちら	-12300
emble	-12301
icato	-12302
icode	-12303
todox	-12304
▁Penn	-12305
▁UEFA	-12306
▁baja	-12307
▁colp	-12308
▁einf	-12309
▁face	-12310
▁mamm	-12311
▁marc	-12312
▁nata	-12313
▁sper	-12314
▁tecn	-12315
▁اعلن	-12316
▁زعيم	-12317
▁لعمل	-12318
upción	-12319
▁Markt	-12320
▁Pearl	-12321
▁atrib	-12322
▁avait	-12323
▁comin	-12324
▁hotel	-12325
▁lejos	-12326
▁texto	-12327
▁trois	-12328
▁umani	-12329
▁المها	-12330
▁وسائل	-12331
ketball	-12332
▁Jugend	-12333
▁charge	-12334
▁stammt	-12335
▁tenuto	-12336
▁videoc	-12337
▁الدماغ	-12338
▁الكثير	-12339
▁نيومان	-12340
▁alfabet	-12341
▁ambient	-12342
▁asfalto	-12343
▁congreg	-12344
▁muestra	-12345
▁pensava	-12346
▁pueblos	-12347
▁quattro	-12348
▁realizó	-12349
▁velocid	-12350
▁católica	-12351
▁ferrocar	-12352
▁practice	-12353
▁property	-12354
▁recorded	-12355
▁southern	-12356
▁الخارجية	-12357
▁abgelehnt	-12358
▁innerhalb	-12359
▁convertirse	-12360
▁البروتستانت	-12361
▁características	-12362
ül	-12363
خب	-12364
قف	-12365
ドル	-12366
ラッ	-12367
Est	-12368
apa	-12369
ekt	-12370
الع	-12371
اهد	-12372
ريس	-12373
لين	-12374
▁Pf	-12375
になる	-12376
ften	-12377
fuer	-12378
here	-12379
lers	-12380
oses	-12381
well	-12382
äche	-12383
ادات	-12384
▁Hil	-12385
▁Rog	-12386
▁fis	-12387
▁fur	-12388
▁بيس	-12389
▁رقم	-12390
があるか	-12391
れていた	-12392
を何と呼	-12393
ittle	-12394
oming	-12395
orien	-12396
recht	-12397
uring	-12398
الوني	-12399
▁Abst	-12400
▁amen	-12401
▁beig	-12402
▁diss	-12403
▁liqu	-12404
▁self	-12405
▁uomo	-12406
▁تسمح	-12407
▁كاني	-12408
▁كمية	-12409
▁نورث	-12410
しなかった	-12411
nungen	-12412
▁1939?	-12413
▁Award	-12414
▁Sonne	-12415
▁decir	-12416
▁ignor	-12417
▁queen	-12418
▁reign	-12419
▁relay	-12420
▁renov	-12421
▁right	-12422
▁spend	-12423
▁stark	-12424
▁words	-12425
▁الاير	-12426
▁الجوي	-12427
▁الزنك	-12428
▁تايمز	-12429
▁تعريف	-12430
▁مليون	-12431
名は何ですか	-12432
▁Hudson	-12433
▁antena	-12434
▁census	-12435
▁erster	-12436
▁extens	-12437
▁interr	-12438
▁invers	-12439
▁الجانب	-12440
irkungen	-12441
▁Gebiete	-12442
▁Israele	-12443
▁anunció	-12444
▁indígen	-12445
▁parties	-12446
▁settore	-12447
▁Business	-12448
▁Kongress	-12449
▁arbeiten	-12450
▁berühmte	-12451
▁distrito	-12452
▁interpre	-12453
▁استراليا	-12454
▁Fähigkeit	-12455
▁Jahrzehnt	-12456
▁Rajasthan	-12457
▁genocidio	-12458
▁periódico	-12459
geschrieben	-12460
▁beschreibt	-12461
▁experience	-12462
▁Westminster	-12463
▁angegriffen	-12464
▁chinesische	-12465
▁Commonwealth	-12466
メル	-12467
中に	-12468
地球	-12469
新聞	-12470
All	-12471
باط	-12472
atas	-12473
cera	-12474
likt	-12475
west	-12476
arnia	-12477
onald	-12478
▁Bras	-12479
▁Elis	-12480
▁Mong	-12481
▁Ober	-12482
▁ball	-12483
▁erle	-12484
▁gagn	-12485
▁giur	-12486
▁hubo	-12487
▁mess	-12488
▁sagt	-12489
▁thre	-12490
▁البر	-12491
▁مصدر	-12492
▁2000,	-12493
▁Medio	-12494
▁birra	-12495
▁block	-12496
▁firmó	-12497
▁gehen	-12498
▁offic	-12499
▁البعض	-12500
▁النهر	-12501
▁بحلول	-12502
▁رسميا	-12503
はどれくらい	-12504
uilding	-12505
▁Grenze	-12506
▁Hitler	-12507
▁afferm	-12508
▁series	-12509
▁الفضاء	-12510
▁الكبير	-12511
▁الكلية	-12512
igration	-12513
▁biggest	-12514
▁defined	-12515
▁eritrea	-12516
▁irgendw	-12517
▁polizia	-12518
▁الاعلان	-12519
▁Programm	-12520
▁churches	-12521
▁famiglia	-12522
atalanisch	-12523
▁ehemalige	-12524
▁presbiter	-12525
▁Amerikaner	-12526
▁Protestant	-12527
▁diferencia	-12528
▁importantes	-12529
ès	-12530
مس	-12531
レク	-12532
一般	-12533
月の	-12534
発売	-12535
西暦	-12536
降伏	-12537
際に	-12538
aly	-12539
rid	-12540
تين	-12541
ددة	-12542
が始ま	-12543
州知事	-12544
死んだ	-12545
Tech	-12546
alty	-12547
legt	-12548
nder	-12549
ossa	-12550
Über	-12551
راعة	-12552
فينة	-12553
نائي	-12554
▁Fam	-12555
▁Inn	-12556
▁Wil	-12557
▁cél	-12558
▁dat	-12559
▁sos	-12560
▁حيو	-12561
▁عاش	-12562
▁واي	-12563
した人物	-12564
cidos	-12565
ichen	-12566
itted	-12567
▁Chip	-12568
▁Code	-12569
▁Nett	-12570
▁eseg	-12571
▁hora	-12572
▁weil	-12573
▁يؤثر	-12574
シリーズの	-12575
ativen	-12576
▁Museo	-12577
▁afirm	-12578
▁envió	-12579
▁frühe	-12580
▁neben	-12581
▁photo	-12582
▁الشكل	-12583
▁تراجع	-12584
になったのは	-12585
agement	-12586
▁origen	-12587
▁المرتب	-12588
▁الموقع	-12589
▁بيونسي	-12590
▁Liberia	-12591
▁Olympic	-12592
▁ناميبيا	-12593
▁ambiente	-12594
▁iglesias	-12595
▁oriental	-12596
▁problemi	-12597
▁الاجمالي	-12598
▁behauptet	-12599
▁angenommen	-12600
▁englischen	-12601
▁Connecticut	-12602
▁Volkszählung	-12603
27	-12604
ny	-12605
حد	-12606
وغ	-12607
史上	-12608
社会	-12609
連邦	-12610
bia	-12611
leo	-12612
log	-12613
mäß	-12614
nos	-12615
vey	-12616
تاح	-12617
هدف	-12618
▁DV	-12619
▁Lo	-12620
▁ON	-12621
▁sf	-12622
共和党	-12623
時代に	-12624
ختلف	-12625
▁adv	-12626
▁ras	-12627
▁saw	-12628
▁six	-12629
▁تتح	-12630
ummer	-12631
▁fert	-12632
▁gepl	-12633
▁pain	-12634
▁prec	-12635
▁sacr	-12636
▁sito	-12637
▁سينا	-12638
Chopin	-12639
tragen	-12640
▁2007,	-12641
▁Corán	-12642
▁Seite	-12643
▁deben	-12644
▁debut	-12645
▁destr	-12646
▁doing	-12647
▁metro	-12648
▁molec	-12649
▁opere	-12650
▁últim	-12651
▁النقل	-12652
ulation	-12653
▁Orient	-12654
▁Satell	-12655
▁Zeugen	-12656
▁führen	-12657
▁pronun	-12658
▁récord	-12659
▁solare	-12660
▁المادة	-12661
▁تقريبا	-12662
ibliothe	-12663
▁Jehovas	-12664
▁Science	-12665
▁aiutato	-12666
▁catalán	-12667
▁italien	-12668
▁monarca	-12669
▁produjo	-12670
▁الشخصية	-12671
▁الفيديو	-12672
▁ايرلندا	-12673
▁Ministro	-12674
▁artículo	-12675
▁القوانين	-12676
▁القياسية	-12677
▁المختلفة	-12678
ländischen	-12679
▁angeboten	-12680
▁classific	-12681
▁Definition	-12682
▁Produktion	-12683
▁indigenous	-12684
▁soprannome	-12685
▁aufgetreten	-12686
▁comunemente	-12687
▁menschlichen	-12688
サル	-12689
即位	-12690
導入	-12691
次に	-12692
観測	-12693
ims	-12694
uce	-12695
اضي	-12696
などの	-12697
の戦い	-12698
フィン	-12699
enen	-12700
gabe	-12701
wide	-12702
ätze	-12703
ريين	-12704
ظيفة	-12705
عمرة	-12706
▁Lie	-12707
▁NFL	-12708
▁dip	-12709
▁jeu	-12710
▁nun	-12711
▁saf	-12712
▁فرع	-12713
いくつの	-12714
を行った	-12715
ardin	-12716
itual	-12717
▁HDTV	-12718
▁Kore	-12719
▁Roll	-12720
▁Tage	-12721
▁Wahr	-12722
▁Wert	-12723
▁afir	-12724
▁dann	-12725
▁orto	-12726
▁poly	-12727
▁snes	-12728
▁sovi	-12729
▁vole	-12730
▁تحصل	-12731
の中で最も	-12732
ettori	-12733
schein	-12734
▁Baumw	-12735
▁apart	-12736
▁femen	-12737
▁tomar	-12738
▁tutte	-12739
▁verso	-12740
▁viejo	-12741
▁الحمض	-12742
▁يساعد	-12743
▁Aktion	-12744
▁España	-12745
▁Papier	-12746
▁Taylor	-12747
▁female	-12748
▁mosaic	-12749
▁prueba	-12750
▁reduce	-12751
▁späten	-12752
▁المناخ	-12753
▁مباراة	-12754
▁ويليام	-12755
▁Mission	-12756
▁vissuto	-12757
▁الثلاثة	-12758
▁مستعمرة	-12759
▁manifest	-12760
▁Brasilien	-12761
▁Spitzname	-12762
▁newspaper	-12763
▁stabilito	-12764
▁اللاتينية	-12765
▁abgehalten	-12766
▁Katalanisch	-12767
▁videoconfer	-12768
でも	-12769
また	-12770
グレ	-12771
パイ	-12772
aja	-12773
deo	-12774
kür	-12775
داف	-12776
ويا	-12777
يدا	-12778
不可侵	-12779
ahrt	-12780
aval	-12781
etze	-12782
geno	-12783
idet	-12784
onse	-12785
pool	-12786
uste	-12787
لزال	-12788
مودا	-12789
▁bot	-12790
▁jul	-12791
▁pad	-12792
▁فوق	-12793
etter	-12794
mandú	-12795
quier	-12796
ticos	-12797
union	-12798
▁Grad	-12799
▁guad	-12800
▁riun	-12801
▁التخ	-12802
▁مبكر	-12803
▁وصلت	-12804
▁يفوز	-12805
イギリスと	-12806
不可侵条約	-12807
egnato	-12808
heirat	-12809
▁1989?	-12810
▁1995?	-12811
▁Feder	-12812
▁Peter	-12813
▁avanz	-12814
▁bring	-12815
▁empez	-12816
▁minim	-12817
▁peupl	-12818
▁tasso	-12819
▁الجزر	-12820
▁اوائل	-12821
▁تحتاج	-12822
していたのは	-12823
▁Kandid	-12824
▁beteil	-12825
▁captur	-12826
▁depend	-12827
▁medida	-12828
▁powers	-12829
▁spread	-12830
▁الارمن	-12831
posición	-12832
▁Artikel	-12833
▁Portugu	-12834
▁abandon	-12835
▁assunto	-12836
▁einigen	-12837
▁empieza	-12838
▁estadio	-12839
▁posible	-12840
▁primäre	-12841
▁الجنسية	-12842
▁السابقة	-12843
▁chiamati	-12844
▁francesa	-12845
▁gleichen	-12846
▁magazine	-12847
▁nombrado	-12848
▁orthodox	-12849
▁producto	-12850
▁zerstört	-12851
▁Herrscher	-12852
▁direzione	-12853
▁influenza	-12854
▁instituto	-12855
▁الفيدرالي	-12856
▁Buckingham	-12857
▁امبراطورية	-12858
▁commerciale	-12859
.5	-12860
zü	-12861
カラ	-12862
トリ	-12863
ハイ	-12864
ンダ	-12865
代表	-12866
国王	-12867
運動	-12868
Bis	-12869
mat	-12870
weg	-12871
اجر	-12872
راس	-12873
ماس	-12874
▁EU	-12875
▁cy	-12876
と同じ	-12877
現在の	-12878
Char	-12879
cida	-12880
coln	-12881
itas	-12882
ueve	-12883
بوبر	-12884
▁Jay	-12885
▁dan	-12886
▁lay	-12887
▁mog	-12888
▁sun	-12889
▁usu	-12890
▁ايف	-12891
▁راس	-12892
▁فرق	-12893
▁كاس	-12894
▁مبا	-12895
はどんな	-12896
ences	-12897
estiz	-12898
icted	-12899
ockey	-12900
posta	-12901
uebas	-12902
▁Krit	-12903
▁Prof	-12904
▁carn	-12905
▁caza	-12906
▁chim	-12907
▁metà	-12908
▁segn	-12909
▁tens	-12910
▁أصغر	-12911
größte	-12912
▁1998?	-12913
▁Hindu	-12914
▁ausge	-12915
▁burke	-12916
▁femme	-12917
▁giust	-12918
▁innov	-12919
▁monte	-12920
▁plane	-12921
▁ruled	-12922
▁sumer	-12923
▁torre	-12924
▁usare	-12925
▁الامر	-12926
▁السفن	-12927
▁الكتب	-12928
▁تنتمي	-12929
▁يعتمد	-12930
entlich	-12931
▁Zypern	-12932
▁asesin	-12933
▁eletto	-12934
▁esfuer	-12935
▁prepar	-12936
▁schwar	-12937
▁trouve	-12938
▁الشرطة	-12939
▁القديم	-12940
▁المراه	-12941
▁انخفاض	-12942
▁Nettuno	-12943
▁fornito	-12944
▁jugador	-12945
▁partner	-12946
▁trovare	-12947
▁working	-12948
▁الجامعة	-12949
Präsident	-12950
▁Armenien	-12951
▁Familien	-12952
▁frédéric	-12953
▁geändert	-12954
▁interior	-12955
▁positive	-12956
▁unabhäng	-12957
▁verboten	-12958
▁الأوسكار	-12959
▁besonders	-12960
▁spielberg	-12961
▁britannica	-12962
▁Kalifornien	-12963
▁europäische	-12964
-3	-12965
AC	-12966
であ	-12967
りの	-12968
バス	-12969
運河	-12970
And	-12971
Les	-12972
dis	-12973
iar	-12974
sey	-12975
zzi	-12976
ائب	-12977
غرس	-12978
يلة	-12979
▁بب	-12980
▁ذا	-12981
および	-12982
の映画	-12983
ックス	-12984
ナルド	-12985
戦争は	-12986
最後の	-12987
.000	-12988
aste	-12989
ency	-12990
ielo	-12991
rech	-12992
uses	-12993
لاحظ	-12994
يدرو	-12995
▁Ans	-12996
▁Vin	-12997
▁ذهب	-12998
▁محل	-12999
▁يفز	-13000
ahara	-13001
beben	-13002
cific	-13003
ellow	-13004
ollar	-13005
othic	-13006
quenz	-13007
ánica	-13008
لافات	-13009
▁berm	-13010
▁epis	-13011
▁prín	-13012
▁بعمل	-13013
▁توفر	-13014
▁ثلاث	-13015
▁قوات	-13016
▁ممثل	-13017
▁والح	-13018
▁يوني	-13019
hedral	-13020
▁Brief	-13021
▁confl	-13022
▁greco	-13023
▁könig	-13024
▁moved	-13025
▁رواية	-13026
▁موجود	-13027
▁Antárt	-13028
▁Joseph	-13029
▁Romans	-13030
▁Secret	-13031
▁Zeiten	-13032
▁absorb	-13033
▁amenaz	-13034
▁camino	-13035
▁entità	-13036
▁genoma	-13037
▁spielt	-13038
▁unidad	-13039
▁uomini	-13040
▁verano	-13041
▁الأولى	-13042
されたのはいつ	-13043
ximately	-13044
▁Alexand	-13045
▁aviones	-13046
▁benefit	-13047
▁besides	-13048
▁display	-13049
▁inviato	-13050
▁المحافظ	-13051
▁المسيحي	-13052
▁comunica	-13053
▁function	-13054
▁höchsten	-13055
▁neighbor	-13056
▁scholars	-13057
▁temprano	-13058
▁Erwachsen	-13059
▁currently	-13060
▁jugadores	-13061
▁Portuguese	-13062
▁partecipato	-13063
▁produzieren	-13064
▁publicación	-13065
▁indipendenza	-13066
-6	-13067
US	-13068
kh	-13069
なる	-13070
カイ	-13071
トラ	-13072
ナス	-13073
ルタ	-13074
所属	-13075
Alg	-13076
DNA	-13077
oga	-13078
اكي	-13079
رفة	-13080
▁Ku	-13081
▁ku	-13082
▁أو	-13083
の種類	-13084
はどう	-13085
カナダ	-13086
Disc	-13087
alli	-13088
auen	-13089
cker	-13090
rada	-13091
teor	-13092
رئيس	-13093
كسية	-13094
▁Int	-13095
▁PCB	-13096
▁Tol	-13097
▁bás	-13098
▁cay	-13099
▁lím	-13100
▁ترش	-13101
▁دخل	-13102
▁فان	-13103
▁مشت	-13104
▁معا	-13105
Antes	-13106
corso	-13107
onese	-13108
وميني	-13109
▁Bewe	-13110
▁Hill	-13111
▁Iraq	-13112
▁know	-13113
▁انضم	-13114
▁قبرص	-13115
▁معها	-13116
ighten	-13117
schech	-13118
ördert	-13119
▁close	-13120
▁const	-13121
▁match	-13122
▁paint	-13123
▁rusos	-13124
▁اعلنت	-13125
▁تحقيق	-13126
▁تسيطر	-13127
▁مختلف	-13128
itionen	-13129
▁Führer	-13130
▁Histor	-13131
▁Marine	-13132
▁bekann	-13133
▁bereit	-13134
▁device	-13135
▁estuvo	-13136
▁osserv	-13137
▁potenz	-13138
▁settim	-13139
▁tienda	-13140
▁اقتصاد	-13141
▁Mercury	-13142
▁Unicode	-13143
▁beinhal	-13144
▁homosex	-13145
▁million	-13146
▁ortodox	-13147
▁pruebas	-13148
▁windows	-13149
▁الخواتم	-13150
▁مجموعات	-13151
▁creación	-13152
▁longitud	-13153
▁mandolin	-13154
▁proviene	-13155
▁province	-13156
▁البرلمان	-13157
▁المركزية	-13158
▁divisione	-13159
▁cristianos	-13160
▁transporte	-13161
▁competition	-13162
▁influenzato	-13163
▁contemporary	-13164
عى	-13165
كو	-13166
▁$	-13167
キシ	-13168
ニコ	-13169
ロイ	-13170
古代	-13171
対象	-13172
工事	-13173
登録	-13174
oti	-13175
sta	-13176
شور	-13177
كاس	-13178
▁né	-13179
▁vu	-13180
▁بط	-13181
キング	-13182
anch	-13183
anes	-13184
azia	-13185
ilog	-13186
orts	-13187
uche	-13188
uren	-13189
view	-13190
▁Job	-13191
▁Mas	-13192
▁Riv	-13193
▁Sek	-13194
▁Squ	-13195
▁Tar	-13196
どの地域	-13197
エンジン	-13198
Según	-13199
aract	-13200
aving	-13201
eball	-13202
graph	-13203
habit	-13204
iesen	-13205
▁Blan	-13206
▁Carn	-13207
▁Einw	-13208
▁Glob	-13209
▁June	-13210
▁copa	-13211
▁erwä	-13212
▁sint	-13213
▁vivo	-13214
▁تشمل	-13215
▁فعلت	-13216
▁لوصف	-13217
▁ينتج	-13218
と呼ばれる	-13219
Gruppe	-13220
lywood	-13221
umenti	-13222
▁Jesús	-13223
▁Nepal	-13224
▁Paese	-13225
▁Zivil	-13226
▁behav	-13227
▁bomba	-13228
▁coleg	-13229
▁gagné	-13230
▁leggi	-13231
▁polac	-13232
▁sales	-13233
▁ارسال	-13234
▁البحث	-13235
ducción	-13236
iamenti	-13237
ibilità	-13238
nischen	-13239
▁Briten	-13240
▁Golden	-13241
▁Quelle	-13242
▁engine	-13243
▁intens	-13244
▁اختبار	-13245
▁البلاد	-13246
▁الحفاظ	-13247
schaften	-13248
▁Antenne	-13249
▁Zustand	-13250
▁equival	-13251
▁express	-13252
▁measure	-13253
▁operate	-13254
▁portogh	-13255
▁reinado	-13256
▁الاساسي	-13257
▁سبيلبرغ	-13258
▁Dokument	-13259
▁Northern	-13260
▁Williams	-13261
▁differen	-13262
▁occurred	-13263
▁انتخابات	-13264
enaissance	-13265
▁Ashkenazi	-13266
▁portugies	-13267
▁enfermedad	-13268
▁istruzione	-13269
▁utilizzare	-13270
▁Bürgerkrieg	-13271
▁erfolgreich	-13272
▁institution	-13273
▁konzentriert	-13274
Bo	-13275
dy	-13276
بق	-13277
デー	-13278
ナイ	-13279
ロバ	-13280
本種	-13281
江戸	-13282
要な	-13283
間で	-13284
iop	-13285
kin	-13286
riz	-13287
yen	-13288
zos	-13289
ést	-13290
قين	-13291
هاد	-13292
▁RI	-13293
とした	-13294
までの	-13295
トラン	-13296
リッツ	-13297
名は何	-13298
帝国の	-13299
Seit	-13300
ader	-13301
afür	-13302
aner	-13303
ross	-13304
uaje	-13305
يرات	-13306
▁Wal	-13307
▁Zug	-13308
▁hot	-13309
▁اثر	-13310
▁امر	-13311
Oscar	-13312
ativi	-13313
elles	-13314
ersey	-13315
icket	-13316
richt	-13317
uropa	-13318
zeuge	-13319
مارسة	-13320
▁Mach	-13321
▁clor	-13322
▁getr	-13323
▁perf	-13324
▁rame	-13325
▁toda	-13326
▁trop	-13327
▁yale	-13328
▁ارسل	-13329
▁الذه	-13330
▁لمدة	-13331
▁يحدد	-13332
▁Dinge	-13333
▁Primo	-13334
▁Teile	-13335
▁dafür	-13336
▁embar	-13337
▁illeg	-13338
▁villa	-13339
▁young	-13340
▁Änder	-13341
▁تنفيذ	-13342
bellion	-13343
▁acquis	-13344
▁bieten	-13345
▁parado	-13346
▁piante	-13347
▁regres	-13348
▁المسلم	-13349
▁النمسا	-13350
▁لتحديد	-13351
isierung	-13352
▁Element	-13353
▁lugares	-13354
▁riguard	-13355
▁الاسلحة	-13356
▁الاعلام	-13357
▁الافلام	-13358
▁Konflikt	-13359
▁canadien	-13360
▁collabor	-13361
▁europeos	-13362
▁producir	-13363
▁الكائنات	-13364
▁beteiligt	-13365
▁estimated	-13366
▁following	-13367
▁التحقيقات	-13368
▁presentato	-13369
▁actualmente	-13370
▁constructed	-13371
Fe	-13372
ゴン	-13373
上陸	-13374
前の	-13375
南北	-13376
alo	-13377
gas	-13378
فلت	-13379
لسل	-13380
وجه	-13381
ورت	-13382
▁äl	-13383
▁بأ	-13384
▁لس	-13385
▁هن	-13386
▁وم	-13387
▁وي	-13388
フェル	-13389
委員会	-13390
amos	-13391
arta	-13392
omes	-13393
opol	-13394
orse	-13395
oute	-13396
بدال	-13397
ريمة	-13398
▁Ern	-13399
▁dib	-13400
▁dst	-13401
▁mob	-13402
▁ألب	-13403
▁زاد	-13404
▁سيد	-13405
▁قطع	-13406
▁يصف	-13407
forma	-13408
illas	-13409
phone	-13410
urato	-13411
ماندو	-13412
▁Ball	-13413
▁Book	-13414
▁Jagd	-13415
▁Long	-13416
▁Stan	-13417
▁abol	-13418
▁barr	-13419
▁ferm	-13420
▁tomó	-13421
▁vino	-13422
▁قضية	-13423
▁للاع	-13424
▁نشات	-13425
▁وجدت	-13426
bliche	-13427
ktoren	-13428
oplast	-13429
uyeron	-13430
قتصادي	-13431
▁March	-13432
▁acept	-13433
▁davon	-13434
▁الارث	-13435
▁المطل	-13436
イングランド	-13437
ammlung	-13438
untains	-13439
▁Handel	-13440
▁cardin	-13441
▁cinesi	-13442
▁compró	-13443
▁expres	-13444
▁größer	-13445
▁kultur	-13446
▁länger	-13447
▁nuevas	-13448
▁opened	-13449
▁player	-13450
▁quiere	-13451
▁simile	-13452
▁sports	-13453
▁المجلس	-13454
heiratet	-13455
imientos	-13456
▁Academy	-13457
▁Seconda	-13458
▁dimostr	-13459
▁incluso	-13460
▁التجارة	-13461
▁الخلايا	-13462
▁Svizzera	-13463
▁division	-13464
▁exterior	-13465
▁negocios	-13466
▁services	-13467
▁Kontinent	-13468
▁allgemein	-13469
▁obiettivo	-13470
▁primarily	-13471
▁prominent	-13472
▁struttura	-13473
▁المعلومات	-13474
▁Antarctica	-13475
▁Instrument	-13476
▁comenzaron	-13477
▁historical	-13478
▁permanente	-13479
▁personajes	-13480
▁Sowjetunion	-13481
▁independent	-13482
▁performance	-13483
-4	-13484
..	-13485
が長	-13486
クト	-13487
主張	-13488
候補	-13489
引き	-13490
指定	-13491
自由	-13492
表現	-13493
電力	-13494
Ger	-13495
Mad	-13496
Par	-13497
Tra	-13498
das	-13499
ائج	-13500
ذكر	-13501
رال	-13502
لحة	-13503
▁31	-13504
▁36	-13505
▁Sä	-13506
ディー	-13507
ファン	-13508
少ない	-13509
ambr	-13510
cesa	-13511
ivas	-13512
oted	-13513
quía	-13514
thur	-13515
ängt	-13516
درات	-13517
رتبط	-13518
سيقي	-13519
▁Ali	-13520
▁Mär	-13521
▁Rod	-13522
▁ere	-13523
▁fen	-13524
▁spr	-13525
▁ارض	-13526
▁ايط	-13527
▁طبي	-13528
が初めて	-13529
Haben	-13530
Produ	-13531
ctive	-13532
uguay	-13533
وتيوب	-13534
▁Ages	-13535
▁Bürg	-13536
▁Komm	-13537
▁Völk	-13538
▁bian	-13539
▁tall	-13540
▁اساس	-13541
▁تعني	-13542
▁تغير	-13543
وذكسية	-13544
▁Group	-13545
▁Tiere	-13546
▁carre	-13547
▁chino	-13548
▁cinco	-13549
▁circa	-13550
▁conci	-13551
▁espos	-13552
▁motiv	-13553
▁print	-13554
▁اعطاء	-13555
adstone	-13556
oftware	-13557
owledge	-13558
▁Puerto	-13559
▁Reform	-13560
▁Steven	-13561
▁decide	-13562
▁episod	-13563
▁inició	-13564
▁metodo	-13565
▁normal	-13566
▁select	-13567
▁sonido	-13568
▁الاساس	-13569
▁الحقوق	-13570
▁العنصر	-13571
▁الفنان	-13572
▁القدرة	-13573
▁انشاؤه	-13574
▁بطولات	-13575
アメリカ大統領	-13576
国はどこですか	-13577
onischen	-13578
▁Version	-13579
▁Website	-13580
▁conclus	-13581
▁intorno	-13582
▁المعركة	-13583
▁completo	-13584
▁italiano	-13585
▁meilleur	-13586
▁products	-13587
▁richmond	-13588
▁الاقليات	-13589
▁الرئاسية	-13590
▁الكونغرس	-13591
▁außerhalb	-13592
▁evolution	-13593
▁offiziell	-13594
▁reemplazó	-13595
▁Australian	-13596
▁Crepúsculo	-13597
▁Zustimmung	-13598
▁conosciuta	-13599
▁precedente	-13600
▁الارثوذكسية	-13601
▁Verteidigung	-13602
▁ursprüngliche	-13603
nd	-13604
بو	-13605
ظا	-13606
ウン	-13607
ザン	-13608
中国	-13609
内に	-13610
出版	-13611
勃発	-13612
太平	-13613
終わ	-13614
lab	-13615
omi	-13616
ابت	-13617
امن	-13618
راك	-13619
▁EE	-13620
▁pc	-13621
オラン	-13622
ブライ	-13623
漱石は	-13624
SFSR	-13625
enso	-13626
irsi	-13627
künd	-13628
lace	-13629
▁Bal	-13630
▁Dra	-13631
▁NBC	-13632
▁cup	-13633
▁كري	-13634
に関する	-13635
のことを	-13636
igned	-13637
inton	-13638
light	-13639
▁Frei	-13640
▁Hard	-13641
▁Höhe	-13642
▁Yuan	-13643
▁qued	-13644
▁تصبح	-13645
▁متحف	-13646
▁مهمة	-13647
と何ですか	-13648
edades	-13649
▁Boden	-13650
▁Lodge	-13651
▁diagn	-13652
▁islám	-13653
▁renun	-13654
▁stava	-13655
▁überw	-13656
▁الايط	-13657
▁تعتمد	-13658
endente	-13659
teilung	-13660
▁Beginn	-13661
▁Brazil	-13662
▁Narnia	-13663
▁deciso	-13664
▁esiste	-13665
▁garant	-13666
▁millas	-13667
▁script	-13668
▁slaves	-13669
▁suffer	-13670
▁vivono	-13671
▁اختيار	-13672
▁الهجوم	-13673
▁تشارلز	-13674
ánscrito	-13675
▁Princip	-13676
▁avevano	-13677
▁calidad	-13678
▁comunes	-13679
▁nations	-13680
▁singolo	-13681
▁الاغنية	-13682
▁Zusammen	-13683
▁dialects	-13684
▁evidence	-13685
▁problems	-13686
▁republic	-13687
▁Grundlage	-13688
▁comprende	-13689
▁materiale	-13690
▁oficiales	-13691
▁الجمهورية	-13692
▁comandante	-13693
▁financiera	-13694
▁الاجتماعية	-13695
▁Kondensator	-13696
▁típicamente	-13697
CO	-13698
Cl	-13699
DA	-13700
ナポ	-13701
ルイ	-13702
人は	-13703
内で	-13704
反対	-13705
確認	-13706
Bet	-13707
chè	-13708
hou	-13709
rey	-13710
وجب	-13711
▁27	-13712
▁خل	-13713
に参加	-13714
ように	-13715
太平洋	-13716
番目の	-13717
2008	-13718
hyth	-13719
pped	-13720
رتون	-13721
فيات	-13722
▁One	-13723
▁afl	-13724
▁ens	-13725
▁mel	-13726
▁oil	-13727
▁اكت	-13728
▁بون	-13729
▁شبه	-13730
▁لله	-13731
▁ييل	-13732
atici	-13733
iques	-13734
porta	-13735
زيارة	-13736
▁1996	-13737
▁Herz	-13738
▁Patr	-13739
▁Temp	-13740
▁ader	-13741
▁ebra	-13742
▁erud	-13743
▁joué	-13744
▁اطول	-13745
▁البث	-13746
▁سباق	-13747
▁فكرة	-13748
▁ملعب	-13749
▁يقول	-13750
▁Civil	-13751
▁Kampf	-13752
▁Wrest	-13753
▁board	-13754
▁droga	-13755
▁farma	-13756
▁geben	-13757
▁sumin	-13758
▁valle	-13759
▁اتحاد	-13760
▁الشفق	-13761
▁تسمية	-13762
▁تكلفة	-13763
▁حاليا	-13764
▁رئيسا	-13765
▁مدارس	-13766
enziale	-13767
issioni	-13768
▁carbon	-13769
▁comida	-13770
▁contea	-13771
▁ground	-13772
▁locale	-13773
▁mechan	-13774
▁tragen	-13775
▁voluto	-13776
▁الاكبر	-13777
▁الحاكم	-13778
▁السريع	-13779
▁برمودا	-13780
▁يملكها	-13781
▁يوتيوب	-13782
▁Monarch	-13783
▁Staates	-13784
▁budismo	-13785
▁effetto	-13786
▁estatal	-13787
▁produtt	-13788
▁tercera	-13789
▁العربية	-13790
▁المشترك	-13791
▁المفترض	-13792
▁artistas	-13793
▁cappella	-13794
▁defeated	-13795
▁distingu	-13796
▁gewinnen	-13797
▁hydrogen	-13798
▁monaster	-13799
▁provides	-13800
▁velocità	-13801
▁الانتهاء	-13802
▁الثانوية	-13803
▁approvato	-13804
▁beneficio	-13805
▁raggiunto	-13806
▁sánscrito	-13807
されたのは何年ですか	-13808
Unternehmen	-13809
▁betrachtet	-13810
▁descrivere	-13811
▁religiösen	-13812
▁verificato	-13813
▁übertragen	-13814
▁declaración	-13815
▁personaggio	-13816
ae	-13817
رى	-13818
سط	-13819
を見	-13820
ワシ	-13821
名称	-13822
間の	-13823
Unt	-13824
acu	-13825
cks	-13826
yst	-13827
حات	-13828
دائ	-13829
ضاة	-13830
عال	-13831
وسع	-13832
のある	-13833
ロンド	-13834
bank	-13835
iane	-13836
odos	-13837
wert	-13838
älle	-13839
ضمام	-13840
ظيمة	-13841
وحيد	-13842
▁Bab	-13843
▁Che	-13844
▁ONU	-13845
▁Yug	-13846
▁cóm	-13847
▁eas	-13848
▁jün	-13849
▁suc	-13850
▁umf	-13851
▁للج	-13852
ドイツの	-13853
ibiot	-13854
olosi	-13855
usion	-13856
usätz	-13857
▁1998	-13858
▁Orth	-13859
▁asma	-13860
▁chil	-13861
▁even	-13862
▁hour	-13863
▁keep	-13864
▁مارس	-13865
▁يؤدي	-13866
istico	-13867
izzata	-13868
phabet	-13869
wohner	-13870
▁Beruf	-13871
▁Hause	-13872
▁White	-13873
▁cated	-13874
▁desta	-13875
▁fuoco	-13876
▁junto	-13877
▁menor	-13878
▁naveg	-13879
▁sette	-13880
▁اكتشف	-13881
▁محكمة	-13882
どっちの方が	-13883
station	-13884
▁Medien	-13885
▁execut	-13886
▁kleine	-13887
▁torcia	-13888
▁vendió	-13889
▁الخدمة	-13890
▁الرجال	-13891
▁Destiny	-13892
▁Einheit	-13893
▁Nations	-13894
▁command	-13895
▁digimon	-13896
▁several	-13897
▁الاعضاء	-13898
▁التسجيل	-13899
▁التنمية	-13900
▁capacità	-13901
▁declared	-13902
▁federale	-13903
▁launched	-13904
▁stazioni	-13905
▁Antártida	-13906
▁cittadini	-13907
▁deutschen	-13908
▁beinhaltet	-13909
▁commission	-13910
▁nationalen	-13911
▁Beziehungen	-13912
▁nationality	-13913
▁internationale	-13914
فظ	-13915
オオ	-13916
ジー	-13917
セル	-13918
中心	-13919
体の	-13920
援助	-13921
目的	-13922
言葉	-13923
afr	-13924
aps	-13925
olf	-13926
▁78	-13927
▁اذ	-13928
を開始	-13929
バルト	-13930
ブルク	-13931
ールの	-13932
戦争の	-13933
時代の	-13934
ghis	-13935
vece	-13936
جرين	-13937
دلهي	-13938
▁gam	-13939
▁pav	-13940
▁حفل	-13941
▁هول	-13942
Entre	-13943
achus	-13944
chine	-13945
etros	-13946
itivo	-13947
rados	-13948
teras	-13949
▁Auto	-13950
▁cart	-13951
▁fans	-13952
▁näch	-13953
▁rius	-13954
▁ropa	-13955
▁ruso	-13956
▁ruta	-13957
▁scel	-13958
▁sept	-13959
▁spir	-13960
▁wear	-13961
▁البد	-13962
▁لوحة	-13963
▁ميزة	-13964
atives	-13965
rógeno	-13966
áticos	-13967
▁1999?	-13968
▁Board	-13969
▁Georg	-13970
▁Hafen	-13971
▁RSFSR	-13972
▁carga	-13973
▁fácil	-13974
▁jeder	-13975
▁rules	-13976
▁unica	-13977
▁الروس	-13978
が多いですか	-13979
lighten	-13980
▁Sommer	-13981
▁annual	-13982
▁extrem	-13983
▁favore	-13984
▁hinter	-13985
▁llegar	-13986
▁needed	-13987
▁square	-13988
▁العظيم	-13989
▁المطاف	-13990
atischen	-13991
quarters	-13992
▁Entsche	-13993
▁almacen	-13994
▁capacit	-13995
▁changed	-13996
▁chiesto	-13997
▁disease	-13998
▁poderes	-13999
▁regions	-14000
▁التوقيت	-14001
▁الجامعي	-14002
▁Invasion	-14003
▁activity	-14004
▁autorità	-14005
▁bermudas	-14006
▁discover	-14007
▁erforder	-14008
▁holandés	-14009
▁príncipe	-14010
▁regiones	-14011
▁römische	-14012
▁contenido	-14013
▁determine	-14014
▁troisième	-14015
▁annunciato	-14016
▁británicas	-14017
▁institución	-14018
▁Gesellschaft	-14019
▁unterzeichnet	-14020
oo	-14021
あた	-14022
マド	-14023
地の	-14024
遺産	-14025
usa	-14026
قدر	-14027
منع	-14028
▁28	-14029
エスト	-14030
セント	-14031
漱石の	-14032
alde	-14033
nier	-14034
rabe	-14035
ügel	-14036
تماد	-14037
نوعة	-14038
▁End	-14039
▁bin	-14040
▁dól	-14041
▁pon	-14042
▁veh	-14043
▁ساب	-14044
▁سوا	-14045
▁صمم	-14046
いていた	-14047
ドイツ軍	-14048
embly	-14049
▁Mark	-14050
▁Stad	-14051
▁alum	-14052
▁apar	-14053
▁cine	-14054
▁male	-14055
▁tree	-14056
▁unit	-14057
▁verm	-14058
▁wall	-14059
▁weap	-14060
▁اتهم	-14061
▁بالح	-14062
▁ثالث	-14063
Cuánta	-14064
enario	-14065
uldigt	-14066
▁Earth	-14067
▁coron	-14068
▁höher	-14069
▁immag	-14070
▁incon	-14071
▁sieht	-14072
▁النمو	-14073
▁بوصفه	-14074
▁تحويل	-14075
▁تشرين	-14076
▁مقرها	-14077
▁منتصف	-14078
▁يرتبط	-14079
Univers	-14080
▁Stalin	-14081
▁beiget	-14082
▁itself	-14083
▁السويس	-14084
▁الشهير	-14085
▁القائد	-14086
▁المسيح	-14087
gefunden	-14088
▁Arbeits	-14089
▁Genghis	-14090
▁Harvard	-14091
▁ausgest	-14092
▁madonna	-14093
▁players	-14094
▁quality	-14095
▁rivista	-14096
▁sponsor	-14097
▁اعتبارا	-14098
▁الشعبية	-14099
▁العالية	-14100
▁الفلسفة	-14101
▁الهيدرو	-14102
▁مباريات	-14103
▁Congress	-14104
▁Hannover	-14105
▁campaign	-14106
▁esistono	-14107
▁minority	-14108
▁produrre	-14109
▁settentr	-14110
▁vicepres	-14111
▁zurückge	-14112
▁الاصليين	-14113
▁كاتماندو	-14114
▁cualquier	-14115
▁diventare	-14116
▁performed	-14117
▁التقليدية	-14118
▁campionato	-14119
▁collezione	-14120
▁controlled	-14121
▁Constitution	-14122
▁northwestern	-14123
▁caratteristica	-14124
MA	-14125
きっ	-14126
アウ	-14127
ポッ	-14128
呼び	-14129
国に	-14130
星の	-14131
gra	-14132
ikt	-14133
ila	-14134
اثر	-14135
غان	-14136
كتب	-14137
▁22	-14138
を持つ	-14139
ハリー	-14140
大きい	-14141
民主党	-14142
enzt	-14143
olto	-14144
ston	-14145
uali	-14146
ugby	-14147
تائج	-14148
ودية	-14149
▁Hot	-14150
▁Mer	-14151
▁Sel	-14152
▁Who	-14153
▁gez	-14154
▁uns	-14155
きっかけ	-14156
としては	-14157
Prima	-14158
lying	-14159
utzen	-14160
▁Sohn	-14161
▁fals	-14162
▁fünf	-14163
▁intr	-14164
▁isol	-14165
▁sech	-14166
▁الدي	-14167
▁تعيش	-14168
▁والن	-14169
Mitgli	-14170
ellung	-14171
ungere	-14172
▁1940?	-14173
▁Jones	-14174
▁Mitte	-14175
▁Reihe	-14176
▁Tower	-14177
▁cable	-14178
▁discr	-14179
▁parco	-14180
▁quadr	-14181
▁tíbet	-14182
▁الادي	-14183
▁مفهوم	-14184
られましたか	-14185
▁Argent	-14186
▁Berlin	-14187
▁Chipre	-14188
▁Formen	-14189
▁Waffen	-14190
▁better	-14191
▁darwin	-14192
▁diesem	-14193
▁diesen	-14194
▁exclus	-14195
▁preven	-14196
▁proces	-14197
▁racial	-14198
▁الشمال	-14199
▁اللاعب	-14200
amientos	-14201
oluzione	-14202
▁Brasile	-14203
▁Gesetze	-14204
▁Kennedy	-14205
▁Reserve	-14206
▁address	-14207
▁applica	-14208
▁größere	-14209
▁insects	-14210
▁schiavi	-14211
▁sistemi	-14212
▁stadium	-14213
▁studios	-14214
▁vecchio	-14215
▁writing	-14216
ibliothek	-14217
▁lenguaje	-14218
▁mountain	-14219
▁requiere	-14220
▁trasform	-14221
▁Frederick	-14222
▁Victorias	-14223
▁relazione	-14224
▁respuesta	-14225
▁transform	-14226
▁Buddhismus	-14227
▁Christians	-14228
▁charleston	-14229
▁attualmente	-14230
▁kontrolliert	-14231
▁Entertainment	-14232
▁Wissenschaftler	-14233
Co	-14234
دن	-14235
シン	-14236
マス	-14237
太陽	-14238
建物	-14239
形成	-14240
成功	-14241
期の	-14242
電気	-14243
188	-14244
LED	-14245
Man	-14246
emm	-14247
nas	-14248
ثيل	-14249
عام	-14250
كتر	-14251
▁Ot	-14252
▁ul	-14253
ともう	-14254
ヘルム	-14255
始めた	-14256
最大の	-14257
月から	-14258
chia	-14259
idió	-14260
olds	-14261
usch	-14262
ائعة	-14263
صائص	-14264
▁Aud	-14265
▁Bio	-14266
▁Feb	-14267
▁avv	-14268
▁lig	-14269
▁تول	-14270
▁للص	-14271
▁هار	-14272
▁وهو	-14273
するため	-14274
とされる	-14275
スティー	-14276
omber	-14277
usión	-14278
صالات	-14279
كونات	-14280
▁1919	-14281
▁1991	-14282
▁Hund	-14283
▁enfo	-14284
▁pref	-14285
▁tren	-14286
▁usan	-14287
▁تدعم	-14288
▁فنان	-14289
▁نائب	-14290
ドイツ軍が	-14291
umente	-14292
zeiten	-14293
éticos	-14294
▁1974?	-14295
▁Libya	-14296
▁Prime	-14297
▁Swiss	-14298
▁Weise	-14299
▁allem	-14300
▁annel	-14301
▁anual	-14302
▁coloc	-14303
▁depos	-14304
▁evacu	-14305
▁genre	-14306
▁premi	-14307
▁scopo	-14308
▁train	-14309
▁écrit	-14310
▁اجزاء	-14311
▁الساح	-14312
▁درجات	-14313
▁صحيفة	-14314
isieren	-14315
▁antico	-14316
▁creare	-14317
▁entity	-14318
▁fleuve	-14319
▁larger	-14320
▁latino	-14321
▁mascul	-14322
▁mostra	-14323
▁museum	-14324
▁scienz	-14325
▁الجنسي	-14326
▁المكان	-14327
されたのは何年	-14328
▁Prinzip	-14329
▁edifici	-14330
▁función	-14331
▁incontr	-14332
▁möglich	-14333
▁typical	-14334
▁ايفرتون	-14335
▁Armenian	-14336
▁abitanti	-14337
▁aggiunto	-14338
▁concetto	-14339
▁controla	-14340
▁getrennt	-14341
▁montañas	-14342
▁proposed	-14343
▁الجماعية	-14344
▁الصناعية	-14345
▁اليوناني	-14346
▁Einwander	-14347
▁commercio	-14348
▁Auswirkungen	-14349
,"	-14350
ao	-14351
حب	-14352
كش	-14353
しく	-14354
を占	-14355
ズキ	-14356
チア	-14357
パン	-14358
王朝	-14359
ائف	-14360
ساس	-14361
▁By	-14362
▁ór	-14363
▁أق	-14364
▁حض	-14365
▁رد	-14366
▁مض	-14367
フォン	-14368
ヴァン	-14369
描いた	-14370
cars	-14371
ersi	-14372
grad	-14373
inta	-14374
quel	-14375
rafe	-14376
vale	-14377
wand	-14378
ícil	-14379
اليد	-14380
وفير	-14381
▁Alf	-14382
▁Syn	-14383
▁bic	-14384
▁cle	-14385
▁emb	-14386
▁gle	-14387
▁ihn	-14388
▁pig	-14389
▁ple	-14390
▁تنا	-14391
▁ماك	-14392
▁Four	-14393
▁News	-14394
▁Schl	-14395
▁hier	-14396
▁road	-14397
▁vert	-14398
▁تزال	-14399
▁مايو	-14400
▁مجلة	-14401
▁نفسه	-14402
▁وزير	-14403
▁يفعل	-14404
iendas	-14405
istics	-14406
mittel	-14407
▁Gener	-14408
▁altas	-14409
▁artif	-14410
▁crisi	-14411
▁spost	-14412
▁الثال	-14413
▁تقرير	-14414
▁محطات	-14415
▁والذي	-14416
になりますか	-14417
▁Corpor	-14418
▁Faktor	-14419
▁Gothic	-14420
▁Kräfte	-14421
▁Native	-14422
▁Report	-14423
▁conseg	-14424
▁ganzen	-14425
▁lassen	-14426
▁muslim	-14427
▁sugger	-14428
▁wanted	-14429
▁الاخير	-14430
▁السوبر	-14431
▁القتال	-14432
▁محاولة	-14433
▁مسؤولا	-14434
▁هيلينا	-14435
オーストラリア	-14436
Programm	-14437
▁Clinton	-14438
▁Galicia	-14439
▁January	-14440
▁Mississ	-14441
▁Nazioni	-14442
▁Philipp	-14443
▁Studien	-14444
▁Ursache	-14445
▁accused	-14446
▁adultos	-14447
▁antibió	-14448
▁democra	-14449
▁difícil	-14450
▁divided	-14451
▁especie	-14452
▁florida	-14453
▁respond	-14454
▁الالوان	-14455
▁نيودلهي	-14456
大統領は誰ですか	-14457
velopment	-14458
▁Wachstum	-14459
▁Zeitraum	-14460
▁elements	-14461
▁geleitet	-14462
▁invented	-14463
▁militari	-14464
▁negative	-14465
▁probabil	-14466
▁tedeschi	-14467
▁Migration	-14468
▁dialectos	-14469
▁difficult	-14470
▁filosofia	-14471
▁hidrógeno	-14472
▁riferisce	-14473
▁censimento	-14474
▁consideran	-14475
▁الهيدروجين	-14476
▁Gerichtshof	-14477
▁Renaissance	-14478
▁التكنولوجيا	-14479
▁Vereinbarung	-14480
▁occidentales	-14481
VA	-14482
ls	-14483
ss	-14484
ذب	-14485
قق	-14486
いう	-14487
バイ	-14488
ョウ	-14489
会議	-14490
女優	-14491
用い	-14492
NBA	-14493
iro	-14494
mit	-14495
ocr	-14496
ugg	-14497
uri	-14498
بدو	-14499
▁حص	-14500
▁لب	-14501
▁مغ	-14502
とどの	-14503
alem	-14504
edom	-14505
emen	-14506
ince	-14507
inco	-14508
otta	-14509
ارقة	-14510
ظفين	-14511
لفاء	-14512
▁ADN	-14513
▁How	-14514
▁Ken	-14515
▁Mos	-14516
▁NBA	-14517
▁Rob	-14518
▁Vog	-14519
▁bib	-14520
▁boy	-14521
▁mam	-14522
▁pul	-14523
▁tas	-14524
▁تدم	-14525
▁شهد	-14526
▁كاب	-14527
▁كرو	-14528
ジョージ	-14529
ワシント	-14530
上院議員	-14531
Other	-14532
lines	-14533
onica	-14534
rache	-14535
ständ	-14536
قاومة	-14537
▁1000	-14538
▁Cast	-14539
▁Main	-14540
▁cann	-14541
▁frat	-14542
▁mayo	-14543
▁اسمه	-14544
▁واسع	-14545
▁وغير	-14546
▁يصبح	-14547
だったのは	-14548
othing	-14549
utzung	-14550
▁Italy	-14551
▁Paolo	-14552
▁cuadr	-14553
▁muest	-14554
▁reale	-14555
▁trofe	-14556
▁المبي	-14557
▁تنتهي	-14558
▁حرارة	-14559
schulen	-14560
▁Bücher	-14561
▁Newton	-14562
▁alguna	-14563
▁attore	-14564
▁barcos	-14565
▁diseñó	-14566
▁divide	-14567
▁intell	-14568
▁lebten	-14569
▁mathem	-14570
▁profit	-14571
▁stadio	-14572
▁الملكي	-14573
オリンピックの	-14574
何年のことなの	-14575
aracters	-14576
iverpool	-14577
▁Gautama	-14578
▁Oriente	-14579
▁alemana	-14580
▁aspecto	-14581
▁earthqu	-14582
▁globale	-14583
▁meaning	-14584
▁removed	-14585
▁الاسلوب	-14586
▁التقنية	-14587
▁الكندية	-14588
▁اللهجات	-14589
ワールドシリーズ	-14590
▁Erdbeben	-14591
▁afroamer	-14592
▁articolo	-14593
▁gekämpft	-14594
▁invasion	-14595
▁northern	-14596
▁tratados	-14597
▁parlament	-14598
▁velocidad	-14599
▁Gesundheit	-14600
▁científicos	-14601
▁tubercolosi	-14602
▁Nationalität	-14603
▁chinesischen	-14604
▁headquarters	-14605
TC	-14606
zy	-14607
سس	-14608
割合	-14609
宣言	-14610
Fue	-14611
Mac	-14612
Ste	-14613
Wur	-14614
ibo	-14615
lié	-14616
urg	-14617
äte	-14618
ürz	-14619
الك	-14620
ياد	-14621
▁2?	-14622
▁CO	-14623
▁ic	-14624
よりも	-14625
を占領	-14626
プレイ	-14627
リアム	-14628
世界で	-14629
upta	-14630
ífer	-14631
üsse	-14632
سسات	-14633
يجاب	-14634
▁50?	-14635
▁Lis	-14636
▁Pas	-14637
▁Rat	-14638
▁alp	-14639
▁buy	-14640
▁mex	-14641
▁كيل	-14642
▁لتش	-14643
▁هزم	-14644
オランダ	-14645
ヒトラー	-14646
ensus	-14647
ussen	-14648
انتاج	-14649
▁Fahr	-14650
▁Juni	-14651
▁RIBA	-14652
▁Town	-14653
▁algu	-14654
▁cerv	-14655
▁cogn	-14656
▁dete	-14657
▁diet	-14658
▁disk	-14659
▁earn	-14660
▁gefe	-14661
▁otto	-14662
▁أعلى	-14663
▁معهد	-14664
▁نسخة	-14665
▁وكان	-14666
ウィリアム	-14667
acción	-14668
eterre	-14669
ifican	-14670
izzati	-14671
rochen	-14672
▁Phase	-14673
▁Umayy	-14674
▁estas	-14675
▁filós	-14676
▁label	-14677
▁pasar	-14678
▁perro	-14679
▁rebel	-14680
▁sigue	-14681
▁الثقا	-14682
▁الشيء	-14683
▁النار	-14684
▁علامة	-14685
しているのは	-14686
▁Cristo	-14687
▁Edison	-14688
▁Monica	-14689
▁Status	-14690
▁discos	-14691
▁genehm	-14692
▁irland	-14693
▁livres	-14694
▁ospita	-14695
▁trying	-14696
▁العالي	-14697
▁القران	-14698
▁النساء	-14699
▁بزيارة	-14700
▁مهرجان	-14701
gleterre	-14702
idamente	-14703
▁Angeles	-14704
▁Russell	-14705
▁Spieler	-14706
▁Stephen	-14707
▁armenia	-14708
▁combust	-14709
▁conduct	-14710
▁células	-14711
▁debería	-14712
▁derzeit	-14713
▁mehrere	-14714
▁portion	-14715
▁spielte	-14716
▁storico	-14717
▁الاشياء	-14718
▁الامطار	-14719
▁الاهلية	-14720
▁المتوسط	-14721
▁بيونسيه	-14722
▁تشكيلها	-14723
▁Antibiot	-14724
▁Broadway	-14725
▁aumentar	-14726
▁behavior	-14727
▁congreso	-14728
▁fornisce	-14729
▁funktion	-14730
▁programs	-14731
▁schaffen	-14732
▁tribunal	-14733
▁الطبيعية	-14734
▁LaserDisc	-14735
▁Schweizer	-14736
▁comunista	-14737
▁costruita	-14738
▁describes	-14739
▁initially	-14740
▁Californie	-14741
▁americanos	-14742
▁الكاتالوني	-14743
▁Association	-14744
▁Wasserstoff	-14745
▁erforderlich	-14746
GB	-14747
HS	-14748
Me	-14749
エア	-14750
スミ	-14751
建て	-14752
植民	-14753
産業	-14754
結ば	-14755
遠征	-14756
飛行	-14757
Geb	-14758
arm	-14759
kha	-14760
kra	-14761
ادئ	-14762
اسم	-14763
ولو	-14764
▁Az	-14765
▁CP	-14766
▁Kh	-14767
▁Rö	-14768
▁تل	-14769
▁حز	-14770
▁لص	-14771
』、『	-14772
ピュー	-14773
リーの	-14774
影響を	-14775
Bajo	-14776
afft	-14777
ests	-14778
etes	-14779
omer	-14780
orre	-14781
tabl	-14782
tura	-14783
uble	-14784
طلاب	-14785
هداف	-14786
▁160	-14787
▁Fle	-14788
▁GDP	-14789
▁Lag	-14790
▁ali	-14791
であるの	-14792
ヘンリー	-14793
ポッター	-14794
abili	-14795
izant	-14796
ortun	-14797
pende	-14798
كاديم	-14799
▁SNES	-14800
▁cali	-14801
▁ella	-14802
▁joue	-14803
▁kurz	-14804
▁punt	-14805
▁reso	-14806
▁sigu	-14807
▁wind	-14808
▁الثل	-14809
fallen	-14810
idores	-14811
ritten	-14812
urezza	-14813
▁1969?	-14814
▁1994?	-14815
▁Nuova	-14816
▁avión	-14817
▁books	-14818
▁encar	-14819
▁enero	-14820
▁exhib	-14821
▁ghiac	-14822
▁numer	-14823
▁nunca	-14824
▁qualc	-14825
▁revel	-14826
▁trajo	-14827
▁ألعاب	-14828
▁المنت	-14829
▁النفط	-14830
▁بناؤه	-14831
▁سابقا	-14832
▁سنويا	-14833
ヴィルヘルム	-14834
▁Gelehr	-14835
▁Geschw	-14836
▁Mathem	-14837
▁aplica	-14838
▁biolog	-14839
▁carden	-14840
▁dispar	-14841
▁income	-14842
▁intend	-14843
▁variet	-14844
▁ventas	-14845
▁vorher	-14846
▁المجتم	-14847
はどちらが先に	-14848
einander	-14849
▁Johnson	-14850
▁alcalde	-14851
▁alguien	-14852
▁attacco	-14853
▁devices	-14854
▁granted	-14855
▁guadagn	-14856
▁inglesi	-14857
▁numbers	-14858
▁الاتجاه	-14859
▁الايمان	-14860
▁المباني	-14861
achusetts	-14862
▁announce	-14863
▁generell	-14864
▁medicina	-14865
▁Franzosen	-14866
▁Industrie	-14867
▁Verhalten	-14868
▁actividad	-14869
▁elementos	-14870
▁ermöglich	-14871
▁operación	-14872
▁programas	-14873
lightenment	-14874
▁Yugoslavia	-14875
▁canadiense	-14876
▁literature	-14877
▁traducción	-14878
▁beschuldigt	-14879
▁anthropology	-14880
▁informazioni	-14881
24	-14882
صى	-14883
نب	-14884
エト	-14885
ガス	-14886
ブン	-14887
世と	-14888
噴火	-14889
天堂	-14890
平和	-14891
文化	-14892
死去	-14893
-10	-14894
App	-14895
الق	-14896
روط	-14897
▁Gi	-14898
▁كي	-14899
ウェー	-14900
eckt	-14901
fono	-14902
iled	-14903
krip	-14904
ادرة	-14905
كسون	-14906
وارد	-14907
والي	-14908
▁Bol	-14909
▁EIC	-14910
▁Imm	-14911
▁fan	-14912
▁hip	-14913
▁بسر	-14914
▁طور	-14915
▁كسر	-14916
▁لتع	-14917
▁لهم	-14918
んでいた	-14919
izona	-14920
stoff	-14921
utato	-14922
▁Nied	-14923
▁Sold	-14924
▁bras	-14925
▁five	-14926
▁lors	-14927
▁pied	-14928
▁rend	-14929
▁vacc	-14930
▁البط	-14931
▁باست	-14932
▁تحول	-14933
▁حياة	-14934
▁يبدا	-14935
Gesetz	-14936
fahren	-14937
ground	-14938
▁1984?	-14939
▁Spain	-14940
▁break	-14941
▁cells	-14942
▁corso	-14943
▁crime	-14944
▁extre	-14945
▁marca	-14946
▁meist	-14947
▁ruler	-14948
▁russo	-14949
▁señor	-14950
▁tribù	-14951
▁الامن	-14952
▁الفعل	-14953
▁المدم	-14954
▁يناير	-14955
かったですか	-14956
はなんですか	-14957
は何人ですか	-14958
gerufen	-14959
ultural	-14960
▁Depart	-14961
▁Greeks	-14962
▁destru	-14963
▁durata	-14964
▁heißen	-14965
▁marina	-14966
▁nennen	-14967
▁quella	-14968
▁techni	-14969
▁البرية	-14970
▁الميزة	-14971
▁Georgia	-14972
▁Kranken	-14973
▁Richter	-14974
▁Signore	-14975
▁adopted	-14976
▁confine	-14977
▁content	-14978
▁entidad	-14979
▁funeral	-14980
▁insetti	-14981
▁kommerz	-14982
▁sovrano	-14983
▁استبدال	-14984
▁المسلحة	-14985
▁Kulturen	-14986
▁benutzen	-14987
▁composto	-14988
▁cultures	-14989
▁ospitato	-14990
▁المتسابق	-14991
▁Operation	-14992
▁fundación	-14993
▁strumento	-14994
▁Sicherheit	-14995
▁asociación	-14996
▁characters	-14997
▁classified	-14998
▁determinar	-14999
▁secundaria	-15000
▁significado	-15001
▁nacionalidad	-15002
▁oficialmente	-15003
▁trabajadores	-15004
▁identifiziert	-15005
を作	-15006
アニ	-15007
ダン	-15008
パリ	-15009
メー	-15010
海軍	-15011
自然	-15012
規模	-15013
ائي	-15014
تحت	-15015
درت	-15016
فاة	-15017
واي	-15018
▁Ep	-15019
▁Ig	-15020
▁UU	-15021
▁WW	-15022
▁iT	-15023
▁ii	-15024
ネーム	-15025
ワイン	-15026
任天堂	-15027
高い山	-15028
Vers	-15029
adía	-15030
assa	-15031
cies	-15032
eles	-15033
haft	-15034
icar	-15035
ippi	-15036
mers	-15037
qual	-15038
ried	-15039
stru	-15040
tica	-15041
vere	-15042
امين	-15043
ظائف	-15044
وزيع	-15045
▁Abd	-15046
▁CIA	-15047
▁Eis	-15048
▁Fox	-15049
▁Sto	-15050
▁Vat	-15051
▁cel	-15052
▁ظهر	-15053
▁موت	-15054
ゴッホが	-15055
ahmen	-15056
allel	-15057
aring	-15058
heast	-15059
ucher	-15060
ursos	-15061
دولين	-15062
▁Ever	-15063
▁LEDs	-15064
▁lect	-15065
▁lluv	-15066
▁next	-15067
▁quím	-15068
▁verg	-15069
▁wohl	-15070
していたの	-15071
ativos	-15072
indern	-15073
stream	-15074
yright	-15075
▁1979?	-15076
▁Berna	-15077
▁Class	-15078
▁Obama	-15079
▁Regen	-15080
▁Teams	-15081
▁XXIII	-15082
▁alber	-15083
▁besit	-15084
▁corto	-15085
▁etabl	-15086
▁fonte	-15087
▁gramm	-15088
▁juega	-15089
▁julio	-15090
▁junio	-15091
▁juris	-15092
▁mucho	-15093
▁notab	-15094
▁peace	-15095
▁árabe	-15096
▁السين	-15097
▁العرض	-15098
▁تطبيق	-15099
▁مرحلة	-15100
Madonna	-15101
gesehen	-15102
uvieron	-15103
▁Luther	-15104
▁Mosaik	-15105
▁Rechte	-15106
▁Taiwan	-15107
▁Tuscon	-15108
▁akzept	-15109
▁appart	-15110
▁budget	-15111
▁comics	-15112
▁difesa	-15113
▁effett	-15114
▁erweit	-15115
▁forman	-15116
▁insedi	-15117
▁issues	-15118
▁longer	-15119
▁ofrece	-15120
▁tratar	-15121
▁ändern	-15122
▁الصيفي	-15123
▁القارة	-15124
▁الموقف	-15125
altungen	-15126
▁Glauben	-15127
▁Spanien	-15128
▁compare	-15129
▁consumo	-15130
▁council	-15131
▁emergen	-15132
▁enfoque	-15133
▁español	-15134
▁factors	-15135
▁mandato	-15136
▁mejores	-15137
▁modific	-15138
▁pequeño	-15139
▁servizi	-15140
▁últimos	-15141
▁العظيمة	-15142
▁جمهورية	-15143
▁مندولين	-15144
アメリカ合衆国の	-15145
ifizieren	-15146
▁Buddhism	-15147
▁comienza	-15148
▁contains	-15149
▁dovrebbe	-15150
▁invasión	-15151
▁Hollywood	-15152
▁Liverpool	-15153
▁Parlament	-15154
▁construir	-15155
▁destroyed	-15156
▁originate	-15157
▁Wettbewerb	-15158
▁científico	-15159
▁encontrado	-15160
▁tecnologia	-15161
▁lanzamiento	-15162
▁Massachusetts	-15163
rü	-15164
に属	-15165
の地	-15166
反乱	-15167
施設	-15168
職業	-15169
Deb	-15170
ريخ	-15171
كمل	-15172
ومب	-15173
▁Jr	-15174
▁Sl	-15175
ストン	-15176
年何月	-15177
atre	-15178
atti	-15179
iple	-15180
ährt	-15181
رقام	-15182
قراض	-15183
▁Bil	-15184
▁Dip	-15185
▁Not	-15186
▁Out	-15187
▁Rel	-15188
▁حضر	-15189
▁رفع	-15190
▁سطح	-15191
▁سقط	-15192
▁ضرب	-15193
▁عسك	-15194
▁محت	-15195
▁معه	-15196
▁نصف	-15197
ギリシャ	-15198
メートル	-15199
iehen	-15200
ordin	-15201
tritt	-15202
فيديو	-15203
▁Kopf	-15204
▁Late	-15205
▁bish	-15206
▁cork	-15207
▁esto	-15208
▁impu	-15209
▁indu	-15210
▁path	-15211
▁poet	-15212
▁vest	-15213
▁دورة	-15214
▁ليست	-15215
▁وحدة	-15216
するために	-15217
ención	-15218
gebung	-15219
ährung	-15220
ولوجية	-15221
▁1949?	-15222
▁1977?	-15223
▁Figur	-15224
▁Route	-15225
▁Schul	-15226
▁Smith	-15227
▁aller	-15228
▁ester	-15229
▁imped	-15230
▁recht	-15231
▁اتجاه	-15232
▁السود	-15233
▁القمر	-15234
▁النوع	-15235
▁بحيرة	-15236
▁تتكون	-15237
▁يحاول	-15238
でありますか	-15239
blieben	-15240
schluss	-15241
zionale	-15242
▁Mongol	-15243
▁Single	-15244
▁active	-15245
▁aprend	-15246
▁fallen	-15247
▁festiv	-15248
▁fusion	-15249
▁impuls	-15250
▁making	-15251
▁mostly	-15252
▁nehmen	-15253
▁speech	-15254
▁valore	-15255
▁الاسود	-15256
▁Provinz	-15257
▁artists	-15258
▁campaña	-15259
▁capaces	-15260
▁ganador	-15261
▁histori	-15262
▁implica	-15263
▁niedrig	-15264
▁offered	-15265
▁المؤسسة	-15266
▁Columbia	-15267
▁Dynastie	-15268
▁gestisce	-15269
▁proposto	-15270
▁práctica	-15271
▁satélite	-15272
▁soldados	-15273
▁Jefferson	-15274
▁pertenece	-15275
▁sconfitto	-15276
▁wichtiger	-15277
▁المهاجرين	-15278
▁disponible	-15279
▁musulmanes	-15280
▁patrimonio	-15281
▁concorrente	-15282
▁publication	-15283
▁bemerkenswerte	-15284
-5	-15285
MS	-15286
コの	-15287
ナギ	-15288
共同	-15289
半島	-15290
蔵書	-15291
Bei	-15292
bau	-15293
zzo	-15294
درس	-15295
وحة	-15296
▁فا	-15297
▁نص	-15298
▁نظ	-15299
であり	-15300
の名は	-15301
メキシ	-15302
1984	-15303
ande	-15304
ceed	-15305
enda	-15306
nehm	-15307
umer	-15308
ليدي	-15309
▁Mur	-15310
▁Sem	-15311
▁eig	-15312
▁iba	-15313
▁phr	-15314
▁عهد	-15315
した国は	-15316
多いのは	-15317
Musik	-15318
adian	-15319
asing	-15320
ierta	-15321
رائية	-15322
قافات	-15323
▁1984	-15324
▁Mali	-15325
▁Qual	-15326
▁abre	-15327
▁cayó	-15328
▁mais	-15329
▁peak	-15330
▁semi	-15331
▁sott	-15332
▁virt	-15333
▁الرك	-15334
▁الوث	-15335
▁تتبع	-15336
▁حانة	-15337
▁كورك	-15338
▁لجنة	-15339
していない	-15340
しているか	-15341
inning	-15342
▁Essen	-15343
▁Jerus	-15344
▁Preis	-15345
▁Prote	-15346
▁Römer	-15347
▁barco	-15348
▁centr	-15349
▁clubs	-15350
▁donna	-15351
▁invit	-15352
▁lines	-15353
▁olymp	-15354
▁pelig	-15355
▁stran	-15356
▁warum	-15357
▁الدور	-15358
▁العمر	-15359
▁ترتيب	-15360
▁مؤسسة	-15361
▁مشكلة	-15362
führung	-15363
▁belief	-15364
▁cambia	-15365
▁depred	-15366
▁eventi	-15367
▁memory	-15368
▁meteor	-15369
▁quinto	-15370
▁romanz	-15371
▁الشعوب	-15372
▁المشار	-15373
▁بالعمل	-15374
▁سوازيل	-15375
▁Bericht	-15376
▁Stanley	-15377
▁decidió	-15378
▁descend	-15379
▁incluye	-15380
▁liberal	-15381
▁reprodu	-15382
▁towards	-15383
▁verbess	-15384
▁الالمان	-15385
▁Begriffe	-15386
▁Bürgerme	-15387
▁clothing	-15388
▁einzigen	-15389
▁libertad	-15390
▁llamados	-15391
▁maintain	-15392
▁presenti	-15393
▁wichtige	-15394
▁Deutschen	-15395
▁Executive	-15396
▁classical	-15397
▁component	-15398
▁determina	-15399
▁indígenas	-15400
▁intercamb	-15401
▁mandolina	-15402
▁literatura	-15403
▁officially	-15404
▁continental	-15405
▁disminución	-15406
▁ferrocarril	-15407
▁rappresenta	-15408
▁translation	-15409
▁dispositivos	-15410
▁clasificación	-15411
CC	-15412
れて	-15413
主演	-15414
公園	-15415
山の	-15416
権を	-15417
物質	-15418
生活	-15419
第何	-15420
管理	-15421
cta	-15422
mes	-15423
ymn	-15424
انغ	-15425
تهم	-15426
سيس	-15427
كتل	-15428
ليف	-15429
▁Up	-15430
▁بث	-15431
▁حد	-15432
▁دل	-15433
させる	-15434
2021	-15435
Some	-15436
ania	-15437
azzo	-15438
▁Cab	-15439
▁Dal	-15440
▁Log	-15441
▁Rey	-15442
▁Sol	-15443
▁Wel	-15444
▁Win	-15445
▁bod	-15446
▁exc	-15447
▁thr	-15448
▁تور	-15449
▁حظر	-15450
キャラク	-15451
起こった	-15452
amble	-15453
emato	-15454
geber	-15455
ilien	-15456
ocide	-15457
orter	-15458
vania	-15459
ésent	-15460
ركبات	-15461
▁Fire	-15462
▁July	-15463
▁Raum	-15464
▁Sant	-15465
▁Wind	-15466
▁aria	-15467
▁geht	-15468
▁insp	-15469
▁luna	-15470
▁stay	-15471
▁الشه	-15472
▁طويل	-15473
aturas	-15474
nische	-15475
▁Demok	-15476
▁Febru	-15477
▁Maced	-15478
▁agree	-15479
▁artes	-15480
▁casos	-15481
▁kilóm	-15482
▁metod	-15483
▁navig	-15484
▁react	-15485
▁ricos	-15486
▁sacer	-15487
▁التوا	-15488
▁الرقم	-15489
▁السوق	-15490
▁عائلة	-15491
▁عرضها	-15492
▁قائمة	-15493
▁كتابة	-15494
▁مملكة	-15495
▁يسيطر	-15496
いつのことか	-15497
Comment	-15498
ológico	-15499
▁Doctor	-15500
▁Planck	-15501
▁analog	-15502
▁comuni	-15503
▁defeat	-15504
▁degree	-15505
▁demand	-15506
▁friend	-15507
▁iTunes	-15508
▁levant	-15509
▁namens	-15510
▁vapore	-15511
▁voleva	-15512
▁التطور	-15513
▁الجهاز	-15514
▁الزجاج	-15515
▁الشرقي	-15516
▁القرون	-15517
▁animale	-15518
▁batteri	-15519
▁dominio	-15520
▁nazioni	-15521
▁obtener	-15522
▁regards	-15523
▁siempre	-15524
▁الاتصال	-15525
▁الاجهزة	-15526
▁التركيز	-15527
▁العلاقة	-15528
▁ايطاليا	-15529
präsident	-15530
▁Christen	-15531
▁Regionen	-15532
▁affected	-15533
▁culturas	-15534
▁dominant	-15535
▁gefallen	-15536
▁hardware	-15537
▁notevole	-15538
▁previsto	-15539
▁szlachta	-15540
▁Francisco	-15541
▁associato	-15542
▁autoridad	-15543
▁Lancashire	-15544
▁naturaleza	-15545
▁überfallen	-15546
▁Technologie	-15547
▁governatore	-15548
CR	-15549
LB	-15550
sw	-15551
▁0	-15552
だけ	-15553
アラ	-15554
年上	-15555
ktr	-15556
lip	-15557
تلة	-15558
رجة	-15559
ريل	-15560
نيو	-15561
وكي	-15562
▁1?	-15563
そして	-15564
どこか	-15565
の一部	-15566
イタイ	-15567
フリー	-15568
amps	-15569
asis	-15570
aves	-15571
tiqu	-15572
عددة	-15573
فاعل	-15574
فسهم	-15575
كساس	-15576
يتها	-15577
▁Akt	-15578
▁Cod	-15579
▁Fol	-15580
▁Ill	-15581
▁Jos	-15582
▁Oze	-15583
▁Pac	-15584
▁blu	-15585
▁bos	-15586
▁cut	-15587
▁feb	-15588
▁étn	-15589
▁بتن	-15590
▁دمج	-15591
▁منع	-15592
anger	-15593
ierno	-15594
itung	-15595
mobil	-15596
obach	-15597
onaut	-15598
▁1999	-15599
▁avic	-15600
▁hech	-15601
▁lett	-15602
▁التم	-15603
▁الشب	-15604
▁النق	-15605
▁مدير	-15606
▁مسرح	-15607
▁وفاة	-15608
reiche	-15609
▁1941?	-15610
▁Distr	-15611
▁Eisen	-15612
▁Hilfe	-15613
▁Memor	-15614
▁Reino	-15615
▁Reise	-15616
▁Señor	-15617
▁Trade	-15618
▁Werke	-15619
▁atmos	-15620
▁famil	-15621
▁front	-15622
▁multi	-15623
▁nuove	-15624
▁staff	-15625
▁stren	-15626
▁usata	-15627
▁الابت	-15628
▁ثنائي	-15629
▁وزارة	-15630
▁يمكنك	-15631
と言いますか	-15632
ilities	-15633
tragung	-15634
▁Treaty	-15635
▁Tribun	-15636
▁apoyar	-15637
▁cultiv	-15638
▁defend	-15639
▁disobb	-15640
▁esseri	-15641
▁femmin	-15642
▁listed	-15643
▁nature	-15644
▁questi	-15645
▁seines	-15646
▁served	-15647
▁spetta	-15648
▁verfol	-15649
▁الأكبر	-15650
▁التعرف	-15651
▁الثلاث	-15652
▁الشرير	-15653
▁العمال	-15654
▁للكبار	-15655
ologists	-15656
▁Niederl	-15657
▁Samurai	-15658
▁capella	-15659
▁erwähnt	-15660
▁gleiche	-15661
▁intende	-15662
▁milioni	-15663
▁neutral	-15664
▁números	-15665
▁tedesca	-15666
▁الدراسة	-15667
orruption	-15668
▁cambiato	-15669
▁comienzo	-15670
▁infantil	-15671
▁ottomano	-15672
▁pertenec	-15673
▁philosop	-15674
▁resulted	-15675
▁التنفيذي	-15676
▁المشتركة	-15677
したのは何年ですか	-15678
▁bestimmen	-15679
▁diferente	-15680
▁políticas	-15681
▁verändert	-15682
▁التغييرات	-15683
▁Manchester	-15684
▁Teilnehmer	-15685
▁nacionales	-15686
▁throughout	-15687
▁understand	-15688
▁الديمقراطي	-15689
▁Antibiotika	-15690
▁Mississippi	-15691
▁considerata	-15692
75	-15693
IN	-15694
شي	-15695
に移	-15696
会談	-15697
卒業	-15698
歴史	-15699
議会	-15700
貨物	-15701
軍事	-15702
-23	-15703
Har	-15704
Son	-15705
ape	-15706
bus	-15707
ean	-15708
ibr	-15709
jan	-15710
ميل	-15711
▁Ho	-15712
▁tu	-15713
▁رح	-15714
▁كو	-15715
唯一の	-15716
2016	-15717
amar	-15718
just	-15719
uire	-15720
velt	-15721
ächt	-15722
üste	-15723
كاغو	-15724
▁120	-15725
▁Mai	-15726
▁Pur	-15727
▁oct	-15728
▁usó	-15729
▁توم	-15730
バルト三	-15731
年はいつ	-15732
annel	-15733
astic	-15734
edere	-15735
jeron	-15736
schen	-15737
uries	-15738
▁Satz	-15739
▁arma	-15740
▁detr	-15741
▁grav	-15742
▁máqu	-15743
▁samo	-15744
▁surg	-15745
▁viet	-15746
▁اصول	-15747
▁قاعة	-15748
▁لاست	-15749
▁هيئة	-15750
grafía	-15751
▁1988?	-15752
▁Brook	-15753
▁Gerät	-15754
▁Kateg	-15755
▁Unite	-15756
▁avoid	-15757
▁cases	-15758
▁greca	-15759
▁joven	-15760
▁nuovi	-15761
▁plata	-15762
▁prove	-15763
▁usano	-15764
▁verab	-15765
▁أغنية	-15766
▁الحرم	-15767
▁الدائ	-15768
▁وضعها	-15769
オスマン帝国	-15770
キャラクター	-15771
ardinal	-15772
ulación	-15773
▁Disney	-15774
▁Januar	-15775
▁forced	-15776
▁gewann	-15777
▁motivo	-15778
▁vidrio	-15779
▁zusätz	-15780
▁الأكثر	-15781
▁العبيد	-15782
▁يعملون	-15783
▁Erinner	-15784
▁Schrift	-15785
▁Uruguay	-15786
▁Völkerm	-15787
▁agencia	-15788
▁certain	-15789
▁lokalen	-15790
▁nativos	-15791
▁فسيفساء	-15792
Abgesehen	-15793
▁Building	-15794
▁chiamano	-15795
▁features	-15796
▁giornale	-15797
▁inferior	-15798
▁physical	-15799
▁possiede	-15800
▁response	-15801
▁supposed	-15802
▁visitato	-15803
▁الموظفين	-15804
▁للمساعدة	-15805
▁Baumwolle	-15806
▁Krankheit	-15807
▁Mandoline	-15808
▁asesinado	-15809
▁individuo	-15810
▁possibile	-15811
▁sicurezza	-15812
▁استخدمتها	-15813
▁entwickeln	-15814
▁ermöglicht	-15815
▁eventually	-15816
▁referencia	-15817
▁utilizzate	-15818
▁Mittelalter	-15819
▁competencia	-15820
▁eingestellt	-15821
▁instrumento	-15822
▁antibióticos	-15823
▁conocimiento	-15824
▁inicialmente	-15825
▁neighborhood	-15826
▁significativo	-15827
EA	-15828
IO	-15829
Mo	-15830
かか	-15831
ビー	-15832
メイ	-15833
何人	-15834
内の	-15835
市の	-15836
犠牲	-15837
紹介	-15838
締結	-15839
ufe	-15840
ترف	-15841
ذور	-15842
راب	-15843
ليج	-15844
ورو	-15845
▁3.	-15846
▁3?	-15847
▁إن	-15848
▁يغ	-15849
とは誰	-15850
ディア	-15851
abol	-15852
bare	-15853
bird	-15854
esia	-15855
iges	-15856
ilev	-15857
life	-15858
ules	-15859
ظاهر	-15860
يانغ	-15861
يميا	-15862
▁Age	-15863
▁DVD	-15864
▁Spr	-15865
▁Tim	-15866
▁aid	-15867
▁ful	-15868
▁lee	-15869
▁luc	-15870
▁rip	-15871
▁zul	-15872
ドイツが	-15873
garet	-15874
iller	-15875
stieg	-15876
▁1995	-15877
▁Gand	-15878
▁Mein	-15879
▁Yong	-15880
▁beim	-15881
▁pobl	-15882
▁poll	-15883
▁sess	-15884
▁تحتل	-15885
▁تلعب	-15886
▁دلهي	-15887
abetta	-15888
ombard	-15889
schied	-15890
▁1945?	-15891
▁Agent	-15892
▁bisog	-15893
▁georg	-15894
▁puert	-15895
▁round	-15896
▁بسرعة	-15897
▁بموجب	-15898
▁غينيا	-15899
▁موضوع	-15900
osevelt	-15901
▁Antart	-15902
▁Kosten	-15903
▁Madrid	-15904
▁Second	-15905
▁Streit	-15906
▁conson	-15907
▁dieses	-15908
▁figure	-15909
▁grados	-15910
▁hablan	-15911
▁herman	-15912
▁humana	-15913
▁invaso	-15914
▁popolo	-15915
▁sowjet	-15916
▁verdad	-15917
▁viaggi	-15918
▁visitó	-15919
▁worked	-15920
▁افتتاح	-15921
▁الابيض	-15922
▁الشيوع	-15923
▁العلوم	-15924
行われましたか	-15925
handlung	-15926
▁Journal	-15927
▁Lincoln	-15928
▁Species	-15929
▁Vorteil	-15930
▁ernannt	-15931
▁erobert	-15932
▁gehören	-15933
▁islands	-15934
▁sociale	-15935
▁termina	-15936
▁veranst	-15937
▁العناصر	-15938
▁المتوقع	-15939
▁الملابس	-15940
▁انتاجها	-15941
▁يتحدثون	-15942
▁Metropol	-15943
▁antiguos	-15944
▁dialetto	-15945
▁gefangen	-15946
▁الحكومية	-15947
▁الفدرالي	-15948
▁المسلمين	-15949
[...]
