<unk>	0
<s>	0
</s>	0
<es>	0
<fr>	0
<it>	0
<de>	0
<ar>	0
<ja>	0
<en>	0
er	-0
▁d	-1
en	-2
▁ا	-3
in	-4
an	-5
on	-6
▁ال	-7
at	-8
es	-9
el	-10
▁t	-11
▁s	-12
al	-13
▁c	-14
ar	-15
▁p	-16
▁l	-17
ch	-18
as	-19
or	-20
is	-21
▁w	-22
▁f	-23
he	-24
▁de	-25
os	-26
it	-27
▁a	-28
▁di	-29
un	-30
▁h	-31
▁m	-32
il	-33
re	-34
ic	-35
▁in	-36
▁n	-37
ent	-38
Qu	-39
ed	-40
▁o	-41
▁the	-42
ro	-43
▁v	-44
▁g	-45
▁م	-46
▁la	-47
Wh	-48
ad	-49
▁b	-50
qu	-51
ion	-52
om	-53
us	-54
et	-55
ol	-56
ur	-57
▁S	-58
ما	-59
am	-60
im	-61
▁e	-62
▁qu	-63
te	-64
في	-65
什么	-66
id	-67
▁of	-68
and	-69
ir	-70
ie	-71
▁A	-72
▁un	-73
▁es	-74
ist	-75
ig	-76
▁el	-77
ci	-78
What	-79
▁en	-80
le	-81
▁ه	-82
▁في	-83
ان	-84
▁ت	-85
20	-86
▁B	-87
▁der	-88
▁1	-89
▁ع	-90
▁die	-91
▁M	-92
ra	-93
▁al	-94
ich	-95
ut	-96
▁del	-97
▁C	-98
▁ha	-99
de	-100
ية	-101
▁se	-102
▁con	-103
▁P	-104
ale	-105
la	-106
▁الم	-107
▁ب	-108
ing	-109
ers	-110
ال	-111
min	-112
▁r	-113
elch	-114
Qué	-115
iv	-116
ul	-117
▁fil	-118
▁st	-119
▁ل	-120
em	-121
▁G	-122
▁k	-123
to	-124
▁ي	-125
▁من	-126
ia	-127
▁I	-128
▁T	-129
อง	-130
ato	-131
▁y	-132
▁re	-133
▁الت	-134
▁N	-135
um	-136
▁to	-137
▁الا	-138
uá	-139
▁어	-140
▁E	-141
ón	-142
▁filmin	-143
ين	-144
▁ك	-145
ี่	-146
ta	-147
▁R	-148
ter	-149
▁è	-150
ات	-151
▁20	-152
▁was	-153
▁F	-154
Cuá	-155
▁com	-156
▁an	-157
▁hat	-158
▁K	-159
io	-160
ow	-161
eg	-162
▁L	-163
▁z	-164
st	-165
ere	-166
▁von	-167
Was	-168
▁wh	-169
▁is	-170
iz	-171
▁D	-172
ام	-173
▁par	-174
ول	-175
▁pr	-176
ue	-177
▁los	-178
▁il	-179
ct	-180
▁H	-181
▁J	-182
▁الذ	-183
인가	-184
ür	-185
ระ	-186
est	-187
ที่	-188
hr	-189
ier	-190
에서	-191
▁qué	-192
op	-193
ري	-194
ung	-195
▁무	-196
▁pro	-197
ها	-198
ten	-199
ang	-200
▁filminin	-201
ce	-202
Welch	-203
▁ein	-204
าร	-205
ib	-206
▁ist	-207
▁did	-208
▁هو	-209
are	-210
▁الذي	-211
▁هي	-212
ag	-213
In	-214
▁و	-215
▁19	-216
▁التي	-217
▁이	-218
ot	-219
▁무엇	-220
▁er	-221
ann	-222
hi	-223
่า	-224
up	-225
▁be	-226
ation	-227
▁per	-228
▁U	-229
่อ	-230
した	-231
▁W	-232
ud	-233
เป	-234
isch	-235
すか	-236
ant	-237
▁for	-238
ใน	-239
▁des	-240
▁V	-241
ار	-242
od	-243
ไร	-244
คร	-245
ov	-246
ون	-247
ica	-248
ien	-249
▁pu	-250
็น	-251
▁what	-252
ay	-253
ass	-254
▁ن	-255
是什么	-256
เป็น	-257
▁que	-258
if	-259
ente	-260
▁كان	-261
▁le	-262
ือ	-263
iel	-264
ción	-265
▁im	-266
den	-267
pe	-268
อะ	-269
ac	-270
ort	-271
▁war	-272
tr	-273
do	-274
▁س	-275
ess	-276
ของ	-277
ですか	-278
من	-279
ap	-280
▁welch	-281
ado	-282
▁عل	-283
▁اي	-284
را	-285
อะไร	-286
ab	-287
▁"	-288
po	-289
ell	-290
all	-291
ione	-292
Wie	-293
▁ان	-294
دي	-295
▁ق	-296
Cuán	-297
ํา	-298
men	-299
edir	-300
uf	-301
én	-302
▁nedir	-303
ื่อ	-304
▁wur	-305
▁fue	-306
▁est	-307
ran	-308
ست	-309
는가	-310
Cuál	-311
ind	-312
▁몇	-313
▁zu	-314
ben	-315
ach	-316
ién	-317
ัน	-318
▁201	-319
ใด	-320
เท	-321
▁and	-322
▁su	-323
ge	-324
▁son	-325
ور	-326
▁사	-327
osa	-328
▁ver	-329
เม	-330
▁St	-331
▁200	-332
▁las	-333
▁th	-334
Quale	-335
▁O	-336
Qual	-337
ian	-338
ประ	-339
のは	-340
ีย	-341
ew	-342
oc	-343
19	-344
end	-345
มี	-346
▁i	-347
az	-348
▁الع	-349
▁있	-350
rit	-351
اي	-352
li	-353
ber	-354
ahr	-355
ate	-356
uer	-357
▁ج	-358
้า	-359
Welche	-360
การ	-361
▁ح	-362
▁das	-363
دة	-364
▁على	-365
angi	-366
일까	-367
▁nel	-368
og	-369
▁hangi	-370
ير	-371
per	-372
▁den	-373
ug	-374
多少	-375
▁gr	-376
▁para	-377
ando	-378
und	-379
The	-380
▁für	-381
Who	-382
▁una	-383
ff	-384
ذا	-385
Quién	-386
่ง	-387
▁or	-388
ame	-389
▁man	-390
سي	-391
How	-392
كم	-393
▁wurde	-394
▁do	-395
ata	-396
▁Jahr	-397
ร์	-398
หร	-399
▁prim	-400
▁ar	-401
ens	-402
ve	-403
▁che	-404
lich	-405
▁تم	-406
Wer	-407
▁?	-408
าย	-409
▁diz	-410
▁us	-411
ía	-412
ler	-413
ico	-414
▁ro	-415
▁الح	-416
▁Ar	-417
▁as	-418
▁어떤	-419
は何	-420
▁quale	-421
▁Un	-422
اب	-423
▁und	-424
ön	-425
ante	-426
으로	-427
th	-428
▁j	-429
no	-430
을까	-431
eit	-432
▁dizis	-433
ore	-434
yor	-435
mer	-436
Chi	-437
▁2	-438
▁대	-439
ine	-440
▁on	-441
ั้	-442
▁comp	-443
En	-444
ne	-445
ัก	-446
าก	-447
▁누	-448
ity	-449
เร	-450
▁tr	-451
mo	-452
▁الق	-453
▁era	-454
ub	-455
时候	-456
▁are	-457
ento	-458
▁ف	-459
▁ge	-460
ıyor	-461
ular	-462
ik	-463
▁시	-464
سم	-465
ec	-466
ma	-467
▁viel	-468
ischen	-469
MD	-470
anı	-471
▁언	-472
▁الب	-473
在哪	-474
▁무엇인가	-475
▁이름	-476
った	-477
▁puanı	-478
▁IMD	-479
▁ما	-480
▁ex	-481
ใคร	-482
▁tür	-483
ost	-484
ob	-485
▁alıyor	-486
ond	-487
uc	-488
▁(	-489
▁at	-490
ás	-491
したか	-492
▁cosa	-493
▁della	-494
▁عام	-495
ับ	-496
nd	-497
หน	-498
▁por	-499
▁لل	-500
ome	-501
ว่า	-502
▁kim	-503
▁누구	-504
され	-505
าน	-506
av	-507
▁언제	-508
ak	-509
Che	-510
▁IMDb	-511
مت	-512
ard	-513
เก	-514
وا	-515
دد	-516
ano	-517
يا	-518
ั้ง	-519
▁si	-520
าม	-521
ern	-522
▁ش	-523
▁الج	-524
cia	-525
ici	-526
▁sono	-527
00	-528
ati	-529
mp	-530
้น	-531
ly	-532
▁welchem	-533
unc	-534
وع	-535
ัง	-536
▁이름은	-537
uch	-538
tro	-539
▁stato	-540
อย	-541
▁ne	-542
نا	-543
▁가	-544
▁Ch	-545
ord	-546
ito	-547
201	-548
▁الس	-549
▁Z	-550
ith	-551
▁الى	-552
▁ch	-553
res	-554
cc	-555
عل	-556
land	-557
ti	-558
ิน	-559
omb	-560
kt	-561
▁auf	-562
▁más	-563
za	-564
▁عدد	-565
pp	-566
man	-567
▁many	-568
▁dur	-569
ิด	-570
คือ	-571
ear	-572
▁중	-573
igh	-574
ina	-575
▁dizisin	-576
When	-577
ada	-578
sch	-579
▁viele	-580
てい	-581
bl	-582
▁filminde	-583
ong	-584
▁제	-585
ische	-586
يل	-587
▁أ	-588
ert	-589
▁ti	-590
ast	-591
icht	-592
▁res	-593
iert	-594
าว	-595
▁oy	-596
▁어디	-597
▁ent	-598
رة	-599
ive	-600
ัด	-601
▁ab	-602
▁기	-603
ult	-604
▁ad	-605
▁oyunc	-606
ies	-607
พระ	-608
ados	-609
▁مع	-610
▁oyuncular	-611
▁الك	-612
lo	-613
ese	-614
▁pre	-615
متى	-616
▁with	-617
rom	-618
رب	-619
ev	-620
ido	-621
▁als	-622
▁yön	-623
▁yönet	-624
aj	-625
▁것	-626
ริ	-627
▁수	-628
Cuándo	-629
دا	-630
ect	-631
รา	-632
art	-633
ชื่อ	-634
▁ter	-635
เทศ	-636
ió	-637
哪个	-638
▁ser	-639
وب	-640
ทย	-641
دم	-642
เมื่อ	-643
▁kon	-644
▁rel	-645
▁no	-646
تح	-647
▁haben	-648
▁cons	-649
▁mit	-650
ación	-651
ide	-652
Cuánt	-653
▁añ	-654
▁الش	-655
ng	-656
▁dis	-657
▁um	-658
하는	-659
▁sind	-660
เล	-661
▁dem	-662
Wann	-663
一年	-664
▁الن	-665
▁reg	-666
▁cre	-667
Quando	-668
ประเทศ	-669
▁sich	-670
▁Sch	-671
cu	-672
▁co	-673
▁that	-674
port	-675
af	-676
▁지	-677
▁3	-678
▁me	-679
ู่	-680
▁tipo	-681
قة	-682
one	-683
▁18	-684
▁were	-685
▁전	-686
▁eine	-687
▁does	-688
مل	-689
▁gen	-690
رو	-691
ivers	-692
ident	-693
▁pi	-694
out	-695
▁عن	-696
ماذا	-697
ri	-698
ด้	-699
وم	-700
fer	-701
رك	-702
はど	-703
200	-704
va	-705
ated	-706
่น	-707
▁yönetmen	-708
▁Y	-709
att	-710
▁by	-711
▁خ	-712
Which	-713
▁선	-714
pt	-715
วง	-716
orm	-717
لي	-718
لا	-719
ales	-720
ari	-721
idad	-722
▁pa	-723
ck	-724
تم	-725
ste	-726
aus	-727
▁pres	-728
usu	-729
كن	-730
▁col	-731
ican	-732
了什么	-733
ign	-734
ill	-735
▁year	-736
▁cl	-737
ละ	-738
▁어떻	-739
▁'	-740
▁pers	-741
esch	-742
iones	-743
された	-744
ment	-745
▁In	-746
▁어떻게	-747
▁الد	-748
什么时候	-749
▁konusu	-750
enn	-751
der	-752
▁sp	-753
เด	-754
hn	-755
ائ	-756
anti	-757
se	-758
ภา	-759
ู้	-760
gen	-761
▁rol	-762
ze	-763
▁from	-764
▁più	-765
一个	-766
du	-767
és	-768
▁Be	-769
อร์	-770
ali	-771
ork	-772
▁الف	-773
าง	-774
▁해	-775
كي	-776
▁dizisinin	-777
ure	-778
itt	-779
ปี	-780
▁part	-781
يس	-782
بر	-783
▁د	-784
con	-785
有多少	-786
▁pol	-787
▁pl	-788
년도	-789
ird	-790
่อง	-791
▁كانت	-792
▁경	-793
▁بال	-794
▁정	-795
▁yönetmeni	-796
rie	-797
iliz	-798
ติ	-799
▁Sp	-800
ver	-801
▁An	-802
tern	-803
เพ	-804
▁tra	-805
▁연	-806
اء	-807
▁da	-808
▁aus	-809
ましたか	-810
▁وال	-811
▁인	-812
our	-813
azione	-814
หรือ	-815
uro	-816
Welcher	-817
สุ	-818
▁dell	-819
▁ut	-820
▁can	-821
ónde	-822
اد	-823
มา	-824
iene	-825
อยู่	-826
eb	-827
iss	-828
ite	-829
ove	-830
ión	-831
▁เป็น	-832
▁사람	-833
ม่	-834
▁나	-835
▁pop	-836
ura	-837
uto	-838
ستخ	-839
▁primer	-840
▁ر	-841
▁주	-842
we	-843
ได้	-844
age	-845
▁발	-846
▁ind	-847
بل	-848
ial	-849
lam	-850
รร	-851
ใช	-852
▁방	-853
ire	-854
อน	-855
▁New	-856
▁esta	-857
▁Al	-858
▁anno	-859
me	-860
ว่าอะไร	-861
▁일	-862
▁año	-863
니까	-864
▁무엇일까	-865
chen	-866
zione	-867
gr	-868
▁utiliz	-869
ied	-870
อก	-871
▁아	-872
ett	-873
▁Gr	-874
وق	-875
مة	-876
▁Re	-877
หล	-878
سب	-879
▁국	-880
cent	-881
▁mon	-882
▁he	-883
▁te	-884
▁한	-885
▁it	-886
▁ac	-887
ผู้	-888
▁출	-889
0?	-890
▁fir	-891
▁ers	-892
ah	-893
Where	-894
▁como	-895
Wo	-896
▁ci	-897
ตร	-898
ous	-899
▁yer	-900
ict	-901
▁ra	-902
acht	-903
ight	-904
ish	-905
▁car	-906
اع	-907
▁الر	-908
ans	-909
uss	-910
ตั้ง	-911
▁الص	-912
▁tem	-913
▁all	-914
รั	-915
▁inv	-916
▁wer	-917
เท่า	-918
เข	-919
▁위	-920
oss	-921
ื่อง	-922
จาก	-923
▁The	-924
は誰	-925
ok	-926
che	-927
les	-928
ole	-929
ble	-930
▁Art	-931
▁역	-932
fl	-933
▁gro	-934
เจ	-935
her	-936
▁cu	-937
olog	-938
▁Pro	-939
▁nomb	-940
co	-941
どの	-942
▁하	-943
ca	-944
▁Ver	-945
から	-946
▁Mar	-947
Welches	-948
▁되	-949
cip	-950
mente	-951
▁부	-952
كل	-953
oci	-954
▁fin	-955
▁parte	-956
▁sch	-957
ater	-958
▁الط	-959
วิ	-960
La	-961
án	-962
▁have	-963
ain	-964
▁الي	-965
ioni	-966
ile	-967
▁มี	-968
"?	-969
amp	-970
▁am	-971
▁cent	-972
ลง	-973
หม	-974
是什么时候	-975
ador	-976
ip	-977
ific	-978
يو	-979
▁cap	-980
▁wird	-981
▁mod	-982
▁Pr	-983
▁것은	-984
ton	-985
▁نوع	-986
mi	-987
▁ty	-988
ไทย	-989
Cuántos	-990
▁유	-991
▁199	-992
اف	-993
▁lo	-994
ice	-995
และ	-996
tra	-997
▁werden	-998
ให	-999
▁türler	-1000
onn	-1001
عة	-1002
รก	-1003
anno	-1004
cl	-1005
▁grand	-1006
pr	-1007
ér	-1008
▁chi	-1009
Dónde	-1010
gan	-1011
صل	-1012
▁개	-1013
▁يم	-1014
▁Le	-1015
oria	-1016
国家	-1017
▁sc	-1018
▁يع	-1019
نة	-1020
▁الان	-1021
▁lib	-1022
▁ü	-1023
ry	-1024
ori	-1025
elt	-1026
ede	-1027
ità	-1028
นัก	-1029
▁form	-1030
ไหร	-1031
etz	-1032
ition	-1033
▁ev	-1034
▁누구인가	-1035
▁av	-1036
ไหร่	-1037
lt	-1038
▁المتح	-1039
▁tro	-1040
▁first	-1041
ons	-1042
dir	-1043
hen	-1044
ider	-1045
▁5	-1046
ino	-1047
elle	-1048
جل	-1049
ru	-1050
▁nombre	-1051
▁Amer	-1052
อล	-1053
▁4	-1054
▁fuer	-1055
ไม่	-1056
いつ	-1057
▁공	-1058
ase	-1059
วัน	-1060
▁sol	-1061
าล	-1062
▁mus	-1063
▁name	-1064
ود	-1065
▁조	-1066
วัด	-1067
▁stata	-1068
uerra	-1069
▁الام	-1070
▁ed	-1071
ómo	-1072
▁المتحدة	-1073
▁غ	-1074
تب	-1075
▁prin	-1076
اين	-1077
▁US	-1078
▁بع	-1079
โด	-1080
هم	-1081
▁اسم	-1082
هل	-1083
خر	-1084
amb	-1085
样的	-1086
كان	-1087
حت	-1088
ขึ	-1089
▁년도	-1090
▁cor	-1091
▁welcher	-1092
▁mar	-1093
ขึ้น	-1094
▁hanno	-1095
▁الث	-1096
สม	-1097
ida	-1098
ces	-1099
ou	-1100
こと	-1101
ชา	-1102
▁뭐	-1103
ior	-1104
ますか	-1105
ند	-1106
ism	-1107
▁ag	-1108
▁pe	-1109
ick	-1110
ld	-1111
▁sup	-1112
▁يمكن	-1113
▁div	-1114
▁اله	-1115
ثر	-1116
เรื่อง	-1117
اح	-1118
แรก	-1119
▁wurden	-1120
ın	-1121
ัย	-1122
ono	-1123
be	-1124
Quanti	-1125
رن	-1126
美国	-1127
amente	-1128
▁caus	-1129
اس	-1130
ary	-1131
哪些	-1132
ona	-1133
ungen	-1134
กับ	-1135
する	-1136
دين	-1137
นา	-1138
ูก	-1139
在哪里	-1140
iste	-1141
▁med	-1142
enz	-1143
したのは	-1144
▁Te	-1145
جم	-1146
ني	-1147
▁구	-1148
ical	-1149
▁영	-1150
▁اك	-1151
▁über	-1152
لة	-1153
ero	-1154
ือง	-1155
ft	-1156
Cómo	-1157
ايات	-1158
在哪一年	-1159
้อง	-1160
เรีย	-1161
ชน	-1162
pl	-1163
عب	-1164
ไหน	-1165
▁소	-1166
وس	-1167
▁Is	-1168
▁Par	-1169
ís	-1170
ger	-1171
▁dei	-1172
▁come	-1173
ba	-1174
▁inter	-1175
pa	-1176
itu	-1177
any	-1178
าส	-1179
สุด	-1180
ild	-1181
▁ka	-1182
Un	-1183
18	-1184
▁beg	-1185
)?	-1186
idos	-1187
isten	-1188
ke	-1189
▁الخ	-1190
▁af	-1191
que	-1192
ولايات	-1193
▁어느	-1194
▁durante	-1195
بي	-1196
hal	-1197
لال	-1198
قد	-1199
ime	-1200
ラン	-1201
나요	-1202
udad	-1203
eral	-1204
▁ant	-1205
วน	-1206
ista	-1207
เกิด	-1208
▁배	-1209
ayın	-1210
▁yayın	-1211
ios	-1212
▁verw	-1213
izo	-1214
▁which	-1215
por	-1216
olo	-1217
▁무엇이	-1218
▁ص	-1219
Quali	-1220
▁있는	-1221
▁พ	-1222
เมือง	-1223
▁princip	-1224
ally	-1225
คน	-1226
▁dass	-1227
▁nome	-1228
使用	-1229
▁ciudad	-1230
igen	-1231
pos	-1232
▁non	-1233
شر	-1234
▁الل	-1235
ren	-1236
go	-1237
oma	-1238
▁geg	-1239
▁언제인가	-1240
▁قبل	-1241
▁ماذا	-1242
rib	-1243
▁stud	-1244
igin	-1245
كون	-1246
ita	-1247
ivo	-1248
wo	-1249
有什么	-1250
▁hizo	-1251
ade	-1252
ek	-1253
▁관	-1254
▁Fran	-1255
▁sh	-1256
ている	-1257
▁has	-1258
▁gem	-1259
rans	-1260
الم	-1261
ราช	-1262
وج	-1263
▁sec	-1264
anz	-1265
อา	-1266
ath	-1267
ound	-1268
โร	-1269
iem	-1270
اص	-1271
ction	-1272
▁consider	-1273
ron	-1274
▁kaç	-1275
ย์	-1276
ิง	-1277
▁Reg	-1278
▁nach	-1279
ower	-1280
▁é	-1281
되었	-1282
▁후	-1283
erst	-1284
▁guerra	-1285
ครั้ง	-1286
▁type	-1287
▁ط	-1288
▁grup	-1289
▁프	-1290
▁rec	-1291
ستخدم	-1292
▁used	-1293
▁보	-1294
▁def	-1295
はどこ	-1296
اري	-1297
▁사람은	-1298
ئيس	-1299
กี่	-1300
ario	-1301
1?	-1302
▁해는	-1303
หรือไม่	-1304
▁يتم	-1305
เส	-1306
ents	-1307
ven	-1308
دينة	-1309
▁spe	-1310
▁الذين	-1311
▁있을까	-1312
gli	-1313
مال	-1314
yste	-1315
▁Name	-1316
▁세	-1317
して	-1318
▁may	-1319
▁198	-1320
ึ่ง	-1321
ัว	-1322
▁성	-1323
แห	-1324
مان	-1325
れた	-1326
ins	-1327
▁acc	-1328
は何ですか	-1329
uv	-1330
คว	-1331
เน	-1332
▁لا	-1333
ional	-1334
يد	-1335
tin	-1336
何年	-1337
▁تق	-1338
▁gli	-1339
▁최	-1340
▁تع	-1341
ちら	-1342
▁sein	-1343
يم	-1344
โดย	-1345
ieren	-1346
▁ins	-1347
endet	-1348
リー	-1349
들이	-1350
ตร์	-1351
ors	-1352
是多少	-1353
ros	-1354
哪一年	-1355
ual	-1356
ational	-1357
liche	-1358
ustr	-1359
5?	-1360
でしたか	-1361
ph	-1362
ohn	-1363
โล	-1364
▁leg	-1365
▁vol	-1366
กร	-1367
กล	-1368
▁tiene	-1369
▁univers	-1370
omin	-1371
▁스	-1372
世界	-1373
ใช่	-1374
▁الأ	-1375
▁está	-1376
يت	-1377
ทาง	-1378
리그	-1379
▁nicht	-1380
학교	-1381
ras	-1382
▁자	-1383
▁때	-1384
ara	-1385
nt	-1386
Dove	-1387
▁loc	-1388
开始	-1389
كية	-1390
ังห	-1391
yon	-1392
▁الولايات	-1393
▁dizisi	-1394
unt	-1395
aft	-1396
iento	-1397
▁Est	-1398
iet	-1399
ugh	-1400
adt	-1401
เจ้า	-1402
▁delle	-1403
pu	-1404
วย	-1405
▁person	-1406
▁의	-1407
erg	-1408
ولة	-1409
▁et	-1410
ที่เท่า	-1411
▁esc	-1412
▁pla	-1413
aron	-1414
▁الو	-1415
▁contro	-1416
ations	-1417
▁cos	-1418
แห่ง	-1419
iti	-1420
▁cr	-1421
ใช่หรือไม่	-1422
▁لدي	-1423
urs	-1424
년에	-1425
lichen	-1426
encia	-1427
enti	-1428
form	-1429
outh	-1430
▁act	-1431
ommen	-1432
▁lang	-1433
▁not	-1434
▁Univers	-1435
▁당	-1436
จังห	-1437
่ม	-1438
▁Euro	-1439
ystem	-1440
▁상	-1441
กา	-1442
입니까	-1443
▁Se	-1444
จังหวัด	-1445
ät	-1446
▁seg	-1447
▁most	-1448
▁gew	-1449
ise	-1450
▁produ	-1451
▁Er	-1452
uld	-1453
▁Com	-1454
4?	-1455
ิม	-1456
によ	-1457
Die	-1458
▁relig	-1459
ther	-1460
เพลง	-1461
▁met	-1462
▁país	-1463
▁Gre	-1464
▁grande	-1465
De	-1466
ates	-1467
ust	-1468
anto	-1469
3?	-1470
own	-1471
icos	-1472
▁organ	-1473
cht	-1474
ส์	-1475
ทร	-1476
▁뭐야	-1477
▁노	-1478
▁만	-1479
▁wie	-1480
没有	-1481
رت	-1482
世纪	-1483
ภาพ	-1484
▁ob	-1485
▁어디인가	-1486
▁ap	-1487
▁마	-1488
▁결	-1489
طل	-1490
▁도	-1491
수는	-1492
▁Or	-1493
اني	-1494
为什么	-1495
เว	-1496
▁vers	-1497
▁Ind	-1498
▁8	-1499
وري	-1500
▁ass	-1501
▁gov	-1502
دث	-1503
▁türü	-1504
aman	-1505
annt	-1506
يرة	-1507
▁197	-1508
▁가장	-1509
änd	-1510
ismo	-1511
▁비	-1512
ดง	-1513
▁لم	-1514
▁desc	-1515
rü	-1516
▁생	-1517
vel	-1518
ake	-1519
ige	-1520
oy	-1521
▁맡	-1522
에는	-1523
▁min	-1524
▁미	-1525
pen	-1526
ilit	-1527
▁pos	-1528
El	-1529
idente	-1530
▁cuá	-1531
رض	-1532
▁그	-1533
เอ	-1534
ったのは	-1535
▁kimler	-1536
ähr	-1537
▁fe	-1538
▁app	-1539
▁aut	-1540
ある	-1541
طة	-1542
duc	-1543
▁동	-1544
ana	-1545
ارة	-1546
什么样的	-1547
▁sign	-1548
ople	-1549
▁Me	-1550
▁türde	-1551
ดี	-1552
amm	-1553
▁어떠	-1554
Cuántas	-1555
▁อ	-1556
▁경기	-1557
سة	-1558
하였	-1559
Al	-1560
ory	-1561
2?	-1562
orld	-1563
▁dal	-1564
iff	-1565
แส	-1566
era	-1567
uen	-1568
▁em	-1569
▁받	-1570
▁fam	-1571
▁neler	-1572
jo	-1573
▁siste	-1574
ef	-1575
ör	-1576
▁verwendet	-1577
int	-1578
▁sie	-1579
▁much	-1580
▁17	-1581
در	-1582
▁türleri	-1583
▁trans	-1584
▁قام	-1585
▁작	-1586
orth	-1587
▁rep	-1588
第一	-1589
ريق	-1590
▁origin	-1591
▁ten	-1592
▁llam	-1593
opin	-1594
เซ	-1595
ركة	-1596
▁علي	-1597
رق	-1598
red	-1599
▁cas	-1600
Quante	-1601
มห	-1602
▁다	-1603
zen	-1604
▁6	-1605
ack	-1606
9?	-1607
▁7	-1608
كيف	-1609
▁Qu	-1610
oro	-1611
gi	-1612
▁zaman	-1613
صر	-1614
aten	-1615
ni	-1616
ats	-1617
่าง	-1618
▁fueron	-1619
▁welche	-1620
▁سنة	-1621
▁Land	-1622
▁off	-1623
▁اول	-1624
▁고	-1625
▁call	-1626
▁wo	-1627
esso	-1628
ديد	-1629
้าง	-1630
ima	-1631
▁emp	-1632
▁명	-1633
▁state	-1634
ยน	-1635
▁서	-1636
untr	-1637
ชาว	-1638
▁American	-1639
▁dec	-1640
▁오	-1641
大学	-1642
▁inc	-1643
▁bas	-1644
lan	-1645
▁모	-1646
▁تح	-1647
blic	-1648
ola	-1649
▁const	-1650
รี	-1651
▁bet	-1652
Cosa	-1653
ions	-1654
เมื่อไหร่	-1655
叫什么	-1656
▁내	-1657
▁اع	-1658
هر	-1659
▁art	-1660
▁المع	-1661
اج	-1662
hil	-1663
iva	-1664
▁nella	-1665
้ํา	-1666
وت	-1667
ิต	-1668
▁الاس	-1669
▁Sta	-1670
▁팀	-1671
ret	-1672
ทํา	-1673
名字	-1674
ลา	-1675
▁pas	-1676
日本	-1677
انية	-1678
▁comm	-1679
▁York	-1680
▁prima	-1681
▁nelerdir	-1682
ama	-1683
▁sul	-1684
▁fa	-1685
erv	-1686
▁lar	-1687
ua	-1688
ความ	-1689
▁신	-1690
▁mayor	-1691
ていた	-1692
▁alla	-1693
▁waren	-1694
cial	-1695
▁dist	-1696
فة	-1697
atur	-1698
วั	-1699
▁ges	-1700
รับ	-1701
▁Mon	-1702
▁bef	-1703
リカ	-1704
▁dizisinde	-1705
قا	-1706
ient	-1707
قت	-1708
英国	-1709
St	-1710
hl	-1711
年に	-1712
7?	-1713
yn	-1714
ars	-1715
▁gemacht	-1716
öff	-1717
▁serv	-1718
▁percent	-1719
▁10	-1720
▁승	-1721
▁여	-1722
까지	-1723
라는	-1724
199	-1725
ühr	-1726
الي	-1727
8?	-1728
รัฐ	-1729
▁คือ	-1730
▁people	-1731
▁neg	-1732
alt	-1733
▁citt	-1734
ิก	-1735
وي	-1736
▁진	-1737
▁gesch	-1738
iale	-1739
▁einen	-1740
什么是	-1741
لك	-1742
gest	-1743
ose	-1744
sen	-1745
▁있는가	-1746
▁vor	-1747
▁ام	-1748
obre	-1749
▁장	-1750
▁العالم	-1751
ool	-1752
▁cal	-1753
ictoria	-1754
fr	-1755
부터	-1756
▁ใน	-1757
atto	-1758
erc	-1759
ker	-1760
ument	-1761
ษา	-1762
▁po	-1763
▁import	-1764
เบ	-1765
▁mag	-1766
认为	-1767
แสดง	-1768
▁المن	-1769
▁countr	-1770
صب	-1771
ิล	-1772
▁총	-1773
ต์	-1774
inn	-1775
▁soci	-1776
▁بين	-1777
どちら	-1778
▁Sh	-1779
▁occ	-1780
▁trad	-1781
라고	-1782
▁bel	-1783
▁Mus	-1784
▁Ger	-1785
oll	-1786
ถูก	-1787
▁اس	-1788
Quel	-1789
▁du	-1790
▁other	-1791
ชาติ	-1792
했을까	-1793
جموع	-1794
orte	-1795
▁new	-1796
▁است	-1797
ifica	-1798
公司	-1799
▁Mens	-1800
▁estado	-1801
BC	-1802
에게	-1803
▁id	-1804
ings	-1805
なの	-1806
ให้	-1807
ิส	-1808
ank	-1809
▁their	-1810
ution	-1811
▁ส	-1812
▁pub	-1813
onnen	-1814
wn	-1815
cer	-1816
ادة	-1817
▁filmi	-1818
ores	-1819
6?	-1820
เต	-1821
izz	-1822
▁brit	-1823
gl	-1824
ール	-1825
▁mem	-1826
▁plus	-1827
าร์	-1828
▁zw	-1829
ค์	-1830
pués	-1831
able	-1832
قل	-1833
▁تش	-1834
▁erste	-1835
▁처	-1836
antes	-1837
▁مت	-1838
خت	-1839
▁Fl	-1840
rieg	-1841
غة	-1842
rol	-1843
▁194	-1844
▁amer	-1845
▁sistema	-1846
▁된	-1847
FA	-1848
unto	-1849
iche	-1850
▁196	-1851
▁termin	-1852
bre	-1853
este	-1854
▁einer	-1855
son	-1856
จํา	-1857
adas	-1858
▁Lond	-1859
▁얼	-1860
unden	-1861
لم	-1862
piel	-1863
▁pass	-1864
▁città	-1865
▁film	-1866
ka	-1867
ena	-1868
old	-1869
了多少	-1870
heit	-1871
▁his	-1872
▁Zeit	-1873
▁프로	-1874
▁교	-1875
ierung	-1876
ít	-1877
人口	-1878
▁how	-1879
▁imp	-1880
ún	-1881
▁As	-1882
كت	-1883
▁9	-1884
▁X	-1885
▁Menschen	-1886
II	-1887
ha	-1888
رية	-1889
▁ess	-1890
▁Kon	-1891
▁polit	-1892
iempo	-1893
▁Car	-1894
▁Con	-1895
از	-1896
▁Eng	-1897
▁للم	-1898
▁comun	-1899
iger	-1900
▁Ne	-1901
是哪一年	-1902
▁city	-1903
▁degli	-1904
โลก	-1905
▁gan	-1906
▁inst	-1907
▁tiempo	-1908
ศาส	-1909
▁fran	-1910
فعل	-1911
▁De	-1912
▁بعد	-1913
ock	-1914
▁oder	-1915
ก่อ	-1916
▁대한	-1917
▁방송	-1918
▁primo	-1919
▁بش	-1920
▁El	-1921
▁Beyon	-1922
Por	-1923
▁cult	-1924
▁bec	-1925
▁encu	-1926
▁사용	-1927
如何	-1928
au	-1929
▁stati	-1930
ced	-1931
▁group	-1932
ใช้	-1933
▁long	-1934
คล	-1935
บุ	-1936
▁25	-1937
城市	-1938
是谁	-1939
als	-1940
let	-1941
ร้อง	-1942
▁المح	-1943
▁날	-1944
ury	-1945
▁Stadt	-1946
스의	-1947
▁gef	-1948
وف	-1949
ที่สุด	-1950
atz	-1951
ieron	-1952
▁الغ	-1953
목은	-1954
▁เกิด	-1955
▁quién	-1956
민국	-1957
▁جز	-1958
ック	-1959
▁종	-1960
دام	-1961
하고	-1962
▁City	-1963
▁one	-1964
ein	-1965
▁nue	-1966
도는	-1967
▁خلال	-1968
öß	-1969
▁문	-1970
▁출연	-1971
▁통	-1972
ili	-1973
etto	-1974
▁مح	-1975
iden	-1976
▁kön	-1977
▁예	-1978
ธิ	-1979
แบ	-1980
orn	-1981
par	-1982
apole	-1983
アメ	-1984
ียน	-1985
▁Ab	-1986
▁einem	-1987
reich	-1988
cio	-1989
ance	-1990
öffent	-1991
قي	-1992
▁two	-1993
アメリカ	-1994
地区	-1995
▁bek	-1996
可以	-1997
▁durch	-1998
صف	-1999
اض	-2000
▁sus	-2001
▁ค	-2002
▁iniz	-2003
▁sobre	-2004
almente	-2005
บริ	-2006
▁called	-2007
회의	-2008
▁ben	-2009
▁govern	-2010
▁곳	-2011
▁얼마	-2012
▁특	-2013
ium	-2014
▁hist	-2015
War	-2016
▁resp	-2017
rem	-2018
ัต	-2019
▁국가	-2020
da	-2021
uy	-2022
하여	-2023
▁선수	-2024
ของประเทศ	-2025
وات	-2026
▁كل	-2027
äs	-2028
يع	-2029
lass	-2030
▁encuent	-2031
▁when	-2032
ken	-2033
▁운	-2034
เรียก	-2035
スト	-2036
▁presidente	-2037
จัด	-2038
▁mov	-2039
▁انت	-2040
▁الال	-2041
▁Th	-2042
är	-2043
ays	-2044
▁men	-2045
▁kann	-2046
เช	-2047
ئي	-2048
زة	-2049
سية	-2050
のこと	-2051
10	-2052
eren	-2053
وية	-2054
beit	-2055
ement	-2056
จัก	-2057
▁kn	-2058
▁infl	-2059
na	-2060
▁차	-2061
は誰ですか	-2062
▁dos	-2063
▁conv	-2064
▁entre	-2065
▁South	-2066
されたのは	-2067
▁control	-2068
▁John	-2069
แต	-2070
kla	-2071
isen	-2072
ศ์	-2073
anye	-2074
öl	-2075
ones	-2076
طور	-2077
스트	-2078
icas	-2079
▁perio	-2080
▁مدينة	-2081
atal	-2082
▁hel	-2083
ics	-2084
ee	-2085
▁oper	-2086
▁go	-2087
研究	-2088
▁intern	-2089
▁김	-2090
มน	-2091
طقة	-2092
どこ	-2093
イン	-2094
▁되는가	-2095
▁sur	-2096
▁during	-2097
ในปี	-2098
สร	-2099
▁기록	-2100
ออก	-2101
▁prov	-2102
▁after	-2103
▁puede	-2104
ตัว	-2105
▁so	-2106
rat	-2107
最も	-2108
194	-2109
aven	-2110
部分	-2111
▁milit	-2112
▁195	-2113
ys	-2114
▁위해	-2115
zt	-2116
aria	-2117
▁Ge	-2118
aciones	-2119
اق	-2120
ชี	-2121
▁sub	-2122
halten	-2123
들은	-2124
ital	-2125
▁term	-2126
▁use	-2127
▁En	-2128
leg	-2129
undo	-2130
▁Hous	-2131
ht	-2132
opo	-2133
▁Id	-2134
▁disc	-2135
▁pod	-2136
amento	-2137
▁vis	-2138
ciones	-2139
どの国	-2140
imes	-2141
▁처음	-2142
▁könn	-2143
▁después	-2144
urch	-2145
จะ	-2146
▁get	-2147
▁어떠한	-2148
▁المو	-2149
했던	-2150
▁alg	-2151
▁á	-2152
มีชื่อ	-2153
▁fatto	-2154
▁عند	-2155
راء	-2156
▁han	-2157
ตั้งอยู่	-2158
▁남	-2159
ährend	-2160
ที่เท่าไร	-2161
hed	-2162
افة	-2163
▁시작	-2164
bum	-2165
inc	-2166
น์	-2167
▁Napole	-2168
▁primera	-2169
ctor	-2170
erein	-2171
▁월	-2172
Why	-2173
riff	-2174
▁원	-2175
ho	-2176
▁12	-2177
سبة	-2178
ึง	-2179
政府	-2180
ดิ	-2181
ree	-2182
นิ	-2183
aje	-2184
Cuáles	-2185
▁행	-2186
发生	-2187
bor	-2188
▁hum	-2189
▁imper	-2190
ไป	-2191
ute	-2192
▁نيو	-2193
▁port	-2194
aw	-2195
ัญ	-2196
▁년도는	-2197
습니까	-2198
▁groß	-2199
▁found	-2200
▁her	-2201
خص	-2202
رف	-2203
▁ض	-2204
▁bei	-2205
▁tari	-2206
ด์	-2207
aff	-2208
▁ej	-2209
▁دي	-2210
igt	-2211
▁Chopin	-2212
▁제목은	-2213
Ét	-2214
사는	-2215
over	-2216
▁sig	-2217
ele	-2218
17	-2219
▁num	-2220
▁بها	-2221
ible	-2222
▁Was	-2223
วงศ์	-2224
กัน	-2225
iano	-2226
▁/	-2227
äng	-2228
▁누구일까	-2229
ason	-2230
▁its	-2231
▁태	-2232
▁16	-2233
▁ول	-2234
드라	-2235
odo	-2236
として	-2237
▁meisten	-2238
้อ	-2239
▁كم	-2240
ภาพยน	-2241
▁등	-2242
landı	-2243
แข	-2244
Con	-2245
เล่น	-2246
▁essere	-2247
An	-2248
▁우	-2249
000	-2250
▁equ	-2251
▁Brit	-2252
อบ	-2253
ناء	-2254
ited	-2255
้าน	-2256
▁سي	-2257
だった	-2258
▁Unidos	-2259
▁ز	-2260
▁او	-2261
sten	-2262
▁yayınlandı	-2263
▁Estados	-2264
رج	-2265
▁up	-2266
Cuánto	-2267
最初	-2268
ajo	-2269
cul	-2270
▁맡은	-2271
▁ث	-2272
ienen	-2273
lación	-2274
keit	-2275
schaft	-2276
▁평	-2277
فعله	-2278
▁يح	-2279
ines	-2280
imiento	-2281
ink	-2282
▁class	-2283
▁193	-2284
▁pob	-2285
acter	-2286
▁utilizz	-2287
ueg	-2288
نية	-2289
▁prop	-2290
ala	-2291
tru	-2292
▁المت	-2293
ซี	-2294
うち	-2295
▁libro	-2296
iato	-2297
لد	-2298
รรม	-2299
▁ve	-2300
▁يق	-2301
ır	-2302
主要	-2303
tal	-2304
لماذا	-2305
ที่ไหน	-2306
اه	-2307
جموعة	-2308
▁언제야	-2309
▁설	-2310
帝国	-2311
emp	-2312
▁popul	-2313
▁progr	-2314
▁اكثر	-2315
ドイ	-2316
▁dire	-2317
のうち	-2318
bo	-2319
مر	-2320
▁언제일까	-2321
▁단	-2322
▁gu	-2323
test	-2324
Quanto	-2325
ows	-2326
▁langu	-2327
▁prof	-2328
ภาพยนตร์	-2329
imo	-2330
Il	-2331
▁اخر	-2332
▁u	-2333
드라마	-2334
ได้รับ	-2335
บอล	-2336
▁we	-2337
Dur	-2338
▁work	-2339
ียง	-2340
▁elect	-2341
uth	-2342
vol	-2343
ello	-2344
▁15	-2345
ใครคือ	-2346
พัน	-2347
▁Teil	-2348
upt	-2349
▁Man	-2350
▁Haven	-2351
لس	-2352
▁계	-2353
hip	-2354
▁gest	-2355
▁bes	-2356
مات	-2357
ドイツ	-2358
asser	-2359
▁diff	-2360
▁Co	-2361
▁ric	-2362
▁الحرب	-2363
ais	-2364
ักษ	-2365
ición	-2366
oman	-2367
ريكية	-2368
▁alle	-2369
▁time	-2370
▁bo	-2371
tain	-2372
▁camb	-2373
▁econ	-2374
▁estud	-2375
▁system	-2376
مو	-2377
فض	-2378
▁suo	-2379
attle	-2380
برا	-2381
▁incl	-2382
▁الاش	-2383
สถ	-2384
▁defin	-2385
▁Welt	-2386
▁años	-2387
▁올	-2388
あり	-2389
นาม	-2390
198	-2391
▁Chr	-2392
Per	-2393
▁Idol	-2394
대한	-2395
ague	-2396
축구	-2397
een	-2398
لب	-2399
の中	-2400
语言	-2401
자는	-2402
ölker	-2403
ยา	-2404
▁ris	-2405
resent	-2406
▁popol	-2407
▁str	-2408
?"	-2409
▁불	-2410
rag	-2411
▁Victoria	-2412
يش	-2413
يف	-2414
พิ	-2415
▁während	-2416
▁포	-2417
▁يعت	-2418
war	-2419
▁Bar	-2420
ilt	-2421
▁belie	-2422
oso	-2423
eder	-2424
อเม	-2425
▁بد	-2426
ที	-2427
▁현	-2428
▁had	-2429
▁bu	-2430
ció	-2431
▁اث	-2432
net	-2433
ames	-2434
利亚	-2435
▁회	-2436
▁Tr	-2437
▁tér	-2438
除了	-2439
▁Ét	-2440
年の	-2441
ظام	-2442
▁분	-2443
ieg	-2444
▁who	-2445
▁Verein	-2446
ึก	-2447
ート	-2448
다고	-2449
▁West	-2450
▁poss	-2451
▁바	-2452
ott	-2453
แล	-2454
ward	-2455
เค	-2456
▁거	-2457
ตรี	-2458
▁sal	-2459
にな	-2460
他们	-2461
지는	-2462
ative	-2463
bert	-2464
▁euro	-2465
▁감	-2466
ral	-2467
▁رئيس	-2468
▁الاول	-2469
▁cuando	-2470
rieben	-2471
cé	-2472
ner	-2473
ellt	-2474
▁Beg	-2475
ในประเทศ	-2476
ban	-2477
etro	-2478
▁Grup	-2479
ween	-2480
▁ide	-2481
öffentlich	-2482
▁ih	-2483
▁conc	-2484
كا	-2485
Los	-2486
ugar	-2487
หนึ่ง	-2488
▁due	-2489
Warum	-2490
▁espe	-2491
▁größ	-2492
▁참	-2493
▁Col	-2494
▁end	-2495
▁area	-2496
zo	-2497
กี	-2498
▁인물	-2499
hing	-2500
▁ba	-2501
▁어디일까	-2502
▁country	-2503
▁located	-2504
▁목	-2505
ule	-2506
었는가	-2507
ator	-2508
▁términ	-2509
▁يت	-2510
etzt	-2511
ister	-2512
▁been	-2513
ยุ	-2514
▁mot	-2515
สา	-2516
레이	-2517
cha	-2518
▁lead	-2519
sh	-2520
▁강	-2521
作品	-2522
ark	-2523
▁با	-2524
▁당시	-2525
อเมริ	-2526
▁trab	-2527
되어	-2528
eng	-2529
ammen	-2530
▁지역	-2531
sel	-2532
ival	-2533
▁contr	-2534
하기	-2535
▁eff	-2536
องค์	-2537
adio	-2538
▁San	-2539
▁파	-2540
adores	-2541
indet	-2542
يب	-2543
ora	-2544
の名	-2545
哪里	-2546
dem	-2547
ence	-2548
ature	-2549
▁North	-2550
▁chiam	-2551
국의	-2552
ants	-2553
▁hab	-2554
ครั้งแรก	-2555
▁camp	-2556
tag	-2557
ionale	-2558
raf	-2559
▁Proz	-2560
▁prem	-2561
系统	-2562
سيا	-2563
▁تن	-2564
▁energ	-2565
▁لت	-2566
▁Spiel	-2567
็ก	-2568
entes	-2569
ikan	-2570
▁contin	-2571
จุ	-2572
ias	-2573
▁sim	-2574
▁النا	-2575
▁المس	-2576
▁فيها	-2577
よう	-2578
▁영화	-2579
▁음	-2580
bra	-2581
fol	-2582
انون	-2583
▁2010	-2584
▁الجن	-2585
eben	-2586
기는	-2587
itz	-2588
يان	-2589
▁Russ	-2590
▁fl	-2591
▁ir	-2592
하였는가	-2593
سبب	-2594
onia	-2595
▁Can	-2596
▁عندما	-2597
▁produc	-2598
었을까	-2599
pton	-2600
では	-2601
ibt	-2602
▁tras	-2603
iana	-2604
▁public	-2605
andard	-2606
ität	-2607
▁encuentra	-2608
在哪个	-2609
Qui	-2610
▁Kön	-2611
叫什么名字	-2612
än	-2613
リア	-2614
bers	-2615
▁inf	-2616
ุ่น	-2617
▁Jap	-2618
▁بشكل	-2619
ستخدام	-2620
▁about	-2621
学校	-2622
حة	-2623
▁곳은	-2624
ball	-2625
klah	-2626
▁ذ	-2627
影响	-2628
imento	-2629
ถึง	-2630
▁Fil	-2631
▁말	-2632
▁재	-2633
ない	-2634
했는가	-2635
はいつ	-2636
اريخ	-2637
แข่ง	-2638
▁غير	-2639
しましたか	-2640
这个	-2641
chi	-2642
-1	-2643
wei	-2644
abet	-2645
رس	-2646
จักร	-2647
ิ่ม	-2648
▁población	-2649
앨범	-2650
▁يكون	-2651
ampton	-2652
▁tre	-2653
üt	-2654
▁ot	-2655
ucht	-2656
▁high	-2657
onna	-2658
▁val	-2659
▁열	-2660
って	-2661
より	-2662
lav	-2663
▁Stati	-2664
กํา	-2665
▁Am	-2666
▁الرئيس	-2667
get	-2668
uale	-2669
พันธ	-2670
▁out	-2671
▁Spra	-2672
▁unter	-2673
▁과	-2674
リン	-2675
▁uno	-2676
vers	-2677
▁اليه	-2678
▁به	-2679
ille	-2680
▁ear	-2681
▁unt	-2682
▁gre	-2683
กุ	-2684
สู	-2685
ต้น	-2686
ター	-2687
azioni	-2688
▁population	-2689
يز	-2690
とな	-2691
▁Pol	-2692
▁respons	-2693
เภ	-2694
lio	-2695
atore	-2696
谁是	-2697
▁super	-2698
بال	-2699
กระ	-2700
▁some	-2701
isenh	-2702
klahoma	-2703
ativ	-2704
▁Char	-2705
ús	-2706
ثل	-2707
ปล	-2708
哪种	-2709
erm	-2710
eleb	-2711
فل	-2712
▁forma	-2713
وروب	-2714
▁الز	-2715
ظم	-2716
▁Pa	-2717
isenhower	-2718
ün	-2719
主义	-2720
▁بعض	-2721
▁gran	-2722
▁second	-2723
لف	-2724
ück	-2725
▁cuánt	-2726
äsident	-2727
ölkerung	-2728
ทั	-2729
با	-2730
▁personas	-2731
▁lugar	-2732
ーム	-2733
▁ref	-2734
▁trat	-2735
▁grupo	-2736
▁عليها	-2737
usammen	-2738
▁estaba	-2739
فس	-2740
ณ์	-2741
▁หรือ	-2742
▁World	-2743
ีน	-2744
otre	-2745
อย่าง	-2746
▁modern	-2747
▁입	-2748
omm	-2749
▁cer	-2750
▁gio	-2751
เมื่อวัน	-2752
▁organiz	-2753
bar	-2754
hund	-2755
iter	-2756
▁gener	-2757
▁known	-2758
ุต	-2759
ams	-2760
▁pel	-2761
▁mehr	-2762
كة	-2763
ech	-2764
▁ai	-2765
ี้	-2766
uft	-2767
▁tempo	-2768
ai	-2769
สิ	-2770
▁타	-2771
ely	-2772
las	-2773
▁paese	-2774
▁많	-2775
otto	-2776
▁between	-2777
▁zwei	-2778
▁econom	-2779
วม	-2780
تاب	-2781
▁into	-2782
car	-2783
หลวง	-2784
▁dopo	-2785
ディ	-2786
สํา	-2787
▁tarihi	-2788
戦争	-2789
▁Ges	-2790
▁zur	-2791
▁conoc	-2792
▁무슨	-2793
بت	-2794
▁데	-2795
リス	-2796
ians	-2797
▁실	-2798
들어	-2799
into	-2800
ซึ่ง	-2801
▁الوق	-2802
ela	-2803
되는	-2804
▁Ein	-2805
▁무엇을	-2806
▁constru	-2807
▁왕	-2808
리는	-2809
eden	-2810
▁best	-2811
▁German	-2812
▁Oklahoma	-2813
▁إ	-2814
ตอน	-2815
▁trova	-2816
evölkerung	-2817
يج	-2818
▁첫	-2819
len	-2820
وان	-2821
▁anim	-2822
▁lí	-2823
mouth	-2824
▁ling	-2825
▁États	-2826
براطور	-2827
งาน	-2828
▁lu	-2829
▁날짜	-2830
▁한국	-2831
▁Jahrhund	-2832
其他	-2833
▁century	-2834
导致	-2835
▁축구	-2836
esta	-2837
ก่อตั้ง	-2838
ava	-2839
ังก	-2840
แม	-2841
▁월드	-2842
erry	-2843
▁واح	-2844
▁play	-2845
리아	-2846
스가	-2847
หาร	-2848
่าย	-2849
▁pat	-2850
▁لديها	-2851
▁University	-2852
uvo	-2853
หมาย	-2854
▁fre	-2855
อด	-2856
wick	-2857
ellen	-2858
عية	-2859
▁exp	-2860
▁Kanye	-2861
ini	-2862
▁يج	-2863
ศาสตร์	-2864
▁Mad	-2865
▁aff	-2866
▁mad	-2867
ภาษา	-2868
60	-2869
类型	-2870
▁Gen	-2871
▁عمل	-2872
▁kind	-2873
▁مص	-2874
bol	-2875
▁11	-2876
▁arch	-2877
▁more	-2878
ize	-2879
une	-2880
▁fu	-2881
ต้	-2882
ใหญ	-2883
▁mig	-2884
▁무엇인가요	-2885
elb	-2886
▁활	-2887
组织	-2888
▁ihr	-2889
▁music	-2890
▁proble	-2891
ัล	-2892
大的	-2893
▁fo	-2894
▁zwischen	-2895
▁Ex	-2896
▁cop	-2897
▁idi	-2898
▁요	-2899
lymouth	-2900
▁quando	-2901
enza	-2902
▁War	-2903
▁มีชื่อ	-2904
كر	-2905
ัฐ	-2906
第二	-2907
▁قد	-2908
blica	-2909
▁persone	-2910
▁Jahrhundert	-2911
طول	-2912
เริ่ม	-2913
بع	-2914
ensch	-2915
ترة	-2916
ريط	-2917
ange	-2918
▁Sup	-2919
▁초	-2920
▁made	-2921
▁real	-2922
ตุ	-2923
iam	-2924
▁결과	-2925
▁conf	-2926
하게	-2927
▁بي	-2928
그램	-2929
▁반	-2930
▁verb	-2931
rop	-2932
▁comenz	-2933
▁선거	-2934
▁están	-2935
ティ	-2936
ดับ	-2937
적으로	-2938
2010	-2939
▁pap	-2940
ane	-2941
▁2008	-2942
▁الاخر	-2943
▁날짜는	-2944
▁الاست	-2945
สหร	-2946
▁발매	-2947
している	-2948
obier	-2949
かった	-2950
▁Begriff	-2951
cies	-2952
erk	-2953
▁Gu	-2954
▁hay	-2955
▁اين	-2956
zioni	-2957
▁2014	-2958
▁bekannt	-2959
เกา	-2960
▁مس	-2961
▁연도는	-2962
ritto	-2963
▁Vereinig	-2964
▁Geb	-2965
▁2010?	-2966
Come	-2967
▁perm	-2968
way	-2969
Unis	-2970
ktion	-2971
▁Phil	-2972
▁Port	-2973
يور	-2974
たのは	-2975
▁Austr	-2976
โม	-2977
anj	-2978
esa	-2979
ife	-2980
▁cui	-2981
▁deb	-2982
12	-2983
كس	-2984
เคร	-2985
ities	-2986
▁language	-2987
rea	-2988
▁작품	-2989
▁Uniti	-2990
vi	-2991
วี	-2992
▁에	-2993
提供	-2994
立的	-2995
وسط	-2996
▁الرو	-2997
ace	-2998
▁mat	-2999
▁result	-3000
ضا	-3001
▁over	-3002
▁الوقت	-3003
اث	-3004
▁번	-3005
▁fun	-3006
▁Staaten	-3007
▁ur	-3008
▁Europa	-3009
عي	-3010
็จ	-3011
▁ين	-3012
▁this	-3013
▁이유	-3014
ดา	-3015
▁sci	-3016
▁wicht	-3017
들의	-3018
كثر	-3019
▁veröffentlich	-3020
ña	-3021
แก	-3022
적인	-3023
ชนิด	-3024
▁&	-3025
成为	-3026
pect	-3027
▁universidad	-3028
تج	-3029
وز	-3030
esi	-3031
สร้าง	-3032
▁الاج	-3033
▁school	-3034
ges	-3035
ika	-3036
ตํา	-3037
▁Wh	-3038
フラン	-3039
哪个国家	-3040
▁would	-3041
reet	-3042
▁zum	-3043
Da	-3044
ใหญ่	-3045
▁League	-3046
▁ann	-3047
icial	-3048
▁gobier	-3049
▁industr	-3050
ts	-3051
وني	-3052
▁liv	-3053
▁jueg	-3054
▁ident	-3055
อม	-3056
宗教	-3057
197	-3058
gio	-3059
▁Cl	-3060
には	-3061
▁tel	-3062
▁누구야	-3063
▁welchen	-3064
▁역할	-3065
▁pal	-3066
▁comb	-3067
▁erano	-3068
acional	-3069
ัท	-3070
neh	-3071
▁Lib	-3072
ision	-3073
▁학	-3074
سيق	-3075
แบบ	-3076
cept	-3077
▁2009	-3078
izione	-3079
▁siglo	-3080
▁american	-3081
▁بدا	-3082
เป็นผู้	-3083
▁describ	-3084
ที่มี	-3085
ณะ	-3086
ركز	-3087
▁FI	-3088
▁Bur	-3089
▁les	-3090
▁Bevölkerung	-3091
▁Rep	-3092
대한민국	-3093
isión	-3094
▁알	-3095
ขัน	-3096
iment	-3097
▁게	-3098
iven	-3099
▁Har	-3100
Mit	-3101
▁lav	-3102
▁som	-3103
▁Rich	-3104
เห	-3105
▁tod	-3106
▁และ	-3107
▁trov	-3108
ete	-3109
ฟุต	-3110
▁시즌	-3111
▁cond	-3112
▁اللغة	-3113
▁popular	-3114
▁término	-3115
られ	-3116
eh	-3117
tır	-3118
الية	-3119
tre	-3120
▁For	-3121
▁USA	-3122
▁befindet	-3123
▁veröffentlicht	-3124
ric	-3125
▁sua	-3126
▁출연한	-3127
ux	-3128
ュー	-3129
pon	-3130
واع	-3131
▁anni	-3132
▁수상	-3133
▁2011	-3134
▁ange	-3135
▁Queen	-3136
▁표	-3137
daf	-3138
▁13	-3139
▁escu	-3140
스는	-3141
الى	-3142
esto	-3143
uß	-3144
อุ	-3145
▁wenn	-3146
▁period	-3147
▁소속	-3148
▁السي	-3149
▁الدولة	-3150
alu	-3151
chn	-3152
berg	-3153
ists	-3154
11	-3155
ผล	-3156
มิ	-3157
ัม	-3158
fic	-3159
iere	-3160
ished	-3161
▁proc	-3162
▁algun	-3163
年的	-3164
▁Aus	-3165
▁decl	-3166
▁Europe	-3167
الة	-3168
▁char	-3169
▁record	-3170
▁può	-3171
▁اصب	-3172
▁يستخدم	-3173
▁Br	-3174
ランド	-3175
▁Cent	-3176
▁fund	-3177
▁weit	-3178
Le	-3179
▁حصل	-3180
iß	-3181
的人	-3182
▁Stud	-3183
โอ	-3184
不是	-3185
▁مرة	-3186
▁London	-3187
ps	-3188
▁직	-3189
▁اب	-3190
による	-3191
ajor	-3192
▁Nam	-3193
ロー	-3194
获得	-3195
▁At	-3196
▁후보	-3197
iver	-3198
utsch	-3199
▁government	-3200
の中で	-3201
lack	-3202
▁تحت	-3203
▁Island	-3204
发现	-3205
ومة	-3206
▁앨범	-3207
▁att	-3208
상을	-3209
imm	-3210
uov	-3211
دار	-3212
lege	-3213
atura	-3214
▁مو	-3215
head	-3216
▁cam	-3217
▁sin	-3218
ていますか	-3219
▁eines	-3220
50	-3221
▁المص	-3222
▁배우	-3223
cast	-3224
▁int	-3225
ฟุตบอล	-3226
▁Im	-3227
คํา	-3228
ismus	-3229
▁두	-3230
哪一	-3231
战争	-3232
▁رو	-3233
fen	-3234
▁otro	-3235
ั้น	-3236
ละคร	-3237
▁civ	-3238
▁ihre	-3239
▁Vereinigten	-3240
ئة	-3241
ット	-3242
ella	-3243
vent	-3244
▁2007	-3245
bbe	-3246
▁جزء	-3247
▁mundo	-3248
▁percentage	-3249
eces	-3250
▁tit	-3251
els	-3252
oph	-3253
osp	-3254
انت	-3255
▁Krieg	-3256
▁andere	-3257
ว์	-3258
ไม	-3259
มาก	-3260
第一次	-3261
尼亚	-3262
على	-3263
▁2012	-3264
▁pelí	-3265
まで	-3266
โรง	-3267
▁관련	-3268
แข่งขัน	-3269
欧洲	-3270
ndet	-3271
▁يفعله	-3272
هد	-3273
림픽	-3274
▁besch	-3275
▁tienen	-3276
irt	-3277
achen	-3278
دى	-3279
통령	-3280
▁II	-3281
▁intro	-3282
▁Bo	-3283
BS	-3284
olina	-3285
▁world	-3286
▁porcent	-3287
▁피	-3288
mas	-3289
راج	-3290
▁ست	-3291
▁일본	-3292
gior	-3293
▁celeb	-3294
าวิ	-3295
้าย	-3296
ideo	-3297
gy	-3298
ró	-3299
▁general	-3300
이는	-3301
อิน	-3302
ject	-3303
▁추	-3304
اقة	-3305
▁Prem	-3306
▁Nasser	-3307
▁Ant	-3308
▁اجل	-3309
umento	-3310
อยู่ใน	-3311
amiento	-3312
คืออะไร	-3313
พล	-3314
▁fr	-3315
▁dep	-3316
▁porcentaje	-3317
ذه	-3318
urr	-3319
ต่อ	-3320
าลัย	-3321
▁alc	-3322
▁fond	-3323
▁안	-3324
egger	-3325
▁eing	-3326
▁loro	-3327
▁begin	-3328
▁무엇입니까	-3329
أي	-3330
รู	-3331
▁사건	-3332
2014	-3333
كبر	-3334
▁ley	-3335
▁حدث	-3336
▁stat	-3337
▁Jahren	-3338
▁ersten	-3339
خل	-3340
▁eran	-3341
▁centro	-3342
にお	-3343
▁받은	-3344
とい	-3345
により	-3346
▁Fre	-3347
▁than	-3348
فت	-3349
พื	-3350
ใต้	-3351
dafi	-3352
ดน	-3353
erno	-3354
▁law	-3355
いく	-3356
warzen	-3357
▁bro	-3358
▁Präsident	-3359
สี	-3360
いて	-3361
กีฬ	-3362
▁Med	-3363
▁there	-3364
▁Sprache	-3365
ciato	-3366
▁الفي	-3367
▁complet	-3368
ño	-3369
▁특징	-3370
atori	-3371
▁2013	-3372
▁함	-3373
年代	-3374
是在哪一年	-3375
▁dónde	-3376
jet	-3377
estern	-3378
นาย	-3379
▁تص	-3380
ious	-3381
enden	-3382
▁qual	-3383
ix	-3384
▁변	-3385
ため	-3386
ี่ย	-3387
สหรัฐ	-3388
▁cant	-3389
ax	-3390
زل	-3391
▁진행	-3392
▁월드컵	-3393
▁Nord	-3394
▁succ	-3395
▁الاح	-3396
ทยาลัย	-3397
ave	-3398
uda	-3399
类型的	-3400
เรียน	-3401
▁2000	-3402
▁India	-3403
▁refer	-3404
▁Houston	-3405
대표	-3406
velop	-3407
▁cost	-3408
vo	-3409
ريكي	-3410
▁typ	-3411
▁몇년도	-3412
hington	-3413
주의	-3414
ourne	-3415
▁نسبة	-3416
ily	-3417
pi	-3418
▁있어	-3419
▁Val	-3420
▁din	-3421
istas	-3422
▁König	-3423
หญ	-3424
▁속	-3425
ont	-3426
امعة	-3427
▁App	-3428
▁FIFA	-3429
เมื่อปี	-3430
▁Christ	-3431
时间	-3432
uck	-3433
▁Ad	-3434
rael	-3435
▁domin	-3436
▁الانت	-3437
▁المنا	-3438
agn	-3439
▁بو	-3440
▁ste	-3441
▁zona	-3442
▁لديه	-3443
ationen	-3444
▁contra	-3445
▁Eisenhower	-3446
เขียน	-3447
▁어떠한가	-3448
اش	-3449
vil	-3450
orto	-3451
▁Pres	-3452
▁mater	-3453
نين	-3454
บัน	-3455
▁lle	-3456
ament	-3457
่วน	-3458
▁Afr	-3459
▁bar	-3460
▁Gruppe	-3461
ตะ	-3462
يني	-3463
2008	-3464
▁vend	-3465
ession	-3466
cy	-3467
าศ	-3468
支持	-3469
ley	-3470
▁Beyonce	-3471
น้ํา	-3472
▁main	-3473
ありますか	-3474
▁건	-3475
uan	-3476
uta	-3477
ราย	-3478
▁He	-3479
▁사망	-3480
在什么	-3481
ด้วย	-3482
▁prom	-3483
▁human	-3484
▁gobierno	-3485
سا	-3486
中国	-3487
어난	-3488
▁quali	-3489
▁القرن	-3490
طلح	-3491
พรร	-3492
▁مق	-3493
ased	-3494
▁start	-3495
▁Ä	-3496
선거	-3497
วรร	-3498
▁14	-3499
193	-3500
▁اكبر	-3501
▁라	-3502
gel	-3503
▁팀은	-3504
مالية	-3505
▁band	-3506
▁altro	-3507
▁Washington	-3508
สง	-3509
▁türlerde	-3510
▁리	-3511
시아	-3512
▁trib	-3513
▁comenzó	-3514
나라	-3515
▁Geor	-3516
▁norm	-3517
▁العام	-3518
โก	-3519
▁독	-3520
通常	-3521
▁Sw	-3522
▁become	-3523
ทธ	-3524
もの	-3525
ührt	-3526
▁الما	-3527
ปร	-3528
명은	-3529
oston	-3530
▁take	-3531
On	-3532
بير	-3533
สาม	-3534
ี่ป	-3535
▁ay	-3536
alia	-3537
▁gewonnen	-3538
ضاء	-3539
▁Ro	-3540
ญี่ป	-3541
▁sett	-3542
▁viene	-3543
éd	-3544
の名前	-3545
▁uso	-3546
▁filmini	-3547
انب	-3548
▁major	-3549
建筑	-3550
▁air	-3551
arrol	-3552
16	-3553
éc	-3554
▁박	-3555
ชาย	-3556
▁프로그램	-3557
ญี่ปุ่น	-3558
▁tempor	-3559
▁develop	-3560
▁Southampton	-3561
اية	-3562
ught	-3563
enness	-3564
원은	-3565
udd	-3566
ทั้ง	-3567
äh	-3568
▁frü	-3569
▁represent	-3570
NA	-3571
▁cat	-3572
▁اج	-3573
▁rif	-3574
igkeit	-3575
▁로	-3576
动物	-3577
▁sing	-3578
▁seine	-3579
▁desarrol	-3580
▁임	-3581
ene	-3582
ían	-3583
▁nell	-3584
Der	-3585
lay	-3586
ved	-3587
cula	-3588
▁عليه	-3589
indows	-3590
ründet	-3591
▁divent	-3592
تش	-3593
ทะ	-3594
ฤษ	-3595
▁ol	-3596
▁جم	-3597
▁구성	-3598
anza	-3599
▁Engl	-3600
▁gegründet	-3601
دل	-3602
▁geh	-3603
▁avuto	-3604
ثة	-3605
▁จ	-3606
agt	-3607
urn	-3608
▁La	-3609
▁مب	-3610
▁Ste	-3611
▁드라마	-3612
▁Francia	-3613
كرة	-3614
用什么	-3615
▁Comm	-3616
นักแสดง	-3617
อเมริกา	-3618
ennessee	-3619
ED	-3620
ym	-3621
imon	-3622
مانية	-3623
▁المش	-3624
itehead	-3625
通过	-3626
ube	-3627
▁bir	-3628
▁hatte	-3629
เศ	-3630
▁Som	-3631
▁maggior	-3632
代表	-3633
映画	-3634
法国	-3635
▁Del	-3636
▁prote	-3637
希腊	-3638
▁Ha	-3639
ission	-3640
warzenegger	-3641
地方	-3642
act	-3643
owl	-3644
▁بر	-3645
はどの	-3646
▁Bro	-3647
▁otr	-3648
Quelle	-3649
หญิง	-3650
▁educ	-3651
esehen	-3652
▁العمل	-3653
ギリス	-3654
▁Bez	-3655
▁don	-3656
▁ที่	-3657
▁인물은	-3658
▁yönetti	-3659
▁المدينة	-3660
by	-3661
▁Fe	-3662
contr	-3663
มาจาก	-3664
はどこですか	-3665
▁แ	-3666
▁항	-3667
เขา	-3668
บริษ	-3669
▁gel	-3670
▁estable	-3671
xt	-3672
시의	-3673
イギリス	-3674
▁acqu	-3675
▁hacer	-3676
Im	-3677
سمى	-3678
▁cont	-3679
▁China	-3680
▁polít	-3681
▁منطقة	-3682
يث	-3683
ูน	-3684
رح	-3685
กิ	-3686
นวน	-3687
▁present	-3688
زي	-3689
▁점	-3690
スの	-3691
될까	-3692
▁gi	-3693
▁Pop	-3694
▁common	-3695
14	-3696
ريد	-3697
يات	-3698
abil	-3699
▁Inst	-3700
▁auch	-3701
▁europe	-3702
ته	-3703
音乐	-3704
▁년도에	-3705
が多	-3706
联邦	-3707
▁تت	-3708
▁Ale	-3709
▁Part	-3710
▁atta	-3711
中的	-3712
可能	-3713
被认为	-3714
▁Gro	-3715
▁مست	-3716
shall	-3717
▁inform	-3718
เตอร์	-3719
を受	-3720
ält	-3721
▁British	-3722
▁importante	-3723
15	-3724
ุง	-3725
▁ph	-3726
ibet	-3727
▁baş	-3728
▁dest	-3729
sp	-3730
ضع	-3731
中心	-3732
2012	-3733
▁cir	-3734
ederal	-3735
▁causa	-3736
▁Portug	-3737
ks	-3738
Pod	-3739
lic	-3740
▁대통령	-3741
ander	-3742
uvalu	-3743
▁plan	-3744
▁sulla	-3745
▁않	-3746
win	-3747
▁oc	-3748
做什么	-3749
▁bomb	-3750
ga	-3751
▁살	-3752
▁코	-3753
ンの	-3754
▁ét	-3755
▁mol	-3756
บริษัท	-3757
يري	-3758
▁ang	-3759
▁فاز	-3760
atter	-3761
▁utiliza	-3762
事件	-3763
ría	-3764
▁bis	-3765
ที่สุดใน	-3766
▁begonnen	-3767
คม	-3768
▁happ	-3769
▁anderen	-3770
▁Tennessee	-3771
rig	-3772
▁ig	-3773
ides	-3774
لسلة	-3775
ieder	-3776
▁dies	-3777
พระราช	-3778
地域	-3779
cel	-3780
เมื่อใด	-3781
عم	-3782
เย	-3783
for	-3784
需要	-3785
uel	-3786
رات	-3787
cias	-3788
ology	-3789
▁2015	-3790
▁الامبراطور	-3791
▁가지	-3792
tait	-3793
▁Bre	-3794
änder	-3795
มหาวิ	-3796
▁requ	-3797
▁يعتقد	-3798
▁United	-3799
uso	-3800
していた	-3801
zeich	-3802
▁casa	-3803
▁perí	-3804
▁invest	-3805
ัส	-3806
โน	-3807
mond	-3808
omas	-3809
▁كتب	-3810
other	-3811
▁deter	-3812
Durante	-3813
ya	-3814
▁군	-3815
lar	-3816
imin	-3817
▁100	-3818
nehmen	-3819
▁territ	-3820
its	-3821
rab	-3822
▁감독	-3823
▁이후	-3824
▁Mex	-3825
▁gruppo	-3826
▁Beyoncé	-3827
▁capital	-3828
である	-3829
▁prod	-3830
▁test	-3831
ปลา	-3832
▁Ed	-3833
▁أم	-3834
angen	-3835
▁alto	-3836
gt	-3837
ja	-3838
▁리그	-3839
temp	-3840
▁post	-3841
▁الأم	-3842
▁سكان	-3843
▁الدول	-3844
▁Plymouth	-3845
ius	-3846
ناك	-3847
学院	-3848
▁kimdir	-3849
いた	-3850
▁mu	-3851
▁누가	-3852
Para	-3853
amer	-3854
erson	-3855
itect	-3856
▁nota	-3857
▁تستخدم	-3858
ภู	-3859
ีก	-3860
ías	-3861
誰ですか	-3862
▁높	-3863
的一	-3864
err	-3865
▁este	-3866
▁السكان	-3867
ös	-3868
ئيسي	-3869
▁ganó	-3870
▁فيلم	-3871
undial	-3872
▁where	-3873
▁mayoría	-3874
ส่วน	-3875
▁tuvo	-3876
▁kaçtır	-3877
▁lange	-3878
TV	-3879
ไฟ	-3880
▁투	-3881
▁형	-3882
nis	-3883
unk	-3884
▁ใด	-3885
▁Ang	-3886
▁bre	-3887
▁können	-3888
장은	-3889
はどれ	-3890
isto	-3891
كومة	-3892
▁Mit	-3893
▁add	-3894
▁mur	-3895
▁being	-3896
▁คือใคร	-3897
▁메	-3898
ชนะ	-3899
abeth	-3900
โดยใคร	-3901
▁escrib	-3902
▁Premier	-3903
▁National	-3904
ظر	-3905
صول	-3906
▁Min	-3907
되었는가	-3908
▁البح	-3909
出版	-3910
▁이유는	-3911
▁Dame	-3912
▁الهند	-3913
▁활동	-3914
cion	-3915
ارات	-3916
แน	-3917
อาก	-3918
ื้อ	-3919
▁og	-3920
affen	-3921
▁gibt	-3922
blished	-3923
▁Boston	-3924
üd	-3925
谁在	-3926
▁roman	-3927
▁program	-3928
▁popolazione	-3929
とは	-3930
리가	-3931
▁انه	-3932
▁Times	-3933
่อม	-3934
تحاد	-3935
وريا	-3936
▁2009?	-3937
elbourne	-3938
▁버	-3939
นด์	-3940
เข้า	-3941
▁norte	-3942
genommen	-3943
工作	-3944
▁را	-3945
▁Ing	-3946
เพื่อ	-3947
▁카	-3948
었던	-3949
addafi	-3950
▁Japan	-3951
ondiale	-3952
▁wichtig	-3953
جلس	-3954
ําร	-3955
▁red	-3956
▁Notre	-3957
▁media	-3958
▁visit	-3959
▁considered	-3960
大統	-3961
적은	-3962
iew	-3963
大統領	-3964
▁make	-3965
▁dalla	-3966
▁vinto	-3967
▁Seattle	-3968
▁화	-3969
られた	-3970
ًا	-3971
วิต	-3972
▁Kir	-3973
▁était	-3974
▁determin	-3975
위를	-3976
Auf	-3977
▁vi	-3978
いのは	-3979
orea	-3980
▁arm	-3981
▁costru	-3982
マン	-3983
レー	-3984
età	-3985
raft	-3986
สถาน	-3987
▁Mac	-3988
▁mús	-3989
时期	-3990
بات	-3991
したの	-3992
2009	-3993
istr	-3994
▁tut	-3995
▁لعب	-3996
▁gegen	-3997
▁países	-3998
▁호	-3999
原因	-4000
ورة	-4001
▁Os	-4002
▁Dar	-4003
▁ايضا	-4004
erstüt	-4005
▁temper	-4006
▁período	-4007
▁-	-4008
有多	-4009
들을	-4010
ody	-4011
ude	-4012
امل	-4013
▁significa	-4014
لق	-4015
ديم	-4016
▁Ir	-4017
は何年に	-4018
اط	-4019
บท	-4020
▁곡	-4021
فين	-4022
ในการ	-4023
▁geschrieben	-4024
ée	-4025
▁순	-4026
▁192	-4027
▁سب	-4028
▁akt	-4029
▁الاع	-4030
▁colon	-4031
▁design	-4032
▁따	-4033
斯特	-4034
罗马	-4035
2011	-4036
▁معظم	-4037
▁antes	-4038
มหาวิทยาลัย	-4039
fe	-4040
คุ	-4041
eld	-4042
eln	-4043
cito	-4044
▁far	-4045
▁jud	-4046
▁idioma	-4047
عات	-4048
ersch	-4049
▁event	-4050
cho	-4051
osten	-4052
▁pueden	-4053
人的	-4054
한국	-4055
cen	-4056
▁hous	-4057
▁Niger	-4058
Ch	-4059
ทีม	-4060
という	-4061
▁tor	-4062
▁club	-4063
▁crit	-4064
▁they	-4065
▁الاف	-4066
▁الوط	-4067
▁هناك	-4068
▁standard	-4069
▁Regierung	-4070
ニア	-4071
일본	-4072
ike	-4073
วิทย	-4074
▁rele	-4075
▁termine	-4076
▁استخدام	-4077
جر	-4078
▁bl	-4079
uter	-4080
▁writ	-4081
▁película	-4082
ودة	-4083
▁King	-4084
▁2013?	-4085
▁place	-4086
Be	-4087
ío	-4088
▁달	-4089
일에	-4090
▁방영	-4091
▁alta	-4092
▁hace	-4093
▁lanz	-4094
ét	-4095
بية	-4096
Comb	-4097
▁influen	-4098
▁لكي	-4099
▁data	-4100
▁السل	-4101
บา	-4102
▁득	-4103
▁매	-4104
重要	-4105
▁Ital	-4106
Combien	-4107
br	-4108
▁%	-4109
illi	-4110
เดีย	-4111
▁riv	-4112
▁لها	-4113
▁zuerst	-4114
เท่าไหร่	-4115
▁England	-4116
▁iniziato	-4117
دف	-4118
▁à	-4119
▁법	-4120
▁본	-4121
最高	-4122
فضل	-4123
่าน	-4124
▁전국	-4125
กีฬา	-4126
▁squ	-4127
▁separ	-4128
▁volta	-4129
حي	-4130
ชุ	-4131
▁할	-4132
国の	-4133
utt	-4134
였는가	-4135
▁scu	-4136
อากาศ	-4137
▁pens	-4138
▁priv	-4139
▁Unter	-4140
▁cuántos	-4141
وائ	-4142
▁노선	-4143
elli	-4144
▁Comp	-4145
▁estaban	-4146
▁br	-4147
laub	-4148
▁reci	-4149
▁Apple	-4150
izabeth	-4151
▁Napoleon	-4152
uff	-4153
▁dr	-4154
▁years	-4155
▁تاريخ	-4156
영화	-4157
▁세계	-4158
iami	-4159
▁Ent	-4160
▁imm	-4161
▁contrib	-4162
▁Carolina	-4163
发展	-4164
راض	-4165
iles	-4166
arios	-4167
enten	-4168
▁Film	-4169
▁Grand	-4170
▁natur	-4171
▁percentuale	-4172
行わ	-4173
bur	-4174
van	-4175
اعد	-4176
▁나라	-4177
سيقى	-4178
▁ren	-4179
ช่	-4180
▁wür	-4181
来的	-4182
pir	-4183
ران	-4184
▁اخ	-4185
▁power	-4186
col	-4187
خاب	-4188
จีน	-4189
2013	-4190
▁Sec	-4191
ativo	-4192
▁المل	-4193
Welchen	-4194
พบ	-4195
isc	-4196
illa	-4197
▁2011?	-4198
▁Street	-4199
▁Madonna	-4200
30	-4201
bro	-4202
▁aver	-4203
idas	-4204
ว่าง	-4205
เดิม	-4206
▁ave	-4207
▁lim	-4208
át	-4209
成的	-4210
所有	-4211
▁Bl	-4212
▁Nor	-4213
▁Repub	-4214
▁nueva	-4215
社会	-4216
사의	-4217
اسي	-4218
ecut	-4219
▁الكل	-4220
ظمة	-4221
فية	-4222
ivid	-4223
Along	-4224
igu	-4225
อํา	-4226
rest	-4227
نع	-4228
ファ	-4229
ostr	-4230
หนัง	-4231
▁arg	-4232
inder	-4233
اضافة	-4234
ésident	-4235
ท์	-4236
lin	-4237
เด็จ	-4238
▁vez	-4239
▁via	-4240
▁التح	-4241
▁2007?	-4242
▁serie	-4243
▁Air	-4244
▁بول	-4245
ather	-4246
▁2008?	-4247
▁exper	-4248
ipo	-4249
2018	-4250
bern	-4251
▁mas	-4252
▁Bron	-4253
▁شركة	-4254
etroit	-4255
▁color	-4256
図書	-4257
oth	-4258
สูง	-4259
▁Mo	-4260
▁بلد	-4261
▁inde	-4262
▁ingl	-4263
▁عادة	-4264
하는가	-4265
2015	-4266
icio	-4267
▁nuov	-4268
▁britán	-4269
▁ú	-4270
وير	-4271
▁تج	-4272
▁2006	-4273
สมเด็จ	-4274
▁leader	-4275
▁창	-4276
电影	-4277
خاص	-4278
▁مش	-4279
▁viv	-4280
▁انش	-4281
หม่อม	-4282
▁mand	-4283
▁capac	-4284
▁capit	-4285
▁mondo	-4286
▁estados	-4287
▁국가대표	-4288
▁principal	-4289
ライ	-4290
ket	-4291
ภาค	-4292
▁Melbourne	-4293
バー	-4294
eter	-4295
▁مجموعة	-4296
21	-4297
▁저	-4298
했어	-4299
Pro	-4300
▁위치	-4301
ultur	-4302
▁المست	-4303
▁Intern	-4304
▁الاخرى	-4305
▁America	-4306
Ar	-4307
两个	-4308
▁يجب	-4309
▁Frank	-4310
▁season	-4311
ณา	-4312
กรรม	-4313
▁Hol	-4314
▁doc	-4315
▁الامريكية	-4316
德国	-4317
百分	-4318
lie	-4319
ارك	-4320
ุ่ม	-4321
ages	-4322
ltre	-4323
unda	-4324
يورك	-4325
▁Gesch	-4326
▁الناس	-4327
▁더	-4328
▁새	-4329
EFA	-4330
mar	-4331
teil	-4332
文化	-4333
점은	-4334
ush	-4335
▁الجز	-4336
▁final	-4337
▁igles	-4338
▁evento	-4339
وة	-4340
ood	-4341
เกม	-4342
▁uu	-4343
▁cin	-4344
▁sex	-4345
▁under	-4346
▁جامعة	-4347
▁pubblic	-4348
▁support	-4349
"؟	-4350
FL	-4351
فا	-4352
▁광	-4353
▁خط	-4354
lung	-4355
▁rev	-4356
etter	-4357
▁land	-4358
▁zweit	-4359
▁Detroit	-4360
▁trabajo	-4361
äd	-4362
일은	-4363
قاط	-4364
▁ของ	-4365
▁word	-4366
▁نظام	-4367
▁nelle	-4368
▁سلسلة	-4369
وك	-4370
ดู	-4371
weit	-4372
พื้น	-4373
▁led	-4374
▁الملك	-4375
โบ	-4376
orr	-4377
▁اش	-4378
▁내용	-4379
ares	-4380
▁base	-4381
▁rank	-4382
▁negli	-4383
▁created	-4384
▁encontr	-4385
▁passiert	-4386
แพ	-4387
▁Die	-4388
▁aer	-4389
▁date	-4390
▁العث	-4391
▁album	-4392
▁yayınlan	-4393
Des	-4394
ندا	-4395
▁예선	-4396
entr	-4397
▁تقع	-4398
gesch	-4399
▁Armen	-4400
▁protest	-4401
多数	-4402
生产	-4403
いですか	-4404
ating	-4405
lement	-4406
je	-4407
uk	-4408
▁양	-4409
ادي	-4410
ดิน	-4411
▁Bras	-4412
▁desde	-4413
に対	-4414
之间	-4415
▁hö	-4416
▁Ber	-4417
▁gegeben	-4418
รถ	-4419
야구	-4420
▁ee	-4421
是如何	-4422
ized	-4423
ลักษ	-4424
▁heiß	-4425
▁المك	-4426
▁música	-4427
▁entwick	-4428
ín	-4429
▁집	-4430
baut	-4431
ield	-4432
▁قامت	-4433
▁again	-4434
▁autor	-4435
▁베	-4436
lim	-4437
ierte	-4438
▁Kerry	-4439
entsatz	-4440
▁company	-4441
ford	-4442
omen	-4443
tend	-4444
ware	-4445
▁Auf	-4446
▁Rev	-4447
reg	-4448
▁미국	-4449
▁올림픽	-4450
▁Bell	-4451
anjing	-4452
▁größte	-4453
运动	-4454
ศึก	-4455
▁주장	-4456
かったのは	-4457
▁Prozentsatz	-4458
قط	-4459
ูล	-4460
ルト	-4461
리의	-4462
▁op	-4463
ress	-4464
ائزة	-4465
▁you	-4466
Junto	-4467
▁secolo	-4468
▁We	-4469
▁Emp	-4470
▁could	-4471
ยาย	-4472
ucson	-4473
▁Miami	-4474
▁appro	-4475
▁اليون	-4476
196	-4477
وار	-4478
وفي	-4479
▁اثنين	-4480
ST	-4481
ธาน	-4482
senal	-4483
▁العالمية	-4484
主教	-4485
存在	-4486
怎么	-4487
比例	-4488
스터	-4489
▁stag	-4490
yl	-4491
لاق	-4492
ชีวิต	-4493
CA	-4494
سك	-4495
▁Pl	-4496
▁발표	-4497
aler	-4498
utzt	-4499
▁été	-4500
▁compar	-4501
かに	-4502
hem	-4503
pro	-4504
ตาม	-4505
▁palab	-4506
طي	-4507
وقع	-4508
▁مؤ	-4509
oren	-4510
เครื่อง	-4511
▁체	-4512
▁الاط	-4513
▁lingua	-4514
▁national	-4515
โต	-4516
inz	-4517
فال	-4518
▁최초	-4519
ually	-4520
▁largest	-4521
نى	-4522
不同	-4523
이야	-4524
cos	-4525
irg	-4526
▁함께	-4527
第一个	-4528
등학교	-4529
istro	-4530
▁iPod	-4531
estival	-4532
▁نيويورك	-4533
pol	-4534
wer	-4535
يسة	-4536
▁24	-4537
isce	-4538
▁Bew	-4539
ังกฤษ	-4540
▁show	-4541
▁crist	-4542
Zusammen	-4543
▁없	-4544
シア	-4545
ンド	-4546
وبر	-4547
นาด	-4548
▁대해	-4549
有哪些	-4550
▁rapp	-4551
배우	-4552
เทพ	-4553
▁어땠	-4554
▁Buch	-4555
▁الاخ	-4556
▁بدات	-4557
▁فترة	-4558
▁difer	-4559
โรงเรียน	-4560
BA	-4561
BM	-4562
▁죽	-4563
▁az	-4564
2016	-4565
▁هذه	-4566
edeut	-4567
ución	-4568
▁signific	-4569
مع	-4570
ント	-4571
▁يش	-4572
リーズ	-4573
▁oft	-4574
はどちら	-4575
学家	-4576
사를	-4577
▁nú	-4578
คราม	-4579
krieg	-4580
▁فريق	-4581
▁Roman	-4582
▁Super	-4583
▁build	-4584
▁الاتحاد	-4585
üh	-4586
طن	-4587
ヨー	-4588
Das	-4589
ilia	-4590
inos	-4591
ender	-4592
▁2005	-4593
▁Gran	-4594
▁الاص	-4595
olution	-4596
▁scritto	-4597
▁escribió	-4598
方法	-4599
ينا	-4600
ระห	-4601
▁이용	-4602
▁Cor	-4603
▁san	-4604
▁acuer	-4605
ใครร้อง	-4606
上的	-4607
共和	-4608
lad	-4609
▁대표	-4610
的是什么	-4611
▁Arch	-4612
▁tamb	-4613
FC	-4614
印度	-4615
问题	-4616
▁게임	-4617
▁이루	-4618
lymp	-4619
▁Arten	-4620
▁radio	-4621
▁Elizabeth	-4622
ecto	-4623
▁Rom	-4624
▁nam	-4625
vilup	-4626
▁جانب	-4627
อังกฤษ	-4628
▁Schwarzenegger	-4629
ham	-4630
▁Ph	-4631
▁sa	-4632
▁데뷔	-4633
인가요	-4634
اعدة	-4635
แม่น	-4636
▁wem	-4637
ienda	-4638
▁another	-4639
▁original	-4640
での	-4641
2007	-4642
trol	-4643
▁sido	-4644
▁große	-4645
▁persona	-4646
añ	-4647
cto	-4648
นํา	-4649
いくつ	-4650
▁tur	-4651
พันธ์	-4652
amo	-4653
▁등장	-4654
اسية	-4655
▁gior	-4656
▁Imper	-4657
▁Arbeit	-4658
At	-4659
วา	-4660
▁청	-4661
人类	-4662
法律	-4663
ครอง	-4664
ประจํา	-4665
▁Paris	-4666
وى	-4667
控制	-4668
ายุ	-4669
▁ing	-4670
▁التق	-4671
パー	-4672
Für	-4673
ขนาด	-4674
▁Roy	-4675
▁line	-4676
されましたか	-4677
▁orient	-4678
▁الاشخاص	-4679
Ab	-4680
เธ	-4681
기의	-4682
▁اح	-4683
ense	-4684
▁alt	-4685
되었을까	-4686
▁dove	-4687
▁west	-4688
▁الرئيسية	-4689
รม	-4690
ché	-4691
رائ	-4692
เอก	-4693
▁últ	-4694
érica	-4695
▁Organ	-4696
▁gente	-4697
▁llama	-4698
▁telev	-4699
ระหว่าง	-4700
▁divers	-4701
ทุ	-4702
กุล	-4703
▁하는	-4704
ينية	-4705
▁어디야	-4706
▁2016	-4707
▁Iran	-4708
▁miem	-4709
인은	-4710
สมัย	-4711
▁help	-4712
どちらですか	-4713
▁tradition	-4714
ห์	-4715
▁금	-4716
udo	-4717
ธรรม	-4718
▁vot	-4719
▁العل	-4720
ificio	-4721
otball	-4722
▁south	-4723
พระองค์	-4724
▁también	-4725
▁Portugal	-4726
▁판	-4727
と呼	-4728
간은	-4729
디오	-4730
han	-4731
図書館	-4732
▁fer	-4733
▁poder	-4734
▁genannt	-4735
▁chiamato	-4736
ジョ	-4737
用来	-4738
자의	-4739
lia	-4740
ลูก	-4741
▁서울	-4742
ivos	-4743
ativa	-4744
▁svilup	-4745
eo	-4746
▁ม	-4747
دير	-4748
▁اد	-4749
世界大	-4750
atta	-4751
ices	-4752
▁المب	-4753
▁الرئيسي	-4754
.?	-4755
行的	-4756
ula	-4757
▁많은	-4758
ほかに	-4759
▁اخت	-4760
แม่น้ํา	-4761
ใครเป็นผู้	-4762
▁escuela	-4763
▁gefunden	-4764
zz	-4765
다는	-4766
▁운행	-4767
▁dar	-4768
▁verurs	-4769
▁occident	-4770
▁temporada	-4771
都市	-4772
تما	-4773
สาย	-4774
▁Cr	-4775
▁اغ	-4776
▁وج	-4777
ungs	-4778
ures	-4779
▁cab	-4780
ynast	-4781
▁English	-4782
äl	-4783
يام	-4784
rito	-4785
▁dise	-4786
▁edad	-4787
อส	-4788
▁합	-4789
ング	-4790
هور	-4791
ดาว	-4792
▁تس	-4793
▁평균	-4794
inas	-4795
シリーズ	-4796
▁produce	-4797
ES	-4798
▁민	-4799
ony	-4800
etti	-4801
▁Fra	-4802
▁هذا	-4803
▁결과는	-4804
ใครคือผู้	-4805
▁Marshall	-4806
▁Fr	-4807
ملكة	-4808
arbeit	-4809
▁2015?	-4810
▁책	-4811
される	-4812
的主要	-4813
▁나라는	-4814
aison	-4815
andid	-4816
rench	-4817
▁tier	-4818
ording	-4819
▁2012?	-4820
▁tenía	-4821
พุ	-4822
▁각	-4823
▁산	-4824
总统	-4825
统治	-4826
195	-4827
ترا	-4828
دات	-4829
แต่	-4830
▁Es	-4831
ennen	-4832
▁التن	-4833
がある	-4834
회의원	-4835
▁وقت	-4836
▁Yale	-4837
▁corr	-4838
ología	-4839
ครั้งที่	-4840
บน	-4841
ミー	-4842
íst	-4843
elig	-4844
انيا	-4845
▁Cal	-4846
▁premier	-4847
فق	-4848
รส	-4849
ser	-4850
leich	-4851
▁mill	-4852
▁대한민국	-4853
celona	-4854
การแข่งขัน	-4855
▁ใช่หรือไม่	-4856
ky	-4857
结束	-4858
ves	-4859
のは何	-4860
▁Delhi	-4861
▁governo	-4862
เรียกว่าอะไร	-4863
▁대회	-4864
osci	-4865
ques	-4866
▁jug	-4867
▁mis	-4868
osoph	-4869
▁only	-4870
▁الاق	-4871
▁común	-4872
▁early	-4873
▁George	-4874
アル	-4875
리를	-4876
▁شي	-4877
▁tan	-4878
▁ult	-4879
icano	-4880
▁nomin	-4881
▁compos	-4882
่วม	-4883
abad	-4884
egen	-4885
ประก	-4886
▁prev	-4887
▁númer	-4888
▁differ	-4889
▁quanti	-4890
▁البريط	-4891
めて	-4892
หน้า	-4893
▁أول	-4894
▁team	-4895
สงคราม	-4896
▁Richmond	-4897
iga	-4898
urt	-4899
▁لع	-4900
▁Kar	-4901
▁bus	-4902
▁East	-4903
▁التج	-4904
gestellt	-4905
uti	-4906
ือก	-4907
folk	-4908
▁fem	-4909
ionen	-4910
▁الاسم	-4911
▁الموا	-4912
▁Israel	-4913
▁الثاني	-4914
▁القوات	-4915
▁countries	-4916
出现	-4917
스타	-4918
zeit	-4919
itution	-4920
ญา	-4921
机构	-4922
gef	-4923
igr	-4924
▁بت	-4925
▁nei	-4926
▁만들어	-4927
▁often	-4928
▁Tuvalu	-4929
kl	-4930
▁황	-4931
罗斯	-4932
دول	-4933
ราง	-4934
▁FC	-4935
▁جن	-4936
▁Haupt	-4937
▁المجموعة	-4938
参加	-4939
라이	-4940
pend	-4941
▁hic	-4942
▁사람의	-4943
laubt	-4944
mania	-4945
▁equipo	-4946
رم	-4947
タイ	-4948
ポー	-4949
时代	-4950
aut	-4951
egn	-4952
,000	-4953
▁mondiale	-4954
▁치	-4955
▁ضد	-4956
した人	-4957
cted	-4958
icip	-4959
▁Nigeria	-4960
▁트	-4961
지방	-4962
ฉาย	-4963
สาร	-4964
oles	-4965
ใหม่	-4966
▁fig	-4967
何年のこと	-4968
▁nuevo	-4969
▁College	-4970
▁الثانية	-4971
▁utilizzato	-4972
-2	-4973
้ง	-4974
▁اق	-4975
▁것이	-4976
▁될까	-4977
▁mej	-4978
▁기록한	-4979
ights	-4980
เสียง	-4981
▁Dell	-4982
▁2014?	-4983
azionale	-4984
óm	-4985
▁디	-4986
대의	-4987
ecn	-4988
geb	-4989
▁Fo	-4990
نيسة	-4991
▁ออก	-4992
วิทยา	-4993
▁rece	-4994
▁المج	-4995
▁acuerdo	-4996
▁โ	-4997
▁취	-4998
根据	-4999
หน่ง	-5000
▁ได้	-5001
rough	-5002
▁influ	-5003
▁machen	-5004
ที่เท่าไหร่	-5005
▁Ü	-5006
オー	-5007
犹太	-5008
2006	-5009
adre	-5010
erto	-5011
▁الض	-5012
orben	-5013
建立	-5014
edes	-5015
esse	-5016
▁Met	-5017
▁ber	-5018
▁عرض	-5019
▁الجنوب	-5020
'?	-5021
้ว	-5022
フィ	-5023
何时	-5024
프로	-5025
edad	-5026
กรุง	-5027
▁Aut	-5028
▁تكون	-5029
bracht	-5030
▁finan	-5031
▁incre	-5032
▁nacional	-5033
As	-5034
ラー	-5035
允许	-5036
唯一	-5037
랜드	-5038
Von	-5039
üng	-5040
▁له	-5041
lant	-5042
▁premi	-5043
isation	-5044
irtschaft	-5045
íf	-5046
َن	-5047
▁크	-5048
วัล	-5049
대학교	-5050
▁book	-5051
▁dijo	-5052
▁lleg	-5053
▁أكبر	-5054
▁واحد	-5055
▁podría	-5056
▁against	-5057
สหรัฐอเมริกา	-5058
▁논	-5059
▁물	-5060
Las	-5061
eta	-5062
ทธิ	-5063
▁발생	-5064
とは何	-5065
yder	-5066
ตําแ	-5067
▁Groß	-5068
▁ayud	-5069
ตําแหน่ง	-5070
장의	-5071
정은	-5072
ues	-5073
ulo	-5074
ديو	-5075
ماء	-5076
หัว	-5077
2000	-5078
aska	-5079
isti	-5080
▁sov	-5081
▁weiter	-5082
80	-5083
之前	-5084
aba	-5085
raph	-5086
▁شخص	-5087
▁noch	-5088
มีชื่อว่าอะไร	-5089
▁외	-5090
フォ	-5091
ヴィ	-5092
大き	-5093
원이	-5094
หมด	-5095
▁tun	-5096
แลนด์	-5097
idades	-5098
什么时候开始	-5099
icación	-5100
▁Darwin	-5101
▁compet	-5102
enschaft	-5103
▁Whitehead	-5104
ซ์	-5105
经济	-5106
가는	-5107
소는	-5108
كمة	-5109
的哪个	-5110
▁187	-5111
▁apo	-5112
แรกของ	-5113
▁Bronx	-5114
▁House	-5115
▁examp	-5116
▁클	-5117
东西	-5118
多く	-5119
▁nav	-5120
▁model	-5121
▁gebaut	-5122
▁zurück	-5123
他的	-5124
以前	-5125
增加	-5126
漱石	-5127
مَن	-5128
전에서	-5129
ette	-5130
zahl	-5131
▁Hay	-5132
essen	-5133
▁letz	-5134
何年ですか	-5135
▁국가대표팀	-5136
อย่างไร	-5137
航空	-5138
บาล	-5139
▁muer	-5140
▁benef	-5141
▁diale	-5142
▁estudi	-5143
▁periodo	-5144
▁mal	-5145
▁بان	-5146
▁premio	-5147
yderabad	-5148
สมเด็จพระ	-5149
▁Barcelona	-5150
▁الأمريكية	-5151
▁الامبراطورية	-5152
제는	-5153
였을까	-5154
درسة	-5155
ونسي	-5156
▁IMDB	-5157
▁lung	-5158
▁Musik	-5159
▁comer	-5160
▁Tucson	-5161
▁numero	-5162
▁imperio	-5163
▁Valencia	-5164
هو	-5165
产生	-5166
关于	-5167
것은	-5168
iot	-5169
iso	-5170
▁mo	-5171
▁행정	-5172
انات	-5173
ทะเล	-5174
▁선수는	-5175
iente	-5176
▁sold	-5177
▁States	-5178
▁empres	-5179
BI	-5180
äuf	-5181
ويل	-5182
▁gl	-5183
▁pays	-5184
ชนิดใด	-5185
▁happen	-5186
▁القانون	-5187
斯顿	-5188
2017	-5189
แต่ง	-5190
athol	-5191
▁2004	-5192
▁invol	-5193
ilo	-5194
omp	-5195
▁Ba	-5196
▁TV	-5197
บ้าน	-5198
▁Sov	-5199
▁sel	-5200
▁invent	-5201
▁المنطقة	-5202
นน	-5203
aya	-5204
▁اص	-5205
大多数	-5206
apos	-5207
ness	-5208
▁ถูก	-5209
رش	-5210
▁얻	-5211
สัต	-5212
▁dall	-5213
▁associ	-5214
غي	-5215
ทิ	-5216
▁적	-5217
计划	-5218
เกาะ	-5219
▁وضع	-5220
▁Form	-5221
▁also	-5222
▁French	-5223
▁commer	-5224
13	-5225
of	-5226
▁삼	-5227
청률	-5228
ños	-5229
▁vo	-5230
最大的	-5231
▁Far	-5232
▁child	-5233
ชื่อว่าอะไร	-5234
▁간	-5235
▁토	-5236
طار	-5237
ารถ	-5238
▁연기	-5239
atum	-5240
▁llev	-5241
▁gobern	-5242
▁trabaj	-5243
ani	-5244
เขต	-5245
▁ري	-5246
▁받았	-5247
تبار	-5248
▁teor	-5249
▁propor	-5250
▁레	-5251
人の	-5252
asa	-5253
lik	-5254
สมา	-5255
▁einz	-5256
りましたか	-5257
▁spiel	-5258
▁iglesia	-5259
▁individ	-5260
▁victoria	-5261
ucc	-5262
yan	-5263
โทร	-5264
▁Pe	-5265
taña	-5266
▁Ser	-5267
▁ged	-5268
▁2018	-5269
▁Kirche	-5270
Sh	-5271
uni	-5272
▁정부	-5273
▁day	-5274
ispiel	-5275
历史	-5276
帮助	-5277
역은	-5278
isi	-5279
jer	-5280
قيق	-5281
▁국제	-5282
▁tar	-5283
itzer	-5284
▁arte	-5285
▁باسم	-5286
▁الغرب	-5287
被称	-5288
ศน์	-5289
wort	-5290
umann	-5291
▁rest	-5292
▁ซึ่ง	-5293
▁exist	-5294
▁الشمالية	-5295
学生	-5296
ago	-5297
ull	-5298
جلي	-5299
รูป	-5300
อัน	-5301
▁노래	-5302
▁발견	-5303
vert	-5304
wood	-5305
▁مار	-5306
▁가지고	-5307
▁hicieron	-5308
术语	-5309
ظهر	-5310
ือน	-5311
▁ho	-5312
▁Ter	-5313
▁นัก	-5314
uzione	-5315
▁convert	-5316
▁Beispiel	-5317
40	-5318
Es	-5319
国际	-5320
独立	-5321
اول	-5322
▁pú	-5323
adem	-5324
eles	-5325
▁시작한	-5326
▁이름이	-5327
▁plant	-5328
▁Guerra	-5329
ift	-5330
ارع	-5331
▁Um	-5332
ison	-5333
▁wen	-5334
ichte	-5335
▁parti	-5336
▁الحيو	-5337
▁قانون	-5338
▁algunos	-5339
一番	-5340
约翰	-5341
위는	-5342
ธิบ	-5343
▁역대	-5344
arch	-5345
mand	-5346
ليون	-5347
▁이루어	-5348
▁Park	-5349
▁mass	-5350
▁التع	-5351
ทั้งหมด	-5352
icamente	-5353
bt	-5354
วร	-5355
▁ป	-5356
他们的	-5357
▁Pre	-5358
iendo	-5359
ologie	-5360
▁School	-5361
▁frances	-5362
Se	-5363
▁북	-5364
ابق	-5365
ีย์	-5366
년부터	-5367
uito	-5368
▁Vert	-5369
▁الحدي	-5370
▁chopin	-5371
最后	-5372
الث	-5373
ศรี	-5374
▁ma	-5375
▁بح	-5376
▁맡았	-5377
▁dans	-5378
▁grie	-5379
▁الحكومة	-5380
▁캐	-5381
เคย	-5382
▁명칭	-5383
▁참여	-5384
ibia	-5385
itor	-5386
なかった	-5387
有多少人	-5388
▁speci	-5389
▁declar	-5390
▁primero	-5391
▁stagione	-5392
จิ	-5393
标准	-5394
원의	-5395
فاع	-5396
▁사이	-5397
▁설립	-5398
▁pra	-5399
▁fall	-5400
▁اصبح	-5401
▁처음으로	-5402
ของใคร	-5403
▁otros	-5404
▁Alaska	-5405
▁gesagt	-5406
▁الاكثر	-5407
Th	-5408
ตก	-5409
▁Q	-5410
多久	-5411
比赛	-5412
现代	-5413
谁的	-5414
인이	-5415
▁수는	-5416
ような	-5417
▁ven	-5418
▁entwickelt	-5419
ji	-5420
会社	-5421
인의	-5422
ief	-5423
äre	-5424
▁Budd	-5425
ราชวงศ์	-5426
▁dinast	-5427
وث	-5428
▁담	-5429
eri	-5430
▁حق	-5431
▁여자	-5432
▁Virg	-5433
▁histor	-5434
▁produz	-5435
▁Unternehmen	-5436
ตา	-5437
でし	-5438
会的	-5439
哪家	-5440
服务	-5441
리스	-5442
ี่ยว	-5443
において	-5444
いつですか	-5445
During	-5446
▁conqu	-5447
▁occur	-5448
▁britann	-5449
▁ตั้งอยู่	-5450
▁principale	-5451
번째	-5452
피언	-5453
هام	-5454
ฟ้า	-5455
rain	-5456
▁sir	-5457
▁것들이	-5458
▁last	-5459
▁كتاب	-5460
▁국회의원	-5461
▁aument	-5462
▁president	-5463
وط	-5464
rei	-5465
มาร	-5466
▁대학	-5467
atos	-5468
▁log	-5469
ynman	-5470
สัตว์	-5471
بالاضافة	-5472
ยะ	-5473
军队	-5474
Ins	-5475
uno	-5476
▁ها	-5477
ديدة	-5478
หลัก	-5479
被认为是	-5480
iland	-5481
▁verl	-5482
▁welches	-5483
yr	-5484
بة	-5485
作为	-5486
군의	-5487
akt	-5488
ash	-5489
ったか	-5490
ช่วง	-5491
▁Act	-5492
▁dig	-5493
▁gek	-5494
กลุ่ม	-5495
▁كانوا	-5496
▁könnte	-5497
▁process	-5498
▁및	-5499
どれ	-5500
ニー	-5501
生物	-5502
alk	-5503
رير	-5504
▁jo	-5505
▁ni	-5506
▁دا	-5507
▁조별	-5508
哪一个	-5509
▁Str	-5510
のほかに	-5511
▁mosa	-5512
▁usato	-5513
▁Center	-5514
▁العديد	-5515
▁capitale	-5516
تر	-5517
ウル	-5518
리즈	-5519
ört	-5520
كار	-5521
iten	-5522
ktur	-5523
▁agr	-5524
▁ril	-5525
anden	-5526
iforn	-5527
▁compañ	-5528
ยู	-5529
ょう	-5530
ジャ	-5531
教育	-5532
azi	-5533
ฐาน	-5534
anst	-5535
atro	-5536
การ์	-5537
▁arr	-5538
▁lat	-5539
▁cuál	-5540
รางวัล	-5541
zeichnet	-5542
くら	-5543
拉斯	-5544
時代	-5545
ากร	-5546
alth	-5547
halt	-5548
だったの	-5549
akter	-5550
▁الرا	-5551
emente	-5552
▁Leben	-5553
とも	-5554
への	-5555
名的	-5556
aty	-5557
챔피언	-5558
cher	-5559
iani	-5560
reib	-5561
uerre	-5562
ically	-5563
▁Greek	-5564
▁Hayek	-5565
▁confl	-5566
▁heißt	-5567
▁seiner	-5568
▁erhalten	-5569
▁근	-5570
ety	-5571
เหน	-5572
wend	-5573
▁isla	-5574
▁คืออะไร	-5575
tt	-5576
Nel	-5577
idd	-5578
una	-5579
زال	-5580
▁Sc	-5581
▁Ur	-5582
▁우승	-5583
▁음반	-5584
▁전쟁	-5585
另一个	-5586
eros	-5587
▁cla	-5588
▁شكل	-5589
されたか	-5590
ศึกษา	-5591
outube	-5592
▁البلد	-5593
ประเทศอะไร	-5594
فع	-5595
▁ก	-5596
선수	-5597
ald	-5598
oli	-5599
غير	-5600
▁183	-5601
▁190	-5602
▁dio	-5603
▁rom	-5604
▁특징은	-5605
▁Wort	-5606
▁المؤ	-5607
▁Reich	-5608
▁başrol	-5609
▁partic	-5610
▁Gaddafi	-5611
تي	-5612
อฟ	-5613
ทรง	-5614
้อย	-5615
▁전투	-5616
oney	-5617
ural	-5618
ندية	-5619
يادة	-5620
▁hal	-5621
▁mer	-5622
▁حرب	-5623
フランス	-5624
▁مجلس	-5625
▁Tibet	-5626
▁franc	-5627
▁statt	-5628
▁before	-5629
▁edificio	-5630
维多	-5631
قتص	-5632
▁연구	-5633
häng	-5634
schn	-5635
พุทธ	-5636
でしょう	-5637
维多利亚	-5638
▁alem	-5639
▁vari	-5640
ัจ	-5641
くな	-5642
と何	-5643
形式	-5644
어났	-5645
ubs	-5646
▁ke	-5647
anas	-5648
▁Ass	-5649
▁III	-5650
▁pred	-5651
▁tecn	-5652
izzazione	-5653
คา	-5654
이션	-5655
สัญ	-5656
初めて	-5657
▁firm	-5658
▁Olymp	-5659
▁الشرق	-5660
▁church	-5661
▁derech	-5662
▁federal	-5663
▁palabra	-5664
▁الاوروب	-5665
uz	-5666
拒绝	-5667
▁Res	-5668
eston	-5669
▁phil	-5670
▁temp	-5671
รายการ	-5672
▁Willi	-5673
แค	-5674
政治	-5675
艺术	-5676
azz	-5677
irl	-5678
opt	-5679
ume	-5680
use	-5681
ไม้	-5682
▁ات	-5683
dens	-5684
▁det	-5685
▁opp	-5686
▁فعل	-5687
stadt	-5688
▁sent	-5689
▁secon	-5690
▁simil	-5691
زب	-5692
▁브	-5693
法院	-5694
력은	-5695
▁Em	-5696
وروبا	-5697
▁compr	-5698
Ein	-5699
Sch	-5700
ets	-5701
مار	-5702
ทอง	-5703
에서는	-5704
▁Fam	-5705
▁remp	-5706
▁sost	-5707
▁líder	-5708
▁lavoro	-5709
▁social	-5710
▁الاولى	-5711
▁Arsenal	-5712
▁الموسيقى	-5713
▁เ	-5714
成立的	-5715
ahre	-5716
▁1990	-5717
▁القدم	-5718
▁investig	-5719
25	-5720
▁쓰	-5721
ause	-5722
▁merc	-5723
▁كبير	-5724
▁aveva	-5725
▁compon	-5726
▁Deutsch	-5727
▁verbunden	-5728
▁증	-5729
シュ	-5730
นคร	-5731
▁Ma	-5732
开始的	-5733
وبان	-5734
▁cens	-5735
▁large	-5736
▁الكتاب	-5737
▁notable	-5738
▁unterstüt	-5739
hod	-5740
ogen	-5741
อาณา	-5742
▁مات	-5743
▁يقع	-5744
▁대학교	-5745
▁carr	-5746
▁بوصف	-5747
▁الفرن	-5748
To	-5749
侵攻	-5750
دية	-5751
第二次	-5752
fall	-5753
itto	-5754
umin	-5755
▁하는가	-5756
▁Namen	-5757
▁fecha	-5758
▁اليها	-5759
▁ولاية	-5760
▁무엇일까요	-5761
▁mundial	-5762
▁secondo	-5763
سر	-5764
を何	-5765
关系	-5766
사가	-5767
어는	-5768
할까	-5769
زية	-5770
บิน	-5771
idge	-5772
ired	-5773
เซีย	-5774
▁مثل	-5775
行われた	-5776
demás	-5777
pielt	-5778
yonce	-5779
ใดของ	-5780
▁entr	-5781
altung	-5782
▁attra	-5783
▁minor	-5784
▁الطاقة	-5785
加拿	-5786
구의	-5787
점을	-5788
zza	-5789
▁dev	-5790
▁sat	-5791
▁시청률	-5792
iness	-5793
▁held	-5794
されている	-5795
▁Royal	-5796
▁study	-5797
▁واحدة	-5798
▁number	-5799
▁número	-5800
▁เกิดเมื่อวัน	-5801
90	-5802
如果	-5803
平均	-5804
los	-5805
ارج	-5806
ince	-5807
édér	-5808
▁rag	-5809
▁نها	-5810
▁Mitgli	-5811
▁복	-5812
自由	-5813
는데	-5814
▁챔피언	-5815
▁viol	-5816
▁الجم	-5817
▁جميع	-5818
minist	-5819
كتوريا	-5820
▁Insel	-5821
▁aerop	-5822
▁würde	-5823
▁Grecia	-5824
管理	-5825
纽约	-5826
도의	-5827
드의	-5828
역의	-5829
ิดา	-5830
เภอ	-5831
▁UN	-5832
▁만든	-5833
▁최고	-5834
anos	-5835
ches	-5836
iens	-5837
▁ret	-5838
▁الاد	-5839
▁effect	-5840
れる	-5841
发布	-5842
正式	-5843
lag	-5844
▁فر	-5845
▁مك	-5846
▁다른	-5847
▁allow	-5848
جة	-5849
番目	-5850
▁Eg	-5851
▁통해	-5852
ريكا	-5853
ける	-5854
定义	-5855
▁amb	-5856
是由	-5857
gar	-5858
oni	-5859
▁30	-5860
▁정당	-5861
▁Tur	-5862
▁bajo	-5863
uffici	-5864
ประธาน	-5865
▁الياب	-5866
Di	-5867
スタ	-5868
联合	-5869
داد	-5870
فات	-5871
▁mor	-5872
ทัศน์	-5873
▁Vers	-5874
▁المد	-5875
▁dello	-5876
▁caused	-5877
▁quanto	-5878
▁through	-5879
▁kimlerdir	-5880
pä	-5881
แท	-5882
▁년	-5883
名称	-5884
植物	-5885
وقف	-5886
▁VI	-5887
▁ub	-5888
▁لو	-5889
▁아버	-5890
▁Fin	-5891
▁uran	-5892
leston	-5893
▁Empire	-5894
ไว	-5895
ソ連	-5896
要求	-5897
기가	-5898
면서	-5899
ctr	-5900
▁ef	-5901
▁ep	-5902
▁سن	-5903
اهدة	-5904
▁idea	-5905
Perché	-5906
▁occup	-5907
▁region	-5908
▁sosten	-5909
▁président	-5910
อต	-5911
선의	-5912
nam	-5913
นี้	-5914
มหา	-5915
graf	-5916
orie	-5917
اثير	-5918
▁Tod	-5919
▁día	-5920
หนังส	-5921
▁gespielt	-5922
él	-5923
เฉ	-5924
ใจ	-5925
方面	-5926
cas	-5927
最初の	-5928
▁Unt	-5929
▁urs	-5930
▁Paul	-5931
▁tierra	-5932
▁tratado	-5933
▁conocido	-5934
▁utilizan	-5935
ög	-5936
يط	-5937
教堂	-5938
比亚	-5939
้อน	-5940
▁태어난	-5941
lassen	-5942
▁invas	-5943
▁France	-5944
▁grandes	-5945
▁الامريكي	-5946
Do	-5947
ธี	-5948
▁필	-5949
기를	-5950
ารา	-5951
غيير	-5952
รั่ง	-5953
อายุ	-5954
เสีย	-5955
▁pasó	-5956
▁James	-5957
قع	-5958
アン	-5959
漫画	-5960
▁높은	-5961
▁열린	-5962
اليا	-5963
▁ارس	-5964
▁نفس	-5965
▁otra	-5966
▁macht	-5967
▁political	-5968
็ม	-5969
条约	-5970
阿尔	-5971
yle	-5972
ieme	-5973
だったか	-5974
ฝรั่ง	-5975
▁Stra	-5976
▁ejér	-5977
atalla	-5978
▁Diego	-5979
ていましたか	-5980
▁aufgenommen	-5981
ล์	-5982
创造	-5983
是从	-5984
iza	-5985
ชีพ	-5986
▁CD	-5987
line	-5988
utch	-5989
اصمة	-5990
▁fac	-5991
▁어디에	-5992
ตะวัน	-5993
▁will	-5994
▁무엇이라고	-5995
▁segunda	-5996
▁약	-5997
不能	-5998
包括	-5999
For	-6000
ئية	-6001
▁종류	-6002
erca	-6003
olar	-6004
ประเภ	-6005
▁أطول	-6006
▁يعتبر	-6007
หนังสือ	-6008
öt	-6009
▁권	-6010
▁병	-6011
この	-6012
기에	-6013
ؤول	-6014
ระบ	-6015
▁ou	-6016
▁مل	-6017
▁들어	-6018
▁차지	-6019
ided	-6020
ifiz	-6021
osof	-6022
رنسا	-6023
ielle	-6024
เหนือ	-6025
▁Cong	-6026
▁Stato	-6027
▁Union	-6028
▁liter	-6029
แห่งชาติ	-6030
▁천	-6031
シャ	-6032
国王	-6033
游戏	-6034
호는	-6035
oft	-6036
ริง	-6037
▁ze	-6038
ling	-6039
olle	-6040
▁Bür	-6041
orida	-6042
▁بسبب	-6043
ierten	-6044
▁2006?	-6045
▁großen	-6046
▁proporcion	-6047
▁용	-6048
例子	-6049
基督	-6050
▁تط	-6051
▁도시	-6052
▁Arm	-6053
▁BBC	-6054
▁old	-6055
▁mean	-6056
édéric	-6057
بد	-6058
グラ	-6059
生ま	-6060
ทร์	-6061
ลํา	-6062
2005	-6063
äten	-6064
▁184	-6065
▁Plan	-6066
▁live	-6067
ประเภท	-6068
▁Relig	-6069
ól	-6070
üs	-6071
زن	-6072
ปก	-6073
との	-6074
位于	-6075
동시	-6076
장을	-6077
▁영향	-6078
がより	-6079
ピック	-6080
itut	-6081
กลาง	-6082
▁fon	-6083
Oltre	-6084
▁Bere	-6085
▁anal	-6086
▁neue	-6087
▁death	-6088
▁creato	-6089
▁remport	-6090
yo	-6091
生活	-6092
있는	-6093
자가	-6094
หลี	-6095
▁sm	-6096
▁سا	-6097
▁몇명	-6098
▁제작	-6099
ミー賞	-6100
ählt	-6101
▁dom	-6102
▁top	-6103
igung	-6104
▁expl	-6105
▁perd	-6106
▁built	-6107
▁Londres	-6108
رتب	-6109
▁FBI	-6110
▁pur	-6111
▁قال	-6112
▁كرة	-6113
aggio	-6114
▁2020	-6115
▁revol	-6116
schnitt	-6117
▁Spielberg	-6118
미국	-6119
ece	-6120
년까지	-6121
orio	-6122
zung	-6123
الات	-6124
▁فيه	-6125
▁역사는	-6126
されたの	-6127
▁Span	-6128
▁cuer	-6129
▁neces	-6130
▁objet	-6131
▁bacter	-6132
▁versch	-6133
▁Estonia	-6134
▁batalla	-6135
▁military	-6136
でき	-6137
来自	-6138
지의	-6139
트의	-6140
프리	-6141
ايا	-6142
aint	-6143
ท้าย	-6144
ดนตรี	-6145
ฝรั่งเศ	-6146
▁dispos	-6147
▁possono	-6148
مي	-6149
▁편	-6150
人们	-6151
形成	-6152
期间	-6153
제가	-6154
eum	-6155
ندن	-6156
คุณ	-6157
▁ún	-6158
▁방법	-6159
unta	-6160
فريق	-6161
▁gab	-6162
▁gra	-6163
▁run	-6164
abile	-6165
acion	-6166
▁memb	-6167
▁Gesetz	-6168
ós	-6169
ชิ	-6170
ハン	-6171
시즌	-6172
ils	-6173
ney	-6174
▁Do	-6175
▁목록	-6176
▁상대	-6177
umer	-6178
▁aud	-6179
▁sud	-6180
▁tom	-6181
▁ucc	-6182
kauft	-6183
▁tres	-6184
▁Staat	-6185
▁المسي	-6186
จัดขึ้น	-6187
▁Saison	-6188
王国	-6189
하지	-6190
▁어떨	-6191
uman	-6192
ใดใน	-6193
▁High	-6194
คือใคร	-6195
▁reino	-6196
▁Neumann	-6197
▁material	-6198
issenschaft	-6199
rä	-6200
öm	-6201
โซ	-6202
ffen	-6203
▁rul	-6204
▁قاد	-6205
orden	-6206
มนตรี	-6207
▁activ	-6208
▁Länder	-6209
▁actual	-6210
▁resident	-6211
Su	-6212
カー	-6213
発生	-6214
이가	-6215
hor	-6216
لاح	-6217
แนว	-6218
zeug	-6219
بتون	-6220
راسة	-6221
prüng	-6222
▁clas	-6223
▁لاول	-6224
penden	-6225
▁china	-6226
▁offer	-6227
▁commun	-6228
ุ์	-6229
成立	-6230
最大	-6231
apt	-6232
ivi	-6233
ائل	-6234
كيل	-6235
▁것을	-6236
▁Tit	-6237
itato	-6238
▁Tito	-6239
▁sede	-6240
▁السن	-6241
▁어떠한가요	-6242
▁interp	-6243
▁proces	-6244
ฝรั่งเศส	-6245
んだ	-6246
cep	-6247
อัล	-6248
▁os	-6249
했나요	-6250
rado	-6251
ريقة	-6252
▁Fir	-6253
▁mac	-6254
▁نشر	-6255
▁geog	-6256
▁حصلت	-6257
▁لندن	-6258
发生了什么	-6259
▁three	-6260
▁مصطلح	-6261
เมืองหลวง	-6262
ชม	-6263
ตี	-6264
พร	-6265
▁네	-6266
决定	-6267
班牙	-6268
오는	-6269
eva	-6270
▁تد	-6271
西班牙	-6272
ผลิต	-6273
▁있나요	-6274
weise	-6275
▁prog	-6276
▁cause	-6277
▁menudo	-6278
▁Windows	-6279
▁product	-6280
▁European	-6281
トル	-6282
เธอ	-6283
▁Cre	-6284
▁Hel	-6285
▁Jew	-6286
▁gla	-6287
▁pag	-6288
▁어떨까	-6289
จํานวน	-6290
▁orden	-6291
▁filosof	-6292
▁ursprüng	-6293
▁فيكتوريا	-6294
ッド	-6295
大会	-6296
理论	-6297
ira	-6298
سمح	-6299
นาน	-6300
オリン	-6301
ritt	-6302
หรับ	-6303
เหตุ	-6304
▁Pap	-6305
▁Tag	-6306
▁mom	-6307
▁own	-6308
▁cuán	-6309
▁espa	-6310
▁fine	-6311
▁انها	-6312
▁adopt	-6313
▁solar	-6314
▁الشخص	-6315
western	-6316
แผ	-6317
▁บ	-6318
到了	-6319
成员	-6320
进行	-6321
امج	-6322
ولي	-6323
ิร์	-6324
anda	-6325
ites	-6326
rote	-6327
عليم	-6328
▁cree	-6329
▁höch	-6330
▁الاصل	-6331
▁religi	-6332
▁الانجلي	-6333
نت	-6334
▁별	-6335
させ	-6336
用于	-6337
enta	-6338
فلام	-6339
ancia	-6340
เกาหลี	-6341
▁الانس	-6342
オリンピック	-6343
▁conten	-6344
▁einige	-6345
▁النظام	-6346
▁società	-6347
Pr	-6348
▁패	-6349
チャ	-6350
tió	-6351
加拿大	-6352
▁Jul	-6353
▁2001	-6354
▁gioc	-6355
▁them	-6356
▁vida	-6357
▁تسمى	-6358
▁based	-6359
▁report	-6360
▁believe	-6361
▁จังหวัด	-6362
ikanischen	-6363
yd	-6364
fte	-6365
ดีต	-6366
▁rad	-6367
▁back	-6368
▁بناء	-6369
▁veces	-6370
▁became	-6371
▁cultura	-6372
▁verursacht	-6373
▁애	-6374
自己	-6375
这些	-6376
보는	-6377
▁na	-6378
ehov	-6379
دارس	-6380
later	-6381
▁mejor	-6382
▁Nanjing	-6383
ลี	-6384
▁준	-6385
女王	-6386
cie	-6387
irk	-6388
gypt	-6389
ueva	-6390
▁dov	-6391
▁โดย	-6392
inter	-6393
▁tratt	-6394
antwort	-6395
غو	-6396
성의	-6397
ahl	-6398
สัน	-6399
▁Mal	-6400
▁2017	-6401
▁rock	-6402
สามารถ	-6403
▁Schla	-6404
▁water	-6405
▁الاسل	-6406
▁conosci	-6407
▁members	-6408
ex	-6409
나는	-6410
جين	-6411
▁ib	-6412
เดอะ	-6413
▁Mag	-6414
▁fav	-6415
▁발매한	-6416
▁anche	-6417
▁Popper	-6418
▁pubblicato	-6419
Is	-6420
ใดที่	-6421
▁البرت	-6422
▁Gebiet	-6423
▁System	-6424
▁energía	-6425
▁caracter	-6426
▁released	-6427
▁Australia	-6428
wh	-6429
▁확	-6430
tri	-6431
ياء	-6432
▁يد	-6433
조에서	-6434
nder	-6435
▁ger	-6436
istan	-6437
▁estr	-6438
▁head	-6439
▁song	-6440
▁무엇으로	-6441
tempor	-6442
▁2005?	-6443
▁Canad	-6444
▁Jahre	-6445
▁emper	-6446
▁offiz	-6447
▁elimin	-6448
の方	-6449
位置	-6450
성이	-6451
دمة	-6452
طلق	-6453
ั่น	-6454
ufen	-6455
▁Chi	-6456
▁Sud	-6457
▁open	-6458
▁haven	-6459
▁الموج	-6460
▁success	-6461
สะ	-6462
めた	-6463
建設	-6464
zös	-6465
ère	-6466
รัก	-6467
▁의해	-6468
iera	-6469
anzen	-6470
قاطعة	-6471
▁ital	-6472
▁يحدث	-6473
▁frequ	-6474
▁punto	-6475
▁uffici	-6476
▁compañía	-6477
▁Frankreich	-6478
dom	-6479
▁생애	-6480
ster	-6481
▁alm	-6482
▁río	-6483
inese	-6484
▁cada	-6485
▁diese	-6486
▁founded	-6487
▁describe	-6488
▁historia	-6489
ór	-6490
طق	-6491
スー	-6492
何を	-6493
宣布	-6494
领导	-6495
관은	-6496
서울	-6497
으며	-6498
vor	-6499
يين	-6500
▁Bas	-6501
▁rey	-6502
blish	-6503
ossen	-6504
▁الشم	-6505
▁อยู่	-6506
▁total	-6507
▁attack	-6508
นม	-6509
บั	-6510
技术	-6511
科学	-6512
율은	-6513
지가	-6514
isl	-6515
äch	-6516
دود	-6517
isis	-6518
ives	-6519
▁nov	-6520
▁vac	-6521
▁للح	-6522
▁역할을	-6523
earch	-6524
tendo	-6525
▁اخرى	-6526
▁استخ	-6527
ctions	-6528
▁Const	-6529
▁Jehov	-6530
▁liber	-6531
▁اليوم	-6532
▁groups	-6533
▁important	-6534
ในประเทศไทย	-6535
ยม	-6536
▁규	-6537
ンが	-6538
ried	-6539
tere	-6540
ulen	-6541
uras	-6542
▁osp	-6543
▁الري	-6544
ucción	-6545
▁given	-6546
▁stand	-6547
โทรทัศน์	-6548
▁gebracht	-6549
▁채	-6550
row	-6551
เหล	-6552
▁Dr	-6553
▁기준	-6554
ัจจุ	-6555
▁186	-6556
cción	-6557
▁Rock	-6558
▁russ	-6559
urrent	-6560
▁Datum	-6561
▁ferro	-6562
▁ejército	-6563
hö	-6564
▁ไ	-6565
▁철	-6566
保护	-6567
수가	-6568
이의	-6569
▁현재	-6570
bros	-6571
ต้อง	-6572
▁185	-6573
▁Lut	-6574
지방선거	-6575
▁dieser	-6576
▁island	-6577
ณฑ	-6578
าะ	-6579
▁플	-6580
州的	-6581
皇帝	-6582
苏联	-6583
راع	-6584
ined	-6585
itar	-6586
rale	-6587
▁Spe	-6588
▁enc	-6589
▁jap	-6590
▁얼마나	-6591
ธิบดี	-6592
▁전국동시	-6593
▁Grund	-6594
▁اصبحت	-6595
สุดท้าย	-6596
ัจจุบัน	-6597
ประพันธ์	-6598
อาณาจักร	-6599
▁Königreich	-6600
ルー	-6601
了一	-6602
革命	-6603
arn	-6604
osh	-6605
جيل	-6606
فاق	-6607
▁스타	-6608
▁LED	-6609
▁mes	-6610
▁어디에서	-6611
lantic	-6612
▁instr	-6613
▁video	-6614
▁تفعله	-6615
▁segundo	-6616
تل	-6617
早期	-6618
app	-6619
سات	-6620
نيف	-6621
وتر	-6622
ชิก	-6623
▁되었	-6624
inea	-6625
บุรี	-6626
▁Jes	-6627
▁dog	-6628
还有什么	-6629
▁ricev	-6630
صة	-6631
سون	-6632
โอล	-6633
▁مث	-6634
culo	-6635
اسيس	-6636
▁trav	-6637
شل	-6638
เฟ	-6639
▁골	-6640
教会	-6641
軍が	-6642
ème	-6643
▁몇년	-6644
▁타이	-6645
inde	-6646
▁Pun	-6647
ardin	-6648
assen	-6649
estic	-6650
▁down	-6651
▁local	-6652
▁ก่อตั้ง	-6653
Af	-6654
”?	-6655
种族	-6656
구는	-6657
서는	-6658
ورن	-6659
▁득표	-6660
이라는	-6661
ennt	-6662
leri	-6663
▁abb	-6664
▁ban	-6665
▁عمر	-6666
▁수상한	-6667
▁situ	-6668
▁legge	-6669
▁murió	-6670
▁similar	-6671
ダム	-6672
ınd	-6673
ิลป	-6674
iapp	-6675
uben	-6676
uber	-6677
خلال	-6678
▁tít	-6679
▁حول	-6680
emplo	-6681
▁Mess	-6682
▁recon	-6683
▁insect	-6684
▁التاريخ	-6685
lı	-6686
を行	-6687
hib	-6688
زيل	-6689
มัน	-6690
▁ru	-6691
在美国	-6692
etta	-6693
itch	-6694
▁Sun	-6695
▁dif	-6696
▁esp	-6697
▁شعب	-6698
▁시기는	-6699
emein	-6700
▁2003	-6701
▁líne	-6702
▁얼마인가	-6703
▁Black	-6704
▁Islam	-6705
▁juego	-6706
▁تاسيس	-6707
▁antigu	-6708
هي	-6709
็ด	-6710
اكم	-6711
ษัต	-6712
สิน	-6713
▁나타	-6714
▁항공	-6715
▁Des	-6716
laterra	-6717
▁bedeut	-6718
▁propos	-6719
▁remporté	-6720
▁Weltkrieg	-6721
▁Inglaterra	-6722
ุน	-6723
的大	-6724
eso	-6725
روف	-6726
▁개최	-6727
olit	-6728
unde	-6729
หลัง	-6730
▁env	-6731
▁نهر	-6732
wards	-6733
ษัตริ	-6734
▁1980	-6735
▁home	-6736
▁want	-6737
▁الاب	-6738
▁Nueva	-6739
▁Church	-6740
ได้รับการ	-6741
▁전국동시지방선거	-6742
足球	-6743
월에	-6744
eda	-6745
nah	-6746
مية	-6747
▁참가	-6748
ream	-6749
▁Gramm	-6750
▁Norfolk	-6751
ロッ	-6752
禁止	-6753
드는	-6754
식은	-6755
edi	-6756
امي	-6757
ิมป	-6758
burg	-6759
eron	-6760
เกี่ยว	-6761
▁hecho	-6762
▁north	-6763
▁sport	-6764
▁wrote	-6765
▁الصين	-6766
▁gestorben	-6767
اة	-6768
่ว	-6769
▁존	-6770
人物	-6771
hnt	-6772
led	-6773
يست	-6774
รู้	-6775
▁Tw	-6776
▁mé	-6777
ローマ	-6778
alen	-6779
asse	-6780
iend	-6781
ript	-6782
tens	-6783
ศิลป	-6784
▁Men	-6785
▁Vor	-6786
ilien	-6787
▁UEFA	-6788
▁modo	-6789
▁الاغ	-6790
▁بشان	-6791
▁Burke	-6792
▁فرنسا	-6793
▁اوروبا	-6794
サン	-6795
一起	-6796
条約	-6797
시안	-6798
hol	-6799
zas	-6800
واس	-6801
ติด	-6802
▁درج	-6803
อาชีพ	-6804
พันธุ์	-6805
▁2000?	-6806
▁papel	-6807
▁squad	-6808
ษัตริย์	-6809
▁muerte	-6810
▁formato	-6811
▁different	-6812
活动	-6813
장이	-6814
Aus	-6815
ema	-6816
iko	-6817
yth	-6818
อีก	-6819
orma	-6820
▁sop	-6821
▁사망한	-6822
iblio	-6823
▁Roma	-6824
▁catt	-6825
▁redu	-6826
▁armen	-6827
intendo	-6828
▁Person	-6829
▁finanz	-6830
▁grupos	-6831
▁الوطني	-6832
▁اليهود	-6833
▁miembros	-6834
PA	-6835
ms	-6836
เง	-6837
aga	-6838
▁if	-6839
▁경우	-6840
hung	-6841
itos	-6842
▁Leg	-6843
▁foc	-6844
▁idol	-6845
ポーランド	-6846
جموعات	-6847
▁Monte	-6848
▁Vertrag	-6849
▁partido	-6850
ificación	-6851
▁established	-6852
طر	-6853
ซิ	-6854
공항	-6855
▁Gl	-6856
▁وا	-6857
vano	-6858
▁cod	-6859
▁صنع	-6860
icios	-6861
▁soll	-6862
▁escrit	-6863
▁cantidad	-6864
その	-6865
制作	-6866
反对	-6867
امة	-6868
2004	-6869
เปิด	-6870
▁Dem	-6871
▁dai	-6872
▁منذ	-6873
▁whom	-6874
▁منها	-6875
▁todos	-6876
riechen	-6877
▁feature	-6878
▁diventato	-6879
之一	-6880
女性	-6881
当時	-6882
过程	-6883
für	-6884
ogo	-6885
▁XX	-6886
work	-6887
วัติ	-6888
▁جون	-6889
▁يوم	-6890
▁drei	-6891
▁nord	-6892
▁몇년도에	-6893
▁Trans	-6894
▁había	-6895
▁famoso	-6896
Cu	-6897
óg	-6898
ード	-6899
设计	-6900
rió	-6901
حية	-6902
وجد	-6903
มาณ	-6904
▁아이	-6905
俄罗斯	-6906
ولوج	-6907
▁hold	-6908
▁rifer	-6909
▁species	-6910
传统	-6911
描述	-6912
버스	-6913
rio	-6914
احة	-6915
กาศ	-6916
จาร	-6917
▁ál	-6918
▁Jud	-6919
▁kle	-6920
ittel	-6921
▁disp	-6922
▁need	-6923
▁view	-6924
▁التص	-6925
attagl	-6926
▁polic	-6927
▁letter	-6928
▁región	-6929
bs	-6930
تن	-6931
▁히	-6932
キャ	-6933
the	-6934
กาล	-6935
From	-6936
▁amp	-6937
▁qui	-6938
▁عقد	-6939
▁Bowl	-6940
▁State	-6941
▁otten	-6942
▁stabil	-6943
▁Charles	-6944
▁dialect	-6945
何の	-6946
랑스	-6947
دمت	-6948
พิม	-6949
สอง	-6950
▁Pat	-6951
istor	-6952
▁appe	-6953
▁body	-6954
▁soft	-6955
▁يعمل	-6956
▁light	-6957
Te	-6958
aro	-6959
اعة	-6960
نان	-6961
ถือ	-6962
▁مج	-6963
elas	-6964
ارية	-6965
بيرة	-6966
▁hol	-6967
itute	-6968
▁Alex	-6969
▁Kong	-6970
▁agua	-6971
▁cell	-6972
▁cerc	-6973
▁fare	-6974
▁rich	-6975
▁القدي	-6976
▁depart	-6977
▁través	-6978
▁central	-6979
▁desarroll	-6980
زو	-6981
国は	-6982
iev	-6983
xim	-6984
▁역을	-6985
ด้าน	-6986
▁asc	-6987
▁déc	-6988
スーパー	-6989
▁anten	-6990
▁largo	-6991
▁lavor	-6992
▁mujer	-6993
▁current	-6994
Sp	-6995
ye	-6996
yp	-6997
▁큰	-6998
始ま	-6999
斯的	-7000
许多	-7001
جوم	-7002
ياة	-7003
ผลง	-7004
▁배경	-7005
▁say	-7006
▁حكم	-7007
aften	-7008
ified	-7009
ility	-7010
▁agen	-7011
▁اعلى	-7012
▁بريط	-7013
ชาวไทย	-7014
▁campo	-7015
▁álbum	-7016
▁شوبان	-7017
▁نهاية	-7018
▁scient	-7019
▁transm	-7020
▁العثور	-7021
Re	-7022
方式	-7023
民族	-7024
行动	-7025
조선	-7026
ful	-7027
▁개발	-7028
あった	-7029
で最も	-7030
unty	-7031
▁قدم	-7032
▁ناب	-7033
▁배우는	-7034
っていた	-7035
▁الحر	-7036
ologia	-7037
ตอนไหน	-7038
ลักษณะ	-7039
▁mostr	-7040
หมายถึง	-7041
▁Albert	-7042
▁General	-7043
yó	-7044
ám	-7045
멤버	-7046
190	-7047
▁HD	-7048
▁가진	-7049
anes	-7050
▁anc	-7051
▁pen	-7052
ผลงาน	-7053
▁each	-7054
▁الار	-7055
▁دولة	-7056
▁يعرف	-7057
▁altri	-7058
▁paesi	-7059
▁recib	-7060
▁scuola	-7061
▁seconda	-7062
▁svilupp	-7063
▁المستخدم	-7064
ภาพยนตร์เรื่อง	-7065
هة	-7066
▁드	-7067
意思	-7068
jos	-7069
داء	-7070
▁Av	-7071
を受け	-7072
ouver	-7073
press	-7074
เนื้อ	-7075
▁sort	-7076
▁hacen	-7077
▁ihren	-7078
▁padre	-7079
▁เริ่ม	-7080
▁beiden	-7081
▁energy	-7082
▁religion	-7083
บล	-7084
委员	-7085
成功	-7086
수의	-7087
ogn	-7088
اصر	-7089
▁بم	-7090
▁iss	-7091
▁발표한	-7092
جلترا	-7093
▁chang	-7094
▁rilas	-7095
▁juegos	-7096
ประเทศใด	-7097
▁natural	-7098
▁البريطانية	-7099
ルの	-7100
ريك	-7101
ค้น	-7102
ั่ง	-7103
▁ps	-7104
مالي	-7105
จริง	-7106
▁rem	-7107
▁sac	-7108
alter	-7109
ummer	-7110
▁game	-7111
▁nuovo	-7112
▁change	-7113
▁dispon	-7114
▁Gericht	-7115
▁은	-7116
위원	-7117
pas	-7118
uls	-7119
を受賞	-7120
▁189	-7121
どの国の	-7122
خابات	-7123
▁fron	-7124
▁Straß	-7125
▁esemp	-7126
▁poten	-7127
▁seinen	-7128
▁المملكة	-7129
▁Schlacht	-7130
พ์	-7131
变化	-7132
誰か	-7133
تها	-7134
يريا	-7135
となった	-7136
aking	-7137
▁tour	-7138
อําเภอ	-7139
▁Inter	-7140
▁party	-7141
อินเดีย	-7142
▁Bürger	-7143
▁permit	-7144
AS	-7145
이트	-7146
mee	-7147
olf	-7148
ويس	-7149
ロシア	-7150
▁Dis	-7151
▁nut	-7152
▁sho	-7153
▁مخت	-7154
blico	-7155
▁Kath	-7156
▁aper	-7157
▁Dutch	-7158
▁inglés	-7159
▁states	-7160
lichkeit	-7161
út	-7162
بعد	-7163
▁23	-7164
▁Ide	-7165
▁gas	-7166
どの国か	-7167
ember	-7168
▁Show	-7169
▁fium	-7170
▁usar	-7171
▁المز	-7172
▁تسبب	-7173
▁جنوب	-7174
▁الارض	-7175
▁candid	-7176
▁الجوية	-7177
▁استخدمت	-7178
▁problema	-7179
ضر	-7180
▁졸	-7181
颜色	-7182
Ist	-7183
eck	-7184
umb	-7185
يار	-7186
ชัย	-7187
ตัน	-7188
▁dé	-7189
▁남자	-7190
▁당선	-7191
ومات	-7192
ibile	-7193
ollow	-7194
▁house	-7195
▁incor	-7196
▁tener	-7197
▁น	-7198
合衆	-7199
新的	-7200
vas	-7201
فيذ	-7202
enry	-7203
umen	-7204
ช่อง	-7205
เล็ก	-7206
▁Geg	-7207
▁cub	-7208
▁sug	-7209
▁كار	-7210
قتصاد	-7211
ระดับ	-7212
▁rule	-7213
▁star	-7214
ietnam	-7215
ประกอบ	-7216
▁single	-7217
▁continu	-7218
▁الانجليزية	-7219
▁ä	-7220
一种	-7221
出生	-7222
ชุด	-7223
aden	-7224
allo	-7225
เมตร	-7226
▁ava	-7227
▁bew	-7228
otter	-7229
でしょうか	-7230
▁Produ	-7231
▁areas	-7232
▁ايدول	-7233
พระเจ้า	-7234
▁critic	-7235
▁المركز	-7236
▁بوصفها	-7237
▁example	-7238
▁estableció	-7239
年以	-7240
대는	-7241
irm	-7242
ثير	-7243
▁أي	-7244
▁음악	-7245
unid	-7246
سمية	-7247
▁Han	-7248
▁Pal	-7249
iller	-7250
▁Herr	-7251
▁ogni	-7252
▁verd	-7253
▁Saint	-7254
▁Soviet	-7255
▁nation	-7256
▁questo	-7257
▁الملكة	-7258
▁Namibia	-7259
วด	-7260
ーン	-7261
戴尔	-7262
斯坦	-7263
首都	-7264
mal	-7265
عاب	-7266
เนิด	-7267
▁Kan	-7268
▁뭐라고	-7269
icina	-7270
ที่ใด	-7271
▁1970	-7272
ermuda	-7273
isiert	-7274
▁Corea	-7275
▁ersch	-7276
▁Irland	-7277
▁gesehen	-7278
▁produziert	-7279
ウィ	-7280
ウェ	-7281
加入	-7282
bit	-7283
eno	-7284
gyp	-7285
org	-7286
▁188	-7287
▁Lou	-7288
▁Mod	-7289
▁명칭은	-7290
はどこの	-7291
的另一个	-7292
útbol	-7293
▁Ende	-7294
▁homb	-7295
▁stor	-7296
▁مركز	-7297
โอลิมป	-7298
osition	-7299
กําเนิด	-7300
▁معاهدة	-7301
▁momento	-7302
▁الاحيان	-7303
▁rappresent	-7304
▁<	-7305
군이	-7306
성은	-7307
bel	-7308
تبر	-7309
وست	-7310
ために	-7311
Nach	-7312
arth	-7313
▁cru	-7314
▁raz	-7315
▁prob	-7316
▁studio	-7317
▁الثالث	-7318
▁ministro	-7319
▁política	-7320
kk	-7321
を持	-7322
지를	-7323
الب	-7324
ينغ	-7325
▁هم	-7326
▁많이	-7327
によって	-7328
▁dato	-7329
▁evol	-7330
▁luch	-7331
▁solo	-7332
▁التس	-7333
▁Regel	-7334
▁serviz	-7335
▁الدوري	-7336
▁نابليون	-7337
▁Napoleón	-7338
فر	-7339
ジェ	-7340
第三	-7341
มวย	-7342
▁조직	-7343
akes	-7344
ركات	-7345
▁حيث	-7346
▁Mich	-7347
▁arqu	-7348
▁quar	-7349
าธิบดี	-7350
ificato	-7351
▁fútbol	-7352
▁squadra	-7353
▁Griechen	-7354
▁Religion	-7355
▁versucht	-7356
▁architect	-7357
▁estadounid	-7358
广播	-7359
教皇	-7360
ckt	-7361
raz	-7362
جرة	-7363
▁졸업	-7364
arse	-7365
ived	-7366
▁Gal	-7367
▁Süd	-7368
ieden	-7369
อาหาร	-7370
▁الفر	-7371
ändern	-7372
▁regard	-7373
▁battagl	-7374
▁relación	-7375
PS	-7376
พู	-7377
▁뮤	-7378
ウォ	-7379
调查	-7380
開発	-7381
르는	-7382
uge	-7383
علق	-7384
ยาว	-7385
は何人	-7386
ache	-7387
ager	-7388
ruct	-7389
คริส	-7390
ภูมิ	-7391
รถไฟ	-7392
▁rim	-7393
代表什么	-7394
▁القط	-7395
สมาชิก	-7396
▁beste	-7397
▁ihrer	-7398
▁الخاص	-7399
razione	-7400
▁Company	-7401
ikanische	-7402
▁primeros	-7403
YU	-7404
ลิ	-7405
日に	-7406
▁No	-7407
▁pet	-7408
▁ذلك	-7409
▁ميل	-7410
reten	-7411
stell	-7412
▁adlı	-7413
▁erst	-7414
▁경기에서	-7415
▁dirig	-7416
▁Marvel	-7417
▁griech	-7418
▁William	-7419
▁estudio	-7420
▁الكنيسة	-7421
▁official	-7422
▁Hauptstadt	-7423
▁yayınlanma	-7424
んな	-7425
ベル	-7426
대에	-7427
신의	-7428
제의	-7429
erb	-7430
اتي	-7431
واج	-7432
▁Ra	-7433
▁공격	-7434
érie	-7435
เนีย	-7436
▁hom	-7437
▁röm	-7438
aster	-7439
venue	-7440
▁häuf	-7441
▁corte	-7442
▁característ	-7443
▁estudiantes	-7444
ki	-7445
▁백	-7446
世紀	-7447
ธาร	-7448
▁Jo	-7449
▁je	-7450
atch	-7451
ظرية	-7452
ระบบ	-7453
▁Aug	-7454
▁vom	-7455
における	-7456
uncil	-7457
▁creó	-7458
▁glob	-7459
▁grow	-7460
▁관련하여	-7461
▁agric	-7462
▁colle	-7463
▁order	-7464
▁reina	-7465
▁ประเทศ	-7466
แสดงเป็น	-7467
▁verantwort	-7468
ซู	-7469
ยก	-7470
ไล	-7471
オス	-7472
减少	-7473
联盟	-7474
air	-7475
▁Ag	-7476
Amer	-7477
remo	-7478
▁ترك	-7479
▁دور	-7480
einfl	-7481
lagen	-7482
örper	-7483
▁grad	-7484
はどちらが	-7485
System	-7486
▁categ	-7487
▁morte	-7488
▁musul	-7489
▁pract	-7490
▁organization	-7491
رل	-7492
地位	-7493
威尔	-7494
Acc	-7495
III	-7496
erd	-7497
igo	-7498
ديل	-7499
وين	-7500
ั้ม	-7501
▁멤버	-7502
▁주요	-7503
brit	-7504
ucle	-7505
▁Tre	-7506
▁bil	-7507
ianos	-7508
واسطة	-7509
เปอร์	-7510
▁elem	-7511
▁افضل	-7512
▁antib	-7513
▁steht	-7514
▁انشاء	-7515
▁adoles	-7516
▁Revolution	-7517
ประธานาธิบดี	-7518
..	-7519
起こ	-7520
ids	-7521
ชิง	-7522
ตูน	-7523
▁ca	-7524
▁اط	-7525
▁تب	-7526
百分比	-7527
lace	-7528
neur	-7529
哪个城市	-7530
uerto	-7531
▁يسمى	-7532
▁Party	-7533
▁französ	-7534
เสียชีวิต	-7535
سل	-7536
ซา	-7537
▁농	-7538
一些	-7539
作用	-7540
誰が	-7541
赢得	-7542
계는	-7543
وفر	-7544
▁All	-7545
▁ont	-7546
mandu	-7547
▁Gebä	-7548
▁scop	-7549
izzato	-7550
アメリカ合衆	-7551
▁بواسطة	-7552
รัฐมนตรี	-7553
▁organización	-7554
▁Ö	-7555
▁같	-7556
▁업	-7557
举行	-7558
土地	-7559
建造	-7560
บาท	-7561
ิ่น	-7562
▁의미	-7563
▁اقل	-7564
▁Soci	-7565
▁estim	-7566
▁menos	-7567
▁الجيش	-7568
ตั้งแต่	-7569
▁includ	-7570
▁perman	-7571
▁contempor	-7572
▁ณ	-7573
▁ด	-7574
▁뉴	-7575
っち	-7576
以外	-7577
何か	-7578
대가	-7579
도를	-7580
성을	-7581
ulti	-7582
zone	-7583
สิ่ง	-7584
▁eserc	-7585
▁kanye	-7586
▁types	-7587
โอลิมปิก	-7588
▁beeinfl	-7589
▁ejemplo	-7590
▁الجديدة	-7591
▁Hyderabad	-7592
وح	-7593
้ม	-7594
家庭	-7595
어로	-7596
▁출전	-7597
了哪些	-7598
这个词	-7599
▁Las	-7600
▁set	-7601
▁tie	-7602
▁اعل	-7603
▁누구의	-7604
atica	-7605
culos	-7606
iencia	-7607
▁cambi	-7608
▁divis	-7609
▁esper	-7610
itución	-7611
▁Canada	-7612
▁celebr	-7613
▁cuerpo	-7614
のどちらですか	-7615
▁Veranst	-7616
▁average	-7617
▁especies	-7618
ทั้งหมดกี่	-7619
▁verantwortlich	-7620
พั	-7621
必须	-7622
死亡	-7623
ipp	-7624
ops	-7625
วัง	-7626
▁AC	-7627
ique	-7628
itud	-7629
town	-7630
พรรค	-7631
▁Kat	-7632
▁cit	-7633
ergie	-7634
ührer	-7635
▁Bern	-7636
▁sens	-7637
▁austr	-7638
▁islas	-7639
▁visto	-7640
▁لديهم	-7641
▁Chinese	-7642
▁cuántas	-7643
▁الانواع	-7644
▁geschaffen	-7645
▁yönetmenleri	-7646
-0	-7647
▁협	-7648
电视	-7649
정을	-7650
اسع	-7651
يجة	-7652
คณะ	-7653
之间的	-7654
usia	-7655
ينات	-7656
▁191	-7657
▁Sal	-7658
いますか	-7659
▁يعيش	-7660
▁altra	-7661
▁Africa	-7662
▁altern	-7663
▁treaty	-7664
▁students	-7665
▁utilizado	-7666
วิทยาศาสตร์	-7667
سخ	-7668
会议	-7669
排名	-7670
Dov	-7671
تمع	-7672
▁وس	-7673
▁때는	-7674
되는가	-7675
ondo	-7676
xico	-7677
▁Vol	-7678
▁byu	-7679
▁gar	-7680
▁최초로	-7681
ommun	-7682
▁elev	-7683
▁لعبة	-7684
▁اعادة	-7685
▁الطائ	-7686
مز	-7687
之后	-7688
写的	-7689
宪法	-7690
政策	-7691
화의	-7692
تمد	-7693
هزة	-7694
แม่	-7695
▁날은	-7696
ordo	-7697
ينيا	-7698
▁Boy	-7699
▁sea	-7700
irtió	-7701
unter	-7702
▁Verf	-7703
▁ment	-7704
Cuando	-7705
▁trasm	-7706
▁الاحت	-7707
▁هافين	-7708
▁Helena	-7709
▁comien	-7710
▁grandi	-7711
▁festival	-7712
ขา	-7713
フェ	-7714
ヴァ	-7715
开发	-7716
니아	-7717
방송	-7718
nes	-7719
ทวี	-7720
▁번째	-7721
ニュー	-7722
的一个	-7723
ería	-7724
▁Pfl	-7725
▁Tem	-7726
▁way	-7727
▁했을까	-7728
ments	-7729
petto	-7730
▁Mary	-7731
▁agli	-7732
▁führ	-7733
▁geme	-7734
สําหรับ	-7735
anischen	-7736
▁América	-7737
23	-7738
ตน	-7739
▁온	-7740
法案	-7741
高い	-7742
abe	-7743
omo	-7744
íos	-7745
▁21	-7746
▁지방	-7747
ende	-7748
irse	-7749
▁life	-7750
▁rate	-7751
พระนาม	-7752
▁Burma	-7753
▁Egypt	-7754
▁civil	-7755
▁posit	-7756
britann	-7757
▁Proble	-7758
▁campus	-7759
▁provin	-7760
▁Vietnam	-7761
▁culture	-7762
According	-7763
▁caratter	-7764
▁Kathmandu	-7765
▁wichtigste	-7766
ุธ	-7767
▁완	-7768
▁폐	-7769
ステ	-7770
哲学	-7771
도가	-7772
도로	-7773
ابل	-7774
รัช	-7775
▁هل	-7776
▁최종	-7777
스리그	-7778
Wenn	-7779
rano	-7780
urre	-7781
ماني	-7782
▁rit	-7783
Wofür	-7784
▁said	-7785
▁الات	-7786
▁Regno	-7787
▁الاسب	-7788
▁العصر	-7789
ใครเป็น	-7790
▁consum	-7791
▁università	-7792
▁international	-7793
บี	-7794
โย	-7795
제를	-7796
조의	-7797
้าร	-7798
▁PC	-7799
▁بن	-7800
と呼ば	-7801
ロッパ	-7802
iker	-7803
▁موج	-7804
▁läng	-7805
▁lungo	-7806
anische	-7807
ización	-7808
นักร้อง	-7809
▁Region	-7810
เล่นเป็น	-7811
▁disposit	-7812
▁happened	-7813
▁탄	-7814
何月	-7815
文学	-7816
风格	-7817
업은	-7818
lex	-7819
ünst	-7820
ชั้น	-7821
ิยาย	-7822
▁Day	-7823
▁ord	-7824
什么东西	-7825
rebbe	-7826
▁البي	-7827
ヨーロッパ	-7828
名字是什么	-7829
ilight	-7830
terior	-7831
ชื่อว่า	-7832
▁manten	-7833
▁Gruppen	-7834
▁religios	-7835
▁religión	-7836
▁بريطانيا	-7837
ep	-7838
▁돌	-7839
ブル	-7840
查尔	-7841
马里	-7842
체는	-7843
ليل	-7844
โรค	-7845
▁hi	-7846
ring	-7847
toff	-7848
trop	-7849
▁일어난	-7850
Spiel	-7851
▁Club	-7852
▁Song	-7853
▁king	-7854
▁apare	-7855
▁alcuni	-7856
▁الجديد	-7857
▁schools	-7858
▁character	-7859
อิ	-7860
伊斯	-7861
负责	-7862
당의	-7863
지막	-7864
علم	-7865
▁Il	-7866
が最も	-7867
共和国	-7868
very	-7869
icago	-7870
inden	-7871
▁لكرة	-7872
▁River	-7873
▁migli	-7874
▁peque	-7875
▁جزيرة	-7876
▁azienda	-7877
▁Standard	-7878
▁친	-7879
▁테	-7880
かけ	-7881
につ	-7882
세가	-7883
hte	-7884
لاب	-7885
▁tí	-7886
uebl	-7887
นายก	-7888
▁Tex	-7889
▁lan	-7890
▁niv	-7891
▁يحت	-7892
的一部分	-7893
▁Haus	-7894
ประมาณ	-7895
▁equip	-7896
▁neuen	-7897
▁volte	-7898
▁Kultur	-7899
▁spesso	-7900
▁Bretaña	-7901
▁canción	-7902
▁usually	-7903
▁المصطلح	-7904
▁bedeutet	-7905
▁introduc	-7906
▁zusammen	-7907
▁territorio	-7908
ของประเทศไทย	-7909
Zu	-7910
ey	-7911
ショ	-7912
数据	-7913
组成	-7914
سمي	-7915
▁Su	-7916
ゲーム	-7917
uppe	-7918
สกุล	-7919
เลีย	-7920
▁Per	-7921
▁sit	-7922
éxico	-7923
▁Nept	-7924
▁cred	-7925
▁cres	-7926
▁อะไร	-7927
▁potre	-7928
▁letzte	-7929
22	-7930
先に	-7931
常见	-7932
接受	-7933
laz	-7934
ria	-7935
صبح	-7936
ดิ์	-7937
ภาย	-7938
ฤดู	-7939
の方が	-7940
onst	-7941
تيجة	-7942
▁beh	-7943
▁eng	-7944
▁une	-7945
พิมพ์	-7946
▁Verb	-7947
▁시청률은	-7948
ientos	-7949
itario	-7950
▁fuera	-7951
▁using	-7952
▁انواع	-7953
▁preced	-7954
▁título	-7955
▁Florida	-7956
▁indigen	-7957
วันที่เท่าไร	-7958
ii	-7959
وء	-7960
▁심	-7961
的な	-7962
▁au	-7963
世界上	-7964
eria	-7965
▁Ann	-7966
▁nur	-7967
▁احت	-7968
▁Time	-7969
▁host	-7970
▁Spect	-7971
▁Titel	-7972
▁great	-7973
▁nucle	-7974
▁Schule	-7975
▁Universal	-7976
▁attravers	-7977
ปฏ	-7978
▁쓴	-7979
اتل	-7980
นาง	-7981
่วย	-7982
1945	-7983
enna	-7984
oung	-7985
todo	-7986
راضي	-7987
▁Ele	-7988
▁señ	-7989
▁tot	-7990
ようにな	-7991
▁선거에서	-7992
ทางการ	-7993
▁sotto	-7994
▁techn	-7995
▁Guinea	-7996
▁particip	-7997
Am	-7998
SR	-7999
โค	-8000
ジア	-8001
基因	-8002
Mac	-8003
รัส	-8004
สาว	-8005
▁يس	-8006
ades	-8007
▁Tor	-8008
▁afr	-8009
▁big	-8010
▁erw	-8011
▁mil	-8012
▁시리즈	-8013
issau	-8014
▁Nach	-8015
▁الله	-8016
▁بالل	-8017
reiben	-8018
เท่าไร	-8019
▁grieg	-8020
▁times	-8021
Station	-8022
นวนิยาย	-8023
▁Bereich	-8024
▁Britain	-8025
▁battaglia	-8026
▁published	-8027
Lo	-8028
ضم	-8029
فن	-8030
後の	-8031
誰の	-8032
ple	-8033
zie	-8034
هرب	-8035
โคร	-8036
于什么	-8037
ivil	-8038
klär	-8039
part	-8040
rich	-8041
▁Kal	-8042
▁اذا	-8043
▁Bill	-8044
▁Tour	-8045
▁المط	-8046
abhäng	-8047
verton	-8048
▁dichi	-8049
▁medio	-8050
▁named	-8051
第二次世界大	-8052
lamento	-8053
▁Museum	-8054
▁confer	-8055
อเมริกัน	-8056
▁Bermuda	-8057
▁Frédéric	-8058
▁escuelas	-8059
▁للولايات	-8060
▁싱	-8061
▁폭	-8062
ーの	-8063
发明	-8064
관의	-8065
law	-8066
vin	-8067
กรม	-8068
ยาน	-8069
วิล	-8070
▁위한	-8071
チーム	-8072
番目に	-8073
iegt	-8074
zept	-8075
โมสร	-8076
▁BYU	-8077
▁Kom	-8078
▁tho	-8079
▁نور	-8080
▁아시안	-8081
▁apro	-8082
▁rang	-8083
▁teil	-8084
はどれくら	-8085
▁catal	-8086
▁fiume	-8087
▁these	-8088
▁الشعب	-8089
▁누구입니까	-8090
▁legisl	-8091
▁membri	-8092
▁encuentran	-8093
▁มีชื่อว่าอะไร	-8094
▁페	-8095
王星	-8096
的に	-8097
명한	-8098
LED	-8099
kte	-8100
▁To	-8101
にある	-8102
2002	-8103
cita	-8104
endo	-8105
▁DST	-8106
▁Dev	-8107
▁God	-8108
▁마지막	-8109
▁중에서	-8110
rique	-8111
rogen	-8112
terra	-8113
▁miss	-8114
スーパーボ	-8115
▁broad	-8116
▁conne	-8117
▁benutzt	-8118
▁portato	-8119
▁proceso	-8120
นี	-8121
優勝	-8122
oco	-8123
örd	-8124
▁يف	-8125
anta	-8126
บั้ม	-8127
▁You	-8128
▁علم	-8129
れている	-8130
istic	-8131
ผู้ใด	-8132
▁dice	-8133
▁habl	-8134
▁الوح	-8135
れましたか	-8136
Bissau	-8137
etwork	-8138
▁distr	-8139
▁الدين	-8140
ตัวละคร	-8141
▁Mexico	-8142
▁computer	-8143
▁document	-8144
▁temperatura	-8145
▁못	-8146
民主	-8147
▁وز	-8148
ised	-8149
▁Dav	-8150
▁abs	-8151
▁suf	-8152
▁vel	-8153
▁عشر	-8154
▁موا	-8155
สถานี	-8156
▁2002	-8157
▁leben	-8158
がありますか	-8159
iciones	-8160
▁quante	-8161
▁geworden	-8162
▁position	-8163
▁convirtió	-8164
▁movimiento	-8165
▁Großbritann	-8166
▁unterstützt	-8167
AR	-8168
تى	-8169
のか	-8170
伦敦	-8171
地震	-8172
提出	-8173
gew	-8174
بار	-8175
يمة	-8176
ยัง	-8177
▁Mc	-8178
▁사회	-8179
▁있었	-8180
▁출시	-8181
name	-8182
unch	-8183
طولة	-8184
▁Sen	-8185
▁baj	-8186
▁luz	-8187
っている	-8188
どちらの	-8189
ものは何	-8190
ศาสนา	-8191
▁Camp	-8192
achsen	-8193
กํากับ	-8194
▁Bezug	-8195
▁tipos	-8196
Quiénes	-8197
▁Everton	-8198
▁regione	-8199
สน	-8200
▁آ	-8201
乐部	-8202
格兰	-8203
试图	-8204
选举	-8205
ศัก	-8206
สมุ	-8207
▁40	-8208
▁عض	-8209
▁몇개	-8210
▁하나	-8211
リング	-8212
俱乐部	-8213
ائية	-8214
บ้าง	-8215
▁Red	-8216
throp	-8217
ética	-8218
▁biet	-8219
▁ethn	-8220
▁Austral	-8221
hu	-8222
اخ	-8223
▁ร	-8224
ンは	-8225
一次	-8226
警察	-8227
했을	-8228
ieß	-8229
سيك	-8230
どっち	-8231
asso	-8232
gono	-8233
otel	-8234
reso	-8235
tera	-8236
▁amo	-8237
aiser	-8238
▁bird	-8239
▁سانت	-8240
▁claim	-8241
▁gioco	-8242
▁repub	-8243
▁México	-8244
▁market	-8245
ปัจจุบัน	-8246
▁Atlantic	-8247
▁building	-8248
▁weiterer	-8249
世の	-8250
情况	-8251
意大	-8252
경기	-8253
단은	-8254
동차	-8255
ähl	-8256
الح	-8257
راق	-8258
ลาย	-8259
เปล	-8260
unst	-8261
ทวีป	-8262
▁May	-8263
▁يست	-8264
iddle	-8265
ونسيه	-8266
▁التش	-8267
ทําให้	-8268
▁legal	-8269
▁musica	-8270
▁parola	-8271
▁service	-8272
24	-8273
▁획	-8274
停止	-8275
完成	-8276
後に	-8277
部门	-8278
非洲	-8279
요한	-8280
Sec	-8281
iqu	-8282
ühm	-8283
ฒนา	-8284
▁Ze	-8285
▁เอ	-8286
▁정치	-8287
▁하계	-8288
bero	-8289
ords	-8290
▁ABC	-8291
▁Tes	-8292
After	-8293
uppen	-8294
▁Hand	-8295
▁elec	-8296
overed	-8297
▁Great	-8298
▁Techn	-8299
▁regul	-8300
▁title	-8301
▁famous	-8302
▁tribun	-8303
▁conserv	-8304
By	-8305
Gr	-8306
ty	-8307
หา	-8308
机场	-8309
相信	-8310
프트	-8311
ดอก	-8312
ตรา	-8313
▁Bü	-8314
▁독립	-8315
意大利	-8316
2003	-8317
clus	-8318
kten	-8319
▁Jan	-8320
▁Sie	-8321
▁bra	-8322
entro	-8323
▁erhö	-8324
▁todo	-8325
Además	-8326
▁Princ	-8327
▁indic	-8328
▁invad	-8329
การ์ตูน	-8330
▁Kinder	-8331
▁Virgin	-8332
▁appear	-8333
▁estilo	-8334
▁formed	-8335
▁العامة	-8336
▁dichiar	-8337
▁oficial	-8338
▁contiene	-8339
▁arquitect	-8340
▁industria	-8341
▁principales	-8342
ษฐ	-8343
상의	-8344
우는	-8345
전의	-8346
dic	-8347
ged	-8348
mon	-8349
ريت	-8350
▁255	-8351
▁asi	-8352
▁ارت	-8353
ittle	-8354
▁Henry	-8355
▁يتعلق	-8356
▁descub	-8357
▁utilizó	-8358
▁القديمة	-8359
▁Californ	-8360
▁responsible	-8361
ป์	-8362
อี	-8363
하며	-8364
راه	-8365
ถนน	-8366
แทน	-8367
▁تخ	-8368
导致了	-8369
2001	-8370
arts	-8371
serv	-8372
วรรณ	-8373
เกีย	-8374
▁Nob	-8375
▁جعل	-8376
▁역할은	-8377
▁Fort	-8378
▁Sich	-8379
▁anti	-8380
▁zinc	-8381
▁بالن	-8382
▁Buddh	-8383
▁Louis	-8384
▁puebl	-8385
▁الأول	-8386
▁theory	-8387
เกิดขึ้น	-8388
▁Spectre	-8389
の名前は何ですか	-8390
▁developed	-8391
▁relations	-8392
จังหวัดอะไร	-8393
▁independen	-8394
▁x	-8395
▁갖	-8396
影響	-8397
改变	-8398
이스	-8399
ابة	-8400
จุด	-8401
▁PS	-8402
▁운영	-8403
에서의	-8404
mpos	-8405
▁Gra	-8406
▁nec	-8407
▁اعط	-8408
▁برو	-8409
▁متى	-8410
▁لعام	-8411
▁Night	-8412
▁causó	-8413
▁style	-8414
▁unido	-8415
▁follow	-8416
▁nasser	-8417
▁wieder	-8418
▁concept	-8419
▁gewählt	-8420
▁البلدان	-8421
▁اليونان	-8422
ุษ	-8423
一天	-8424
自然	-8425
력을	-8426
ots	-8427
ثلة	-8428
راد	-8429
ورج	-8430
▁NY	-8431
inin	-8432
▁har	-8433
▁حتى	-8434
▁지역은	-8435
使用什么	-8436
ahren	-8437
icros	-8438
uelle	-8439
▁engl	-8440
▁inte	-8441
▁Armee	-8442
▁canad	-8443
▁berühm	-8444
▁nachdem	-8445
▁Christian	-8446
▁angesehen	-8447
▁걸	-8448
アー	-8449
德里	-8450
자로	-8451
azu	-8452
▁50	-8453
▁ah	-8454
▁sw	-8455
▁ปี	-8456
▁만들	-8457
inen	-8458
คนใด	-8459
เงิน	-8460
▁Rec	-8461
▁Tra	-8462
▁usa	-8463
▁معدل	-8464
▁inizi	-8465
▁línea	-8466
▁المال	-8467
▁معركة	-8468
▁السوفي	-8469
▁verwenden	-8470
ใครร้องเพลง	-8471
に入	-8472
制造	-8473
英语	-8474
Cos	-8475
orb	-8476
▁XI	-8477
亡くな	-8478
建立的	-8479
日本の	-8480
back	-8481
erei	-8482
▁Ott	-8483
▁pes	-8484
▁won	-8485
▁اخذ	-8486
▁Luft	-8487
▁Ziel	-8488
▁capt	-8489
▁dazu	-8490
▁ناصر	-8491
lossen	-8492
▁Bezie	-8493
▁cient	-8494
▁grado	-8495
ประวัติ	-8496
พื้นที่	-8497
▁المناطق	-8498
▁Institute	-8499
zi	-8500
แร	-8501
▁줄	-8502
と言	-8503
ロン	-8504
ワイ	-8505
协议	-8506
尔兰	-8507
概念	-8508
일의	-8509
สถา	-8510
▁يؤ	-8511
ستور	-8512
บิดา	-8513
▁age	-8514
▁nob	-8515
▁sta	-8516
inner	-8517
مانيا	-8518
▁suoi	-8519
▁Fluss	-8520
▁النبات	-8521
▁introdu	-8522
▁profess	-8523
เกี่ยวกับ	-8524
عد	-8525
ップ	-8526
ämp	-8527
عمل	-8528
chte	-8529
hält	-8530
ต่าง	-8531
เรือ	-8532
▁Anf	-8533
▁العن	-8534
了什么样的	-8535
▁quest	-8536
▁اثناء	-8537
▁عاصمة	-8538
▁häufig	-8539
▁philosoph	-8540
▁Organisation	-8541
ิป	-8542
▁환	-8543
レイ	-8544
福克	-8545
Man	-8546
ror	-8547
uns	-8548
▁되는	-8549
onda	-8550
onom	-8551
what	-8552
เส้น	-8553
▁pot	-8554
▁Flug	-8555
▁migr	-8556
▁text	-8557
▁اكتش	-8558
▁طريق	-8559
▁어땠을까	-8560
encias	-8561
tinent	-8562
▁Milit	-8563
▁Schwe	-8564
▁muchos	-8565
▁profes	-8566
▁sexual	-8567
▁الموسم	-8568
▁highest	-8569
▁Charleston	-8570
70	-8571
عر	-8572
มะ	-8573
時期	-8574
议会	-8575
重新	-8576
광역	-8577
상은	-8578
طرة	-8579
هاز	-8580
▁بج	-8581
▁획득	-8582
ving	-8583
zion	-8584
روفة	-8585
▁كات	-8586
jiang	-8587
▁باري	-8588
▁ولكن	-8589
aleigh	-8590
▁Domin	-8591
▁Tesla	-8592
▁تشكيل	-8593
▁누구인가요	-8594
wendung	-8595
▁libros	-8596
▁montag	-8597
▁öffent	-8598
▁idiomas	-8599
▁المحكمة	-8600
▁languages	-8601
.0	-8602
قر	-8603
物种	-8604
과는	-8605
وبة	-8606
คัญ	-8607
บรร	-8608
่อย	-8609
▁가능	-8610
ทธิ์	-8611
▁Mov	-8612
▁she	-8613
▁تاي	-8614
▁لاع	-8615
▁لاي	-8616
▁ماي	-8617
▁pero	-8618
▁الاعل	-8619
▁الصنا	-8620
▁الطبي	-8621
▁Grammy	-8622
▁factor	-8623
hilterra	-8624
▁Geschichte	-8625
??	-8626
▁ظ	-8627
アフ	-8628
レン	-8629
任命	-8630
拥有	-8631
方言	-8632
황은	-8633
adr	-8634
لمن	-8635
สู่	-8636
้อม	-8637
は何年	-8638
爱尔兰	-8639
izar	-8640
reas	-8641
side	-8642
tini	-8643
▁يتح	-8644
uchen	-8645
เข้าร	-8646
เดือน	-8647
▁func	-8648
▁언제인가요	-8649
▁Mexiko	-8650
▁author	-8651
▁البرتغ	-8652
▁الفيلم	-8653
▁registr	-8654
▁الافراج	-8655
▁continent	-8656
وذ	-8657
량은	-8658
이나	-8659
00?	-8660
key	-8661
rot	-8662
คาร	-8663
犹太人	-8664
▁dej	-8665
▁어떤것	-8666
ประชา	-8667
▁Sing	-8668
▁anci	-8669
▁liga	-8670
▁woll	-8671
atalan	-8672
▁point	-8673
▁serve	-8674
lerinde	-8675
▁década	-8676
▁necess	-8677
▁partir	-8678
▁استخدم	-8679
▁aliment	-8680
▁college	-8681
▁tiempos	-8682
▁studenti	-8683
▁principalmente	-8684
之外	-8685
受到	-8686
有关	-8687
軍の	-8688
부의	-8689
아가	-8690
정된	-8691
idi	-8692
ünd	-8693
طاق	-8694
لول	-8695
กอง	-8696
ทิศ	-8697
ยอด	-8698
百分之	-8699
lage	-8700
orso	-8701
▁pic	-8702
▁برن	-8703
▁منح	-8704
orias	-8705
▁مثال	-8706
สําคัญ	-8707
▁estánd	-8708
▁fuerza	-8709
▁unidos	-8710
▁algunas	-8711
▁empresa	-8712
▁geführt	-8713
▁emperador	-8714
▁interpret	-8715
▁başrollerinde	-8716
地球	-8717
Hat	-8718
har	-8719
nen	-8720
بول	-8721
جاج	-8722
▁sue	-8723
iante	-8724
▁Oper	-8725
▁mort	-8726
▁svol	-8727
▁Ägyp	-8728
▁구성되어	-8729
▁하였는가	-8730
▁genet	-8731
▁madre	-8732
▁somet	-8733
▁متوسط	-8734
ynastie	-8735
▁scuole	-8736
▁vielen	-8737
▁الاطفال	-8738
▁servicio	-8739
▁Napoleone	-8740
開催	-8741
ค้า	-8742
จัน	-8743
▁시절	-8744
adır	-8745
blig	-8746
enze	-8747
ettr	-8748
▁bud	-8749
▁مقد	-8750
▁وصل	-8751
สโมสร	-8752
▁eleg	-8753
▁2004?	-8754
▁cerca	-8755
▁Lutero	-8756
▁Armenia	-8757
▁costitu	-8758
▁perform	-8759
▁software	-8760
▁Großbritannien	-8761
PC	-8762
报告	-8763
게임	-8764
역을	-8765
운동	-8766
진이	-8767
พาน	-8768
▁لي	-8769
▁모델	-8770
▁인해	-8771
cell	-8772
แล้ว	-8773
▁gol	-8774
▁나오는	-8775
▁선수의	-8776
amura	-8777
มีการ	-8778
▁Gott	-8779
▁find	-8780
名称是什么	-8781
ichtet	-8782
▁Music	-8783
▁primi	-8784
Insieme	-8785
▁animal	-8786
▁inglese	-8787
จังหวัดใด	-8788
แป	-8789
▁충	-8790
ナル	-8791
ーズ	-8792
太阳	-8793
领域	-8794
cis	-8795
nal	-8796
ปาก	-8797
ยุค	-8798
▁따라	-8799
arsi	-8800
▁pun	-8801
有多少个	-8802
omano	-8803
▁like	-8804
▁carta	-8805
▁السنة	-8806
▁calend	-8807
IC	-8808
ตู	-8809
เฮ	-8810
▁루	-8811
エン	-8812
奥斯	-8813
殖民	-8814
連合	-8815
uir	-8816
ائد	-8817
مثل	-8818
▁شب	-8819
▁역사	-8820
회에서	-8821
لاثة	-8822
▁pie	-8823
▁sen	-8824
▁내용은	-8825
pollo	-8826
▁caso	-8827
▁clim	-8828
▁بالت	-8829
是什么意思	-8830
ettato	-8831
ußball	-8832
▁inici	-8833
は誰でしたか	-8834
rucción	-8835
จักรพรร	-8836
▁europä	-8837
▁الاصلي	-8838
▁aumento	-8839
▁científ	-8840
▁انجلترا	-8841
▁ricevuto	-8842
▁educación	-8843
อว	-8844
▁식	-8845
▁홍	-8846
▁효	-8847
制度	-8848
基金	-8849
现在	-8850
開始	-8851
어의	-8852
했나	-8853
ندي	-8854
▁جي	-8855
委员会	-8856
onic	-8857
usst	-8858
ären	-8859
▁Cup	-8860
▁Div	-8861
▁USB	-8862
▁caz	-8863
สาธาร	-8864
▁Konf	-8865
▁circ	-8866
▁hard	-8867
▁Ergeb	-8868
▁favor	-8869
▁money	-8870
▁البشر	-8871
▁النها	-8872
▁amount	-8873
▁method	-8874
▁zweite	-8875
▁esercito	-8876
▁football	-8877
▁considera	-8878
▁송	-8879
发表	-8880
計画	-8881
限制	-8882
ساء	-8883
▁Cy	-8884
▁싱글	-8885
▁출마	-8886
伊斯兰	-8887
ouse	-8888
ก่อน	-8889
▁Los	-8890
▁سان	-8891
เลือก	-8892
▁vent	-8893
izioni	-8894
▁conse	-8895
▁court	-8896
ที่เป็น	-8897
อะไรคือ	-8898
▁Greece	-8899
▁crisis	-8900
▁gemeins	-8901
▁argument	-8902
▁ช	-8903
▁탈	-8904
受賞	-8905
团体	-8906
大陆	-8907
群体	-8908
西亚	-8909
인공	-8910
bet	-8911
igi	-8912
met	-8913
دون	-8914
فقة	-8915
لفة	-8916
ทาน	-8917
ปฏิ	-8918
▁조선	-8919
러시아	-8920
aris	-8921
icia	-8922
iken	-8923
makt	-8924
وفقا	-8925
สมรส	-8926
▁DNA	-8927
▁bit	-8928
anger	-8929
▁kill	-8930
▁vide	-8931
▁Unito	-8932
▁limit	-8933
▁approv	-8934
▁romano	-8935
minister	-8936
▁artista	-8937
▁esempio	-8938
▁yayınlanm	-8939
AT	-8940
อร	-8941
ุก	-8942
スが	-8943
共同	-8944
皇家	-8945
세기	-8946
정한	-8947
치는	-8948
can	-8949
elf	-8950
ugu	-8951
مون	-8952
วาง	-8953
อิส	-8954
▁لج	-8955
1940	-8956
afen	-8957
edio	-8958
erne	-8959
▁360	-8960
做了什么	-8961
ories	-8962
อันดับ	-8963
▁Antar	-8964
▁focus	-8965
ชื่อของ	-8966
▁colleg	-8967
▁frühen	-8968
▁transl	-8969
maktadır	-8970
▁اليابان	-8971
▁business	-8972
▁President	-8973
▁responsabile	-8974
ış	-8975
▁악	-8976
利用	-8977
属于	-8978
应该	-8979
戦い	-8980
発表	-8981
씨의	-8982
ólo	-8983
▁26	-8984
▁Je	-8985
▁Kn	-8986
▁نق	-8987
▁설치	-8988
▁출신	-8989
られる	-8990
インド	-8991
이라고	-8992
ipto	-8993
vest	-8994
▁لان	-8995
▁لغة	-8996
inado	-8997
ining	-8998
▁Cons	-8999
▁Hall	-9000
▁Jack	-9001
▁Mill	-9002
▁ofre	-9003
intosh	-9004
ración	-9005
▁aktör	-9006
▁hasta	-9007
▁isola	-9008
▁month	-9009
▁specie	-9010
▁الفترة	-9011
cimiento	-9012
▁Football	-9013
▁desarrollo	-9014
▁International	-9015
fo	-9016
โท	-9017
▁:	-9018
▁퍼	-9019
ダー	-9020
マー	-9021
市场	-9022
獲得	-9023
贝尔	-9024
가수	-9025
드가	-9026
리에	-9027
민주	-9028
해야	-9029
현재	-9030
Una	-9031
تمي	-9032
ظيم	-9033
โปร	-9034
้าว	-9035
▁Ob	-9036
▁ré	-9037
cono	-9038
ever	-9039
folg	-9040
sche	-9041
هاور	-9042
▁ele	-9043
▁fus	-9044
▁تست	-9045
frica	-9046
▁Mass	-9047
▁Mont	-9048
▁stop	-9049
▁sull	-9050
▁يسمح	-9051
ildung	-9052
inning	-9053
▁quant	-9054
▁الجام	-9055
▁الهدف	-9056
▁direct	-9057
▁الرياض	-9058
▁gedacht	-9059
▁llamado	-9060
▁refiere	-9061
▁tarihte	-9062
ใครแสดงเป็น	-9063
CD	-9064
يح	-9065
ไอ	-9066
に出	-9067
んで	-9068
起源	-9069
Reg	-9070
öst	-9071
▁ip	-9072
▁때문	-9073
halb	-9074
▁Her	-9075
했습니까	-9076
round	-9077
▁Girl	-9078
▁Love	-9079
▁ساوث	-9080
▁مكتب	-9081
どのような	-9082
icenna	-9083
▁Japón	-9084
▁frecu	-9085
▁عملية	-9086
▁create	-9087
▁챔피언스리그	-9088
▁höchste	-9089
شب	-9090
โจ	-9091
▁길	-9092
アカ	-9093
コー	-9094
安全	-9095
拉夫	-9096
本土	-9097
每年	-9098
爱沙	-9099
미널	-9100
트는	-9101
loy	-9102
เวณ	-9103
▁정규	-9104
idió	-9105
▁rid	-9106
▁خلق	-9107
▁국가는	-9108
爱沙尼亚	-9109
Neben	-9110
▁seit	-9111
▁Über	-9112
▁درجة	-9113
มีความ	-9114
Después	-9115
▁propri	-9116
▁Gebäude	-9117
▁Schweiz	-9118
▁allowed	-9119
▁terminó	-9120
▁trovano	-9121
▁Ergebnis	-9122
▁Minister	-9123
IS	-9124
ภั	-9125
▁„	-9126
リオ	-9127
王朝	-9128
荷兰	-9129
cif	-9130
ilm	-9131
ارد	-9132
แอน	-9133
▁UK	-9134
일까요	-9135
kehr	-9136
länd	-9137
▁Bes	-9138
▁Gew	-9139
▁bur	-9140
▁win	-9141
れたのは	-9142
▁Arab	-9143
▁case	-9144
▁fact	-9145
ciales	-9146
▁gebor	-9147
▁level	-9148
▁otras	-9149
▁terms	-9150
▁تعتبر	-9151
prochen	-9152
▁Egipto	-9153
▁امريكا	-9154
スーパーボウル	-9155
ในเรื่อง	-9156
▁deutsch	-9157
▁distrib	-9158
▁research	-9159
IA	-9160
นก	-9161
イル	-9162
澳大	-9163
球队	-9164
碧昂	-9165
ify	-9166
数が多	-9167
的人口	-9168
edor	-9169
สนาม	-9170
▁Old	-9171
▁any	-9172
▁apr	-9173
▁fal	-9174
▁fle	-9175
▁kom	-9176
▁선수권	-9177
▁참여한	-9178
はいくつ	-9179
澳大利亚	-9180
egung	-9181
ritti	-9182
▁Erit	-9183
▁leng	-9184
▁vinc	-9185
▁شارع	-9186
▁ชื่อ	-9187
▁among	-9188
▁bevor	-9189
▁conta	-9190
هامبتون	-9191
▁prodotto	-9192
▁Northwestern	-9193
▁며	-9194
物质	-9195
葡萄	-9196
迈阿	-9197
케이	-9198
ونة	-9199
แชม	-9200
▁Af	-9201
▁مه	-9202
迈阿密	-9203
▁erm	-9204
▁ملك	-9205
▁태어났	-9206
owjet	-9207
rimon	-9208
▁Cina	-9209
▁ases	-9210
จากการ	-9211
ใดเป็น	-9212
▁calle	-9213
▁الكون	-9214
▁انتاج	-9215
วงศ์เธอ	-9216
▁teoría	-9217
▁الانسان	-9218
▁gehalten	-9219
▁musulman	-9220
غر	-9221
▁검	-9222
政党	-9223
스를	-9224
gia	-9225
▁On	-9226
▁담당	-9227
▁이적	-9228
hken	-9229
zial	-9230
▁Bir	-9231
▁Top	-9232
▁فقط	-9233
angel	-9234
▁Game	-9235
▁Sand	-9236
▁fort	-9237
▁four	-9238
▁artic	-9239
▁شعبية	-9240
は何でしたか	-9241
อัลบั้ม	-9242
▁Londra	-9243
▁Alemania	-9244
▁الجنوبية	-9245
▁밝	-9246
ッツ	-9247
ブラ	-9248
移民	-9249
经常	-9250
임한	-9251
주는	-9252
Ver	-9253
asi	-9254
ods	-9255
uye	-9256
عند	-9257
海王星	-9258
omet	-9259
▁Cap	-9260
▁Kre	-9261
▁Off	-9262
▁بور	-9263
▁لاح	-9264
scher	-9265
▁cong	-9266
▁cómo	-9267
▁else	-9268
▁proy	-9269
▁área	-9270
ändert	-9271
زنهاور	-9272
ปกครอง	-9273
▁india	-9274
▁islam	-9275
▁museo	-9276
▁tutti	-9277
Beyonce	-9278
หนึ่งใน	-9279
▁Kaiser	-9280
▁Energie	-9281
▁militar	-9282
▁receive	-9283
▁المدارس	-9284
▁Internet	-9285
▁الالمانية	-9286
南部	-9287
最多	-9288
記録	-9289
키는	-9290
بيل	-9291
▁부분	-9292
▁승리	-9293
的哪一	-9294
的第一	-9295
ommt	-9296
▁Pul	-9297
▁ata	-9298
▁naz	-9299
▁rip	-9300
オースト	-9301
▁Miss	-9302
▁Play	-9303
▁Test	-9304
ischer	-9305
istica	-9306
▁Force	-9307
▁feder	-9308
▁morto	-9309
▁still	-9310
▁جائزة	-9311
▁dentro	-9312
▁distin	-9313
▁الشركة	-9314
▁independ	-9315
▁religious	-9316
▁vorgestellt	-9317
克里	-9318
北部	-9319
目标	-9320
부가	-9321
시에	-9322
회가	-9323
osc	-9324
صار	-9325
غات	-9326
เกล	-9327
▁وف	-9328
essa	-9329
كاني	-9330
ักษ์	-9331
▁Def	-9332
▁but	-9333
▁inm	-9334
▁lic	-9335
▁مصر	-9336
▁vict	-9337
▁القر	-9338
▁있었을까	-9339
比例是多少	-9340
บริเวณ	-9341
▁habit	-9342
▁niños	-9343
▁تصنيف	-9344
ampions	-9345
ichtung	-9346
ination	-9347
▁inizio	-9348
▁should	-9349
▁uranio	-9350
▁dizinin	-9351
▁internet	-9352
▁movement	-9353
uh	-9354
ذج	-9355
▁접	-9356
占領	-9357
去了	-9358
首相	-9359
년대	-9360
izó	-9361
tei	-9362
لعب	-9363
แก่	-9364
からの	-9365
▁apl	-9366
▁cot	-9367
▁now	-9368
▁جبل	-9369
▁لتح	-9370
▁spre	-9371
▁sólo	-9372
▁detto	-9373
▁reemp	-9374
▁Chicago	-9375
▁Entwick	-9376
▁canzone	-9377
▁normaler	-9378
▁trattato	-9379
▁Á	-9380
▁육	-9381
信仰	-9382
拿破	-9383
测试	-9384
里亚	-9385
단의	-9386
bil	-9387
iac	-9388
ดํา	-9389
▁تف	-9390
▁교육	-9391
▁며칠	-9392
▁비판	-9393
拉斯加	-9394
拿破仑	-9395
드에서	-9396
البا	-9397
▁IBM	-9398
▁rat	-9399
▁دول	-9400
▁عصر	-9401
▁영향을	-9402
アフリカ	-9403
lands	-9404
สมุทร	-9405
▁must	-9406
▁أكثر	-9407
itäten	-9408
فريقيا	-9409
▁adult	-9410
▁reduc	-9411
▁resta	-9412
▁Commun	-9413
▁reform	-9414
▁الطيور	-9415
▁الوطنية	-9416
▁Avicenna	-9417
▁durchschnitt	-9418
▁글	-9419
セン	-9420
公元	-9421
目的	-9422
▁포함	-9423
是哪个	-9424
rank	-9425
teca	-9426
لالة	-9427
▁Lee	-9428
▁web	-9429
▁타이틀	-9430
▁행정구	-9431
▁1960	-9432
▁hand	-9433
assung	-9434
reicht	-9435
▁Zweit	-9436
▁small	-9437
▁quelle	-9438
▁increase	-9439
▁Universität	-9440
โช	-9441
▁손	-9442
▁암	-9443
ッホ	-9444
ラス	-9445
古代	-9446
因为	-9447
자를	-9448
jab	-9449
زاب	-9450
▁Po	-9451
▁قر	-9452
的什么	-9453
Star	-9454
▁AFL	-9455
▁성적은	-9456
Unter	-9457
ituto	-9458
▁1950	-9459
▁Geld	-9460
▁aves	-9461
▁blan	-9462
▁mark	-9463
被称为什么	-9464
gleich	-9465
▁llegó	-9466
▁debido	-9467
▁concent	-9468
▁Princess	-9469
▁bekommen	-9470
▁diferentes	-9471
▁southampton	-9472
▁normalerweise	-9473
uo	-9474
áf	-9475
ศิ	-9476
▁뜻	-9477
プロ	-9478
一般	-9479
偶像	-9480
種類	-9481
群岛	-9482
萨斯	-9483
회는	-9484
كين	-9485
าลี	-9486
ื่น	-9487
▁Zw	-9488
▁ولد	-9489
esten	-9490
▁Cork	-9491
▁Stat	-9492
▁Team	-9493
รู้จัก	-9494
▁Farbe	-9495
▁democ	-9496
▁diret	-9497
กรุงเทพ	-9498
▁Anzahl	-9499
▁insegn	-9500
▁existen	-9501
ที่สุดในโลก	-9502
肖邦	-9503
计算	-9504
记录	-9505
로의	-9506
ump	-9507
วิน	-9508
ากล	-9509
▁나온	-9510
▁변화	-9511
著名的	-9512
Laut	-9513
ensa	-9514
krit	-9515
ında	-9516
▁Ath	-9517
▁van	-9518
▁الإ	-9519
video	-9520
▁الكم	-9521
いつのこと	-9522
astern	-9523
▁Macht	-9524
▁black	-9525
▁speak	-9526
はどれですか	-9527
▁begann	-9528
▁cambio	-9529
▁باللغة	-9530
ualmente	-9531
▁propied	-9532
▁produced	-9533
▁الموجودة	-9534
▁ساوثهامبتون	-9535
▁organizzazione	-9536
บู	-9537
▁쇼	-9538
天堂	-9539
대를	-9540
대학	-9541
되고	-9542
정이	-9543
▁بل	-9544
▁평가	-9545
ゴッホ	-9546
fern	-9547
ktiv	-9548
บัติ	-9549
▁chr	-9550
中有多少	-9551
culas	-9552
eland	-9553
▁Cour	-9554
▁Fall	-9555
▁Hill	-9556
▁give	-9557
▁mont	-9558
▁يعني	-9559
สาธารณ	-9560
▁Pruss	-9561
なかったのは	-9562
ünstler	-9563
▁cuánto	-9564
▁prefer	-9565
icrosoft	-9566
▁Federal	-9567
▁Feynman	-9568
▁المكسيك	-9569
▁ciudades	-9570
▁Studenten	-9571
▁americano	-9572
วก	-9573
博物	-9574
目の	-9575
식을	-9576
▁있던	-9577
▁주로	-9578
ールド	-9579
1990	-9580
ํารง	-9581
▁aux	-9582
▁sia	-9583
owers	-9584
▁parl	-9585
▁الخط	-9586
trolle	-9587
▁luogo	-9588
▁مقدار	-9589
▁attend	-9590
▁comune	-9591
▁Archite	-9592
▁thought	-9593
▁youtube	-9594
▁الاصلية	-9595
▁aktörler	-9596
▁erreicht	-9597
ใครเล่นเป็น	-9598
入侵	-9599
兰经	-9600
最早	-9601
月に	-9602
現在	-9603
보다	-9604
bas	-9605
بين	-9606
บับ	-9607
▁قط	-9608
使用的	-9609
古兰经	-9610
상에서	-9611
선에서	-9612
ológ	-9613
وائز	-9614
ประช	-9615
เวีย	-9616
▁سجل	-9617
enses	-9618
icana	-9619
▁aber	-9620
▁rema	-9621
どこですか	-9622
▁Sport	-9623
▁raggi	-9624
▁think	-9625
▁veloc	-9626
▁الجزء	-9627
hejiang	-9628
▁Indian	-9629
▁Thomas	-9630
▁attacc	-9631
▁titolo	-9632
▁geboren	-9633
▁Germania	-9634
ว่าอย่างไร	-9635
▁0	-9636
▁ฮ	-9637
人员	-9638
伯特	-9639
离开	-9640
릭터	-9641
즈의	-9642
tem	-9643
▁동계	-9644
天主教	-9645
olon	-9646
ront	-9647
ußer	-9648
▁Mat	-9649
▁Seg	-9650
▁bio	-9651
▁dim	-9652
在哪一天	-9653
هورية	-9654
▁sour	-9655
▁tasa	-9656
▁있습니까	-9657
heiten	-9658
ولندية	-9659
▁Maria	-9660
▁field	-9661
▁llevó	-9662
▁rivol	-9663
▁باريس	-9664
ที่ใหญ่	-9665
▁Mittel	-9666
▁giorno	-9667
▁differen	-9668
ตั้งอยู่ใน	-9669
▁considerato	-9670
哪位	-9671
学者	-9672
定的	-9673
부분	-9674
ady	-9675
คิด	-9676
สภา	-9677
▁Go	-9678
▁aé	-9679
▁اض	-9680
▁했던	-9681
スター	-9682
最初に	-9683
affe	-9684
▁Ira	-9685
▁cad	-9686
artet	-9687
▁attr	-9688
▁forn	-9689
▁took	-9690
▁되었는가	-9691
ynasty	-9692
▁prime	-9693
▁Mundial	-9694
▁europea	-9695
▁addition	-9696
▁허	-9697
欢迎	-9698
职业	-9699
조는	-9700
하면	-9701
hne	-9702
ram	-9703
واء	-9704
กิจ	-9705
คคล	-9706
แดน	-9707
▁90	-9708
▁경제	-9709
▁표현	-9710
▁학교	-9711
アカデ	-9712
agli	-9713
hire	-9714
izia	-9715
ured	-9716
▁Eig	-9717
▁نقل	-9718
▁이름을	-9719
阿拉斯加	-9720
▁2019	-9721
▁Mand	-9722
▁ocup	-9723
▁المض	-9724
▁محطة	-9725
什么类型的	-9726
▁어디인가요	-9727
▁mandol	-9728
▁المعما	-9729
▁partecip	-9730
▁successo	-9731
هب	-9732
たち	-9733
攻撃	-9734
時点	-9735
結婚	-9736
行为	-9737
进入	-9738
로는	-9739
카이	-9740
ums	-9741
بيو	-9742
ออส	-9743
▁22	-9744
osto	-9745
ถ่าย	-9746
▁Bel	-9747
▁위치한	-9748
craft	-9749
innen	-9750
truct	-9751
บุคคล	-9752
▁paar	-9753
▁vita	-9754
是什么样的	-9755
amurai	-9756
▁since	-9757
▁الاخت	-9758
▁metrop	-9759
▁private	-9760
▁dinastía	-9761
▁servizio	-9762
▁encontrar	-9763
▁politische	-9764
ไข	-9765
作家	-9766
公园	-9767
增长	-9768
意味	-9769
니메	-9770
해서	-9771
cle	-9772
uve	-9773
zer	-9774
ارل	-9775
رنت	-9776
هود	-9777
่าว	-9778
▁Ho	-9779
▁رب	-9780
▁غر	-9781
▁لن	-9782
atic	-9783
empl	-9784
itan	-9785
uper	-9786
قافة	-9787
▁ott	-9788
▁vin	-9789
▁قتل	-9790
enzen	-9791
licht	-9792
คนแรก	-9793
▁Sans	-9794
▁list	-9795
▁nato	-9796
▁same	-9797
▁النو	-9798
からですか	-9799
▁maggi	-9800
พระพุทธ	-9801
▁Apollo	-9802
▁Cathol	-9803
▁Wasser	-9804
▁guerre	-9805
▁inspir	-9806
▁element	-9807
▁moderno	-9808
▁التعليم	-9809
▁พระองค์	-9810
▁Twilight	-9811
▁francese	-9812
▁potrebbe	-9813
▁verkauft	-9814
▁resultado	-9815
▁experiment	-9816
▁responsable	-9817
▁Wissenschaft	-9818
si	-9819
▁면	-9820
だと	-9821
ナー	-9822
州の	-9823
아이	-9824
ril	-9825
ดวง	-9826
ดูก	-9827
▁27	-9828
▁80	-9829
▁ta	-9830
▁새로	-9831
▁중국	-9832
anni	-9833
chio	-9834
iore	-9835
teur	-9836
▁Law	-9837
▁Out	-9838
▁Pub	-9839
▁rus	-9840
▁سيا	-9841
▁주장한	-9842
izado	-9843
▁Cubs	-9844
▁debe	-9845
▁late	-9846
▁السب	-9847
▁موسم	-9848
▁무엇이라	-9849
ในช่วง	-9850
▁Album	-9851
▁corre	-9852
▁المقد	-9853
▁الوسط	-9854
していますか	-9855
▁around	-9856
▁chiama	-9857
▁ganado	-9858
▁condens	-9859
▁financi	-9860
▁größten	-9861
▁Pulitzer	-9862
▁derechos	-9863
Os	-9864
批准	-9865
森纳	-9866
영이	-9867
vió	-9868
افظ	-9869
▁Sm	-9870
▁وت	-9871
▁운동	-9872
ったの	-9873
任天堂	-9874
odox	-9875
▁nom	-9876
▁방영된	-9877
itori	-9878
▁anun	-9879
▁사용하는	-9880
▁العسك	-9881
ization	-9882
ที่เมือง	-9883
▁Western	-9884
▁einzige	-9885
▁sostitu	-9886
▁Position	-9887
▁conquist	-9888
▁verlassen	-9889
GB	-9890
اؤ	-9891
غط	-9892
チェ	-9893
丽莎	-9894
产品	-9895
伯克	-9896
公共	-9897
社区	-9898
設立	-9899
قرا	-9900
ป่า	-9901
▁sí	-9902
▁승차	-9903
▁유럽	-9904
Punk	-9905
UEFA	-9906
เชีย	-9907
▁hog	-9908
▁يون	-9909
boten	-9910
icode	-9911
▁Kind	-9912
▁grab	-9913
ential	-9914
▁descr	-9915
▁tuber	-9916
▁Robert	-9917
▁Russia	-9918
▁perros	-9919
▁unters	-9920
เข้าร่วม	-9921
▁plymouth	-9922
▁Inghilterra	-9923
48	-9924
权力	-9925
流行	-9926
袭击	-9927
选择	-9928
트가	-9929
▁Sa	-9930
▁클럽	-9931
いくら	-9932
到什么	-9933
国家的	-9934
ฉบับ	-9935
อยุธ	-9936
ี่ยน	-9937
▁vic	-9938
に対して	-9939
ators	-9940
عندما	-9941
▁Mart	-9942
▁agre	-9943
ervice	-9944
▁Mater	-9945
▁Texas	-9946
▁conte	-9947
▁keine	-9948
▁manch	-9949
▁اللعب	-9950
▁Avenue	-9951
▁negoci	-9952
arbeitet	-9953
▁Schulen	-9954
军事	-9955
持续	-9956
호가	-9957
▁eg	-9958
▁뮤직	-9959
▁분류	-9960
多くの	-9961
mens	-9962
pose	-9963
ร้อน	-9964
▁برا	-9965
▁연기한	-9966
lavos	-9967
การณ์	-9968
▁Wars	-9969
▁able	-9970
▁both	-9971
グラミー賞	-9972
▁family	-9973
▁within	-9974
▁Council	-9975
▁electric	-9976
▁estándar	-9977
▁posición	-9978
▁Verwendung	-9979
นายกรัฐมนตรี	-9980
▁맞	-9981
▁잡	-9982
コン	-9983
メン	-9984
征服	-9985
었나	-9986
cil	-9987
hab	-9988
rip	-9989
▁기능	-9990
nung	-9991
กว่า	-9992
gramm	-9993
ragen	-9994
หน่วย	-9995
▁muss	-9996
ingham	-9997
roffen	-9998
▁ricon	-9999
rimonio	-10000
▁former	-10001
▁madera	-10002
▁Ottoman	-10003
▁fondato	-10004
▁trasfer	-10005
▁นักแสดง	-10006
▁sociedad	-10007
▁yayınlanmaya	-10008
พง	-10009
ิว	-10010
ุม	-10011
๊ก	-10012
▁극	-10013
▁벌	-10014
信息	-10015
穆斯	-10016
pre	-10017
äus	-10018
แดง	-10019
โรป	-10020
▁지원	-10021
丽莎白	-10022
诺福克	-10023
amen	-10024
igos	-10025
igur	-10026
osse	-10027
شرين	-10028
▁AFC	-10029
▁bem	-10030
▁pan	-10031
▁جزر	-10032
伊丽莎白	-10033
니메이션	-10034
▁Samo	-10035
▁wood	-10036
▁ساعد	-10037
▁년도인가	-10038
▁되었을까	-10039
yanmar	-10040
▁París	-10041
▁condu	-10042
▁ocurr	-10043
▁opera	-10044
▁archit	-10045
▁cities	-10046
▁seinem	-10047
▁contain	-10048
▁المدرسة	-10049
▁Nintendo	-10050
▁Pflanzen	-10051
▁children	-10052
▁processo	-10053
▁education	-10054
▁الحيوانات	-10055
27	-10056
DP	-10057
など	-10058
島の	-10059
戦闘	-10060
投票	-10061
수를	-10062
시킨	-10063
어를	-10064
점이	-10065
189	-10066
Gli	-10067
acy	-10068
ael	-10069
ربة	-10070
รวม	-10071
แผ่น	-10072
▁Ori	-10073
▁dol	-10074
▁dro	-10075
▁got	-10076
▁inn	-10077
▁vie	-10078
▁ähn	-10079
ately	-10080
avano	-10081
grund	-10082
idung	-10083
iglio	-10084
اثولي	-10085
بيوتر	-10086
▁vuel	-10087
▁الدا	-10088
▁يجعل	-10089
atures	-10090
▁nació	-10091
▁repla	-10092
▁somal	-10093
▁holand	-10094
▁ingles	-10095
▁Zweiten	-10096
▁llamada	-10097
▁الاراضي	-10098
▁الغربية	-10099
▁Festival	-10100
▁términos	-10101
▁americana	-10102
▁bezeichnet	-10103
▁Veranstaltung	-10104
为了	-10105
体育	-10106
全国	-10107
라의	-10108
Ind	-10109
اسة	-10110
ريف	-10111
็อง	-10112
会发生	-10113
들에게	-10114
John	-10115
äter	-10116
وستن	-10117
▁Hit	-10118
▁dam	-10119
▁ابن	-10120
ないのは	-10121
point	-10122
▁Life	-10123
▁Schw	-10124
▁hunt	-10125
▁prue	-10126
▁언제부터	-10127
▁Juden	-10128
▁Prinz	-10129
▁cargo	-10130
▁tibet	-10131
▁women	-10132
▁انشاؤ	-10133
▁Körper	-10134
▁empire	-10135
▁الحياة	-10136
▁العليا	-10137
▁Protest	-10138
▁humanos	-10139
▁religiö	-10140
ได้รับรางวัล	-10141
▁Jahrhunderts	-10142
قم	-10143
▁뒤	-10144
ウス	-10145
クロ	-10146
不再	-10147
동안	-10148
แมน	-10149
▁Kr	-10150
▁결혼	-10151
▁계획	-10152
▁존재	-10153
▁형태	-10154
프리카	-10155
agen	-10156
aken	-10157
สิ้น	-10158
▁Lat	-10159
▁One	-10160
▁sui	-10161
▁캐릭터	-10162
すること	-10163
ctica	-10164
▁aggi	-10165
▁aiut	-10166
▁guid	-10167
▁يقوم	-10168
▁antig	-10169
▁clima	-10170
▁might	-10171
▁sirve	-10172
▁نتيجة	-10173
▁Frauen	-10174
▁center	-10175
▁chines	-10176
▁satell	-10177
▁fuerzas	-10178
▁commerci	-10179
▁objetivo	-10180
US	-10181
不可	-10182
前に	-10183
同盟	-10184
教徒	-10185
电容	-10186
贸易	-10187
과의	-10188
시는	-10189
Com	-10190
com	-10191
raw	-10192
عار	-10193
موث	-10194
ปริ	-10195
▁Kl	-10196
▁Nä	-10197
▁그룹	-10198
何年に	-10199
하였나	-10200
ways	-10201
ígen	-10202
ابقة	-10203
▁Bus	-10204
▁oss	-10205
▁اصل	-10206
▁تمت	-10207
▁لمن	-10208
率是多少	-10209
itore	-10210
▁نطاق	-10211
▁ويست	-10212
ública	-10213
ลักษณ์	-10214
▁Kunst	-10215
▁diseñ	-10216
▁Gegend	-10217
▁Indien	-10218
▁Potter	-10219
▁energia	-10220
▁interno	-10221
▁partito	-10222
▁written	-10223
▁الاجتما	-10224
▁الملكية	-10225
▁Mitglieder	-10226
▁beeinflusst	-10227
▁internacional	-10228
ธา	-10229
▁엔	-10230
翻译	-10231
耶鲁	-10232
hlt	-10233
osi	-10234
لية	-10235
▁my	-10236
▁لح	-10237
▁مي	-10238
斯拉夫	-10239
被称为	-10240
teid	-10241
▁179	-10242
▁NYC	-10243
▁erf	-10244
▁مدى	-10245
▁작품은	-10246
고등학교	-10247
antin	-10248
ibles	-10249
ierto	-10250
رائيل	-10251
ตําบล	-10252
▁Städ	-10253
▁edif	-10254
▁pala	-10255
fangen	-10256
▁Polit	-10257
▁Santa	-10258
▁motor	-10259
▁storia	-10260
▁الطلاب	-10261
▁Comcast	-10262
▁Prozess	-10263
▁contest	-10264
▁station	-10265
▁السوفييت	-10266
▁الكاثولي	-10267
▁particular	-10268
ประวัติศาสตร์	-10269
Si	-10270
作者	-10271
死的	-10272
设备	-10273
그룹	-10274
전에	-10275
duğ	-10276
lem	-10277
äft	-10278
الن	-10279
ميم	-10280
▁Da	-10281
▁야구	-10282
となる	-10283
どこの	-10284
哪两个	-10285
穆斯林	-10286
otte	-10287
หมู่	-10288
▁Fun	-10289
▁Jug	-10290
▁him	-10291
▁جاء	-10292
诺福克岛	-10293
zentr	-10294
▁Post	-10295
▁Zust	-10296
▁تعمل	-10297
iellen	-10298
▁Nobel	-10299
▁crede	-10300
▁emple	-10301
▁último	-10302
หนึ่งของ	-10303
▁Messico	-10304
▁mujeres	-10305
▁plantas	-10306
ไทยเรื่อง	-10307
▁reemplaz	-10308
▁posizione	-10309
โอลิมปิกฤดู	-10310
▁ท	-10311
いる	-10312
取代	-10313
아의	-10314
팀은	-10315
DNA	-10316
تون	-10317
นิว	-10318
ektr	-10319
ieri	-10320
▁Lin	-10321
▁ext	-10322
arten	-10323
ficie	-10324
ingia	-10325
▁Jews	-10326
▁ubic	-10327
▁vice	-10328
▁يشير	-10329
กับใคร	-10330
ที่ใช้	-10331
▁2003?	-10332
▁Diale	-10333
▁Harry	-10334
▁Leute	-10335
▁autom	-10336
▁oblig	-10337
▁olduğ	-10338
▁senza	-10339
▁العلم	-10340
▁Straße	-10341
▁integr	-10342
▁istitu	-10343
▁league	-10344
▁recent	-10345
▁regist	-10346
▁Francis	-10347
▁Sprachen	-10348
▁personal	-10349
fs	-10350
▁야	-10351
国会	-10352
基础	-10353
年谁	-10354
die	-10355
esc	-10356
lat	-10357
▁تر	-10358
▁تو	-10359
▁سل	-10360
▁관계	-10361
▁진출	-10362
anze	-10363
haus	-10364
ickt	-10365
less	-10366
شرات	-10367
موذج	-10368
▁Mut	-10369
▁주인공	-10370
賞を受賞	-10371
ildet	-10372
olare	-10373
ليموث	-10374
▁cabo	-10375
▁prot	-10376
▁يوجد	-10377
idence	-10378
ionali	-10379
itness	-10380
▁molti	-10381
Windows	-10382
peratur	-10383
▁llaman	-10384
▁potere	-10385
▁reason	-10386
▁street	-10387
▁الحديد	-10388
▁الوسطى	-10389
▁هيوستن	-10390
▁Russian	-10391
▁الجزيرة	-10392
ification	-10393
istischen	-10394
▁conocida	-10395
▁industry	-10396
-3	-10397
ıl	-10398
何が	-10399
埃及	-10400
文件	-10401
材料	-10402
였나	-10403
였어	-10404
전은	-10405
Mar	-10406
لاث	-10407
نطن	-10408
กาย	-10409
ไว้	-10410
ibil	-10411
غيرة	-10412
▁cur	-10413
▁حدي	-10414
▁عنه	-10415
▁للب	-10416
▁정보는	-10417
iales	-10418
stone	-10419
tagon	-10420
หน่าย	-10421
เดียว	-10422
▁Bank	-10423
▁less	-10424
▁موقع	-10425
▁ร้อง	-10426
▁국제공항	-10427
tación	-10428
öffnet	-10429
รัฐบาล	-10430
▁estar	-10431
▁porto	-10432
▁prior	-10433
▁série	-10434
inación	-10435
▁Studie	-10436
▁comput	-10437
▁dismin	-10438
▁release	-10439
▁restaur	-10440
จักรพรรดิ	-10441
▁Republik	-10442
▁experien	-10443
▁superficie	-10444
▁investigación	-10445
wa	-10446
áp	-10447
ár	-10448
โป	-10449
▁난	-10450
サー	-10451
国内	-10452
孩子	-10453
文書	-10454
联系	-10455
项目	-10456
시가	-10457
rad	-10458
unu	-10459
▁도입	-10460
▁에피	-10461
的影响	-10462
2019	-10463
cing	-10464
ladı	-10465
éctr	-10466
ทยาน	-10467
▁Nov	-10468
▁Sci	-10469
▁rot	-10470
▁ประ	-10471
estra	-10472
ingen	-10473
เชียง	-10474
▁Bush	-10475
▁شمال	-10476
สํานัก	-10477
▁Radio	-10478
▁accus	-10479
▁nivel	-10480
▁reach	-10481
▁اعضاء	-10482
▁غالبا	-10483
▁chiesa	-10484
▁hatten	-10485
▁teoria	-10486
▁الكهرب	-10487
▁African	-10488
▁Irlanda	-10489
▁Prozent	-10490
▁austral	-10491
▁başladı	-10492
▁ersetzt	-10493
▁الشرقية	-10494
▁gekommen	-10495
▁generale	-10496
▁programa	-10497
▁الفرنسية	-10498
▁britische	-10499
▁britischen	-10500
▁metropolit	-10501
ál	-10502
▁색	-10503
デル	-10504
勢力	-10505
处理	-10506
最终	-10507
zug	-10508
مام	-10509
บรม	-10510
▁bi	-10511
▁نش	-10512
和其他	-10513
asth	-10514
uted	-10515
ทั่ว	-10516
▁nas	-10517
▁spo	-10518
▁try	-10519
يانات	-10520
▁Baum	-10521
▁crít	-10522
▁role	-10523
▁الول	-10524
대한민국의	-10525
▁Story	-10526
▁الحزب	-10527
▁الصوت	-10528
ありましたか	-10529
issione	-10530
▁ascens	-10531
▁proper	-10532
จําหน่าย	-10533
สร้างขึ้น	-10534
▁rispetto	-10535
▁الاوروبي	-10536
▁nazionale	-10537
▁university	-10538
▁Entwicklung	-10539
▁ursprünglich	-10540
ül	-10541
زم	-10542
ヴェ	-10543
金属	-10544
阿维	-10545
레일	-10546
스와	-10547
فاء	-10548
บุญ	-10549
Dopo	-10550
atte	-10551
▁Way	-10552
▁fab	-10553
▁اسب	-10554
タイトル	-10555
pecto	-10556
räfte	-10557
tiere	-10558
▁Bund	-10559
▁deux	-10560
▁المق	-10561
kommen	-10562
▁Autor	-10563
▁asoci	-10564
▁began	-10565
▁entde	-10566
▁posto	-10567
▁torch	-10568
▁مدرسة	-10569
บิดาของ	-10570
▁Canadá	-10571
▁Chiesa	-10572
▁Italia	-10573
▁elettr	-10574
▁impero	-10575
▁Königin	-10576
▁consejo	-10577
▁Philosoph	-10578
▁religione	-10579
▁Montevideo	-10580
▁Presidente	-10581
▁conosciuto	-10582
レオ	-10583
出身	-10584
区域	-10585
選手	-10586
법은	-10587
스크	-10588
aco	-10589
occ	-10590
olt	-10591
oms	-10592
zan	-10593
ترو	-10594
كال	-10595
บาง	-10596
ปรา	-10597
มือ	-10598
▁It	-10599
▁정책	-10600
osen	-10601
poca	-10602
▁رفض	-10603
▁للق	-10604
▁에피소	-10605
Whose	-10606
elbst	-10607
▁Khan	-10608
▁pour	-10609
▁كلمة	-10610
▁Shell	-10611
▁تطوير	-10612
ว่าเป็น	-10613
▁battle	-10614
▁struct	-10615
アメリカ合衆国	-10616
▁because	-10617
▁history	-10618
▁المنظمة	-10619
▁movimento	-10620
▁พระองค์เจ้า	-10621
ณี	-10622
ษฎ	-10623
▁ล	-10624
タン	-10625
克拉	-10626
哪两	-10627
建的	-10628
早く	-10629
選挙	-10630
黑文	-10631
체의	-10632
Bes	-10633
rón	-10634
sta	-10635
ورد	-10636
▁연도	-10637
重要的	-10638
ards	-10639
hips	-10640
inge	-10641
onas	-10642
لاسي	-10643
▁see	-10644
▁انح	-10645
ansas	-10646
zeigt	-10647
เกมส์	-10648
▁Sony	-10649
▁Star	-10650
▁came	-10651
▁tema	-10652
▁york	-10653
▁ثاني	-10654
▁جورج	-10655
▁مكان	-10656
อยุธยา	-10657
▁acqua	-10658
▁enter	-10659
▁tedes	-10660
▁البرو	-10661
▁acerca	-10662
▁attemp	-10663
▁gehört	-10664
▁introd	-10665
▁prohib	-10666
▁promin	-10667
▁مقاطعة	-10668
▁Myanmar	-10669
▁Ägypten	-10670
▁verloren	-10671
▁transport	-10672
็บ	-10673
▁먹	-10674
つの	-10675
乔治	-10676
人在	-10677
以上	-10678
出的	-10679
啤酒	-10680
因素	-10681
玛丽	-10682
관이	-10683
ท่า	-10684
▁개의	-10685
▁논란	-10686
▁생각	-10687
▁유로	-10688
大学的	-10689
纽黑文	-10690
gers	-10691
iell	-10692
orno	-10693
▁Dec	-10694
▁Ära	-10695
eller	-10696
ยุโรป	-10697
▁Rome	-10698
▁bamb	-10699
▁bell	-10700
▁nied	-10701
ศักดิ์	-10702
อุทยาน	-10703
▁Brown	-10704
▁Jesus	-10705
▁Oscar	-10706
▁games	-10707
▁البحر	-10708
▁الساد	-10709
▁المفت	-10710
▁تحديد	-10711
▁August	-10712
▁Guerre	-10713
▁accordo	-10714
▁primary	-10715
▁weniger	-10716
iblioteca	-10717
ที่เท่าใด	-10718
▁organism	-10719
bn	-10720
ืน	-10721
ไซ	-10722
▁질	-10723
▁커	-10724
伊朗	-10725
克斯	-10726
官方	-10727
居民	-10728
改革	-10729
당은	-10730
사한	-10731
하려	-10732
het	-10733
unn	-10734
ربع	-10735
فيا	-10736
▁Sk	-10737
は何歳	-10738
With	-10739
Zeit	-10740
osso	-10741
reme	-10742
uert	-10743
ونيا	-10744
เวลา	-10745
▁Cop	-10746
▁Who	-10747
▁kar	-10748
▁واش	-10749
▁목록은	-10750
▁순위는	-10751
めたのは	-10752
itter	-10753
▁Nähe	-10754
▁near	-10755
▁phys	-10756
ements	-10757
وتردام	-10758
▁2002?	-10759
▁Solar	-10760
▁único	-10761
▁اسمها	-10762
▁نظرية	-10763
▁forces	-10764
▁Fußball	-10765
▁provide	-10766
▁เป็นนัก	-10767
มากที่สุด	-10768
▁specific	-10769
▁Alexander	-10770
▁almaktadır	-10771
Or	-10772
イタ	-10773
スは	-10774
マイ	-10775
从来	-10776
生産	-10777
程序	-10778
avy	-10779
bew	-10780
top	-10781
ímp	-10782
اكل	-10783
▁메달	-10784
发生的	-10785
索马里	-10786
iali	-10787
▁500	-10788
▁usb	-10789
▁يكن	-10790
▁기록은	-10791
▁후보는	-10792
asons	-10793
attan	-10794
▁Asia	-10795
▁Band	-10796
▁يريد	-10797
いましたか	-10798
iembre	-10799
▁Korea	-10800
▁außer	-10801
▁banda	-10802
▁catól	-10803
▁forze	-10804
▁sehen	-10805
▁affect	-10806
▁helped	-10807
▁observ	-10808
▁السلطة	-10809
▁الفريق	-10810
ological	-10811
▁Germany	-10812
ouverneur	-10813
สาธารณรัฐ	-10814
▁Kontrolle	-10815
▁costruito	-10816
▁eisenhower	-10817
▁development	-10818
▁temperature	-10819
ได	-10820
▁끝	-10821
クの	-10822
发射	-10823
合作	-10824
多大	-10825
知事	-10826
西哥	-10827
국이	-10828
사우	-10829
스템	-10830
ads	-10831
roy	-10832
ขาว	-10833
ินี	-10834
็อก	-10835
▁28	-10836
▁Ac	-10837
▁독일	-10838
ถิ่น	-10839
อดีต	-10840
▁Kor	-10841
▁Pra	-10842
▁età	-10843
▁fra	-10844
▁باي	-10845
▁감독은	-10846
orcha	-10847
zogen	-10848
▁Gold	-10849
▁defe	-10850
▁drit	-10851
▁دوري	-10852
▁Osman	-10853
▁regla	-10854
▁viven	-10855
▁تاثير	-10856
▁Edward	-10857
ifiziert	-10858
▁antorcha	-10859
▁الانترنت	-10860
▁Microsoft	-10861
▁elecciones	-10862
▁generalmente	-10863
28	-10864
تق	-10865
カリ	-10866
サイ	-10867
解释	-10868
费曼	-10869
세의	-10870
인물	-10871
특별	-10872
ائن	-10873
الو	-10874
طات	-10875
คู่	-10876
▁문화	-10877
▁뭐가	-10878
▁민주	-10879
▁이론	-10880
يبيا	-10881
▁Den	-10882
▁fol	-10883
▁voc	-10884
aries	-10885
ático	-10886
▁Best	-10887
▁ebre	-10888
▁gilt	-10889
▁حاول	-10890
orough	-10891
untain	-10892
▁ahora	-10893
▁datos	-10894
▁later	-10895
▁sound	-10896
▁Battle	-10897
▁Gemein	-10898
▁belong	-10899
▁plants	-10900
▁واشنطن	-10901
▁diritto	-10902
▁نوتردام	-10903
▁frequent	-10904
▁majority	-10905
▁documento	-10906
▁construcción	-10907
شف	-10908
วจ	-10909
▁홈	-10910
基本	-10911
才能	-10912
期間	-10913
用的	-10914
라가	-10915
부는	-10916
유럽	-10917
ملة	-10918
พ่อ	-10919
▁يب	-10920
▁생활	-10921
▁알려	-10922
▁회차	-10923
スティ	-10924
올림픽	-10925
1939	-10926
ستان	-10927
يران	-10928
มหาน	-10929
▁vec	-10930
▁맡았던	-10931
▁앨범의	-10932
ريكان	-10933
แชมป์	-10934
▁Dark	-10935
▁Dios	-10936
▁racc	-10937
▁فيما	-10938
ikaner	-10939
▁indip	-10940
▁Origin	-10941
▁dinero	-10942
▁regina	-10943
▁antigua	-10944
▁carrera	-10945
▁broadcast	-10946
▁typically	-10947
▁introduced	-10948
▁principali	-10949
▁ก่อตั้งขึ้น	-10950
Ex	-10951
يق	-10952
▁침	-10953
ネル	-10954
性的	-10955
調査	-10956
阻止	-10957
도록	-10958
베르	-10959
이지	-10960
قبل	-10961
ล่า	-10962
▁سم	-10963
▁وح	-10964
▁공항	-10965
受欢迎	-10966
墨西哥	-10967
联合国	-10968
colo	-10969
immt	-10970
ذافي	-10971
▁ält	-10972
▁بار	-10973
▁خاص	-10974
したこと	-10975
nahme	-10976
ังกัด	-10977
▁Rück	-10978
▁schw	-10979
▁avail	-10980
▁اطلاق	-10981
aziland	-10982
เปลี่ยน	-10983
▁ciento	-10984
▁launch	-10985
▁Militär	-10986
▁televis	-10987
▁economía	-10988
▁militare	-10989
▁politica	-10990
▁popolare	-10991
▁transfer	-10992
-9	-10993
▁블	-10994
どう	-10995
エル	-10996
roc	-10997
áne	-10998
ซีซ	-10999
アルバ	-11000
地区的	-11001
ires	-11002
otta	-11003
äger	-11004
امية	-11005
▁fut	-11006
▁mic	-11007
▁mun	-11008
وانين	-11009
▁army	-11010
▁clos	-11011
▁الحك	-11012
▁Green	-11013
▁دراسة	-11014
▁كبيرة	-11015
▁Nation	-11016
▁finden	-11017
▁mensch	-11018
▁partes	-11019
▁última	-11020
▁الدفاع	-11021
▁derecho	-11022
▁erlaubt	-11023
▁funzion	-11024
▁lanzado	-11025
▁network	-11026
是什么时候开始的	-11027
▁Mitglied	-11028
▁centrale	-11029
▁establish	-11030
スペ	-11031
ビア	-11032
变得	-11033
是哪	-11034
監督	-11035
飞机	-11036
치의	-11037
اند	-11038
เตร	-11039
▁My	-11040
▁계약	-11041
▁사고	-11042
以什么	-11043
长时间	-11044
otti	-11045
اليف	-11046
▁low	-11047
▁بيل	-11048
▁관련된	-11049
りますか	-11050
イタリア	-11051
ahlen	-11052
iving	-11053
จารย์	-11054
▁just	-11055
▁الاز	-11056
▁تعرف	-11057
▁كيري	-11058
会发生什么	-11059
ในสมัย	-11060
▁genoc	-11061
▁rango	-11062
Secondo	-11063
rededor	-11064
truktur	-11065
▁Lebens	-11066
▁بليموث	-11067
กษัตริย์	-11068
การศึกษา	-11069
▁Brasilia	-11070
▁Virginia	-11071
▁administ	-11072
▁conflict	-11073
▁incorpor	-11074
▁relacion	-11075
เดิมว่าอะไร	-11076
▁Temperatur	-11077
.5	-11078
If	-11079
แฮ	-11080
▁묘	-11081
同意	-11082
定居	-11083
相似	-11084
국은	-11085
머니	-11086
소년	-11087
وعة	-11088
▁Up	-11089
▁말은	-11090
▁문제	-11091
▁시간	-11092
了一个	-11093
졌는가	-11094
อักษ	-11095
▁Bay	-11096
▁deg	-11097
▁اهم	-11098
▁ويل	-11099
▁경력은	-11100
bbero	-11101
fluss	-11102
lasse	-11103
▁orig	-11104
▁الشي	-11105
▁الوز	-11106
▁ريتش	-11107
アメリカの	-11108
uption	-11109
▁David	-11110
▁award	-11111
▁Harbor	-11112
▁ancora	-11113
▁played	-11114
▁status	-11115
▁التاسع	-11116
เรียกว่า	-11117
▁dynasty	-11118
▁funcion	-11119
▁القذافي	-11120
▁aeropuerto	-11121
kr	-11122
▁ซ	-11123
プト	-11124
公開	-11125
怀特	-11126
版本	-11127
面積	-11128
군은	-11129
선은	-11130
소의	-11131
ñas	-11132
ทุก	-11133
ราว	-11134
ส่ง	-11135
▁가족	-11136
jekt	-11137
سيطر	-11138
▁Ast	-11139
▁rap	-11140
▁것으로	-11141
について	-11142
ymbol	-11143
เวอร์	-11144
▁dogs	-11145
▁giud	-11146
▁hakk	-11147
▁الصو	-11148
etzung	-11149
hattan	-11150
itions	-11151
lament	-11152
ของไทย	-11153
▁2001?	-11154
▁ayudó	-11155
▁enfer	-11156
▁mismo	-11157
เป็นที่	-11158
▁Theorie	-11159
▁بالنسبة	-11160
เกาหลีใต้	-11161
▁entdeckt	-11162
▁estación	-11163
▁hakkında	-11164
▁ottenuto	-11165
▁الاقتصاد	-11166
▁británico	-11167
▁rilasciato	-11168
AC	-11169
ضة	-11170
ษ์	-11171
人々	-11172
発見	-11173
还有	-11174
시한	-11175
었어	-11176
زني	-11177
ตรง	-11178
▁AD	-11179
▁MP	-11180
▁되어	-11181
どんな	-11182
年から	-11183
电容器	-11184
장으로	-11185
heim	-11186
lica	-11187
oper	-11188
แพทย	-11189
▁And	-11190
▁Ort	-11191
▁Pak	-11192
▁Tom	-11193
▁XIX	-11194
▁ill	-11195
▁kil	-11196
▁tex	-11197
▁ادى	-11198
▁توس	-11199
▁عضو	-11200
allen	-11201
inato	-11202
inger	-11203
oslav	-11204
ينيسي	-11205
ค้นพบ	-11206
ดํารง	-11207
มารดา	-11208
▁Last	-11209
▁acto	-11210
▁laws	-11211
▁rail	-11212
▁كلية	-11213
▁Giapp	-11214
▁nativ	-11215
▁aspect	-11216
▁tradic	-11217
▁الحديث	-11218
▁الخارج	-11219
▁السابق	-11220
▁الطريقة	-11221
▁empresas	-11222
▁político	-11223
▁construyó	-11224
▁enthalten	-11225
ui	-11226
رع	-11227
فه	-11228
▁돼	-11229
▁뭘	-11230
ミネ	-11231
商业	-11232
结构	-11233
근혜	-11234
로가	-11235
재인	-11236
전을	-11237
Har	-11238
lor	-11239
شرة	-11240
ندو	-11241
ติน	-11242
อิต	-11243
เซล	-11244
▁sl	-11245
公司的	-11246
لفزي	-11247
▁Son	-11248
▁ciò	-11249
▁ابل	-11250
▁배경은	-11251
▁플레이	-11252
คนที่	-11253
▁bran	-11254
▁früh	-11255
▁noto	-11256
▁well	-11257
▁الفن	-11258
▁audio	-11259
▁clase	-11260
▁ideal	-11261
▁sería	-11262
▁التبت	-11263
▁القيا	-11264
landese	-11265
ruzione	-11266
▁Anteil	-11267
▁County	-11268
▁Raleigh	-11269
▁estruct	-11270
▁الحرارة	-11271
▁الفرنسي	-11272
▁Catholic	-11273
▁Sanskrit	-11274
▁Università	-11275
▁individual	-11276
▁Deutschland	-11277
so	-11278
าช	-11279
็ต	-11280
▁윤	-11281
特征	-11282
环境	-11283
给了	-11284
网络	-11285
적을	-11286
dos	-11287
سين	-11288
ضية	-11289
يبد	-11290
يرا	-11291
ฟิล	-11292
▁60	-11293
▁FA	-11294
▁기술	-11295
irat	-11296
unit	-11297
ارنة	-11298
▁Gio	-11299
▁Tel	-11300
▁احد	-11301
▁명인가	-11302
field	-11303
otion	-11304
untos	-11305
درالي	-11306
สะพาน	-11307
▁1930	-11308
▁Army	-11309
▁Holz	-11310
▁emer	-11311
▁meas	-11312
▁vive	-11313
▁نادي	-11314
▁만들어진	-11315
immung	-11316
▁monde	-11317
▁مسؤول	-11318
▁Bretag	-11319
▁arbeit	-11320
▁batter	-11321
▁perten	-11322
▁pestic	-11323
▁resist	-11324
▁strada	-11325
▁انتخاب	-11326
▁economy	-11327
▁oficina	-11328
▁systems	-11329
▁الحديثة	-11330
ที่มีชื่อ	-11331
▁adolescent	-11332
▁producción	-11333
มร	-11334
ัพ	-11335
็ง	-11336
专辑	-11337
保持	-11338
收入	-11339
联赛	-11340
规定	-11341
铁路	-11342
권을	-11343
란드	-11344
상이	-11345
치가	-11346
ätz	-11347
่อน	-11348
▁สุ	-11349
▁라이	-11350
休斯顿	-11351
基督教	-11352
eras	-11353
hand	-11354
อาร์	-11355
เดิน	-11356
▁asp	-11357
▁نان	-11358
了多少钱	-11359
arias	-11360
immen	-11361
زابيث	-11362
▁mult	-11363
▁sell	-11364
▁ofici	-11365
▁المدن	-11366
วงดนตรี	-11367
▁judíos	-11368
▁África	-11369
▁الخاصة	-11370
ตะวันออก	-11371
▁المسؤول	-11372
หม่อมเจ้า	-11373
▁controllo	-11374
▁wichtigsten	-11375
AF	-11376
sc	-11377
üg	-11378
ปา	-11379
ยง	-11380
▁좋	-11381
ノー	-11382
已经	-11383
年度	-11384
elo	-11385
เซน	-11386
いつか	-11387
esen	-11388
ingu	-11389
ième	-11390
ร่วม	-11391
▁Män	-11392
▁Sir	-11393
▁bal	-11394
ammad	-11395
iesta	-11396
سياسي	-11397
▁1920	-11398
▁Mehr	-11399
▁Qing	-11400
▁alte	-11401
▁bord	-11402
▁carb	-11403
▁dipl	-11404
▁Rolle	-11405
▁asent	-11406
▁impro	-11407
▁libri	-11408
▁monar	-11409
▁preso	-11410
▁press	-11411
▁سلالة	-11412
▁antrop	-11413
▁besond	-11414
▁efecto	-11415
▁secret	-11416
▁المنزل	-11417
▁europeo	-11418
▁special	-11419
▁الكلاسي	-11420
▁Giappone	-11421
▁especial	-11422
▁المجموعات	-11423
▁característica	-11424
SC	-11425
แฟ	-11426
▁키	-11427
えた	-11428
の一	-11429
シェ	-11430
住在	-11431
明治	-11432
ris	-11433
uez	-11434
رشح	-11435
▁ak	-11436
▁sk	-11437
▁몇월	-11438
▁모두	-11439
있을까	-11440
1980	-11441
punk	-11442
vard	-11443
ربية	-11444
شروع	-11445
ورية	-11446
ونية	-11447
ราษฎ	-11448
▁Dan	-11449
▁طول	-11450
▁ياش	-11451
▁พระ	-11452
美国偶像	-11453
ville	-11454
เชื้อ	-11455
▁1998	-11456
▁Berg	-11457
▁arab	-11458
▁bere	-11459
▁cast	-11460
▁cere	-11461
▁gain	-11462
▁reun	-11463
▁sequ	-11464
▁tama	-11465
▁veng	-11466
▁البن	-11467
▁انته	-11468
▁ในปี	-11469
百分之多少	-11470
มหานคร	-11471
▁altre	-11472
▁birds	-11473
▁circu	-11474
ciación	-11475
idencia	-11476
ประชากร	-11477
▁Secret	-11478
▁cuatro	-11479
▁ياشيبد	-11480
▁Islands	-11481
▁avrebbe	-11482
▁causato	-11483
▁moderna	-11484
▁publicó	-11485
▁believed	-11486
กฎ	-11487
จน	-11488
จี	-11489
巴黎	-11490
曼陀	-11491
-19	-11492
NES	-11493
urz	-11494
الف	-11495
ชุม	-11496
เพช	-11497
▁왕은	-11498
▁팀의	-11499
は何の	-11500
식으로	-11501
cipe	-11502
قلال	-11503
โครง	-11504
▁Ost	-11505
▁tab	-11506
▁típ	-11507
▁ذات	-11508
▁شرق	-11509
▁طلب	-11510
▁프랑스	-11511
스트레일	-11512
ackel	-11513
stand	-11514
▁Wahl	-11515
▁food	-11516
▁hinz	-11517
▁scon	-11518
▁الرب	-11519
▁اللا	-11520
▁عنها	-11521
▁Recht	-11522
▁dedic	-11523
▁ebrei	-11524
▁extra	-11525
▁stile	-11526
▁المشت	-11527
人は誰ですか	-11528
▁aperto	-11529
▁tercer	-11530
▁Somalia	-11531
▁antiguo	-11532
▁gaddafi	-11533
▁recibió	-11534
▁influenz	-11535
▁sistemas	-11536
▁Wirtschaft	-11537
▁instrument	-11538
Bo	-11539
▁삶	-11540
▁폴	-11541
に関	-11542
变成	-11543
姆斯	-11544
感染	-11545
時間	-11546
灭绝	-11547
视频	-11548
谁说	-11549
eto	-11550
iny	-11551
obb	-11552
ued	-11553
درة	-11554
ชัน	-11555
ภาษ	-11556
▁광고	-11557
博物馆	-11558
abel	-11559
erve	-11560
hood	-11561
▁Ben	-11562
▁geb	-11563
▁hor	-11564
▁وقع	-11565
▁بانه	-11566
imenti	-11567
▁Court	-11568
▁Rusia	-11569
▁avere	-11570
▁lanzó	-11571
▁movie	-11572
▁razón	-11573
▁جوائز	-11574
▁어떠했는가	-11575
となったのは	-11576
reichen	-11577
▁السياسي	-11578
▁Imperial	-11579
▁Japanese	-11580
▁Mehrheit	-11581
▁animales	-11582
▁associated	-11583
▁continente	-11584
▁occidental	-11585
▁architecture	-11586
▁arquitectura	-11587
▁estadounidenses	-11588
พา	-11589
▁슈	-11590
デン	-11591
功能	-11592
卡罗	-11593
最近	-11594
우가	-11595
All	-11596
mos	-11597
uyó	-11598
سسة	-11599
فاظ	-11600
▁31	-11601
▁از	-11602
曼陀林	-11603
的哪些	-11604
alis	-11605
site	-11606
นิยม	-11607
เกิล	-11608
▁Urs	-11609
▁승점은	-11610
▁있었던	-11611
用什么来	-11612
altet	-11613
haupt	-11614
itive	-11615
กี่คน	-11616
▁Pala	-11617
▁actu	-11618
▁bien	-11619
▁hosp	-11620
▁المخ	-11621
▁والم	-11622
คําว่า	-11623
▁2014,	-11624
▁campa	-11625
▁costa	-11626
▁metal	-11627
▁انحاء	-11628
스트레일리아	-11629
بيونسيه	-11630
▁gruppi	-11631
▁Kingdom	-11632
▁comport	-11633
▁finales	-11634
▁include	-11635
▁البحرية	-11636
▁promedio	-11637
▁المعروفة	-11638
▁República	-11639
▁propiedad	-11640
▁offizielle	-11641
ไท	-11642
华盛	-11643
最小	-11644
東京	-11645
登場	-11646
访问	-11647
连接	-11648
阿拉	-11649
가지	-11650
나이	-11651
리오	-11652
메리	-11653
세계	-11654
였던	-11655
hin	-11656
هير	-11657
อนุ	-11658
▁일으	-11659
ディズ	-11660
华盛顿	-11661
gang	-11662
rach	-11663
unes	-11664
ผ่าน	-11665
▁Dig	-11666
▁ora	-11667
▁بيت	-11668
▁للت	-11669
onato	-11670
อักษร	-11671
เซอร์	-11672
▁Guam	-11673
▁dame	-11674
▁ehem	-11675
▁podr	-11676
▁quat	-11677
▁جزءا	-11678
▁سويس	-11679
▁대회에서	-11680
enswer	-11681
كنولوج	-11682
▁Movie	-11683
▁attiv	-11684
▁donde	-11685
▁estos	-11686
▁famig	-11687
▁fundó	-11688
▁sulle	-11689
▁التوق	-11690
▁الميل	-11691
▁aufget	-11692
▁gleich	-11693
▁الاقلي	-11694
▁Spanish	-11695
ariamente	-11696
▁dinastia	-11697
อยู่ในวงศ์	-11698
▁universidades	-11699
26	-11700
لى	-11701
ใบ	-11702
アイ	-11703
完全	-11704
援助	-11705
签署	-11706
规则	-11707
라운	-11708
ask	-11709
opp	-11710
ريا	-11711
ملك	-11712
▁بق	-11713
▁동안	-11714
▁부문	-11715
▁얻은	-11716
不同的	-11717
发现的	-11718
iede	-11719
وائل	-11720
ซีรี	-11721
▁180	-11722
▁Cro	-11723
▁End	-11724
▁Gar	-11725
▁cav	-11726
▁hid	-11727
▁اقت	-11728
▁حقق	-11729
▁과정은	-11730
是由什么	-11731
วงการ	-11732
▁Live	-11733
▁USAF	-11734
▁داخل	-11735
Wessen	-11736
เท่าใด	-11737
▁cerve	-11738
▁ihrem	-11739
▁today	-11740
▁trade	-11741
▁روسيا	-11742
amerika	-11743
แผ่นดิน	-11744
▁erklär	-11745
▁Eritrea	-11746
▁purpose	-11747
▁erstellt	-11748
▁geschickt	-11749
▁influence	-11750
▁เสียชีวิต	-11751
▁Griechenland	-11752
CM	-11753
iy	-11754
يك	-11755
ธง	-11756
キー	-11757
三个	-11758
主義	-11759
程度	-11760
范围	-11761
Mus	-11762
box	-11763
eep	-11764
eme	-11765
ügt	-11766
شار	-11767
هرت	-11768
คอม	-11769
▁입단	-11770
共和党	-11771
ögel	-11772
▁Bra	-11773
▁hoy	-11774
▁لدى	-11775
▁영화는	-11776
▁획득한	-11777
adium	-11778
اريات	-11779
▁Dead	-11780
▁Ming	-11781
▁Vars	-11782
▁Vict	-11783
▁dial	-11784
▁ense	-11785
▁الحق	-11786
▁الحم	-11787
▁خارج	-11788
▁조별리그	-11789
▁initi	-11790
▁ehemal	-11791
▁sollte	-11792
▁teatro	-11793
▁troops	-11794
▁usando	-11795
▁تينيسي	-11796
▁attempt	-11797
▁miglior	-11798
▁started	-11799
▁المانيا	-11800
▁comercio	-11801
geschlagen	-11802
▁ufficiale	-11803
▁gesprochen	-11804
▁originally	-11805
▁televisión	-11806
▁ร้องโดยใคร	-11807
5,	-11808
วะ	-11809
สห	-11810
▁터	-11811
トン	-11812
上帝	-11813
機関	-11814
结果	-11815
다가	-11816
독일	-11817
사로	-11818
서의	-11819
센트	-11820
았던	-11821
어가	-11822
이며	-11823
Les	-11824
ipe	-11825
oce	-11826
كلة	-11827
พืช	-11828
เลข	-11829
▁공개	-11830
ジョー	-11831
中世纪	-11832
奥斯曼	-11833
常见的	-11834
美尼亚	-11835
abor	-11836
itet	-11837
rema	-11838
ريبا	-11839
وسطن	-11840
ยุทธ	-11841
ร่าง	-11842
▁Mor	-11843
▁flo	-11844
▁hyd	-11845
▁منه	-11846
はどこで	-11847
最高法院	-11848
وسكار	-11849
▁1992	-11850
▁Skla	-11851
▁tipi	-11852
▁town	-11853
▁بالق	-11854
▁jetzt	-11855
▁الامم	-11856
ตะวันตก	-11857
▁Muslim	-11858
▁compan	-11859
▁expand	-11860
▁libert	-11861
▁modelo	-11862
ขนาดใหญ่	-11863
▁hombres	-11864
▁moderne	-11865
▁الوزراء	-11866
▁available	-11867
▁California	-11868
▁profession	-11869
▁sviluppato	-11870
▁amerikanischen	-11871
DS	-11872
EC	-11873
แซ	-11874
内容	-11875
南极	-11876
卫星	-11877
活動	-11878
구에	-11879
하던	-11880
vis	-11881
▁Ap	-11882
▁영국	-11883
从哪里	-11884
되었나	-11885
Name	-11886
aben	-11887
adel	-11888
eite	-11889
▁Bet	-11890
▁hub	-11891
▁rib	-11892
▁مقر	-11893
▁장소는	-11894
いたのは	-11895
▁Janu	-11896
▁Stil	-11897
▁basa	-11898
▁spaz	-11899
▁تقوم	-11900
▁Kraft	-11901
▁colla	-11902
▁haber	-11903
▁manif	-11904
▁áreas	-11905
▁اجهزة	-11906
▁الحدث	-11907
▁الخشب	-11908
▁tuvalu	-11909
▁Richard	-11910
▁concern	-11911
▁regiert	-11912
ประเทศไทย	-11913
▁olduğunu	-11914
▁referred	-11915
▁according	-11916
▁produzione	-11917
جز	-11918
ดร	-11919
พี	-11920
える	-11921
中央	-11922
公民	-11923
君主	-11924
得到	-11925
战役	-11926
截至	-11927
温度	-11928
部隊	-11929
領土	-11930
이크	-11931
188	-11932
Ang	-11933
New	-11934
cta	-11935
وعا	-11936
▁29	-11937
▁ár	-11938
▁국민	-11939
▁세운	-11940
▁유래	-11941
人は誰	-11942
agne	-11943
kien	-11944
seln	-11945
ابات	-11946
يناء	-11947
▁Wer	-11948
▁bul	-11949
▁sor	-11950
▁دار	-11951
▁누구를	-11952
▁되나요	-11953
▁어디로	-11954
の名前は	-11955
orfen	-11956
parte	-11957
ليدية	-11958
เชื่อ	-11959
▁born	-11960
▁sare	-11961
▁بالم	-11962
▁แห่ง	-11963
▁아버지는	-11964
在哪个城市	-11965
ección	-11966
ซีรีส์	-11967
▁First	-11968
▁ruolo	-11969
▁varia	-11970
▁ville	-11971
▁Jahres	-11972
▁colore	-11973
▁propós	-11974
▁travel	-11975
▁المحلي	-11976
是什么时候成立的	-11977
▁pubblica	-11978
▁attraverso	-11979
▁Architektur	-11980
▁considerado	-11981
วล	-11982
古老	-11983
数字	-11984
最不	-11985
赛季	-11986
종의	-11987
rid	-11988
جال	-11989
جمع	-11990
ورا	-11991
▁فل	-11992
▁공연	-11993
▁다시	-11994
▁생산	-11995
alto	-11996
ties	-11997
دونا	-11998
▁Ord	-11999
▁hit	-12000
▁باع	-12001
▁صحي	-12002
▁기간은	-12003
什么语言	-12004
overn	-12005
reibt	-12006
▁1997	-12007
▁1999	-12008
▁Inse	-12009
▁Stre	-12010
▁bank	-12011
▁dens	-12012
▁erit	-12013
▁extr	-12014
▁meno	-12015
▁size	-12016
▁كندا	-12017
ที่ถูก	-12018
▁المخت	-12019
▁mediev	-12020
▁minist	-12021
▁tamaño	-12022
▁الحالي	-12023
▁برنامج	-12024
▁Society	-12025
▁nazione	-12026
▁التاثير	-12027
▁Republic	-12028
▁cultural	-12029
▁ในเรื่อง	-12030
حو	-12031
หว	-12032
▁q	-12033
▁또	-12034
▁측	-12035
▁헌	-12036
使わ	-12037
几个	-12038
原子	-12039
喜欢	-12040
尔的	-12041
思想	-12042
支配	-12043
海洋	-12044
苹果	-12045
電所	-12046
우리	-12047
100	-12048
خرج	-12049
سيم	-12050
لاف	-12051
وقد	-12052
สเป	-12053
▁KU	-12054
▁ri	-12055
▁va	-12056
▁éx	-12057
▁تؤ	-12058
▁할까	-12059
最後の	-12060
民主党	-12061
agna	-12062
ases	-12063
onde	-12064
urso	-12065
تجاه	-12066
บุตร	-12067
▁Bei	-12068
▁Gla	-12069
▁اسل	-12070
▁رسم	-12071
▁وجد	-12072
亚美尼亚	-12073
이었는가	-12074
byter	-12075
onfer	-12076
ragon	-12077
وفالو	-12078
พัฒนา	-12079
▁جبال	-12080
原因是什么	-12081
▁españ	-12082
▁vista	-12083
▁تحتوي	-12084
▁كارول	-12085
▁ayudar	-12086
▁bemerk	-12087
▁recogn	-12088
▁tropas	-12089
第二次世界大戦	-12090
▁familia	-12091
▁gezeigt	-12092
▁happens	-12093
▁افريقيا	-12094
▁الشمسية	-12095
▁Bretagna	-12096
▁Gerichts	-12097
▁bacteria	-12098
▁befinden	-12099
▁genommen	-12100
▁imperial	-12101
▁interest	-12102
▁الحديدية	-12103
▁Manhattan	-12104
▁problemas	-12105
▁whitehead	-12106
มาเมื่อไหร่	-12107
▁angefangen	-12108
▁discovered	-12109
75	-12110
ód	-12111
ไน	-12112
▁갈	-12113
いの	-12114
の著	-12115
授予	-12116
能源	-12117
道院	-12118
나의	-12119
수로	-12120
원을	-12121
이자	-12122
Are	-12123
ope	-12124
انا	-12125
ค่า	-12126
สัง	-12127
▁Lo	-12128
▁So	-12129
▁중에	-12130
▁해당	-12131
は何を	-12132
사에서	-12133
1943	-12134
hnen	-12135
illo	-12136
ross	-12137
▁هيل	-12138
Black	-12139
Desde	-12140
Under	-12141
orial	-12142
ترويت	-12143
▁Real	-12144
▁meet	-12145
▁opin	-12146
▁السك	-12147
▁بدلا	-12148
achine	-12149
كتيريا	-12150
▁labor	-12151
▁oltre	-12152
▁paper	-12153
▁urban	-12154
ecutive	-12155
▁Fackel	-12156
▁Middle	-12157
▁Philip	-12158
▁السادس	-12159
▁الطريق	-12160
▁miembro	-12161
▁commonly	-12162
▁sometimes	-12163
▁왜	-12164
ウム	-12165
動物	-12166
同じ	-12167
拉丁	-12168
最低	-12169
相比	-12170
领土	-12171
Ant	-12172
Par	-12173
ote	-12174
rif	-12175
öße	-12176
ستر	-12177
سخة	-12178
هار	-12179
ลัง	-12180
วัฒ	-12181
▁70	-12182
▁él	-12183
▁공식	-12184
▁관한	-12185
▁제공	-12186
与什么	-12187
광역시	-12188
hode	-12189
رحلة	-12190
▁Mid	-12191
▁Raj	-12192
▁وين	-12193
▁발생한	-12194
▁방법은	-12195
▁연도별	-12196
▁차지한	-12197
board	-12198
▁ohne	-12199
▁papa	-12200
されていた	-12201
ichten	-12202
▁1990?	-12203
▁Barts	-12204
▁Human	-12205
▁Metro	-12206
▁Power	-12207
▁alten	-12208
▁estat	-12209
▁أفلام	-12210
▁الفرق	-12211
▁bietet	-12212
▁formal	-12213
▁später	-12214
▁wollte	-12215
براطورية	-12216
▁changes	-12217
▁combatt	-12218
▁musical	-12219
▁trovava	-12220
entemente	-12221
▁Birmania	-12222
▁clasific	-12223
▁superior	-12224
▁financial	-12225
▁programma	-12226
▁Präsidenten	-12227
▁vorgeschlagen	-12228
dy	-12229
ém	-12230
、「	-12231
それ	-12232
もっ	-12233
何日	-12234
奴隶	-12235
批评	-12236
纳米	-12237
西部	-12238
超过	-12239
还是	-12240
销售	-12241
首次	-12242
가의	-12243
중국	-12244
aug	-12245
isp	-12246
تبع	-12247
لاد	-12248
จอม	-12249
▁لش	-12250
▁결승	-12251
▁수록	-12252
▁임명	-12253
碧昂丝	-12254
1998	-12255
aged	-12256
aker	-12257
amin	-12258
avia	-12259
ctic	-12260
werk	-12261
ائلة	-12262
ستون	-12263
مبية	-12264
▁gén	-12265
▁pon	-12266
▁بيع	-12267
▁جدا	-12268
▁جيم	-12269
▁فتح	-12270
زنيجر	-12271
กี่ปี	-12272
▁Meer	-12273
▁الرئ	-12274
▁عالم	-12275
▁고등학교	-12276
▁Child	-12277
▁Suiza	-12278
▁annun	-12279
▁cross	-12280
▁every	-12281
▁teach	-12282
▁كنيسة	-12283
▁attrib	-12284
▁diffic	-12285
▁dimens	-12286
▁immigr	-12287
▁القيام	-12288
▁الكلمة	-12289
▁publica	-12290
▁público	-12291
▁vengono	-12292
▁replaced	-12293
▁originale	-12294
▁Verfassung	-12295
▁production	-12296
▁귀	-12297
▁막	-12298
▁빌	-12299
の大	-12300
の間	-12301
ジラ	-12302
全球	-12303
국제	-12304
hir	-12305
علة	-12306
รอง	-12307
▁45	-12308
▁ya	-12309
▁종교	-12310
葡萄牙	-12311
edia	-12312
esis	-12313
hren	-12314
odge	-12315
นั้น	-12316
▁Kap	-12317
▁Sky	-12318
▁Tri	-12319
▁ved	-12320
▁بنا	-12321
▁나이는	-12322
▁사건은	-12323
ahmen	-12324
azine	-12325
ollar	-12326
▁Conf	-12327
▁Kamp	-12328
▁Lage	-12329
▁Pers	-12330
▁روما	-12331
▁والت	-12332
▁등장인물	-12333
在哪个国家	-12334
▁ganar	-12335
▁works	-12336
▁العرق	-12337
หน้าที่	-12338
▁Bedeut	-12339
▁Impero	-12340
▁return	-12341
▁romana	-12342
▁الكلاب	-12343
stellung	-12344
وارزنيجر	-12345
▁acquist	-12346
▁informa	-12347
▁จัดขึ้น	-12348
何年のことですか	-12349
▁included	-12350
▁اليونانية	-12351
สโมสรฟุตบอล	-12352
▁الانتخابات	-12353
▁costruzione	-12354
▁crecimiento	-12355
29	-12356
TA	-12357
زا	-12358
▁벤	-12359
が出	-12360
スク	-12361
モン	-12362
引起	-12363
森豪	-12364
生息	-12365
西方	-12366
观点	-12367
시대	-12368
Wen	-12369
ohl	-12370
zia	-12371
صور	-12372
منذ	-12373
▁BC	-12374
▁eu	-12375
是怎么	-12376
有多大	-12377
而不是	-12378
艾森豪	-12379
พิธี	-12380
สถาป	-12381
เลย์	-12382
▁Arg	-12383
▁Dio	-12384
▁Gef	-12385
▁avo	-12386
▁lie	-12387
▁nor	-12388
▁shi	-12389
▁var	-12390
▁wid	-12391
▁ديل	-12392
▁صنا	-12393
に対する	-12394
atten	-12395
تبارا	-12396
▁1940	-12397
▁Rang	-12398
▁Verl	-12399
▁artí	-12400
▁pasa	-12401
▁quel	-12402
▁vier	-12403
▁الطب	-12404
艾森豪威尔	-12405
remoto	-12406
▁Flugh	-12407
▁force	-12408
▁klass	-12409
▁kommt	-12410
▁الزمن	-12411
▁الممت	-12412
▁Kanada	-12413
▁Nieder	-12414
▁action	-12415
▁ejecut	-12416
▁office	-12417
▁rights	-12418
▁tenido	-12419
▁uscito	-12420
ออกอากาศ	-12421
▁beyonce	-12422
▁problem	-12423
▁ديترويت	-12424
▁location	-12425
▁التجارية	-12426
▁companies	-12427
▁influenced	-12428
▁principios	-12429
เผ	-12430
▁범	-12431
▁봉	-12432
とき	-12433
の主	-12434
必要	-12435
找到	-12436
能量	-12437
部队	-12438
종이	-12439
geg	-12440
حول	-12441
เบล	-12442
▁Ta	-12443
公元前	-12444
Eine	-12445
cken	-12446
vizz	-12447
هوما	-12448
ตาร์	-12449
ร้าง	-12450
เต็ม	-12451
▁mai	-12452
ウォルト	-12453
図書館の	-12454
illos	-12455
▁apoy	-12456
▁verh	-12457
▁viag	-12458
▁받았을까	-12459
▁1970?	-12460
▁Arbor	-12461
▁bezie	-12462
▁genes	-12463
▁الماء	-12464
▁يتحدث	-12465
hkenazi	-12466
อยู่ที่	-12467
adamente	-12468
▁feynman	-12469
▁director	-12470
▁naciones	-12471
▁proyecto	-12472
▁required	-12473
▁الاساسية	-12474
▁باستخدام	-12475
enschaften	-12476
▁frecuencia	-12477
▁philosophy	-12478
▁originalmente	-12479
bu	-12480
▁붙	-12481
制定	-12482
化学	-12483
数は	-12484
海军	-12485
理由	-12486
瑞士	-12487
者的	-12488
西洋	-12489
명을	-12490
명의	-12491
اما	-12492
هات	-12493
هرج	-12494
ออฟ	-12495
▁Lu	-12496
▁Zy	-12497
▁과정	-12498
▁않는	-12499
▁인터	-12500
▁일반	-12501
되었던	-12502
2020	-12503
eign	-12504
ituc	-12505
sers	-12506
▁Pan	-12507
▁gut	-12508
生まれた	-12509
achst	-12510
estos	-12511
porte	-12512
▁Lord	-12513
られたのは	-12514
▁Firma	-12515
▁Order	-12516
▁lingu	-12517
▁تشارل	-12518
ientras	-12519
▁calcio	-12520
▁económ	-12521
▁impres	-12522
▁método	-12523
▁Sichuan	-12524
▁eingest	-12525
▁equipos	-12526
▁marshall	-12527
▁presiden	-12528
▁Beziehung	-12529
▁terremoto	-12530
▁الكمبيوتر	-12531
หมายถึงอะไร	-12532
▁biblioteca	-12533
SF	-12534
ko	-12535
nu	-12536
اك	-12537
▁급	-12538
▁볼	-12539
ダル	-12540
个人	-12541
德的	-12542
担任	-12543
特别	-12544
电脑	-12545
美元	-12546
表示	-12547
语的	-12548
단이	-12549
스테	-12550
위에	-12551
인을	-12552
viv	-12553
ياس	-12554
ยาม	-12555
▁TB	-12556
▁종목	-12557
阿森纳	-12558
host	-12559
otos	-12560
ount	-12561
rift	-12562
uern	-12563
ötet	-12564
سكان	-12565
ทหาร	-12566
มนุษ	-12567
▁Web	-12568
▁cac	-12569
▁oro	-12570
▁بود	-12571
▁شهر	-12572
▁عبر	-12573
▁정당은	-12574
查尔斯顿	-12575
ption	-12576
▁batt	-12577
▁días	-12578
▁mant	-12579
▁vitt	-12580
▁ينظر	-12581
られている	-12582
哪种类型的	-12583
ประกาศ	-12584
▁gradu	-12585
▁prest	-12586
▁strat	-12587
▁Parigi	-12588
▁questa	-12589
American	-12590
ซึ่งเป็น	-12591
▁Truppen	-12592
▁regular	-12593
▁statunit	-12594
▁มีพระนาม	-12595
▁الاوروبية	-12596
▁البريطاني	-12597
▁섬	-12598
を務	-12599
カル	-12600
世が	-12601
年到	-12602
空军	-12603
과학	-12604
어진	-12605
화를	-12606
isa	-12607
شاء	-12608
شال	-12609
ولد	-12610
يال	-12611
ياه	-12612
▁أص	-12613
▁أل	-12614
▁لأ	-12615
▁판매	-12616
ジョン	-12617
까지의	-12618
ilie	-12619
ugen	-12620
วรรษ	-12621
▁178	-12622
▁Bib	-12623
▁neu	-12624
▁เคย	-12625
になった	-12626
▁amen	-12627
▁coin	-12628
▁days	-12629
▁fest	-12630
▁note	-12631
▁park	-12632
▁race	-12633
▁الصح	-12634
▁للمن	-12635
▁이루어져	-12636
forman	-12637
iscono	-12638
▁ideas	-12639
▁multi	-12640
▁relev	-12641
▁البرا	-12642
ktionen	-12643
▁finale	-12644
▁ارتفاع	-12645
▁سويسرا	-12646
されていますか	-12647
▁airport	-12648
▁discuss	-12649
▁prevent	-12650
acionales	-12651
วรวงศ์เธอ	-12652
▁sviluppo	-12653
▁gestartet	-12654
▁sostenuto	-12655
▁occidentale	-12656
กรุงเทพมหานคร	-12657
Me	-12658
ラム	-12659
人民	-12660
今天	-12661
价值	-12662
布朗	-12663
的新	-12664
長い	-12665
세는	-12666
식이	-12667
주가	-12668
진은	-12669
촬영	-12670
fit	-12671
wan	-12672
تمر	-12673
زين	-12674
▁IS	-12675
▁최대	-12676
ヨーク	-12677
ートル	-12678
cess	-12679
idio	-12680
lied	-12681
onor	-12682
uego	-12683
ائمة	-12684
واية	-12685
ธาตุ	-12686
สากล	-12687
แก้ว	-12688
▁254	-12689
▁Gol	-12690
▁Sub	-12691
▁etn	-12692
▁자신의	-12693
cipit	-12694
etzen	-12695
issen	-12696
waffe	-12697
▁Fred	-12698
▁Mosa	-12699
▁apar	-12700
▁fail	-12701
▁pron	-12702
▁repr	-12703
▁حاكم	-12704
▁والد	-12705
สีอะไร	-12706
สูงสุด	-12707
อิตาลี	-12708
▁Menge	-12709
▁ayuda	-12710
▁fuori	-12711
▁third	-12712
▁بداية	-12713
▁بطولة	-12714
▁سياتل	-12715
▁언제입니까	-12716
anasius	-12717
สัญชาติ	-12718
▁Punjab	-12719
▁Unione	-12720
▁selbst	-12721
▁ancient	-12722
▁beendet	-12723
▁livello	-12724
▁nanjing	-12725
▁premios	-12726
▁project	-12727
▁geglaubt	-12728
▁naturale	-12729
▁Unterstüt	-12730
▁implement	-12731
▁imperatore	-12732
ทางวิทยาศาสตร์	-12733
مم	-12734
يه	-12735
クス	-12736
分类	-12737
基地	-12738
总部	-12739
死刑	-12740
물은	-12741
센터	-12742
bes	-12743
bly	-12744
yal	-12745
écn	-12746
انة	-12747
جلة	-12748
ณฑ์	-12749
วอล	-12750
▁GE	-12751
▁상을	-12752
修道院	-12753
殖民地	-12754
自己的	-12755
ูนย์	-12756
โบรา	-12757
▁Bod	-12758
stein	-12759
thers	-12760
شلونة	-12761
▁Fakt	-12762
▁died	-12763
▁nick	-12764
▁المه	-12765
▁مبنى	-12766
▁منزل	-12767
▁abrió	-12768
▁citiz	-12769
▁denen	-12770
▁disco	-12771
▁esist	-12772
▁formó	-12773
▁inten	-12774
▁makes	-12775
▁oeste	-12776
▁range	-12777
▁salió	-12778
▁تغيير	-12779
▁employ	-12780
▁enferm	-12781
▁object	-12782
▁Bildung	-12783
▁Ländern	-12784
▁without	-12785
itzerland	-12786
▁Bewegung	-12787
▁aircraft	-12788
▁rapporto	-12789
▁aeroporto	-12790
▁películas	-12791
▁propósito	-12792
▁provincia	-12793
▁الهولندية	-12794
abhängigkeit	-12795
บาทสมเด็จพระ	-12796
▁contribuito	-12797
Bl	-12798
Er	-12799
Fl	-12800
▁ฟ	-12801
きた	-12802
なん	-12803
关闭	-12804
唱片	-12805
圣母	-12806
太平	-12807
数量	-12808
普利	-12809
更多	-12810
波普	-12811
대전	-12812
Hay	-12813
off	-12814
ايك	-12815
رطة	-12816
غرا	-12817
แหล	-12818
▁دم	-12819
▁مد	-12820
▁부르	-12821
▁부른	-12822
▁속해	-12823
▁없는	-12824
当時の	-12825
었나요	-12826
있는가	-12827
장에서	-12828
face	-12829
oven	-12830
rary	-12831
ثناء	-12832
มหาก	-12833
าราช	-12834
▁176	-12835
▁lok	-12836
▁tax	-12837
▁للط	-12838
▁للن	-12839
何ですか	-12840
uscon	-12841
▁Cypr	-12842
▁Reno	-12843
▁allg	-12844
▁irán	-12845
▁saga	-12846
▁tent	-12847
endere	-12848
คริสต์	-12849
มนุษย์	-12850
▁asist	-12851
▁nuova	-12852
▁write	-12853
▁الجما	-12854
アカデミー賞	-12855
chester	-12856
เมื่อไร	-12857
▁acción	-12858
▁comand	-12859
▁concep	-12860
▁intent	-12861
▁الشعلة	-12862
▁besteht	-12863
▁besucht	-12864
▁erklärt	-12865
▁letzten	-12866
▁science	-12867
uckingham	-12868
▁election	-12869
▁Bedeutung	-12870
BO	-12871
ót	-12872
显示	-12873
竞争	-12874
당이	-12875
회를	-12876
ota	-12877
เวล	-12878
▁لد	-12879
▁기초	-12880
▁북한	-12881
탈리아	-12882
트에서	-12883
lood	-12884
جينج	-12885
ียร์	-12886
▁Inn	-12887
▁ach	-12888
▁jef	-12889
▁mut	-12890
▁wir	-12891
▁عدم	-12892
▁وصف	-12893
ables	-12894
▁hieß	-12895
▁مرتب	-12896
▁อดีต	-12897
の名前は何	-12898
▁habla	-12899
▁شيوعا	-12900
▁totale	-12901
▁entfern	-12902
▁municip	-12903
▁policía	-12904
▁Künstler	-12905
▁Zhejiang	-12906
▁manchmal	-12907
▁precipit	-12908
▁römischen	-12909
▁Unabhängigkeit	-12910
Cl	-12911
اذ	-12912
กะ	-12913
元素	-12914
几年	-12915
色列	-12916
行政	-12917
와의	-12918
Pre	-12919
fra	-12920
ova	-12921
rar	-12922
vos	-12923
ابا	-12924
وتي	-12925
สัม	-12926
้าม	-12927
▁구조	-12928
で一番	-12929
の作品	-12930
lach	-12931
راجع	-12932
موند	-12933
▁Mah	-12934
▁Sil	-12935
▁mec	-12936
▁ใช้	-12937
しますか	-12938
スペイン	-12939
elect	-12940
troll	-12941
ıştır	-12942
โบราณ	-12943
▁Merc	-12944
▁anne	-12945
▁fand	-12946
▁infr	-12947
▁kein	-12948
▁seen	-12949
▁جهاز	-12950
哪个国家的	-12951
uments	-12952
علومات	-12953
▁Alter	-12954
▁afect	-12955
▁fosse	-12956
▁immer	-12957
▁nello	-12958
▁piano	-12959
▁sitio	-12960
▁staat	-12961
▁unión	-12962
▁wegen	-12963
▁éxito	-12964
Besides	-12965
▁Somali	-12966
▁Virgil	-12967
▁format	-12968
▁growth	-12969
▁strutt	-12970
▁tenían	-12971
byterian	-12972
▁Amerika	-12973
▁brought	-12974
▁consist	-12975
▁digital	-12976
▁involuc	-12977
▁permite	-12978
▁Material	-12979
▁architett	-12980
▁britannico	-12981
▁dichiarato	-12982
▁Switzerland	-12983
▁relationship	-12984
▁amerikanische	-12985
MA	-12986
体的	-12987
年は	-12988
日の	-12989
沥青	-12990
나가	-12991
화가	-12992
edy	-12993
eil	-12994
ägt	-12995
برغ	-12996
تهي	-12997
กัด	-12998
รติ	-12999
ียม	-13000
▁تز	-13001
どこに	-13002
大きな	-13003
1996	-13004
ateg	-13005
fect	-13006
igan	-13007
zähl	-13008
กรณ์	-13009
ระยะ	-13010
▁Sur	-13011
▁sil	-13012
▁süd	-13013
▁vio	-13014
▁일어났	-13015
eitet	-13016
olfen	-13017
äsent	-13018
üssen	-13019
ศูนย์	-13020
▁1996	-13021
▁auto	-13022
▁sang	-13023
▁وفقا	-13024
adelph	-13025
▁inaug	-13026
▁miles	-13027
▁notre	-13028
▁الالب	-13029
▁الديم	-13030
▁السكك	-13031
▁العلا	-13032
▁اهوما	-13033
ทีมชาติ	-13034
▁Academ	-13035
▁civile	-13036
▁ethnic	-13037
▁fuerte	-13038
▁higher	-13039
▁killed	-13040
akterien	-13041
มารดาของ	-13042
▁getötet	-13043
▁records	-13044
▁cristian	-13045
▁geholfen	-13046
▁protagon	-13047
▁المستخدمة	-13048
▁británicos	-13049
▁enfermedad	-13050
ละครโทรทัศน์	-13051
ธ์	-13052
ุล	-13053
▁혼	-13054
イス	-13055
立法	-13056
角色	-13057
put	-13058
ray	-13059
لات	-13060
รณ์	-13061
▁Bu	-13062
▁Op	-13063
▁مر	-13064
は誰が	-13065
ゴジラ	-13066
以色列	-13067
Char	-13068
bour	-13069
erse	-13070
กิโล	-13071
ค่าย	-13072
▁Sep	-13073
▁let	-13074
▁mid	-13075
▁ráp	-13076
▁دعم	-13077
▁فقد	-13078
▁مون	-13079
哪家公司	-13080
ianza	-13081
posed	-13082
▁Ball	-13083
▁acus	-13084
▁foto	-13085
▁salv	-13086
▁verf	-13087
▁اللي	-13088
▁منصب	-13089
▁يزال	-13090
しているの	-13091
どれですか	-13092
ership	-13093
▁Earth	-13094
▁along	-13095
▁enseñ	-13096
▁medic	-13097
何年のことか	-13098
erstand	-13099
ionales	-13100
▁applic	-13101
▁ejempl	-13102
▁erhöht	-13103
▁famili	-13104
▁kommen	-13105
▁الوحيد	-13106
▁بجائزة	-13107
▁مارشال	-13108
▁benannt	-13109
▁montaña	-13110
▁الجنوبي	-13111
▁الحشرات	-13112
▁برشلونة	-13113
▁Englisch	-13114
▁البرتغال	-13115
▁ايزنهاور	-13116
▁comúnmente	-13117
พระบาทสมเด็จพระ	-13118
VD	-13119
gh	-13120
غل	-13121
▁잘	-13122
▁축	-13123
、『	-13124
の本	-13125
スコ	-13126
交通	-13127
以来	-13128
佛罗	-13129
学的	-13130
执行	-13131
模式	-13132
양의	-13133
Did	-13134
IBM	-13135
pal	-13136
اذا	-13137
نائ	-13138
ศาล	-13139
▁유일	-13140
▁학생	-13141
太平洋	-13142
颜色的	-13143
avía	-13144
chan	-13145
irió	-13146
izei	-13147
rige	-13148
▁pay	-13149
▁prá	-13150
▁사용한	-13151
▁생애는	-13152
▁1991	-13153
▁farm	-13154
▁impl	-13155
▁wann	-13156
▁العق	-13157
▁القب	-13158
uellen	-13159
▁2010,	-13160
▁Größe	-13161
▁censo	-13162
▁dalle	-13163
▁glaci	-13164
▁perso	-13165
▁البوم	-13166
▁قاعدة	-13167
▁Bundes	-13168
▁fuente	-13169
▁source	-13170
▁target	-13171
▁البروت	-13172
▁الهجرة	-13173
▁defensa	-13174
したのは誰ですか	-13175
ellschaft	-13176
▁previous	-13177
دو	-13178
จร	-13179
▁넘	-13180
安普	-13181
成分	-13182
時の	-13183
知识	-13184
纳赛	-13185
고려	-13186
구가	-13187
기로	-13188
يتو	-13189
▁má	-13190
▁시티	-13191
▁않은	-13192
▁초대	-13193
かれた	-13194
してい	-13195
フォル	-13196
会导致	-13197
1970	-13198
bten	-13199
iner	-13200
mana	-13201
trag	-13202
uido	-13203
จะมี	-13204
▁Mem	-13205
▁Rod	-13206
▁erk	-13207
▁nat	-13208
▁노선은	-13209
この文書	-13210
どちらか	-13211
คล้าย	-13212
▁Dest	-13213
▁Good	-13214
▁aere	-13215
▁fino	-13216
▁jugó	-13217
▁turn	-13218
▁المر	-13219
▁حركة	-13220
▁والع	-13221
asthan	-13222
schung	-13223
▁Kolon	-13224
▁delhi	-13225
▁hinzu	-13226
▁issue	-13227
▁بوسطن	-13228
▁والتي	-13229
vention	-13230
▁Afrika	-13231
▁Landes	-13232
▁christ	-13233
▁elektr	-13234
▁animals	-13235
▁ricerca	-13236
▁todavía	-13237
▁verific	-13238
▁الرومان	-13239
▁francesi	-13240
▁maggiore	-13241
▁النباتات	-13242
ของประเทศใด	-13243
▁häufigsten	-13244
▁utilizzati	-13245
.1	-13246
▁와	-13247
以降	-13248
外国	-13249
它的	-13250
我们	-13251
昆虫	-13252
演じ	-13253
美洲	-13254
能力	-13255
被害	-13256
받은	-13257
업을	-13258
텔레	-13259
호를	-13260
호의	-13261
Mad	-13262
Vor	-13263
egt	-13264
utz	-13265
طية	-13266
لاك	-13267
สวน	-13268
เกษ	-13269
▁Kü	-13270
▁WW	-13271
▁이야	-13272
▁인가	-13273
時点で	-13274
aban	-13275
enci	-13276
icto	-13277
imal	-13278
osex	-13279
▁Erw	-13280
▁Not	-13281
▁حجم	-13282
▁يدع	-13283
纳米比亚	-13284
cific	-13285
onian	-13286
▁Eins	-13287
▁Gall	-13288
▁Pass	-13289
▁envi	-13290
▁lago	-13291
▁sopr	-13292
▁تقدم	-13293
▁فريد	-13294
▁있었는가	-13295
▁Hunde	-13296
▁cover	-13297
▁decis	-13298
▁obras	-13299
▁until	-13300
▁الطرق	-13301
百分比是多少	-13302
amentos	-13303
liament	-13304
▁Martin	-13305
▁Prince	-13306
▁cultur	-13307
▁destru	-13308
▁entsch	-13309
▁pueblo	-13310
▁puerto	-13311
▁المواد	-13312
▁توفالو	-13313
pression	-13314
كنولوجيا	-13315
การเมือง	-13316
▁fondata	-13317
▁llamaba	-13318
▁militär	-13319
▁الهندسة	-13320
▁เกิดขึ้น	-13321
▁proprietà	-13322
▁الرومانية	-13323
▁Philadelph	-13324
▁desarrolló	-13325
カン	-13326
ビル	-13327
乐队	-13328
学习	-13329
本书	-13330
的主	-13331
議員	-13332
里士	-13333
鉄道	-13334
사람	-13335
선이	-13336
186	-13337
اطق	-13338
▁IV	-13339
▁ار	-13340
▁뭘까	-13341
南安普	-13342
部电影	-13343
elen	-13344
mpre	-13345
ยนต์	-13346
▁Bab	-13347
▁Hal	-13348
▁cic	-13349
▁ern	-13350
▁فون	-13351
▁아시아	-13352
アルバム	-13353
anten	-13354
ufact	-13355
เกล้า	-13356
▁Sign	-13357
▁abge	-13358
▁oggi	-13359
▁تشير	-13360
Inseln	-13361
érique	-13362
▁earth	-13363
▁fight	-13364
▁golpe	-13365
▁guard	-13366
▁immun	-13367
▁infer	-13368
▁عنوان	-13369
▁Kompon	-13370
▁deport	-13371
▁halten	-13372
▁nieder	-13373
▁oldest	-13374
▁اللعبة	-13375
▁Industr	-13376
▁dirigió	-13377
▁modello	-13378
▁related	-13379
▁Russland	-13380
▁elemento	-13381
▁involved	-13382
▁العسكرية	-13383
▁الكلاسيكية	-13384
▁information	-13385
-4	-13386
35	-13387
NE	-13388
Sc	-13389
sa	-13390
ิจ	-13391
ไต	-13392
▁ó	-13393
古典	-13394
家族	-13395
解决	-13396
야마	-13397
abt	-13398
imi	-13399
iód	-13400
الت	-13401
▁Ca	-13402
▁채널	-13403
すると	-13404
出版的	-13405
古老的	-13406
스에서	-13407
1991	-13408
iett	-13409
itte	-13410
ินส์	-13411
▁Kup	-13412
▁dav	-13413
▁max	-13414
▁méd	-13415
▁اسس	-13416
▁ผู้	-13417
はどこに	-13418
多长时间	-13419
About	-13420
liest	-13421
ohner	-13422
سيقية	-13423
▁Cost	-13424
▁Hard	-13425
▁afro	-13426
▁entw	-13427
▁fast	-13428
▁fatt	-13429
▁free	-13430
▁luce	-13431
▁تظهر	-13432
ettbew	-13433
itaria	-13434
pieler	-13435
▁Durch	-13436
▁Zweck	-13437
▁jedes	-13438
▁porta	-13439
▁terra	-13440
▁Übers	-13441
▁السري	-13442
▁الشمس	-13443
▁สร้าง	-13444
▁Sowjet	-13445
▁Städte	-13446
▁Termin	-13447
▁Austria	-13448
▁Montini	-13449
▁Problem	-13450
▁Supreme	-13451
▁gekauft	-13452
▁guidato	-13453
▁subject	-13454
▁uranium	-13455
▁version	-13456
▁الاعمال	-13457
▁نانجينج	-13458
▁designed	-13459
▁الامريكيين	-13460
▁dispositivo	-13461
ny	-13462
バル	-13463
占领	-13464
工业	-13465
应用	-13466
時に	-13467
玻璃	-13468
由于	-13469
目前	-13470
结核	-13471
里达	-13472
간의	-13473
성한	-13474
amt	-13475
ulg	-13476
بيق	-13477
حاس	-13478
ทัพ	-13479
เหร	-13480
イング	-13481
情况下	-13482
漱石が	-13483
的例子	-13484
1995	-13485
hmen	-13486
kins	-13487
ußen	-13488
جميع	-13489
รัตน	-13490
อร์ด	-13491
ื่อน	-13492
▁cro	-13493
▁jem	-13494
▁mez	-13495
▁จาก	-13496
▁당선된	-13497
▁사람이	-13498
▁시스템	-13499
▁영화의	-13500
▁종류는	-13501
ワールド	-13502
Stadt	-13503
antas	-13504
verse	-13505
▁Mann	-13506
▁bill	-13507
▁gave	-13508
▁mong	-13509
▁move	-13510
▁بناؤ	-13511
▁سوبر	-13512
amenti	-13513
▁Daten	-13514
▁Emper	-13515
▁Instr	-13516
▁Vögel	-13517
▁White	-13518
▁apoyo	-13519
▁arriv	-13520
▁lleva	-13521
▁reduz	-13522
▁river	-13523
▁space	-13524
▁valor	-13525
▁زيادة	-13526
第一次世界大	-13527
▁Buddha	-13528
▁father	-13529
▁histór	-13530
▁nación	-13531
▁periód	-13532
▁المحيط	-13533
กิโลเมตร	-13534
▁celebra	-13535
▁podrían	-13536
▁ranking	-13537
▁district	-13538
▁millones	-13539
▁Champions	-13540
▁bacterias	-13541
▁dirección	-13542
ชาวอเมริกัน	-13543
äß	-13544
▁맺	-13545
▁머	-13546
▁밀	-13547
▁핵	-13548
シー	-13549
下降	-13550
物理	-13551
Wem	-13552
فاض	-13553
▁أن	-13554
▁로마	-13555
▁발전	-13556
▁여러	-13557
▁이전	-13558
▁출판	-13559
阿拉伯	-13560
emon	-13561
icar	-13562
iron	-13563
pres	-13564
بورن	-13565
طلسي	-13566
فهوم	-13567
وائي	-13568
เด็ก	-13569
▁Bed	-13570
▁cul	-13571
▁jur	-13572
▁منت	-13573
redit	-13574
yoncé	-13575
แพทย์	-13576
▁Eton	-13577
▁Home	-13578
▁Hong	-13579
▁budd	-13580
▁care	-13581
▁east	-13582
▁jähr	-13583
▁사람들이	-13584
andelt	-13585
licher	-13586
จันทร์	-13587
▁Enter	-13588
▁heute	-13589
▁legno	-13590
▁الوحي	-13591
▁كانون	-13592
的比例是多少	-13593
geführt	-13594
เกียรติ	-13595
▁Kansas	-13596
▁Schiff	-13597
▁access	-13598
▁explor	-13599
▁strong	-13600
▁الحدود	-13601
▁มีความ	-13602
▁ferrovi	-13603
▁ocurrió	-13604
▁الاشارة	-13605
▁الصينية	-13606
▁امريكان	-13607
▁estudios	-13608
▁examples	-13609
▁stazione	-13610
กีฬาโอลิมปิกฤดู	-13611
),	-13612
มง	-13613
แอ	-13614
▁석	-13615
エジ	-13616
ズの	-13617
关注	-13618
冲突	-13619
初の	-13620
十年	-13621
問題	-13622
图书	-13623
威廉	-13624
少数	-13625
旅行	-13626
考え	-13627
거나	-13628
우의	-13629
이를	-13630
제로	-13631
Cuy	-13632
day	-13633
خفض	-13634
روس	-13635
يوخ	-13636
กล้	-13637
พูด	-13638
ศัย	-13639
เฉล	-13640
▁같은	-13641
▁곡은	-13642
▁바이	-13643
▁받아	-13644
▁선언	-13645
▁초기	-13646
▁통산	-13647
计算机	-13648
나라의	-13649
ajes	-13650
bury	-13651
gend	-13652
phen	-13653
über	-13654
واعد	-13655
▁Haw	-13656
▁Mur	-13657
▁무엇에	-13658
▁직업은	-13659
从来没有	-13660
Quand	-13661
atico	-13662
vanni	-13663
▁Down	-13664
▁Kill	-13665
▁cour	-13666
的哪一部分	-13667
gefügt	-13668
indung	-13669
▁María	-13670
▁allen	-13671
▁بورما	-13672
▁مستوى	-13673
▁Egitto	-13674
▁Partei	-13675
▁alcune	-13676
▁cardin	-13677
▁ilumin	-13678
▁instal	-13679
▁Station	-13680
▁celebró	-13681
▁elected	-13682
▁extranj	-13683
▁francés	-13684
▁mercado	-13685
▁العملية	-13686
▁agricult	-13687
▁كارولينا	-13688
▁ออกอากาศ	-13689
▁filosofía	-13690
▁finalmente	-13691
▁gearbeitet	-13692
▁utilizzata	-13693
▁มีชื่อจริง	-13694
▁traditional	-13695
خي	-13696
▁콘	-13697
める	-13698
ジン	-13699
作戦	-13700
希望	-13701
교육	-13702
비의	-13703
사에	-13704
향은	-13705
화는	-13706
187	-13707
ائق	-13708
صلة	-13709
できる	-13710
多少钱	-13711
일본의	-13712
hoto	-13713
nell	-13714
ปราก	-13715
▁MBC	-13716
▁mix	-13717
▁sem	-13718
▁ted	-13719
▁دفع	-13720
▁صوت	-13721
▁ถึง	-13722
▁졸업한	-13723
によると	-13724
anner	-13725
imaur	-13726
ónica	-13727
طولات	-13728
ประดิ	-13729
▁Hung	-13730
▁Trib	-13731
▁cual	-13732
▁torn	-13733
▁المغ	-13734
▁الوا	-13735
▁انهم	-13736
▁사람들은	-13737
ディズニー	-13738
puesta	-13739
wealth	-13740
ออสเตร	-13741
▁added	-13742
▁avant	-13743
▁cobre	-13744
▁hacia	-13745
▁lived	-13746
▁molto	-13747
▁어디입니까	-13748
▁conven	-13749
▁früher	-13750
▁portug	-13751
▁Service	-13752
▁abgesch	-13753
▁foreign	-13754
▁strateg	-13755
▁suggest	-13756
▁السنوات	-13757
▁المجتمع	-13758
▁antibiot	-13759
▁scoperto	-13760
▁alrededor	-13761
▁hyderabad	-13762
▁العثمانية	-13763
▁المعمارية	-13764
▁proporciona	-13765
▁الكاثوليكية	-13766
oo	-13767
มุ	-13768
▁떠	-13769
▁절	-13770
》?	-13771
ラク	-13772
公路	-13773
共济	-13774
場所	-13775
宣言	-13776
布告	-13777
细胞	-13778
购买	-13779
高等	-13780
개의	-13781
-10	-13782
Ste	-13783
بيض	-13784
رعة	-13785
صال	-13786
ฉัน	-13787
พย์	-13788
ลาด	-13789
▁여성	-13790
▁오브	-13791
のため	-13792
Stud	-13793
acto	-13794
edge	-13795
دمات	-13796
لسفة	-13797
هوري	-13798
يامي	-13799
▁hin	-13800
▁كما	-13801
▁배우의	-13802
を受けた	-13803
佛罗里达	-13804
되었나요	-13805
elehr	-13806
ieben	-13807
stead	-13808
وريدا	-13809
▁1994	-13810
▁abit	-13811
▁allo	-13812
▁atac	-13813
▁dado	-13814
▁feel	-13815
▁krit	-13816
▁pian	-13817
▁read	-13818
▁uses	-13819
▁الخل	-13820
▁برون	-13821
▁تحدث	-13822
▁تحمل	-13823
▁لاعب	-13824
▁وجود	-13825
icanos	-13826
iction	-13827
ionato	-13828
▁Volks	-13829
▁aérea	-13830
▁corpo	-13831
▁hogar	-13832
▁oppos	-13833
▁proto	-13834
▁white	-13835
▁الحكم	-13836
▁السبب	-13837
▁كوريا	-13838
▁corpor	-13839
▁eléctr	-13840
▁gehabt	-13841
▁risult	-13842
▁الشيوخ	-13843
ものは何ですか	-13844
▁Records	-13845
▁appoint	-13846
▁geograf	-13847
▁könnten	-13848
▁السيطرة	-13849
▁Struktur	-13850
▁kontroll	-13851
▁untersch	-13852
▁Bakterien	-13853
▁tecnología	-13854
ดํารงตําแหน่ง	-13855
▁bemerkenswer	-13856
▁construction	-13857
保罗	-13858
宮崎	-13859
开放	-13860
構成	-13861
治疗	-13862
皮尔	-13863
記念	-13864
내는	-13865
당한	-13866
And	-13867
orf	-13868
تقد	-13869
غام	-13870
غيل	-13871
พวก	-13872
▁DC	-13873
▁حل	-13874
▁나왔	-13875
▁따르	-13876
▁모습	-13877
▁시설	-13878
を獲得	-13879
普利茅	-13880
英格兰	-13881
Team	-13882
aper	-13883
schl	-13884
teri	-13885
▁Reb	-13886
▁Tro	-13887
▁fün	-13888
▁pir	-13889
▁كون	-13890
▁ليس	-13891
はいくら	-13892
istán	-13893
richt	-13894
▁Tier	-13895
▁bein	-13896
▁casi	-13897
▁clás	-13898
▁pubs	-13899
กฎหมาย	-13900
การบิน	-13901
วันที่	-13902
▁Broad	-13903
▁année	-13904
▁extin	-13905
▁merid	-13906
▁unico	-13907
▁verde	-13908
▁ايران	-13909
▁حكومة	-13910
▁علاقة	-13911
ถ่ายทํา	-13912
▁Inform	-13913
▁alemán	-13914
▁copper	-13915
▁اكتشاف	-13916
▁bombard	-13917
▁concorr	-13918
▁التغيير	-13919
เหตุการณ์	-13920
▁economic	-13921
▁konzentr	-13922
▁presente	-13923
▁calendario	-13924
▁parlamento	-13925
▁มีชื่อเล่น	-13926
▁hinzugefügt	-13927
-6	-13928
SS	-13929
مد	-13930
▁찾	-13931
で何	-13932
事故	-13933
发行	-13934
杂志	-13935
者の	-13936
软件	-13937
하이	-13938
행한	-13939
300	-13940
FPA	-13941
auf	-13942
ery	-13943
نال	-13944
นิก	-13945
บัญ	-13946
รี่	-13947
▁حر	-13948
▁그의	-13949
▁우리	-13950
▁주변	-13951
▁하루	-13952
在英国	-13953
大西洋	-13954
所大学	-13955
otor	-13956
ulas	-13957
ี่ยม	-13958
▁Ibn	-13959
▁Kop	-13960
▁alf	-13961
▁kam	-13962
▁كيف	-13963
▁متح	-13964
▁방송된	-13965
▁작품의	-13966
であるか	-13967
エジプト	-13968
南安普敦	-13969
iados	-13970
ienza	-13971
romos	-13972
uales	-13973
ํารวจ	-13974
▁conj	-13975
▁love	-13976
▁mese	-13977
▁supp	-13978
▁يملك	-13979
のタイトル	-13980
รัชกาล	-13981
▁Arena	-13982
▁Monat	-13983
▁grant	-13984
▁kerry	-13985
▁según	-13986
endenza	-13987
▁Spiele	-13988
▁ataque	-13989
▁famosa	-13990
▁offici	-13991
▁police	-13992
ivamente	-13993
▁Angriff	-13994
▁Neptune	-13995
▁الدولية	-13996
▁insectos	-13997
▁السياسية	-13998
▁getroffen	-13999
CR	-14000
IP	-14001
ดม	-14002
อั	-14003
▁녹	-14004
世は	-14005
反应	-14006
声称	-14007
宣戦	-14008
尼日	-14009
年と	-14010
挙げ	-14011
方向	-14012
日期	-14013
汽车	-14014
犯罪	-14015
統治	-14016
関係	-14017
되기	-14018
력이	-14019
르크	-14020
명이	-14021
희가	-14022
Bew	-14023
gos	-14024
ped	-14025
راص	-14026
ويت	-14027
ขนม	-14028
ข้อ	-14029
เคล	-14030
เอล	-14031
แรง	-14032
▁정의	-14033
▁촬영	-14034
出生的	-14035
年以前	-14036
结束的	-14037
者は誰	-14038
비디오	-14039
asta	-14040
olas	-14041
rief	-14042
utes	-14043
راءة	-14044
ช่วย	-14045
▁شيء	-14046
▁발매된	-14047
宣戦布告	-14048
하였을까	-14049
▁Dire	-14050
▁Year	-14051
▁brev	-14052
▁loss	-14053
▁rech	-14054
▁rete	-14055
▁État	-14056
フォルニア	-14057
forder	-14058
ลําดับ	-14059
▁2008,	-14060
▁green	-14061
▁store	-14062
▁teams	-14063
▁المحت	-14064
▁تعيين	-14065
▁어떤것들이	-14066
▁Design	-14067
▁cinese	-14068
▁decade	-14069
▁eingef	-14070
▁humans	-14071
▁quello	-14072
▁siendo	-14073
▁داروين	-14074
▁Prussia	-14075
▁الالعاب	-14076
▁التحقيق	-14077
สงครามโลก	-14078
▁Computer	-14079
▁Division	-14080
▁permitió	-14081
เป็นทางการ	-14082
▁Vergleich	-14083
▁satellite	-14084
▁شوارزنيجر	-14085
ก่อตั้งขึ้น	-14086
มากที่สุดใน	-14087
▁información	-14088
▁independencia	-14089
DA	-14090
gu	-14091
رد	-14092
▁앞	-14093
▁헤	-14094
さん	-14095
克的	-14096
合并	-14097
委員	-14098
指定	-14099
权利	-14100
火山	-14101
荷马	-14102
동을	-14103
전이	-14104
rav	-14105
tes	-14106
ตระ	-14107
ลีก	-14108
เศษ	-14109
่ํา	-14110
▁مز	-14111
▁สิ	-14112
▁결정	-14113
▁모든	-14114
▁보고	-14115
▁피해	-14116
ことを	-14117
発電所	-14118
系统的	-14119
crit	-14120
gere	-14121
iest	-14122
igli	-14123
ises	-14124
lers	-14125
ning	-14126
ules	-14127
نائس	-14128
ปลาก	-14129
เอ็น	-14130
▁She	-14131
▁gal	-14132
▁جلب	-14133
▁غزو	-14134
▁했는가	-14135
是从哪里	-14136
quart	-14137
อาศัย	-14138
▁Ausw	-14139
▁Bond	-14140
▁Liga	-14141
▁Link	-14142
▁Slav	-14143
▁iran	-14144
▁join	-14145
▁lado	-14146
▁left	-14147
▁اقدم	-14148
▁운행하는	-14149
什么时候被	-14150
▁Corte	-14151
▁Sound	-14152
▁Video	-14153
▁deber	-14154
▁espec	-14155
▁forza	-14156
▁isole	-14157
▁olímp	-14158
▁parts	-14159
▁segur	-14160
▁übern	-14161
▁اسلوب	-14162
▁Grande	-14163
▁conect	-14164
▁expans	-14165
▁patent	-14166
▁quería	-14167
▁Airport	-14168
▁Krieges	-14169
▁bambini	-14170
▁diritti	-14171
▁المالية	-14172
▁الوحيدة	-14173
▁Anführer	-14174
▁Einfluss	-14175
▁Veränder	-14176
▁institut	-14177
▁première	-14178
▁ريتشموند	-14179
したのはいつですか	-14180
▁الاتحادية	-14181
öffentlichung	-14182
tv	-14183
بط	-14184
وص	-14185
กู	-14186
ภิ	-14187
▁찍	-14188
オブ	-14189
ブリ	-14190
ヘル	-14191
取り	-14192
国際	-14193
大陸	-14194
建议	-14195
組織	-14196
考虑	-14197
英里	-14198
避免	-14199
동의	-14200
문을	-14201
물의	-14202
소가	-14203
apa	-14204
hof	-14205
jar	-14206
ائر	-14207
زاء	-14208
يدر	-14209
ซิล	-14210
ลิง	-14211
▁Du	-14212
▁개념	-14213
▁살았	-14214
▁수도	-14215
▁작곡	-14216
▁지하	-14217
▁프랑	-14218
1992	-14219
inal	-14220
osop	-14221
สูติ	-14222
เอ็ม	-14223
้นํา	-14224
▁fib	-14225
▁도시는	-14226
是在哪里	-14227
▁Book	-14228
▁Frau	-14229
▁drug	-14230
▁تشكل	-14231
▁حالة	-14232
atorio	-14233
ensive	-14234
ournal	-14235
▁Spitz	-14236
▁dagli	-14237
▁linea	-14238
▁purch	-14239
▁santa	-14240
▁share	-14241
▁tanto	-14242
▁zonas	-14243
▁اغنية	-14244
とは何ですか	-14245
▁define	-14246
▁discip	-14247
▁beliebt	-14248
▁ciencia	-14249
▁Nationen	-14250
▁chiamata	-14251
▁universal	-14252
▁revolución	-14253
▁Presbyterian	-14254
ตล	-14255
ジュ	-14256
ハー	-14257
世的	-14258
伯格	-14259
地亚	-14260
山脉	-14261
普查	-14262
用户	-14263
破坏	-14264
대로	-14265
보를	-14266
부산	-14267
즈가	-14268
Ges	-14269
ité	-14270
jas	-14271
oca	-14272
val	-14273
ريب	-14274
ภัย	-14275
▁Ak	-14276
▁Ep	-14277
▁نج	-14278
▁건설	-14279
▁대신	-14280
▁부산	-14281
ノミネ	-14282
프랑스	-14283
1984	-14284
1999	-14285
alin	-14286
eilt	-14287
isse	-14288
▁Eff	-14289
▁ble	-14290
▁ign	-14291
▁tal	-14292
▁vid	-14293
▁قرن	-14294
▁활동을	-14295
▁2021	-14296
▁chem	-14297
▁weiß	-14298
▁الشع	-14299
▁فران	-14300
▁ماري	-14301
ノミネート	-14302
フランスの	-14303
endant	-14304
▁Samoa	-14305
▁aprob	-14306
▁terzo	-14307
▁الغذا	-14308
▁منظمة	-14309
オーストリア	-14310
▁Govern	-14311
▁artist	-14312
▁things	-14313
▁anthrop	-14314
▁älteste	-14315
▁الاطلسي	-14316
▁الروسية	-14317
▁earliest	-14318
▁ejemplos	-14319
▁elezioni	-14320
▁iniziata	-14321
▁montagne	-14322
▁comercial	-14323
▁definiert	-14324
▁identific	-14325
▁militares	-14326
▁السوفييتية	-14327
bc	-14328
قب	-14329
وض	-14330
出了	-14331
土著	-14332
模型	-14333
狩猎	-14334
男性	-14335
設置	-14336
계를	-14337
년은	-14338
문화	-14339
사이	-14340
정의	-14341
종은	-14342
트남	-14343
One	-14344
imp	-14345
rew	-14346
íes	-14347
ادر	-14348
فول	-14349
ليب	-14350
هاء	-14351
▁XV	-14352
▁ec	-14353
▁불리	-14354
大教堂	-14355
로부터	-14356
자들이	-14357
1994	-14358
Nomb	-14359
merz	-14360
▁175	-14361
▁Sat	-14362
▁Tai	-14363
▁lik	-14364
▁put	-14365
▁للش	-14366
▁어디서	-14367
▁인원은	-14368
オスマン	-14369
点是什么	-14370
oline	-14371
porta	-14372
racht	-14373
วิหาร	-14374
▁1984	-14375
▁Prin	-14376
▁deve	-14377
▁hoch	-14378
▁ipod	-14379
▁sont	-14380
▁verg	-14381
▁للمس	-14382
Aparte	-14383
tember	-14384
สังกัด	-14385
▁1980?	-14386
▁Jones	-14387
▁livre	-14388
▁tutto	-14389
▁حديقة	-14390
▁living	-14391
▁specif	-14392
▁ultima	-14393
▁Emperor	-14394
▁Michael	-14395
▁Verteid	-14396
▁Wassers	-14397
▁cerveza	-14398
▁install	-14399
▁relativ	-14400
▁versión	-14401
▁الدينية	-14402
▁الرسمية	-14403
พระราชวัง	-14404
▁territory	-14405
▁convertido	-14406
▁öffentlichen	-14407
▁Premierminister	-14408
▁맨	-14409
▁울	-14410
ヒト	-14411
大量	-14412
物語	-14413
直接	-14414
谁不	-14415
速度	-14416
阶段	-14417
현이	-14418
Mod	-14419
Sta	-14420
สาท	-14421
เมน	-14422
▁Wo	-14423
▁اف	-14424
▁자유	-14425
▁중심	-14426
▁프리	-14427
アジア	-14428
カール	-14429
anad	-14430
cido	-14431
eggi	-14432
here	-14433
hirn	-14434
ilen	-14435
thur	-14436
uble	-14437
öder	-14438
صدار	-14439
فساء	-14440
ناصر	-14441
▁Apr	-14442
▁Dok	-14443
▁Erf	-14444
▁Sam	-14445
▁데뷔한	-14446
▁선수가	-14447
▁첫번째	-14448
什么不是	-14449
是在什么	-14450
ambre	-14451
andon	-14452
entum	-14453
ester	-14454
ivere	-14455
teilt	-14456
มีกี่	-14457
เดอร์	-14458
▁impa	-14459
▁orth	-14460
▁stim	-14461
▁등장하는	-14462
ものですか	-14463
▁advan	-14464
▁decre	-14465
▁empie	-14466
▁films	-14467
▁studi	-14468
▁übers	-14469
ニューヨーク	-14470
เจ้าของ	-14471
เลย์บอล	-14472
▁Brasil	-14473
▁genere	-14474
▁member	-14475
▁mother	-14476
▁국가대표팀의	-14477
▁Catalan	-14478
▁denomin	-14479
▁require	-14480
▁romanos	-14481
▁sarebbe	-14482
▁الممتاز	-14483
▁Mondiale	-14484
▁cantante	-14485
▁ซึ่งเป็น	-14486
▁capacidad	-14487
▁orientale	-14488
▁controvers	-14489
▁iluminación	-14490
▁internazionale	-14491
รุ	-14492
โฮ	-14493
▁칭	-14494
けた	-14495
ソン	-14496
マル	-14497
协会	-14498
耶稣	-14499
节目	-14500
附近	-14501
지만	-14502
gor	-14503
teg	-14504
ลาว	-14505
อล์	-14506
เอส	-14507
▁Di	-14508
▁fá	-14509
▁تغ	-14510
とする	-14511
的研究	-14512
ardo	-14513
iang	-14514
utto	-14515
اراة	-14516
جلات	-14517
قيقة	-14518
كلفة	-14519
لبية	-14520
▁CBC	-14521
▁Wal	-14522
▁abg	-14523
▁افت	-14524
▁الظ	-14525
▁قوة	-14526
▁사건의	-14527
ورنيا	-14528
เทือก	-14529
▁Hind	-14530
▁capo	-14531
▁نقطة	-14532
▁يحمل	-14533
▁يلعب	-14534
▁기준으로	-14535
▁리그에서	-14536
hungen	-14537
ientes	-14538
เอเชีย	-14539
▁Licht	-14540
▁ampli	-14541
▁giapp	-14542
▁leyes	-14543
▁marzo	-14544
▁retir	-14545
▁sorti	-14546
▁tarde	-14547
▁اعمال	-14548
▁البدا	-14549
▁النظر	-14550
▁تشارك	-14551
▁تعداد	-14552
▁غرامي	-14553
▁프로그램은	-14554
▁Campus	-14555
▁Kommun	-14556
▁arrest	-14557
▁cattol	-14558
▁cittad	-14559
▁nuevos	-14560
▁مقارنة	-14561
▁يعيشون	-14562
erschaft	-14563
▁Konzept	-14564
▁attività	-14565
▁البرازيل	-14566
▁agreement	-14567
▁religiosa	-14568
▁beschreiben	-14569
Ad	-14570
My	-14571
نك	-14572
▁먼	-14573
参与	-14574
坎耶	-14575
来源	-14576
理解	-14577
用途	-14578
白人	-14579
相关	-14580
确定	-14581
麦当	-14582
국가	-14583
름은	-14584
진의	-14585
학의	-14586
jes	-14587
mes	-14588
ادل	-14589
جون	-14590
กูล	-14591
เลน	-14592
▁CE	-14593
▁CO	-14594
▁مم	-14595
▁속한	-14596
▁일어	-14597
▁조약	-14598
卡斯特	-14599
在一起	-14600
建立了	-14601
1997	-14602
hang	-14603
iniz	-14604
رجمة	-14605
▁jüd	-14606
▁nac	-14607
▁vir	-14608
▁러시아	-14609
▁미국의	-14610
▁최초의	-14611
哪个地区	-14612
尼日利亚	-14613
프로그램	-14614
biter	-14615
ibili	-14616
▁Fest	-14617
▁rigu	-14618
▁فرقة	-14619
autama	-14620
egriff	-14621
▁hayek	-14622
▁salud	-14623
▁spagn	-14624
▁value	-14625
▁الدرا	-14626
▁القطب	-14627
▁تسجيل	-14628
▁تقديم	-14629
Während	-14630
zählung	-14631
▁Kupfer	-14632
▁creado	-14633
▁espect	-14634
▁popper	-14635
▁ارسنال	-14636
▁بروسيا	-14637
ähigkeit	-14638
▁Central	-14639
▁japones	-14640
▁suprema	-14641
▁zweiten	-14642
▁العالمي	-14643
▁المعروف	-14644
▁فلوريدا	-14645
▁Giovanni	-14646
▁Richtung	-14647
▁modernen	-14648
▁الأمريكي	-14649
▁September	-14650
▁community	-14651
▁representa	-14652
▁utilizados	-14653
▁Philadelphia	-14654
Of	-14655
TC	-14656
شة	-14657
ทา	-14658
に何	-14659
の何	-14660
专利	-14661
事業	-14662
办公	-14663
子の	-14664
小説	-14665
建築	-14666
情感	-14667
是在	-14668
有时	-14669
현대	-14670
aux	-14671
ayy	-14672
bey	-14673
tol	-14674
صائ	-14675
ขวั	-14676
ขาย	-14677
ริก	-14678
▁성공	-14679
▁이상	-14680
には何	-14681
ション	-14682
amas	-14683
essi	-14684
ربعة	-14685
ขวัญ	-14686
▁KBS	-14687
▁adm	-14688
▁mög	-14689
▁pér	-14690
▁sow	-14691
▁tip	-14692
▁دون	-14693
▁ذكر	-14694
▁للع	-14695
のどちら	-14696
onstr	-14697
▁jefe	-14698
▁nept	-14699
▁استع	-14700
▁ايرل	-14701
▁يطلق	-14702
▁전투에서	-14703
سيفساء	-14704
ใครชนะ	-14705
▁Natur	-14706
▁actor	-14707
▁natür	-14708
▁remov	-14709
▁sever	-14710
▁árbol	-14711
▁الفائ	-14712
▁طريقة	-14713
▁علماء	-14714
▁يونيو	-14715
gesetzt	-14716
▁Common	-14717
▁Golden	-14718
▁Jahrze	-14719
▁accept	-14720
▁además	-14721
▁branch	-14722
▁cotton	-14723
▁signed	-14724
▁الغربي	-14725
▁Ireland	-14726
▁Jackson	-14727
▁categor	-14728
▁madaris	-14729
▁trovato	-14730
▁الصغيرة	-14731
▁ميلبورن	-14732
اليفورنيا	-14733
เลือกตั้ง	-14734
▁Freimaur	-14735
▁Untersch	-14736
▁Beispiele	-14737
หม่อมราชวงศ์	-14738
▁europäischen	-14739
▁französische	-14740
▁universities	-14741
Tr	-14742
cr	-14743
جن	-14744
لت	-14745
ืด	-14746
ギリ	-14747
ゼル	-14748
ワー	-14749
亚洲	-14750
依赖	-14751
多い	-14752
大约	-14753
年龄	-14754
集团	-14755
바이	-14756
시간	-14757
식의	-14758
적이	-14759
adi	-14760
agd	-14761
pes	-14762
برى	-14763
طلب	-14764
มส์	-14765
มิส	-14766
▁เจ	-14767
▁몇번	-14768
发布的	-14769
圣母院	-14770
年以来	-14771
的国家	-14772
誰なの	-14773
麦当娜	-14774
aggi	-14775
ittà	-14776
izza	-14777
uten	-14778
ร้อย	-14779
เก่า	-14780
เนิน	-14781
▁Erd	-14782
▁Kub	-14783
▁NBA	-14784
▁Rob	-14785
▁Squ	-14786
▁cho	-14787
▁ibn	-14788
▁قسم	-14789
▁محا	-14790
▁라디오	-14791
▁성우는	-14792
认为什么	-14793
idenz	-14794
ultan	-14795
กระทร	-14796
พระยา	-14797
ภัณฑ์	-14798
▁away	-14799
▁deal	-14800
▁hält	-14801
▁past	-14802
▁secu	-14803
▁side	-14804
▁upon	-14805
▁الحض	-14806
▁النم	-14807
▁ظهرت	-14808
▁فالن	-14809
▁يسبب	-14810
▁에피소드	-14811
ให้กับ	-14812
▁2009,	-14813
▁Franz	-14814
▁anlat	-14815
▁deriv	-14816
▁führt	-14817
▁llamó	-14818
▁stamp	-14819
したのはいつ	-14820
ministr	-14821
▁diplom	-14822
▁expect	-14823
▁motore	-14824
▁vicino	-14825
▁الحصول	-14826
カリフォルニア	-14827
Dynastie	-14828
istische	-14829
tainment	-14830
▁Polizei	-14831
▁cambios	-14832
▁monarch	-14833
▁publish	-14834
▁الهوائي	-14835
▁فالنسيا	-14836
พระองค์ใด	-14837
▁anterior	-14838
▁mientras	-14839
▁pubblico	-14840
▁regional	-14841
▁versione	-14842
▁الطائرات	-14843
ภาษาอังกฤษ	-14844
▁comunidad	-14845
▁PlayStation	-14846
▁significant	-14847
▁tradicional	-14848
ยว	-14849
子的	-14850
容易	-14851
数が	-14852
海岸	-14853
评论	-14854
说法	-14855
Gen	-14856
Gre	-14857
oln	-14858
pez	-14859
ارب	-14860
افر	-14861
ضوع	-14862
พาก	-14863
สอน	-14864
ียญ	-14865
แอฟ	-14866
▁mp	-14867
▁구분	-14868
▁방문	-14869
▁사랑	-14870
▁지금	-14871
▁투표	-14872
图书馆	-14873
纳赛尔	-14874
횟수는	-14875
1950	-14876
assi	-14877
icom	-14878
ikal	-14879
ları	-14880
unge	-14881
ويات	-14882
จิตร	-14883
▁Cub	-14884
▁Les	-14885
▁org	-14886
▁سبب	-14887
▁시작된	-14888
▁어머니	-14889
メンバー	-14890
発生した	-14891
ayana	-14892
elebt	-14893
ífico	-14894
▁1000	-14895
▁Erde	-14896
▁Fire	-14897
▁Sina	-14898
▁astr	-14899
▁fase	-14900
▁fire	-14901
▁half	-14902
▁look	-14903
▁الاث	-14904
iética	-14905
ศิลปิน	-14906
▁nennt	-14907
▁الترك	-14908
▁تقسيم	-14909
はいつですか	-14910
จัดตั้ง	-14911
▁Associ	-14912
▁fiesta	-14913
▁health	-14914
▁medios	-14915
▁ultimo	-14916
▁الكبرى	-14917
▁المزيد	-14918
▁امريكي	-14919
▁animali	-14920
▁condado	-14921
▁mission	-14922
▁mosaico	-14923
▁pública	-14924
▁alemanes	-14925
ificazione	-14926
▁Americans	-14927
▁Consiglio	-14928
▁regarding	-14929
▁structure	-14930
▁sostituito	-14931
▁wirtschaft	-14932
▁griechischen	-14933
ผู	-14934
็อ	-14935
▁엘	-14936
を指	-14937
到达	-14938
来说	-14939
西藏	-14940
议院	-14941
輸送	-14942
부를	-14943
ihe	-14944
ارس	-14945
قال	-14946
ตัด	-14947
ือด	-14948
▁nu	-14949
▁역의	-14950
に位置	-14951
科学家	-14952
스트는	-14953
졌을까	-14954
컵에서	-14955
eget	-14956
iers	-14957
ئوية	-14958
وقات	-14959
ฝั่ง	-14960
▁Int	-14961
▁Lan	-14962
▁Zel	-14963
▁cél	-14964
▁ero	-14965
▁lit	-14966
▁وسط	-14967
assin	-14968
retto	-14969
ฟิลิป	-14970
อวกาศ	-14971
เลอร์	-14972
▁beer	-14973
entrum	-14974
▁Linie	-14975
▁Vater	-14976
▁creen	-14977
▁donne	-14978
▁entst	-14979
▁inner	-14980
▁zerst	-14981
▁البوذ	-14982
▁السلة	-14983
▁ثلاثة	-14984
▁شخصية	-14985
▁ميامي	-14986
▁erfolg	-14987
▁obiett	-14988
formance	-14989
istencia	-14990
▁Politik	-14991
▁termini	-14992
▁استونيا	-14993
▁aufgrund	-14994
▁politico	-14995
▁organismo	-14996
▁entstanden	-14997
▁relaciones	-14998
▁Philosophie	-14999
▁griechische	-15000
▁Constitución	-15001
อุทยานแห่งชาติ	-15002
▁schwarzenegger	-15003
CC	-15004
SA	-15005
xi	-15006
ظي	-15007
หอ	-15008
を結	-15009
业的	-15010
是否	-15011
火炬	-15012
表明	-15013
见证	-15014
过去	-15015
食物	-15016
스코	-15017
전쟁	-15018
راث	-15019
سام	-15020
▁Ol	-15021
▁Sü	-15022
▁ll	-15023
▁pá	-15024
▁기본	-15025
▁레이	-15026
▁상태	-15027
▁직책	-15028
▁출생	-15029
の名称	-15030
は何か	-15031
역에서	-15032
earl	-15033
gram	-15034
ulos	-15035
هلية	-15036
ฉายา	-15037
น้อย	-15038
เบิล	-15039
▁181	-15040
▁Big	-15041
▁Cas	-15042
▁cód	-15043
▁hot	-15044
▁jun	-15045
▁reb	-15046
▁sla	-15047
▁syn	-15048
▁إلى	-15049
▁حزب	-15050
▁دين	-15051
▁وما	-15052
▁يهو	-15053
▁따르면	-15054
▁배역의	-15055
▁새로운	-15056
▁출마한	-15057
iance	-15058
porto	-15059
ziale	-15060
هرجان	-15061
ที่จะ	-15062
เทอร์	-15063
▁Auss	-15064
▁Inde	-15065
▁Trad	-15066
▁guer	-15067
▁tech	-15068
▁النف	-15069
▁تطور	-15070
▁خدمة	-15071
▁예선에서	-15072
▁April	-15073
▁Laser	-15074
▁giorn	-15075
▁monta	-15076
▁newsp	-15077
▁schia	-15078
▁while	-15079
▁البيت	-15080
▁اللون	-15081
▁المئة	-15082
▁nutzen	-15083
▁passed	-15084
▁planta	-15085
▁sector	-15086
ierungen	-15087
ชื่ออะไร	-15088
▁Witness	-15089
▁account	-15090
▁civiliz	-15091
▁comcast	-15092
▁concurs	-15093
▁enthält	-15094
▁firmato	-15095
▁neptuno	-15096
▁soprann	-15097
▁uccelli	-15098
▁التنفيذ	-15099
▁amminist	-15100
▁deuxième	-15101
▁esclavos	-15102
▁manufact	-15103
▁الديمقرا	-15104
▁الموافقة	-15105
▁Macintosh	-15106
▁superiore	-15107
CO	-15108
ضي	-15109
قى	-15110
▁쿠	-15111
▁향	-15112
が高	-15113
ッチ	-15114
テン	-15115
交易	-15116
初代	-15117
大型	-15118
它们	-15119
对于	-15120
巴西	-15121
收购	-15122
棉花	-15123
结合	-15124
評価	-15125
谁被	-15126
항공	-15127
alo	-15128
his	-15129
الد	-15130
▁sn	-15131
▁서비	-15132
俄克拉	-15133
形成的	-15134
1960	-15135
Sind	-15136
ieve	-15137
kord	-15138
raum	-15139
ايير	-15140
สั้น	-15141
สาขา	-15142
▁177	-15143
▁Muh	-15144
▁Wil	-15145
▁job	-15146
▁sar	-15147
▁sic	-15148
▁كول	-15149
哪个组织	-15150
多大比例	-15151
Krieg	-15152
untry	-15153
วิลด์	-15154
เบียน	-15155
▁done	-15156
▁goal	-15157
▁lost	-15158
▁send	-15159
▁اباد	-15160
▁العب	-15161
▁توقف	-15162
▁جديد	-15163
▁جيمس	-15164
▁كثير	-15165
alermo	-15166
cieron	-15167
iedene	-15168
ührung	-15169
จํากัด	-15170
ล่าสุด	-15171
▁abbre	-15172
▁crear	-15173
▁libre	-15174
▁sumer	-15175
▁اتفاق	-15176
▁년도입니까	-15177
▁월드컵에서	-15178
▁Awards	-15179
▁Neptun	-15180
▁rechaz	-15181
▁climate	-15182
▁diverse	-15183
▁diversi	-15184
▁elegido	-15185
▁giocato	-15186
▁längste	-15187
▁reconoc	-15188
▁spielen	-15189
▁student	-15190
▁venduto	-15191
อาชีพอะไร	-15192
▁citizens	-15193
▁definito	-15194
▁nickname	-15195
▁olandese	-15196
▁progetto	-15197
▁quantità	-15198
ximadamente	-15199
ตั้งอยู่ที่	-15200
▁Universitäten	-15201
Dr	-15202
cm	-15203
ím	-15204
خط	-15205
▁긴	-15206
に分	-15207
分析	-15208
勝利	-15209
摧毁	-15210
释放	-15211
长老	-15212
격은	-15213
드리	-15214
들과	-15215
레스	-15216
비전	-15217
사회	-15218
신이	-15219
트로	-15220
Car	-15221
يغو	-15222
งาม	-15223
ลาม	-15224
สิง	-15225
สุข	-15226
เศร	-15227
▁8?	-15228
▁tw	-15229
▁경찰	-15230
▁말한	-15231
▁특별	-15232
对什么	-15233
是一个	-15234
ชั่น	-15235
เพชร	-15236
▁Der	-15237
▁Kle	-15238
▁Weg	-15239
▁مما	-15240
▁ทํา	-15241
▁발견된	-15242
▁있다고	-15243
▁후보의	-15244
arily	-15245
ateur	-15246
chter	-15247
iende	-15248
เจอร์	-15249
▁1988	-15250
▁1995	-15251
▁Idee	-15252
▁Long	-15253
▁Prim	-15254
▁coll	-15255
▁nave	-15256
▁الهي	-15257
▁تيتو	-15258
▁행정구역	-15259
ograph	-15260
▁Congo	-15261
▁Serie	-15262
▁apodo	-15263
▁lista	-15264
▁names	-15265
▁repro	-15266
▁señal	-15267
▁todas	-15268
▁الصيد	-15269
▁يحتوي	-15270
cellona	-15271
minster	-15272
▁Jewish	-15273
▁Schaus	-15274
▁formas	-15275
▁parque	-15276
▁policy	-15277
▁scritt	-15278
▁symbol	-15279
ironment	-15280
▁finanzi	-15281
เชียงใหม่	-15282
▁Canadian	-15283
▁testigos	-15284
▁utilizza	-15285
▁Charakter	-15286
▁direction	-15287
▁entworfen	-15288
▁increased	-15289
▁personaje	-15290
▁estaciones	-15291
▁comunicación	-15292
No	-15293
بح	-15294
جي	-15295
▁ว	-15296
しい	-15297
包含	-15298
命名	-15299
媒体	-15300
森娜	-15301
武器	-15302
气候	-15303
的电	-15304
石油	-15305
結果	-15306
闻名	-15307
대구	-15308
자와	-15309
작은	-15310
트를	-15311
호선	-15312
uum	-15313
ych	-15314
راة	-15315
رفي	-15316
ريم	-15317
قاء	-15318
مين	-15319
ورك	-15320
ญญา	-15321
สุน	-15322
▁Ev	-15323
▁وك	-15324
▁시내	-15325
发行的	-15326
调查局	-15327
cios	-15328
ktis	-15329
ließ	-15330
ours	-15331
املة	-15332
ทุ่ง	-15333
▁19?	-15334
▁err	-15335
▁مان	-15336
▁년도의	-15337
▁앨범은	-15338
人口普查	-15339
umbia	-15340
äuser	-15341
▁Sied	-15342
▁Uran	-15343
▁dejó	-15344
▁nörd	-15345
▁once	-15346
▁الرغ	-15347
▁حقوق	-15348
▁ويند	-15349
▁대학교는	-15350
什么时候在	-15351
อะไรใน	-15352
▁Besch	-15353
▁Chief	-15354
▁Latin	-15355
▁Quran	-15356
▁campe	-15357
▁fanno	-15358
▁indem	-15359
▁leave	-15360
▁refle	-15361
▁ادارة	-15362
▁애니메이션	-15363
っていますか	-15364
ception	-15365
istenza	-15366
▁global	-15367
▁hombre	-15368
▁truppe	-15369
▁würden	-15370
imientos	-15371
เทือกเขา	-15372
▁Digimon	-15373
▁Einsatz	-15374
▁coinvol	-15375
▁الشركات	-15376
▁الميلاد	-15377
▁crescita	-15378
▁encontró	-15379
▁geograph	-15380
▁Président	-15381
▁describir	-15382
▁productos	-15383
▁introdotto	-15384
▁technology	-15385
▁übernommen	-15386
ของประเทศอะไร	-15387
อย่างเป็นทางการ	-15388
3,	-15389
6,	-15390
حن	-15391
طح	-15392
ガー	-15393
マネ	-15394
一样	-15395
冠军	-15396
卡扎	-15397
水平	-15398
決定	-15399
演奏	-15400
米尼	-15401
继续	-15402
者は	-15403
英超	-15404
这一	-15405
무를	-15406
비가	-15407
임을	-15408
자인	-15409
تال	-15410
วาด	-15411
▁cd	-15412
▁제품	-15413
スタン	-15414
ッシュ	-15415
的平均	-15416
组成的	-15417
赢得了	-15418
년도에	-15419
미국의	-15420
coli	-15421
lies	-15422
มาร์	-15423
▁Deb	-15424
▁Job	-15425
▁دائ	-15426
▁경기를	-15427
▁원인은	-15428
ances	-15429
onica	-15430
แบบใด	-15431
▁Isra	-15432
▁alco	-15433
▁dura	-15434
▁foss	-15435
▁spos	-15436
▁weib	-15437
▁اطلق	-15438
▁النص	-15439
▁بوتر	-15440
奥斯曼帝国	-15441
▁2016?	-15442
▁arena	-15443
▁digit	-15444
▁lower	-15445
▁those	-15446
▁دييغو	-15447
agement	-15448
▁Mutter	-15449
▁Rennen	-15450
▁derrot	-15451
▁griega	-15452
▁griego	-15453
▁manera	-15454
▁muchas	-15455
▁verbre	-15456
▁الكائن	-15457
▁besiegt	-15458
▁consent	-15459
▁destroy	-15460
▁insieme	-15461
▁kingdom	-15462
▁partire	-15463
▁studies	-15464
▁الدستور	-15465
ようになったのは	-15466
▁compared	-15467
ต้นกําเนิด	-15468
▁franceses	-15469
▁generally	-15470
▁quartiere	-15471
▁ubicación	-15472
▁Barcellona	-15473
▁gobernador	-15474
▁entschieden	-15475
▁normalmente	-15476
▁Unterstützung	-15477
Co	-15478
km	-15479
▁넣	-15480
▁팔	-15481
人が	-15482
兄弟	-15483
分裂	-15484
创建	-15485
命令	-15486
和华	-15487
商店	-15488
普通	-15489
条件	-15490
량이	-15491
메달	-15492
민이	-15493
사건	-15494
소를	-15495
왕의	-15496
음악	-15497
평균	-15498
Ger	-15499
boy	-15500
hai	-15501
rän	-15502
umm	-15503
urb	-15504
ซิง	-15505
สาบ	-15506
▁ox	-15507
▁رس	-15508
▁เล	-15509
▁관할	-15510
▁제일	-15511
リスト	-15512
특별시	-15513
Does	-15514
tage	-15515
änge	-15516
سابق	-15517
ท่าน	-15518
ปลาย	-15519
แบ่ง	-15520
▁Don	-15521
▁Imp	-15522
▁نيج	-15523
阿维森娜	-15524
esser	-15525
เบิร์	-15526
▁full	-15527
▁tito	-15528
▁الحد	-15529
▁حيدر	-15530
▁فازت	-15531
incoln	-15532
ington	-15533
lywood	-15534
okkien	-15535
กําลัง	-15536
▁diego	-15537
▁speed	-15538
▁suele	-15539
▁نموذج	-15540
▁Inseln	-15541
▁Modell	-15542
▁extend	-15543
▁اختراع	-15544
▁اللغات	-15545
มหาสมุทร	-15546
▁Palermo	-15547
▁colonia	-15548
▁western	-15549
▁นักร้อง	-15550
▁división	-15551
▁gebildet	-15552
าชอาณาจักร	-15553
▁seguridad	-15554
มหากษัตริย์	-15555
▁progettato	-15556
▁verschiedene	-15557
ذي	-15558
แจ	-15559
ไฮ	-15560
▁«	-15561
▁워	-15562
▁혁	-15563
从未	-15564
俳優	-15565
国防	-15566
展示	-15567
教授	-15568
동은	-15569
정보	-15570
정부	-15571
트리	-15572
upl	-15573
yen	-15574
برص	-15575
بعض	-15576
داث	-15577
عيم	-15578
คดี	-15579
จุฬ	-15580
รอบ	-15581
ไหล	-15582
▁om	-15583
▁열렸	-15584
▁요구	-15585
▁입학	-15586
▁중앙	-15587
主义的	-15588
到哪里	-15589
多米尼	-15590
구에서	-15591
사우루	-15592
체스터	-15593
erva	-15594
ikel	-15595
imum	-15596
pool	-15597
udas	-15598
vole	-15599
zech	-15600
ände	-15601
▁Dre	-15602
▁NES	-15603
▁opt	-15604
▁بير	-15605
burgo	-15606
ellow	-15607
راءات	-15608
ภูเขา	-15609
▁tend	-15610
▁استر	-15611
▁البع	-15612
▁العم	-15613
▁حايك	-15614
▁Conne	-15615
▁Thema	-15616
▁Todes	-15617
▁eigen	-15618
▁forms	-15619
▁resol	-15620
▁right	-15621
▁sonst	-15622
▁انظمة	-15623
▁رئيسي	-15624
はどのような	-15625
ketball	-15626
oslavia	-15627
▁Gehirn	-15628
▁ingres	-15629
▁likely	-15630
▁müssen	-15631
▁online	-15632
▁reserv	-15633
▁الدولي	-15634
▁ويندوز	-15635
▁Academy	-15636
▁Estland	-15637
▁Montana	-15638
▁Sklaven	-15639
▁memoria	-15640
▁norfolk	-15641
▁tempran	-15642
▁اسرائيل	-15643
▁الكبيرة	-15644
▁concepto	-15645
▁function	-15646
▁provided	-15647
▁المقاطعة	-15648
อยู่ที่ไหน	-15649
▁Flughafen	-15650
▁bestanden	-15651
▁principio	-15652
▁Gouverneur	-15653
▁Repubblica	-15654
▁verschieden	-15655
▁departamento	-15656
▁wissenschaft	-15657
▁เกิดเมื่อไหร่	-15658
OS	-15659
به	-15660
▁퇴	-15661
を書	-15662
カナ	-15663
ダイ	-15664
ース	-15665
乐器	-15666
埃弗	-15667
工具	-15668
市立	-15669
抗议	-15670
标志	-15671
機の	-15672
表演	-15673
경찰	-15674
고속	-15675
공화	-15676
다의	-15677
서를	-15678
지에	-15679
키가	-15680
프가	-15681
Est	-15682
You	-15683
atr	-15684
hör	-15685
árt	-15686
اون	-15687
وال	-15688
เหม	-15689
▁تك	-15690
▁เท	-15691
▁반대	-15692
▁보여	-15693
▁순위	-15694
からか	-15695
年以降	-15696
所有的	-15697
Play	-15698
ktor	-15699
odón	-15700
فولك	-15701
▁ترت	-15702
▁것인가	-15703
▁회사는	-15704
のことか	-15705
apore	-15706
cerca	-15707
ienst	-15708
udson	-15709
ético	-15710
แอฟริ	-15711
▁Lied	-15712
▁añad	-15713
▁hijo	-15714
▁nego	-15715
▁phon	-15716
▁segu	-15717
▁slav	-15718
▁سيتم	-15719
▁قائد	-15720
▁대표적인	-15721
▁아프리카	-15722
した人は誰	-15723
derick	-15724
ซีซั่น	-15725
เหรียญ	-15726
▁Anten	-15727
▁Arist	-15728
▁Koran	-15729
▁Libia	-15730
▁UNFPA	-15731
▁brain	-15732
▁dimin	-15733
▁klein	-15734
▁lucha	-15735
▁matem	-15736
▁royal	-15737
▁البرل	-15738
▁الضوء	-15739
▁الكات	-15740
▁نبتون	-15741
culosis	-15742
การแสดง	-15743
▁Klasse	-15744
▁destin	-15745
▁gelebt	-15746
▁lingue	-15747
▁الاحمر	-15748
▁المقدس	-15749
▁النحاس	-15750
ationale	-15751
อากาศยาน	-15752
▁algodón	-15753
▁escrito	-15754
▁informe	-15755
▁nombres	-15756
▁الكنائس	-15757
▁المبكرة	-15758
▁نورفولك	-15759
▁concentr	-15760
▁possible	-15761
▁residentes	-15762
▁Olympischen	-15763
▁originariamente	-15764
ฎี	-15765
ธน	-15766
▁낮	-15767
和平	-15768
士顿	-15769
小さ	-15770
居住	-15771
承认	-15772
报纸	-15773
攻击	-15774
来纳	-15775
涉及	-15776
资金	-15777
辛格	-15778
것을	-15779
법을	-15780
스에	-15781
KBS	-15782
ahn	-15783
bte	-15784
eth	-15785
mat	-15786
راح	-15787
ماغ	-15788
ويم	-15789
เกร	-15790
▁Hö	-15791
▁Ok	-15792
▁오른	-15793
▁위를	-15794
▁죽은	-15795
ともに	-15796
美国人	-15797
Form	-15798
arie	-15799
cape	-15800
erta	-15801
eten	-15802
pern	-15803
غنية	-15804
คลอง	-15805
ที่น	-15806
น้อง	-15807
สเปน	-15808
▁Loc	-15809
▁NFL	-15810
▁Pur	-15811
▁غرب	-15812
▁참가한	-15813
であった	-15814
卡罗来纳	-15815
allas	-15816
oming	-15817
under	-15818
yster	-15819
zlach	-15820
ämpft	-15821
ต่อไป	-15822
▁Jose	-15823
▁Stan	-15824
▁VIII	-15825
▁atra	-15826
▁emot	-15827
▁gama	-15828
▁good	-15829
▁sehr	-15830
▁wahr	-15831
▁week	-15832
▁welt	-15833
▁zone	-15834
▁الاي	-15835
なんですか	-15836
联邦调查局	-15837
ennung	-15838
riften	-15839
ตระกูล	-15840
▁Città	-15841
▁Platz	-15842
▁armas	-15843
▁getan	-15844
▁lider	-15845
▁niger	-15846
▁whose	-15847
是什么导致了	-15848
inition	-15849
uchtung	-15850
ซูเปอร์	-15851
▁Finanz	-15852
▁diseño	-15853
▁series	-15854
▁spazio	-15855
▁zeigen	-15856
▁النووي	-15857
的百分比是多少	-15858
Amérique	-15859
▁Italien	-15860
▁genutzt	-15861
▁griegos	-15862
▁inaugur	-15863
▁الاخيرة	-15864
▁البشرية	-15865
▁الولاية	-15866
สัญลักษณ์	-15867
▁Flugzeug	-15868
▁hospital	-15869
▁received	-15870
▁utilizar	-15871
▁buildings	-15872
▁erreichen	-15873
▁الاستقلال	-15874
▁estructura	-15875
▁influencia	-15876
▁전국동시지방선거에서	-15877
▁durchgeführt	-15878
▁französischen	-15879
▁estadounidense	-15880
-5	-15881
وش	-15882
ิช	-15883
โข	-15884
▁탑	-15885
およ	-15886
をも	-15887
儿童	-15888
卡尔	-15889
成了	-15890
相互	-15891
细菌	-15892
軍は	-15893
达到	-15894
长的	-15895
금은	-15896
북한	-15897
스티	-15898
시티	-15899
영의	-15900
운데	-15901
입한	-15902
장에	-15903
크의	-15904
ابس	-15905
ضمن	-15906
لاء	-15907
ناة	-15908
พิธ	-15909
พี่	-15910
สาน	-15911
สู้	-15912
▁갖고	-15913
▁구단	-15914
▁선출	-15915
▁은퇴	-15916
どこで	-15917
ハワイ	-15918
世纪的	-15919
主义者	-15920
了多久	-15921
耶和华	-15922
詹姆斯	-15923
SFSR	-15924
mann	-15925
ocup	-15926
ข้าว	-15927
▁cli	-15928
▁بما	-15929
▁جين	-15930
▁سام	-15931
▁للا	-15932
▁대부분	-15933
리그에서	-15934
light	-15935
onsor	-15936
tener	-15937
ática	-15938
ปรากฏ	-15939
แหล่ง	-15940
▁Hann	-15941
▁Nuov	-15942
▁aire	-15943
▁know	-15944
▁lamp	-15945
▁lett	-15946
▁neut	-15947
▁الصي	-15948
▁المث	-15949
▁مطار	-15950
▁يمثل	-15951
俄克拉荷马	-15952
되었습니까	-15953
entral	-15954
selves	-15955
สินค้า	-15956
▁2012,	-15957
▁Invas	-15958
▁adott	-15959
▁epoca	-15960
▁القوة	-15961
▁프로그램의	-15962
したのは何年	-15963
istiche	-15964
▁Verbre	-15965
▁Völker	-15966
▁affili	-15967
▁dritte	-15968
▁events	-15969
▁export	-15970
▁membro	-15971
▁stesso	-15972
▁الاسكا	-15973
▁الحركة	-15974
▁الرسمي	-15975
▁بالقرب	-15976
ประเภทใด	-15977
▁Methode	-15978
▁bezieht	-15979
▁otomano	-15980
▁outside	-15981
▁seguito	-15982
เมืองอะไร	-15983
▁Confeder	-15984
▁dialecto	-15985
▁minister	-15986
▁اليزابيث	-15987
▁بالاضافة	-15988
wirtschaft	-15989
▁británica	-15990
▁candidato	-15991
▁dominante	-15992
▁commercial	-15993
▁erschienen	-15994
▁industrial	-15995
▁كاليفورنيا	-15996
45	-15997
Ne	-15998
Um	-15999
ศต	-16000
なく	-16001
に就	-16002
宇宙	-16003
微软	-16004
指控	-16005
政権	-16006
普遍	-16007
比較	-16008
特的	-16009
经历	-16010
비아	-16011
씨가	-16012
월드	-16013
جاب	-16014
ضيف	-16015
พาะ	-16016
▁เม	-16017
▁곡의	-16018
▁소설	-16019
▁스페	-16020
▁하고	-16021
ことが	-16022
させた	-16023
ヴィル	-16024
创造了	-16025
大部分	-16026
거리는	-16027
ecta	-16028
ฝ่าย	-16029
▁20?	-16030
▁Rog	-16031
▁fís	-16032
▁oce	-16033
▁réc	-16034
▁sab	-16035
▁ตอน	-16036
▁결과를	-16037
▁나라의	-16038
▁설립된	-16039
いくつの	-16040
aylor	-16041
ciare	-16042
gress	-16043
itare	-16044
änger	-16045
เฉพาะ	-16046
▁Text	-16047
▁atom	-16048
▁rein	-16049
▁اسيا	-16050
▁المم	-16051
▁تاتي	-16052
▁هاري	-16053
有什么样的	-16054
Nombra	-16055
isches	-16056
izzare	-16057
ของการ	-16058
ออกแบบ	-16059
▁1960?	-16060
▁Porto	-16061
▁Punkt	-16062
▁capaz	-16063
▁wrest	-16064
▁التسع	-16065
▁المرج	-16066
是什么时候被	-16067
vizzera	-16068
▁Palace	-16069
▁incand	-16070
▁kathol	-16071
▁proven	-16072
▁reject	-16073
▁مادونا	-16074
▁Eastern	-16075
▁Islamic	-16076
▁Segunda	-16077
▁américa	-16078
▁console	-16079
▁espacio	-16080
▁palacio	-16081
▁نيجيريا	-16082
▁Muhammad	-16083
▁aktuelle	-16084
▁gegangen	-16085
▁الجمهوري	-16086
▁conflicto	-16087
▁diventata	-16088
▁nationale	-16089
▁supported	-16090
▁definition	-16091
▁gobernante	-16092
▁oyuncuları	-16093
▁revolution	-16094
▁successful	-16095
▁politischen	-16096
▁verursachen	-16097
RA	-16098
คะ	-16099
ดก	-16100
ธุ	-16101
ร่	-16102
▁ห	-16103
ヘン	-16104
一项	-16105
二世	-16106
付け	-16107
十字	-16108
史上	-16109
图瓦	-16110
晤士	-16111
普鲁	-16112
爆撃	-16113
黑人	-16114
린이	-16115
오프	-16116
위해	-16117
이니	-16118
이라	-16119
조가	-16120
회에	-16121
Kon	-16122
ñor	-16123
اير	-16124
ليم	-16125
وام	-16126
ดัง	-16127
ม่า	-16128
▁35	-16129
▁36	-16130
▁ce	-16131
▁고려	-16132
▁득점	-16133
▁서기	-16134
▁정도	-16135
基督徒	-16136
泰晤士	-16137
되었어	-16138
ader	-16139
eart	-16140
enne	-16141
eses	-16142
hner	-16143
iero	-16144
plor	-16145
prio	-16146
ท้อง	-16147
▁CBS	-16148
▁adv	-16149
▁muy	-16150
▁sun	-16151
▁زوج	-16152
▁فصل	-16153
▁لكل	-16154
iegen	-16155
illes	-16156
ingle	-16157
ograf	-16158
sicht	-16159
รับบท	-16160
▁Bier	-16161
▁Code	-16162
▁Four	-16163
▁Wind	-16164
▁aree	-16165
▁coup	-16166
▁lack	-16167
▁neoc	-16168
▁pena	-16169
▁sust	-16170
▁técn	-16171
▁حدود	-16172
▁والا	-16173
▁يهوه	-16174
占多大比例	-16175
cticut	-16176
ention	-16177
gether	-16178
ประกวด	-16179
▁1997?	-16180
▁2011,	-16181
▁Klima	-16182
▁Liter	-16183
▁Obers	-16184
▁doctr	-16185
▁larga	-16186
▁liegt	-16187
▁taken	-16188
▁traff	-16189
▁zeigt	-16190
▁اشكال	-16191
▁ستكون	-16192
オスマン帝国	-16193
achstum	-16194
issance	-16195
ร่างกาย	-16196
เข้าสู่	-16197
▁classe	-16198
▁deriva	-16199
▁helfen	-16200
▁impact	-16201
▁infant	-16202
▁interc	-16203
▁أمريكا	-16204
▁البناء	-16205
▁المكتب	-16206
していましたか	-16207
▁Italian	-16208
▁glauben	-16209
▁البداية	-16210
▁فريدريك	-16211
สํานักงาน	-16212
▁apareció	-16213
▁consiste	-16214
▁entfernt	-16215
▁probable	-16216
▁Community	-16217
▁Soviética	-16218
▁Swaziland	-16219
▁الموسيقية	-16220
▁themselves	-16221
▁meridionale	-16222
▁Schauspieler	-16223
พระมหากษัตริย์	-16224
▁Eigenschaften	-16225
MS	-16226
โพ	-16227
▁늑	-16228
▁옮	-16229
▁팬	-16230
任何	-16231
分子	-16232
分离	-16233
年间	-16234
波兰	-16235
震災	-16236
스탄	-16237
차의	-16238
Bef	-16239
Dou	-16240
abl	-16241
ovo	-16242
was	-16243
yer	-16244
ตาย	-16245
ติก	-16246
ลอง	-16247
▁عق	-16248
▁변경	-16249
▁선발	-16250
▁인정	-16251
かけて	-16252
で優勝	-16253
に対し	-16254
举行的	-16255
波士顿	-16256
获得了	-16257
아시아	-16258
ared	-16259
ifer	-16260
rior	-16261
stru	-16262
ابيح	-16263
▁Lie	-16264
▁TCM	-16265
▁aso	-16266
▁bor	-16267
▁öst	-16268
▁출전한	-16269
康卡斯特	-16270
대학교의	-16271
arnia	-16272
erset	-16273
legen	-16274
organ	-16275
reter	-16276
เศรษฐ	-16277
▁Jeff	-16278
▁Juan	-16279
▁adqu	-16280
▁cani	-16281
▁dati	-16282
▁gene	-16283
▁marc	-16284
▁الرق	-16285
によること	-16286
resión	-16287
▁Aktiv	-16288
▁Fried	-16289
▁Krank	-16290
▁Unión	-16291
▁Water	-16292
▁aufge	-16293
▁ausge	-16294
▁costo	-16295
▁decor	-16296
▁frase	-16297
▁regno	-16298
▁rival	-16299
▁إصدار	-16300
▁انتقل	-16301
▁انتهى	-16302
▁اهمية	-16303
▁توسان	-16304
▁نفسها	-16305
▁มาจาก	-16306
เป็นนัก	-16307
▁academ	-16308
▁código	-16309
▁debate	-16310
▁género	-16311
▁pasado	-16312
▁soviet	-16313
▁superv	-16314
▁terren	-16315
▁terror	-16316
▁الممثل	-16317
▁النسبة	-16318
▁برونكس	-16319
▁ได้รับ	-16320
เจ้าหญิง	-16321
▁Familie	-16322
▁arsenal	-16323
▁cerebro	-16324
▁declaró	-16325
▁hunting	-16326
▁nuclear	-16327
▁pendant	-16328
▁preocup	-16329
▁recuper	-16330
▁squadre	-16331
▁الاتفاق	-16332
▁المحلية	-16333
ländische	-16334
▁November	-16335
▁frontera	-16336
▁geöffnet	-16337
▁ingresos	-16338
▁reported	-16339
▁البيانات	-16340
▁Witnesses	-16341
▁americani	-16342
▁untersche	-16343
ครั้งสุดท้าย	-16344
▁beschrieben	-16345
▁independence	-16346
ae	-16347
أس	-16348
▁밴	-16349
にも	-16350
を出	-16351
クラ	-16352
バン	-16353
估计	-16354
化的	-16355
巴塞	-16356
기하	-16357
우스	-16358
IBA	-16359
Seg	-16360
eor	-16361
ibe	-16362
rix	-16363
sey	-16364
yes	-16365
بلغ	-16366
جار	-16367
เอง	-16368
แอล	-16369
▁NP	-16370
▁개봉	-16371
なのか	-16372
ものは	-16373
ーター	-16374
特里亚	-16375
艺术家	-16376
Film	-16377
king	-16378
unft	-16379
weig	-16380
well	-16381
ören	-16382
ندوق	-16383
▁Pir	-16384
▁jou	-16385
▁ارم	-16386
▁무엇의	-16387
▁위해서	-16388
普利茅斯	-16389
이었을까	-16390
ciata	-16391
iform	-16392
rimin	-16393
เบอร์	-16394
▁Bapt	-16395
▁Evil	-16396
▁Kenn	-16397
▁Kons	-16398
▁Prof	-16399
▁Prov	-16400
▁Sold	-16401
▁core	-16402
▁lose	-16403
▁بدون	-16404
▁منتج	-16405
ereign	-16406
ysteme	-16407
ฟิลิปป	-16408
▁compu	-16409
▁forte	-16410
▁learn	-16411
▁micro	-16412
▁negra	-16413
▁مشروع	-16414
▁ميناء	-16415
▁뮤직비디오	-16416
zlachta	-16417
กระทรวง	-16418
ให้เป็น	-16419
▁Männer	-16420
▁agosto	-16421
▁conced	-16422
▁dirett	-16423
▁entren	-16424
▁ground	-16425
▁infect	-16426
▁israel	-16427
▁meille	-16428
▁proced	-16429
▁secund	-16430
▁무엇이었을까	-16431
오스트레일리아	-16432
egriffen	-16433
volution	-16434
▁Freddie	-16435
▁Jehovah	-16436
▁alcohol	-16437
▁compren	-16438
▁decline	-16439
▁origine	-16440
▁deutsche	-16441
▁economia	-16442
▁lasciato	-16443
▁stations	-16444
▁Forschung	-16445
▁beginning	-16446
▁described	-16447
▁publicado	-16448
▁residents	-16449
▁Athanasius	-16450
▁acquistato	-16451
▁ciudadanos	-16452
▁matrimonio	-16453
▁westlichen	-16454
▁Institution	-16455
pf	-16456
رر	-16457
จบ	-16458
ไก	-16459
▁â	-16460
▁즉	-16461
ボー	-16462
担当	-16463
父亲	-16464
秘密	-16465
空襲	-16466
르의	-16467
이터	-16468
지션	-16469
찌르	-16470
اخذ	-16471
جات	-16472
ทรั	-16473
อาร	-16474
▁رؤ	-16475
▁كث	-16476
▁어워	-16477
▁책의	-16478
したが	-16479
ファー	-16480
战争中	-16481
最后一	-16482
시리즈	-16483
였나요	-16484
1941	-16485
Tech	-16486
größ	-16487
lava	-16488
oses	-16489
اعات	-16490
ريات	-16491
ماية	-16492
▁Hot	-16493
▁Mil	-16494
▁Pok	-16495
▁Tür	-16496
▁dic	-16497
▁océ	-16498
▁sog	-16499
▁배역은	-16500
▁지하철	-16501
国はどこ	-16502
年有多少	-16503
arono	-16504
aving	-16505
quipe	-16506
▁Blue	-16507
▁Days	-16508
▁Ghed	-16509
▁bron	-16510
▁face	-16511
▁spez	-16512
▁such	-16513
issuto	-16514
nahmen	-16515
nehmer	-16516
ศตวรรษ	-16517
แรกที่	-16518
▁1950?	-16519
▁1991?	-16520
▁Freem	-16521
▁Sumer	-16522
▁autob	-16523
▁canal	-16524
▁casas	-16525
▁kanad	-16526
Univers	-16527
อีกชื่อ	-16528
▁Cyprus	-16529
▁Jehová	-16530
▁Report	-16531
▁chinos	-16532
▁cuándo	-16533
▁giochi	-16534
▁having	-16535
▁الرابع	-16536
▁الوصول	-16537
▁للحصول	-16538
▁مختلفة	-16539
มีลักษณะ	-16540
เริ่มต้น	-16541
▁borough	-16542
▁tedesch	-16543
▁terrest	-16544
▁البوذية	-16545
した人は誰ですか	-16546
▁Gheddafi	-16547
▁Varsavia	-16548
▁domestic	-16549
▁lavorato	-16550
▁nazional	-16551
▁primeras	-16552
はどれくらいですか	-16553
▁comparación	-16554
▁tuberculosis	-16555
34	-16556
Fe	-16557
จา	-16558
▁들	-16559
一直	-16560
国が	-16561
地理	-16562
头衔	-16563
字母	-16564
广泛	-16565
投资	-16566
播放	-16567
有助	-16568
纳西	-16569
起来	-16570
기록	-16571
치를	-16572
혁은	-16573
Als	-16574
sol	-16575
vey	-16576
اتج	-16577
اجة	-16578
قاف	-16579
ริญ	-16580
แคว	-16581
แตก	-16582
▁حس	-16583
▁신인	-16584
▁위원	-16585
日本で	-16586
早期的	-16587
普鲁士	-16588
生まれ	-16589
生产的	-16590
하면서	-16591
Love	-16592
aval	-16593
mark	-16594
rieb	-16595
usto	-16596
▁Age	-16597
▁flu	-16598
▁ses	-16599
▁عاد	-16600
▁مبي	-16601
▁هان	-16602
▁승점을	-16603
▁일본의	-16604
▁청소년	-16605
不是什么	-16606
量是多少	-16607
需要什么	-16608
하였나요	-16609
adora	-16610
olars	-16611
ucion	-16612
uring	-16613
เครือ	-16614
▁1979	-16615
▁Büro	-16616
▁Your	-16617
▁allí	-16618
▁gall	-16619
▁reag	-16620
▁القص	-16621
▁شهود	-16622
▁득표율은	-16623
Acerca	-16624
castle	-16625
lungen	-16626
úsculo	-16627
ทั่วไป	-16628
เวิลด์	-16629
▁Czech	-16630
▁Games	-16631
▁Vorte	-16632
▁concl	-16633
▁ermög	-16634
▁short	-16635
ikation	-16636
อยู่หัว	-16637
▁besten	-16638
▁conoce	-16639
▁cuenta	-16640
▁perdió	-16641
▁reclam	-16642
▁المياه	-16643
▁موجودة	-16644
▁موسيقى	-16645
▁basiert	-16646
▁behaupt	-16647
▁fundada	-16648
▁samurai	-16649
▁society	-16650
▁tedesco	-16651
▁Probleme	-16652
▁erfunden	-16653
▁mantener	-16654
▁together	-16655
ฟิลิปปินส์	-16656
▁Vereinbar	-16657
▁englische	-16658
▁introdujo	-16659
されたのはいつですか	-16660
▁erschaffen	-16661
▁settlement	-16662
▁television	-16663
▁Informationen	-16664
▁verschiedenen	-16665
Mr	-16666
نز	-16667
▁뽑	-16668
▁칼	-16669
採用	-16670
疾病	-16671
这种	-16672
됐어	-16673
oti	-16674
ráf	-16675
ted	-16676
ابع	-16677
ذهب	-16678
راف	-16679
สต์	-16680
▁EU	-16681
▁hd	-16682
▁เด	-16683
▁공화	-16684
▁기관	-16685
▁바뀌	-16686
▁제목	-16687
▁폐지	-16688
を演じ	-16689
图瓦卢	-16690
的名字	-16691
됩니까	-16692
한국의	-16693
1989	-16694
anch	-16695
ands	-16696
etts	-16697
isod	-16698
izin	-16699
unkt	-16700
لكها	-16701
กระบ	-16702
เร็จ	-16703
▁Bau	-16704
▁Sea	-16705
▁avv	-16706
▁آخر	-16707
▁ضمن	-16708
▁لون	-16709
▁시간은	-16710
▁일인가	-16711
▁횟수는	-16712
anned	-16713
astic	-16714
يلبرغ	-16715
ราษฎร	-16716
เวียด	-16717
▁Braz	-16718
▁Glas	-16719
▁Irak	-16720
▁magn	-16721
▁prec	-16722
▁rama	-16723
▁trip	-16724
▁vere	-16725
▁البل	-16726
▁المي	-16727
▁الور	-16728
▁اولا	-16729
▁قدمت	-16730
▁مجال	-16731
▁대통령은	-16732
▁Award	-16733
▁Feuer	-16734
▁Pearl	-16735
▁Terra	-16736
▁coast	-16737
▁honor	-16738
▁stamm	-16739
▁young	-16740
▁الثان	-16741
▁الجسم	-16742
▁الجنس	-16743
▁Series	-16744
▁autore	-16745
▁sowohl	-16746
▁spoken	-16747
▁الثورة	-16748
▁Dialekt	-16749
▁Glauben	-16750
▁Organis	-16751
▁antenna	-16752
▁eventos	-16753
▁instead	-16754
▁revista	-16755
▁verhind	-16756
▁palabras	-16757
▁permesso	-16758
▁prodotti	-16759
▁المسيحية	-16760
เรื่องอะไร	-16761
▁Antarktis	-16762
▁Billboard	-16763
▁descubrió	-16764
▁edificios	-16765
▁البكتيريا	-16766
▁Australien	-16767
▁department	-16768
▁eingeführt	-16769
▁riferimento	-16770
▁öffentliche	-16771
2,	-16772
او	-16773
主演	-16774
信号	-16775
区别	-16776
印刷	-16777
岛屿	-16778
年間	-16779
接触	-16780
文本	-16781
知道	-16782
药物	-16783
거야	-16784
교황	-16785
기온	-16786
문은	-16787
일이	-16788
aly	-16789
hre	-16790
ims	-16791
nos	-16792
tok	-16793
ymp	-16794
ارن	-16795
فيد	-16796
จิต	-16797
บัล	-16798
ผสม	-16799
ษฐ์	-16800
▁يخ	-16801
▁개인	-16802
▁공동	-16803
卡扎菲	-16804
역으로	-16805
Dans	-16806
aren	-16807
ding	-16808
iPod	-16809
iyor	-16810
kauf	-16811
rick	-16812
รรยา	-16813
ฤดูก	-16814
▁asf	-16815
▁boy	-16816
▁dan	-16817
▁fum	-16818
▁vig	-16819
▁اوا	-16820
▁روب	-16821
▁فشل	-16822
▁อํา	-16823
▁가운데	-16824
▁인물의	-16825
ering	-16826
icato	-16827
inesi	-16828
urity	-16829
ستانت	-16830
ภาคใด	-16831
▁1993	-16832
▁Zink	-16833
▁ball	-16834
▁capp	-16835
▁emit	-16836
▁link	-16837
▁poco	-16838
▁site	-16839
▁التد	-16840
▁قيمة	-16841
▁يحصل	-16842
シリーズの	-16843
บริการ	-16844
ฤดูกาล	-16845
▁Papst	-16846
▁almac	-16847
▁cosas	-16848
▁efect	-16849
▁glass	-16850
▁laure	-16851
▁neigh	-16852
▁المدر	-16853
▁صناعة	-16854
▁مناطق	-16855
のことですか	-16856
ormente	-16857
púsculo	-16858
ทะเบียน	-16859
ทะเลสาบ	-16860
▁Advent	-16861
▁assist	-16862
▁bilden	-16863
▁county	-16864
▁denaro	-16865
▁editor	-16866
▁glaubt	-16867
▁irgend	-16868
▁tenden	-16869
▁tradiz	-16870
▁التحكم	-16871
▁العصور	-16872
▁Mission	-16873
▁attuale	-16874
▁cercato	-16875
▁descend	-16876
▁ارمينيا	-16877
▁Funktion	-16878
▁Insekten	-16879
▁Michigan	-16880
▁almıştır	-16881
▁communic	-16882
▁comunità	-16883
▁lanciato	-16884
▁ottenere	-16885
▁primaria	-16886
▁weltweit	-16887
▁الروماني	-16888
▁ครั้งที่	-16889
▁religioso	-16890
▁gemeinsame	-16891
▁الكهربائية	-16892
เมืองหลวงของ	-16893
▁environment	-16894
▁architettura	-16895
▁metropolitana	-16896
1,	-16897
[...]
