<unk>	0
<s>	0
</s>	0
<es>	0
<fr>	0
<it>	0
<de>	0
<ar>	0
<ja>	0
<en>	0
<tr>	0
▁d	-0
en	-1
er	-2
es	-3
in	-4
on	-5
an	-6
▁ا	-7
▁l	-8
el	-9
at	-10
▁p	-11
▁a	-12
▁ال	-13
▁s	-14
▁c	-15
▁t	-16
is	-17
ar	-18
or	-19
▁de	-20
ch	-21
al	-22
it	-23
as	-24
re	-25
▁f	-26
Qu	-27
il	-28
qu	-29
▁w	-30
un	-31
▁m	-32
he	-33
ent	-34
os	-35
▁di	-36
▁h	-37
▁la	-38
▁?	-39
om	-40
ur	-41
ic	-42
le	-43
▁n	-44
▁qu	-45
▁in	-46
ion	-47
▁o	-48
▁g	-49
▁v	-50
ro	-51
us	-52
ed	-53
▁the	-54
▁b	-55
est	-56
ad	-57
▁م	-58
et	-59
Wh	-60
▁S	-61
ol	-62
am	-63
te	-64
im	-65
and	-66
▁e	-67
ie	-68
ما	-69
id	-70
▁un	-71
▁en	-72
ir	-73
ut	-74
▁r	-75
في	-76
ig	-77
什么	-78
▁of	-79
ci	-80
▁A	-81
ist	-82
▁le	-83
▁con	-84
▁B	-85
▁C	-86
▁M	-87
▁1	-88
em	-89
▁el	-90
20	-91
What	-92
ra	-93
▁se	-94
▁ه	-95
▁في	-96
ان	-97
▁P	-98
▁der	-99
ers	-100
ul	-101
▁ت	-102
de	-103
▁die	-104
iv	-105
▁ع	-106
▁al	-107
ich	-108
ale	-109
ta	-110
▁ha	-111
▁del	-112
Quel	-113
la	-114
ية	-115
▁est	-116
ce	-117
ing	-118
▁com	-119
ant	-120
min	-121
▁الم	-122
▁re	-123
ct	-124
▁ب	-125
▁G	-126
ال	-127
▁é	-128
▁T	-129
▁N	-130
elch	-131
▁fil	-132
▁par	-133
ia	-134
Qué	-135
um	-136
▁des	-137
▁I	-138
▁pr	-139
op	-140
▁ل	-141
ann	-142
▁st	-143
▁k	-144
▁R	-145
ation	-146
st	-147
▁ي	-148
▁من	-149
▁y	-150
▁20	-151
ien	-152
ato	-153
อง	-154
▁to	-155
▁E	-156
▁F	-157
▁es	-158
ue	-159
▁الت	-160
▁L	-161
▁الا	-162
uá	-163
▁les	-164
▁어	-165
ón	-166
▁filmin	-167
▁K	-168
▁D	-169
ين	-170
▁ك	-171
ี่	-172
ang	-173
▁è	-174
io	-175
ier	-176
▁was	-177
ات	-178
ter	-179
ag	-180
▁H	-181
▁pro	-182
ow	-183
Cuá	-184
to	-185
▁J	-186
▁z	-187
▁hat	-188
ont	-189
our	-190
Was	-191
▁von	-192
▁is	-193
▁wh	-194
iz	-195
▁que	-196
ib	-197
up	-198
ans	-199
elle	-200
ام	-201
▁il	-202
ot	-203
ول	-204
ere	-205
▁los	-206
hr	-207
▁الذ	-208
인가	-209
ür	-210
ระ	-211
▁19	-212
ort	-213
ที่	-214
ve	-215
▁be	-216
에서	-217
ud	-218
Qui	-219
▁qué	-220
ung	-221
if	-222
ري	-223
▁무	-224
end	-225
ها	-226
▁filminin	-227
ap	-228
ab	-229
Welch	-230
▁ein	-231
ell	-232
าร	-233
ay	-234
In	-235
▁ist	-236
▁per	-237
▁W	-238
▁did	-239
hi	-240
od	-241
▁for	-242
▁هو	-243
▁الذي	-244
▁V	-245
▁هي	-246
ub	-247
▁و	-248
▁U	-249
▁التي	-250
ten	-251
ica	-252
▁이	-253
▁er	-254
▁무엇	-255
่า	-256
ess	-257
ass	-258
eg	-259
่อ	-260
した	-261
เป	-262
▁à	-263
isch	-264
すか	-265
én	-266
pe	-267
té	-268
ใน	-269
▁au	-270
ac	-271
ار	-272
▁im	-273
ไร	-274
คร	-275
tr	-276
ون	-277
ment	-278
▁what	-279
ne	-280
็น	-281
▁du	-282
és	-283
ér	-284
me	-285
▁ن	-286
是什么	-287
เป็น	-288
omb	-289
▁كان	-290
iqu	-291
▁"	-292
ens	-293
ip	-294
ือ	-295
ff	-296
ción	-297
nd	-298
iel	-299
อะ	-300
rit	-301
▁war	-302
ind	-303
men	-304
▁س	-305
ge	-306
ของ	-307
▁gr	-308
oc	-309
▁201	-310
ですか	-311
▁son	-312
من	-313
▁j	-314
▁welch	-315
ado	-316
▁200	-317
ver	-318
und	-319
▁عل	-320
▁اي	-321
ou	-322
را	-323
อะไร	-324
ate	-325
all	-326
pr	-327
ond	-328
ée	-329
ione	-330
▁tr	-331
ine	-332
Wie	-333
▁ان	-334
دي	-335
▁ق	-336
▁an	-337
og	-338
ํา	-339
uer	-340
edir	-341
li	-342
ach	-343
▁nedir	-344
ื่อ	-345
▁fue	-346
▁wur	-347
ew	-348
Quelle	-349
▁th	-350
▁St	-351
ست	-352
▁ch	-353
nt	-354
는가	-355
▁pl	-356
▁zu	-357
▁O	-358
Cuál	-359
▁몇	-360
▁ver	-361
▁as	-362
az	-363
▁pu	-364
▁and	-365
ient	-366
▁su	-367
osa	-368
ัน	-369
ใด	-370
เท	-371
▁été	-372
Quand	-373
▁pour	-374
En	-375
ire	-376
ور	-377
mp	-378
▁사	-379
▁or	-380
เม	-381
▁éta	-382
▁las	-383
▁ann	-384
Quale	-385
va	-386
Qual	-387
▁do	-388
ประ	-389
のは	-390
ben	-391
▁qui	-392
19	-393
ีย	-394
มี	-395
▁et	-396
▁ar	-397
▁الع	-398
ente	-399
▁i	-400
▁있	-401
اي	-402
ob	-403
les	-404
ahr	-405
▁ex	-406
are	-407
▁ج	-408
้า	-409
Welche	-410
การ	-411
ian	-412
angi	-413
▁ح	-414
▁das	-415
دة	-416
▁على	-417
일까	-418
▁hangi	-419
▁che	-420
ير	-421
ug	-422
多少	-423
▁fr	-424
any	-425
The	-426
mer	-427
▁para	-428
ord	-429
ame	-430
ata	-431
▁den	-432
ante	-433
du	-434
ement	-435
Who	-436
▁für	-437
ard	-438
▁una	-439
ذا	-440
Quién	-441
▁Ar	-442
ler	-443
่ง	-444
▁dans	-445
▁comp	-446
▁nel	-447
سي	-448
How	-449
▁prim	-450
كم	-451
cc	-452
▁wurde	-453
▁pre	-454
au	-455
ico	-456
▁Jahr	-457
ร์	-458
หร	-459
per	-460
▁us	-461
lich	-462
ber	-463
▁ro	-464
▁تم	-465
ore	-466
Wer	-467
▁était	-468
▁2	-469
าย	-470
▁diz	-471
ía	-472
th	-473
cul	-474
▁الح	-475
ique	-476
▁어떤	-477
▁at	-478
は何	-479
▁quale	-480
▁ne	-481
▁und	-482
mo	-483
اب	-484
ön	-485
으로	-486
pp	-487
▁dé	-488
ity	-489
을까	-490
eit	-491
▁Ch	-492
▁ont	-493
▁dizis	-494
yor	-495
▁si	-496
▁Un	-497
iss	-498
Chi	-499
▁대	-500
ma	-501
res	-502
ost	-503
ั้	-504
den	-505
util	-506
ik	-507
ัก	-508
าก	-509
▁누	-510
เร	-511
▁الق	-512
▁era	-513
▁ent	-514
时候	-515
▁are	-516
art	-517
▁ter	-518
▁on	-519
av	-520
▁ف	-521
▁so	-522
▁ge	-523
ano	-524
ome	-525
ıyor	-526
▁part	-527
▁시	-528
سم	-529
ischen	-530
MD	-531
▁viel	-532
anı	-533
▁언	-534
▁الب	-535
▁por	-536
在哪	-537
▁무엇인가	-538
▁cons	-539
▁이름	-540
った	-541
▁puanı	-542
▁IMD	-543
port	-544
▁ما	-545
▁(	-546
ใคร	-547
▁tür	-548
ect	-549
▁alıyor	-550
ies	-551
▁util	-552
ure	-553
ak	-554
ern	-555
ás	-556
したか	-557
00	-558
▁cosa	-559
▁della	-560
▁عام	-561
ับ	-562
▁quelle	-563
ult	-564
หน	-565
onn	-566
▁لل	-567
▁plus	-568
land	-569
ว่า	-570
▁kim	-571
ive	-572
ast	-573
▁누구	-574
され	-575
าน	-576
ran	-577
ong	-578
▁언제	-579
Che	-580
▁sont	-581
▁IMDb	-582
مت	-583
oi	-584
เก	-585
▁ad	-586
وا	-587
ly	-588
▁ser	-589
دد	-590
ign	-591
يا	-592
▁cont	-593
ito	-594
ั้ง	-595
ck	-596
▁rel	-597
าม	-598
lo	-599
ombien	-600
cia	-601
Combien	-602
▁dur	-603
▁Z	-604
▁ش	-605
ial	-606
▁الج	-607
emp	-608
▁sono	-609
ati	-610
้น	-611
▁welchem	-612
وع	-613
▁tra	-614
ัง	-615
igh	-616
▁이름은	-617
201	-618
ith	-619
▁stato	-620
▁ty	-621
อย	-622
age	-623
ina	-624
نا	-625
ident	-626
▁가	-627
▁الس	-628
▁no	-629
ide	-630
ton	-631
▁الى	-632
عل	-633
▁quel	-634
▁dis	-635
▁ab	-636
ada	-637
ิน	-638
▁pers	-639
▁tro	-640
vent	-641
za	-642
ite	-643
▁auf	-644
ils	-645
▁más	-646
man	-647
▁عدد	-648
▁many	-649
aj	-650
ais	-651
urs	-652
▁sur	-653
ิด	-654
คือ	-655
▁cl	-656
ivers	-657
▁중	-658
▁Be	-659
When	-660
ft	-661
che	-662
▁dizisin	-663
ain	-664
▁viele	-665
てい	-666
ear	-667
ces	-668
▁filminde	-669
amp	-670
▁res	-671
ió	-672
▁제	-673
▁co	-674
▁Y	-675
ische	-676
▁18	-677
يل	-678
▁أ	-679
▁pe	-680
icht	-681
one	-682
iert	-683
kt	-684
าว	-685
▁oy	-686
cular	-687
▁어디	-688
رة	-689
att	-690
ipo	-691
ndo	-692
ng	-693
ัด	-694
▁기	-695
▁me	-696
ction	-697
mi	-698
▁gen	-699
▁pop	-700
▁oyun	-701
ert	-702
uch	-703
uss	-704
ett	-705
พระ	-706
ados	-707
co	-708
▁مع	-709
▁3	-710
▁pol	-711
▁الك	-712
▁with	-713
▁oyuncular	-714
▁fa	-715
متى	-716
▁ré	-717
▁als	-718
رب	-719
▁dem	-720
▁yön	-721
▁것	-722
ริ	-723
ru	-724
ación	-725
▁수	-726
Cuándo	-727
دا	-728
รา	-729
ido	-730
ill	-731
cent	-732
ชื่อ	-733
เทศ	-734
ov	-735
哪个	-736
▁Sch	-737
aus	-738
ales	-739
وب	-740
ทย	-741
ins	-742
دم	-743
ons	-744
เมื่อ	-745
تح	-746
▁haben	-747
▁reg	-748
ión	-749
Cuánt	-750
▁mit	-751
▁añ	-752
▁الش	-753
enn	-754
▁col	-755
▁um	-756
하는	-757
▁sind	-758
▁grand	-759
เล	-760
Wann	-761
▁ind	-762
▁cre	-763
一年	-764
▁الن	-765
▁gro	-766
▁Gr	-767
out	-768
ère	-769
▁Re	-770
Quando	-771
cl	-772
ประเทศ	-773
▁sich	-774
▁that	-775
▁une	-776
ité	-777
▁pi	-778
gr	-779
▁New	-780
▁sp	-781
ition	-782
▁지	-783
sch	-784
▁inter	-785
ari	-786
ู่	-787
ese	-788
ork	-789
▁pub	-790
orm	-791
▁tipo	-792
قة	-793
▁were	-794
que	-795
▁does	-796
▁av	-797
lic	-798
▁전	-799
▁eine	-800
مل	-801
▁kon	-802
▁nom	-803
La	-804
▁type	-805
رو	-806
ille	-807
▁te	-808
cip	-809
cu	-810
▁aut	-811
fer	-812
▁app	-813
▁عن	-814
ماذا	-815
Un	-816
200	-817
ด้	-818
وم	-819
رك	-820
▁by	-821
▁yönet	-822
▁am	-823
ated	-824
はど	-825
▁pres	-826
▁fin	-827
olog	-828
่น	-829
▁yönetmen	-830
anti	-831
ous	-832
▁produ	-833
ées	-834
▁خ	-835
Which	-836
▁선	-837
▁In	-838
วง	-839
ice	-840
hn	-841
ux	-842
لي	-843
▁pa	-844
لا	-845
ise	-846
idad	-847
oss	-848
تم	-849
ict	-850
ys	-851
der	-852
كن	-853
了什么	-854
▁year	-855
usu	-856
gan	-857
ละ	-858
▁어떻	-859
▁'	-860
eb	-861
ican	-862
iones	-863
▁car	-864
cr	-865
ven	-866
された	-867
esch	-868
ations	-869
▁어떻게	-870
▁can	-871
▁الد	-872
pt	-873
什么时候	-874
▁konusu	-875
▁cr	-876
▁inf	-877
▁Al	-878
ze	-879
▁prin	-880
เด	-881
ائ	-882
gen	-883
ando	-884
▁from	-885
itt	-886
▁Sp	-887
ภา	-888
ู้	-889
▁nomb	-890
ento	-891
▁più	-892
一个	-893
▁mod	-894
อร์	-895
ird	-896
▁الف	-897
ied	-898
าง	-899
▁해	-900
كي	-901
▁rol	-902
▁dizisinin	-903
ura	-904
ปี	-905
يس	-906
بر	-907
cé	-908
▁د	-909
▁da	-910
有多少	-911
ors	-912
년도	-913
▁Mar	-914
่อง	-915
▁كانت	-916
▁경	-917
urop	-918
▁بال	-919
ific	-920
▁정	-921
▁yönetmeni	-922
we	-923
oy	-924
ติ	-925
▁cap	-926
tat	-927
▁cent	-928
เพ	-929
▁연	-930
ence	-931
اء	-932
ole	-933
▁aus	-934
ましたか	-935
▁quoi	-936
tre	-937
▁ant	-938
ile	-939
▁وال	-940
▁인	-941
▁mus	-942
▁mar	-943
หรือ	-944
no	-945
▁form	-946
▁dell	-947
Welcher	-948
สุ	-949
ónde	-950
ok	-951
con	-952
اد	-953
มา	-954
iene	-955
▁The	-956
อยู่	-957
rie	-958
lam	-959
▁เป็น	-960
ex	-961
▁사람	-962
ม่	-963
▁나	-964
ستخ	-965
▁guer	-966
▁primer	-967
▁ر	-968
▁주	-969
itu	-970
zione	-971
azione	-972
▁Pr	-973
ได้	-974
ah	-975
ali	-976
▁he	-977
int	-978
▁발	-979
▁temp	-980
▁nombre	-981
iste	-982
▁it	-983
بل	-984
รร	-985
chen	-986
ใช	-987
▁방	-988
elles	-989
อน	-990
ว่าอะไร	-991
▁일	-992
▁año	-993
ight	-994
▁anno	-995
▁popul	-996
니까	-997
▁sup	-998
▁무엇일까	-999
ish	-1000
▁cu	-1001
uto	-1002
▁utiliz	-1003
▁199	-1004
ath	-1005
▁ac	-1006
อก	-1007
▁아	-1008
وق	-1009
مة	-1010
act	-1011
▁princip	-1012
หล	-1013
▁all	-1014
سب	-1015
ions	-1016
▁국	-1017
Que	-1018
▁한	-1019
▁fir	-1020
Where	-1021
rol	-1022
ผู้	-1023
▁출	-1024
0?	-1025
▁pas	-1026
▁ers	-1027
vel	-1028
▁mon	-1029
▁lo	-1030
▁como	-1031
oria	-1032
Wo	-1033
ตร	-1034
▁lib	-1035
acht	-1036
▁yer	-1037
▁année	-1038
iques	-1039
ph	-1040
ry	-1041
tro	-1042
اع	-1043
▁الر	-1044
mente	-1045
▁cal	-1046
ble	-1047
ตั้ง	-1048
▁Pro	-1049
▁الص	-1050
ase	-1051
▁Art	-1052
vec	-1053
▁sol	-1054
รั	-1055
▁wer	-1056
เท่า	-1057
เข	-1058
▁consid	-1059
▁위	-1060
ื่อง	-1061
จาก	-1062
▁caus	-1063
は誰	-1064
ino	-1065
État	-1066
▁Le	-1067
▁역	-1068
une	-1069
se	-1070
go	-1071
ance	-1072
ater	-1073
▁Ver	-1074
เจ	-1075
どの	-1076
▁하	-1077
▁sch	-1078
から	-1079
Welches	-1080
▁되	-1081
▁cor	-1082
ca	-1083
▁부	-1084
Où	-1085
crit	-1086
كل	-1087
uv	-1088
▁parte	-1089
▁الط	-1090
วิ	-1091
▁have	-1092
▁Se	-1093
ita	-1094
vol	-1095
able	-1096
▁الي	-1097
▁acc	-1098
De	-1099
▁fo	-1100
ador	-1101
▁lang	-1102
pos	-1103
ioni	-1104
▁มี	-1105
"?	-1106
▁5	-1107
ior	-1108
ลง	-1109
หม	-1110
bl	-1111
是什么时候	-1112
▁sec	-1113
anno	-1114
يو	-1115
▁Amer	-1116
▁wird	-1117
ays	-1118
▁const	-1119
ede	-1120
be	-1121
▁것은	-1122
▁نوع	-1123
ไทย	-1124
▁4	-1125
Cuántos	-1126
▁유	-1127
اف	-1128
án	-1129
และ	-1130
▁sign	-1131
▁werden	-1132
ให	-1133
▁türler	-1134
éd	-1135
عة	-1136
รก	-1137
fr	-1138
▁chi	-1139
fic	-1140
▁utilis	-1141
ove	-1142
Dónde	-1143
صل	-1144
▁comm	-1145
ios	-1146
▁개	-1147
▁يم	-1148
▁group	-1149
amb	-1150
▁Par	-1151
国家	-1152
▁يع	-1153
نة	-1154
lu	-1155
oma	-1156
ants	-1157
▁الان	-1158
▁ü	-1159
▁person	-1160
▁ci	-1161
▁man	-1162
▁Fran	-1163
elt	-1164
ità	-1165
นัก	-1166
ไหร	-1167
▁누구인가	-1168
ไหร่	-1169
▁first	-1170
▁US	-1171
▁المتح	-1172
dir	-1173
▁An	-1174
ger	-1175
▁rec	-1176
do	-1177
▁act	-1178
▁non	-1179
aut	-1180
zen	-1181
جل	-1182
อล	-1183
▁fuer	-1184
mier	-1185
ไม่	-1186
いつ	-1187
▁공	-1188
▁name	-1189
ism	-1190
วัน	-1191
าล	-1192
ود	-1193
▁조	-1194
วัด	-1195
ade	-1196
▁go	-1197
▁stata	-1198
▁الام	-1199
ary	-1200
▁ed	-1201
ational	-1202
ld	-1203
ero	-1204
ómo	-1205
▁ap	-1206
ida	-1207
ori	-1208
▁المتحدة	-1209
ime	-1210
▁غ	-1211
تب	-1212
Quels	-1213
اين	-1214
▁بع	-1215
▁entre	-1216
โด	-1217
ick	-1218
هم	-1219
▁اسم	-1220
af	-1221
uc	-1222
هل	-1223
ical	-1224
خر	-1225
vern	-1226
样的	-1227
▁ob	-1228
كان	-1229
▁pla	-1230
▁ins	-1231
▁trans	-1232
حت	-1233
▁ag	-1234
vis	-1235
▁Is	-1236
ขึ	-1237
tag	-1238
omm	-1239
▁년도	-1240
▁welcher	-1241
ขึ้น	-1242
▁organ	-1243
▁hanno	-1244
her	-1245
▁الث	-1246
▁grande	-1247
สม	-1248
▁relig	-1249
ét	-1250
ution	-1251
ustr	-1252
こと	-1253
cial	-1254
ชา	-1255
▁뭐	-1256
ますか	-1257
ke	-1258
ند	-1259
Quelles	-1260
hen	-1261
encia	-1262
uf	-1263
ents	-1264
▁يمكن	-1265
▁اله	-1266
ثر	-1267
เรื่อง	-1268
اح	-1269
แรก	-1270
▁wurden	-1271
ัย	-1272
ın	-1273
Quanti	-1274
▁Br	-1275
رن	-1276
美国	-1277
amente	-1278
yon	-1279
pu	-1280
اس	-1281
ower	-1282
哪些	-1283
ek	-1284
vers	-1285
ès	-1286
ungen	-1287
กับ	-1288
lan	-1289
wend	-1290
する	-1291
دين	-1292
▁med	-1293
▁min	-1294
นา	-1295
▁vers	-1296
ูก	-1297
ohn	-1298
在哪里	-1299
igin	-1300
したのは	-1301
ild	-1302
ono	-1303
▁univers	-1304
erg	-1305
جم	-1306
ني	-1307
▁ass	-1308
▁198	-1309
▁구	-1310
ème	-1311
▁영	-1312
▁اك	-1313
etz	-1314
▁über	-1315
لة	-1316
ista	-1317
ือง	-1318
Cómo	-1319
Dans	-1320
ايات	-1321
在哪一年	-1322
tem	-1323
้อง	-1324
เรีย	-1325
ชน	-1326
عب	-1327
ไหน	-1328
18	-1329
▁소	-1330
وس	-1331
▁mil	-1332
▁État	-1333
ís	-1334
▁sh	-1335
enz	-1336
▁dei	-1337
aux	-1338
▁come	-1339
าส	-1340
สุด	-1341
)?	-1342
idos	-1343
po	-1344
eral	-1345
▁ang	-1346
▁الخ	-1347
▁comme	-1348
ait	-1349
ولايات	-1350
▁어느	-1351
ativ	-1352
▁durante	-1353
بي	-1354
لال	-1355
udad	-1356
قد	-1357
▁which	-1358
ラン	-1359
나요	-1360
ana	-1361
วน	-1362
เกิด	-1363
▁pos	-1364
▁aux	-1365
▁stud	-1366
hl	-1367
▁배	-1368
ayın	-1369
▁yayın	-1370
izo	-1371
▁comb	-1372
anz	-1373
olo	-1374
▁loc	-1375
▁De	-1376
ally	-1377
Le	-1378
cess	-1379
agn	-1380
▁무엇이	-1381
▁ص	-1382
Quali	-1383
▁있는	-1384
▁พ	-1385
เมือง	-1386
iale	-1387
opin	-1388
คน	-1389
▁dass	-1390
▁nome	-1391
▁pass	-1392
▁cer	-1393
使用	-1394
▁ciudad	-1395
aç	-1396
▁spe	-1397
pl	-1398
▁premi	-1399
شر	-1400
▁الل	-1401
▁geg	-1402
▁언제인가	-1403
▁قبل	-1404
▁ماذا	-1405
istr	-1406
ust	-1407
كون	-1408
▁has	-1409
wo	-1410
iet	-1411
有什么	-1412
▁hizo	-1413
ige	-1414
▁관	-1415
Com	-1416
▁gem	-1417
▁inv	-1418
ている	-1419
cer	-1420
▁import	-1421
ren	-1422
ines	-1423
الم	-1424
▁Reg	-1425
ราช	-1426
وج	-1427
อา	-1428
hal	-1429
tra	-1430
▁vol	-1431
▁consider	-1432
ario	-1433
โร	-1434
▁197	-1435
اص	-1436
unt	-1437
▁Or	-1438
▁kaç	-1439
ย์	-1440
Al	-1441
iento	-1442
▁diff	-1443
ิง	-1444
bre	-1445
▁nach	-1446
igen	-1447
▁ph	-1448
▁avec	-1449
▁af	-1450
되었	-1451
▁후	-1452
▁art	-1453
▁emp	-1454
pres	-1455
▁used	-1456
▁guerra	-1457
own	-1458
ครั้ง	-1459
ele	-1460
▁serv	-1461
▁ط	-1462
eil	-1463
▁grup	-1464
▁bas	-1465
▁프	-1466
ستخدم	-1467
▁보	-1468
par	-1469
▁fam	-1470
はどこ	-1471
▁York	-1472
اري	-1473
omin	-1474
▁사람은	-1475
ئيس	-1476
กี่	-1477
1?	-1478
▁해는	-1479
▁estab	-1480
▁inc	-1481
หรือไม่	-1482
amm	-1483
▁not	-1484
▁يتم	-1485
เส	-1486
دينة	-1487
▁الذين	-1488
▁있을까	-1489
▁may	-1490
▁Name	-1491
مال	-1492
▁세	-1493
して	-1494
▁Est	-1495
ึ่ง	-1496
▁trad	-1497
ัว	-1498
▁성	-1499
แห	-1500
led	-1501
مان	-1502
れた	-1503
▁Gre	-1504
▁polit	-1505
por	-1506
は何ですか	-1507
คว	-1508
ires	-1509
เน	-1510
ual	-1511
▁لا	-1512
يد	-1513
▁gli	-1514
orth	-1515
▁def	-1516
何年	-1517
▁em	-1518
▁تق	-1519
▁최	-1520
▁تع	-1521
▁Univers	-1522
ちら	-1523
يم	-1524
▁contr	-1525
โดย	-1526
▁8	-1527
リー	-1528
들이	-1529
iti	-1530
ตร์	-1531
gli	-1532
是多少	-1533
yn	-1534
哪一年	-1535
isten	-1536
▁États	-1537
jo	-1538
ose	-1539
ates	-1540
▁17	-1541
liche	-1542
▁pays	-1543
▁Europ	-1544
▁beg	-1545
ri	-1546
5?	-1547
▁sein	-1548
erst	-1549
でしたか	-1550
▁sc	-1551
▁verwend	-1552
ional	-1553
โล	-1554
ced	-1555
กร	-1556
กล	-1557
▁class	-1558
▁tiene	-1559
ument	-1560
▁스	-1561
世界	-1562
ใช่	-1563
▁الأ	-1564
▁está	-1565
يت	-1566
▁po	-1567
▁cult	-1568
ทาง	-1569
▁leg	-1570
리그	-1571
▁nicht	-1572
anto	-1573
ieren	-1574
학교	-1575
▁자	-1576
▁때	-1577
aft	-1578
aire	-1579
Dove	-1580
ht	-1581
开始	-1582
كية	-1583
ara	-1584
ังห	-1585
▁الولايات	-1586
▁Ind	-1587
▁dizisi	-1588
atur	-1589
▁mem	-1590
ictoria	-1591
adt	-1592
เจ้า	-1593
▁constru	-1594
▁delle	-1595
▁origin	-1596
aron	-1597
▁u	-1598
antes	-1599
วย	-1600
▁cas	-1601
▁의	-1602
▁film	-1603
ولة	-1604
ที่เท่า	-1605
▁occ	-1606
▁الو	-1607
▁X	-1608
▁seg	-1609
ystem	-1610
แห่ง	-1611
▁met	-1612
Les	-1613
ther	-1614
ใช่หรือไม่	-1615
▁لدي	-1616
▁deux	-1617
▁Er	-1618
cht	-1619
년에	-1620
lichen	-1621
ec	-1622
▁당	-1623
Comment	-1624
arg	-1625
จังห	-1626
่ม	-1627
esse	-1628
▁상	-1629
ros	-1630
uth	-1631
ät	-1632
▁most	-1633
กา	-1634
입니까	-1635
▁brit	-1636
จังหวัด	-1637
▁soci	-1638
uld	-1639
▁gew	-1640
▁fe	-1641
▁6	-1642
▁7	-1643
4?	-1644
ิม	-1645
によ	-1646
Die	-1647
เพลง	-1648
tern	-1649
▁país	-1650
▁cos	-1651
iff	-1652
omp	-1653
▁ou	-1654
3?	-1655
▁inst	-1656
agg	-1657
änd	-1658
El	-1659
ส์	-1660
ทร	-1661
▁뭐야	-1662
vo	-1663
▁노	-1664
ace	-1665
▁Tr	-1666
▁wie	-1667
▁만	-1668
orld	-1669
没有	-1670
رت	-1671
▁population	-1672
世纪	-1673
ภาพ	-1674
▁어디인가	-1675
▁Sh	-1676
▁fait	-1677
▁마	-1678
ack	-1679
▁결	-1680
طل	-1681
▁도	-1682
수는	-1683
oci	-1684
اني	-1685
为什么	-1686
เว	-1687
▁ten	-1688
ars	-1689
aman	-1690
él	-1691
ory	-1692
وري	-1693
دث	-1694
▁türü	-1695
être	-1696
ake	-1697
annt	-1698
▁Beyon	-1699
يرة	-1700
ommen	-1701
▁가장	-1702
red	-1703
▁sa	-1704
ople	-1705
▁dire	-1706
▁비	-1707
ona	-1708
ดง	-1709
▁لم	-1710
alt	-1711
idente	-1712
▁생	-1713
ible	-1714
▁맡	-1715
에는	-1716
▁Lond	-1717
erm	-1718
ismo	-1719
▁미	-1720
▁cuá	-1721
رض	-1722
▁그	-1723
เอ	-1724
ったのは	-1725
▁kimler	-1726
ähr	-1727
ici	-1728
ある	-1729
طة	-1730
▁동	-1731
▁trou	-1732
ute	-1733
Unis	-1734
ارة	-1735
▁ess	-1736
什么样的	-1737
iemp	-1738
▁türde	-1739
ดี	-1740
▁어떠	-1741
▁dal	-1742
Cuántas	-1743
▁อ	-1744
ama	-1745
▁경기	-1746
2?	-1747
سة	-1748
its	-1749
하였	-1750
▁American	-1751
▁Car	-1752
แส	-1753
▁long	-1754
ör	-1755
▁받	-1756
▁neler	-1757
▁Ne	-1758
▁siste	-1759
outh	-1760
▁much	-1761
▁10	-1762
▁verwendet	-1763
ock	-1764
oman	-1765
در	-1766
erv	-1767
orte	-1768
▁türleri	-1769
▁قام	-1770
II	-1771
▁작	-1772
son	-1773
第一	-1774
ريق	-1775
▁bo	-1776
centage	-1777
aison	-1778
▁llam	-1779
▁premier	-1780
เซ	-1781
ركة	-1782
▁194	-1783
▁vis	-1784
▁conf	-1785
▁wo	-1786
▁علي	-1787
رق	-1788
iens	-1789
▁port	-1790
Quante	-1791
มห	-1792
▁다	-1793
aten	-1794
9?	-1795
كيف	-1796
▁196	-1797
▁prima	-1798
▁coun	-1799
▁id	-1800
▁zaman	-1801
صر	-1802
ua	-1803
▁Land	-1804
ima	-1805
▁Ph	-1806
ola	-1807
era	-1808
▁termin	-1809
ank	-1810
่าง	-1811
▁sy	-1812
▁fueron	-1813
▁welche	-1814
enti	-1815
▁سنة	-1816
▁اول	-1817
▁고	-1818
▁resp	-1819
▁state	-1820
ديد	-1821
้าง	-1822
este	-1823
▁2008	-1824
aven	-1825
BC	-1826
▁명	-1827
ยน	-1828
▁서	-1829
ชาว	-1830
▁Mus	-1831
▁bet	-1832
▁오	-1833
▁Th	-1834
大学	-1835
▁모	-1836
▁تح	-1837
รี	-1838
▁prés	-1839
Cosa	-1840
เมื่อไหร่	-1841
叫什么	-1842
▁내	-1843
▁اع	-1844
هر	-1845
▁sie	-1846
▁المع	-1847
اج	-1848
▁hist	-1849
▁nella	-1850
้ํา	-1851
وت	-1852
▁mot	-1853
▁alla	-1854
sh	-1855
▁hum	-1856
ิต	-1857
Pour	-1858
ool	-1859
▁Sta	-1860
▁الاس	-1861
obre	-1862
ones	-1863
▁팀	-1864
▁sul	-1865
ทํา	-1866
▁tiemp	-1867
oll	-1868
let	-1869
名字	-1870
ลา	-1871
日本	-1872
انية	-1873
ena	-1874
▁mayor	-1875
▁Chopin	-1876
▁nelerdir	-1877
ium	-1878
ความ	-1879
sen	-1880
icos	-1881
▁신	-1882
ていた	-1883
▁mond	-1884
▁2007	-1885
anye	-1886
ivo	-1887
▁dec	-1888
▁waren	-1889
inn	-1890
▁South	-1891
فة	-1892
วั	-1893
รับ	-1894
▁Id	-1895
▁Con	-1896
velop	-1897
▁influ	-1898
▁bef	-1899
▁camp	-1900
リカ	-1901
▁dizisinde	-1902
قا	-1903
ste	-1904
قت	-1905
英国	-1906
年に	-1907
199	-1908
▁men	-1909
bor	-1910
▁gemacht	-1911
öff	-1912
▁fond	-1913
ühr	-1914
▁Ge	-1915
▁승	-1916
▁여	-1917
까지	-1918
crib	-1919
라는	-1920
الي	-1921
▁people	-1922
▁John	-1923
imes	-1924
รัฐ	-1925
▁neg	-1926
▁คือ	-1927
pect	-1928
▁progr	-1929
▁citt	-1930
ิก	-1931
▁ve	-1932
ings	-1933
وي	-1934
▁진	-1935
▁gesch	-1936
isation	-1937
▁intern	-1938
▁Fl	-1939
▁imp	-1940
▁einen	-1941
什么是	-1942
لك	-1943
ret	-1944
▁aff	-1945
▁있는가	-1946
▁fran	-1947
▁commen	-1948
▁ام	-1949
▁9	-1950
▁장	-1951
iche	-1952
▁العالم	-1953
St	-1954
부터	-1955
▁Nap	-1956
atto	-1957
▁vor	-1958
gl	-1959
▁ใน	-1960
▁ges	-1961
▁West	-1962
▁sub	-1963
ษา	-1964
▁eff	-1965
▁cour	-1966
▁Pre	-1967
old	-1968
เบ	-1969
▁countr	-1970
认为	-1971
แสดง	-1972
▁City	-1973
▁المن	-1974
صب	-1975
ิล	-1976
▁총	-1977
ต์	-1978
lt	-1979
izz	-1980
iger	-1981
oro	-1982
ores	-1983
▁بين	-1984
▁second	-1985
▁other	-1986
どちら	-1987
▁ville	-1988
FA	-1989
라고	-1990
▁new	-1991
▁capit	-1992
▁être	-1993
ถูก	-1994
▁اس	-1995
isen	-1996
▁bel	-1997
érica	-1998
ha	-1999
vert	-2000
kla	-2001
ชาติ	-2002
▁Hous	-2003
jet	-2004
했을까	-2005
pend	-2006
▁rég	-2007
asser	-2008
جموع	-2009
▁است	-2010
bum	-2011
▁Mens	-2012
公司	-2013
▁Haven	-2014
▁estado	-2015
에게	-2016
なの	-2017
ให้	-2018
ิส	-2019
▁their	-2020
▁ส	-2021
onnen	-2022
ادة	-2023
▁filmi	-2024
6?	-2025
เต	-2026
▁gan	-2027
▁his	-2028
près	-2029
▁El	-2030
ifica	-2031
▁prof	-2032
ール	-2033
conom	-2034
▁mo	-2035
าร์	-2036
leg	-2037
▁zw	-2038
form	-2039
▁Victoria	-2040
ule	-2041
ค์	-2042
rop	-2043
pués	-2044
▁195	-2045
قل	-2046
▁تش	-2047
chn	-2048
▁erste	-2049
ix	-2050
▁처	-2051
atal	-2052
▁مت	-2053
rieg	-2054
خت	-2055
▁hab	-2056
▁sus	-2057
غة	-2058
▁amer	-2059
ti	-2060
▁prov	-2061
▁sistema	-2062
▁된	-2063
ature	-2064
▁Idol	-2065
adas	-2066
▁str	-2067
▁einer	-2068
จํา	-2069
▁sta	-2070
▁cond	-2071
▁dist	-2072
izi	-2073
ury	-2074
▁rap	-2075
unto	-2076
▁déc	-2077
▁Eng	-2078
▁얼	-2079
ili	-2080
ative	-2081
لم	-2082
piel	-2083
▁term	-2084
▁poss	-2085
▁città	-2086
unden	-2087
endant	-2088
ras	-2089
了多少	-2090
aciones	-2091
▁Zeit	-2092
▁프로	-2093
▁교	-2094
▁how	-2095
ít	-2096
▁25	-2097
人口	-2098
esso	-2099
▁public	-2100
ún	-2101
كت	-2102
▁Menschen	-2103
pen	-2104
رية	-2105
cept	-2106
aw	-2107
zt	-2108
ene	-2109
ker	-2110
▁/	-2111
esta	-2112
از	-2113
enza	-2114
▁للم	-2115
ierung	-2116
▁respons	-2117
aff	-2118
▁alle	-2119
▁langu	-2120
als	-2121
▁city	-2122
aje	-2123
▁conc	-2124
是哪一年	-2125
▁degli	-2126
nto	-2127
orn	-2128
▁bec	-2129
โลก	-2130
▁num	-2131
▁event	-2132
▁tiempo	-2133
ศาส	-2134
فعل	-2135
▁بعد	-2136
▁Brit	-2137
▁oder	-2138
vi	-2139
ก่อ	-2140
▁대한	-2141
iment	-2142
▁방송	-2143
▁gef	-2144
▁primo	-2145
▁بش	-2146
▁mat	-2147
▁première	-2148
Por	-2149
onna	-2150
▁encu	-2151
▁사용	-2152
如何	-2153
▁stati	-2154
▁As	-2155
ieu	-2156
ใช้	-2157
▁Ab	-2158
คล	-2159
erc	-2160
บุ	-2161
城市	-2162
▁Was	-2163
是谁	-2164
ร้อง	-2165
lass	-2166
▁typ	-2167
▁المح	-2168
ball	-2169
ini	-2170
▁날	-2171
▁193	-2172
10	-2173
atz	-2174
스의	-2175
▁enc	-2176
وف	-2177
▁Stadt	-2178
ที่สุด	-2179
ieron	-2180
▁الغ	-2181
목은	-2182
▁one	-2183
▁เกิด	-2184
▁quién	-2185
민국	-2186
▁جز	-2187
ック	-2188
▁contin	-2189
▁종	-2190
cio	-2191
دام	-2192
▁12	-2193
▁nue	-2194
하고	-2195
tal	-2196
▁peut	-2197
ics	-2198
▁gre	-2199
도는	-2200
heit	-2201
▁خلال	-2202
öß	-2203
▁문	-2204
eth	-2205
▁출연	-2206
▁통	-2207
▁16	-2208
▁liv	-2209
etto	-2210
▁مح	-2211
▁kön	-2212
▁예	-2213
▁bu	-2214
▁two	-2215
▁incl	-2216
ธิ	-2217
แบ	-2218
▁2010	-2219
▁commencé	-2220
アメ	-2221
ียน	-2222
ague	-2223
reich	-2224
▁einem	-2225
▁gén	-2226
▁called	-2227
öffent	-2228
قي	-2229
アメリカ	-2230
地区	-2231
可以	-2232
▁Am	-2233
▁perm	-2234
▁durch	-2235
صف	-2236
ink	-2237
اض	-2238
▁bek	-2239
▁ค	-2240
▁sobre	-2241
War	-2242
▁Co	-2243
▁govern	-2244
บริ	-2245
회의	-2246
▁eu	-2247
▁곳	-2248
▁얼마	-2249
▁특	-2250
ures	-2251
▁Bar	-2252
vait	-2253
▁principal	-2254
ัต	-2255
▁국가	-2256
▁esp	-2257
▁europ	-2258
17	-2259
ts	-2260
하여	-2261
▁sal	-2262
äs	-2263
▁선수	-2264
ของประเทศ	-2265
وات	-2266
▁كل	-2267
etti	-2268
▁sci	-2269
يع	-2270
▁encuent	-2271
▁modern	-2272
▁when	-2273
ner	-2274
▁운	-2275
▁off	-2276
เรียก	-2277
スト	-2278
▁dos	-2279
000	-2280
aria	-2281
▁presidente	-2282
จัด	-2283
▁Mon	-2284
▁kn	-2285
▁انت	-2286
▁الال	-2287
är	-2288
▁kann	-2289
▁personn	-2290
เช	-2291
odo	-2292
▁gob	-2293
ئي	-2294
▁use	-2295
▁viv	-2296
زة	-2297
سية	-2298
のこと	-2299
ai	-2300
▁control	-2301
وية	-2302
beit	-2303
จัก	-2304
▁차	-2305
ière	-2306
は誰ですか	-2307
na	-2308
opo	-2309
▁San	-2310
ows	-2311
▁ce	-2312
▁mov	-2313
されたのは	-2314
แต	-2315
ศ์	-2316
▁hel	-2317
▁oper	-2318
öl	-2319
war	-2320
▁En	-2321
▁perio	-2322
igr	-2323
طور	-2324
스트	-2325
▁مدينة	-2326
iere	-2327
▁chang	-2328
▁milit	-2329
研究	-2330
pub	-2331
▁김	-2332
attle	-2333
▁after	-2334
▁Ger	-2335
มน	-2336
طقة	-2337
ival	-2338
▁during	-2339
どこ	-2340
イン	-2341
▁bes	-2342
▁sim	-2343
▁되는가	-2344
▁Man	-2345
tt	-2346
▁15	-2347
ในปี	-2348
สร	-2349
▁vo	-2350
▁기록	-2351
quoi	-2352
ออก	-2353
els	-2354
▁puede	-2355
▁étaient	-2356
ตัว	-2357
tain	-2358
▁mund	-2359
▁alg	-2360
194	-2361
▁end	-2362
▁memb	-2363
最も	-2364
iam	-2365
部分	-2366
urch	-2367
da	-2368
ats	-2369
▁위해	-2370
▁pod	-2371
▁Russ	-2372
lav	-2373
entes	-2374
rag	-2375
اق	-2376
ชี	-2377
klah	-2378
들은	-2379
adio	-2380
ampton	-2381
halten	-2382
▁partic	-2383
▁Col	-2384
ree	-2385
▁Ant	-2386
▁tem	-2387
▁Kanye	-2388
▁Jap	-2389
hed	-2390
▁get	-2391
どの国	-2392
ctor	-2393
ense	-2394
ibu	-2395
▁Chr	-2396
ark	-2397
col	-2398
▁처음	-2399
▁könn	-2400
▁combien	-2401
▁después	-2402
จะ	-2403
▁어떠한	-2404
▁المو	-2405
했던	-2406
Pourquoi	-2407
▁á	-2408
มีชื่อ	-2409
▁fatto	-2410
▁عند	-2411
راء	-2412
▁gest	-2413
▁après	-2414
▁utilisé	-2415
oph	-2416
ตั้งอยู่	-2417
An	-2418
Il	-2419
▁남	-2420
ährend	-2421
ที่เท่าไร	-2422
riff	-2423
▁att	-2424
افة	-2425
▁Nord	-2426
Why	-2427
▁시작	-2428
isme	-2429
▁gou	-2430
ession	-2431
▁Napole	-2432
น์	-2433
▁primera	-2434
ral	-2435
▁월	-2436
▁gu	-2437
▁원	-2438
▁lu	-2439
hower	-2440
isenhower	-2441
سبة	-2442
ึง	-2443
政府	-2444
teur	-2445
▁sig	-2446
ดิ	-2447
klahoma	-2448
นิ	-2449
▁imper	-2450
▁found	-2451
iano	-2452
Cuáles	-2453
▁행	-2454
发生	-2455
▁ir	-2456
iter	-2457
ไป	-2458
▁نيو	-2459
▁tari	-2460
ัญ	-2461
▁Gu	-2462
otre	-2463
▁년도는	-2464
erein	-2465
습니까	-2466
▁groß	-2467
mes	-2468
خص	-2469
رف	-2470
▁ض	-2471
ason	-2472
▁bei	-2473
▁pal	-2474
▁autre	-2475
▁ej	-2476
ด์	-2477
▁دي	-2478
▁Char	-2479
eng	-2480
▁pré	-2481
▁anim	-2482
▁mé	-2483
andard	-2484
igt	-2485
ited	-2486
▁its	-2487
▁제목은	-2488
사는	-2489
▁tit	-2490
▁ref	-2491
ward	-2492
▁بها	-2493
วงศ์	-2494
upt	-2495
กัน	-2496
▁comun	-2497
äng	-2498
▁exp	-2499
▁ris	-2500
▁누구일까	-2501
▁temps	-2502
▁태	-2503
▁ول	-2504
icas	-2505
▁vin	-2506
드라	-2507
▁partie	-2508
bo	-2509
として	-2510
▁meisten	-2511
้อ	-2512
▁كم	-2513
ภาพยน	-2514
▁등	-2515
imo	-2516
landı	-2517
แข	-2518
▁Can	-2519
mb	-2520
เล่น	-2521
▁equ	-2522
▁essere	-2523
▁guerre	-2524
▁우	-2525
ünd	-2526
sten	-2527
alu	-2528
ques	-2529
อบ	-2530
▁fun	-2531
▁super	-2532
ناء	-2533
▁up	-2534
้าน	-2535
▁سي	-2536
erry	-2537
▁han	-2538
udi	-2539
だった	-2540
▁Unidos	-2541
▁ز	-2542
▁او	-2543
▁North	-2544
▁yayınlandı	-2545
▁pat	-2546
▁Estados	-2547
رج	-2548
▁cré	-2549
Cuánto	-2550
最初	-2551
▁맡은	-2552
acter	-2553
▁ث	-2554
ajo	-2555
▁arr	-2556
mouth	-2557
▁br	-2558
▁rés	-2559
▁평	-2560
فعله	-2561
ienen	-2562
ission	-2563
▁Spiel	-2564
▁يح	-2565
▁compr	-2566
imiento	-2567
hing	-2568
▁elect	-2569
▁Mad	-2570
▁pob	-2571
fol	-2572
نية	-2573
▁Pa	-2574
▁pap	-2575
ames	-2576
▁المت	-2577
ซี	-2578
うち	-2579
▁geb	-2580
▁libro	-2581
▁her	-2582
▁arch	-2583
hip	-2584
▁lead	-2585
ır	-2586
لد	-2587
hre	-2588
รรม	-2589
▁يق	-2590
主要	-2591
▁commun	-2592
لماذا	-2593
ที่ไหน	-2594
▁utilizz	-2595
اه	-2596
▁Me	-2597
جموعة	-2598
▁언제야	-2599
wn	-2600
▁설	-2601
帝国	-2602
ück	-2603
été	-2604
ello	-2605
▁اكثر	-2606
▁trova	-2607
ドイ	-2608
Queen	-2609
のうち	-2610
ator	-2611
tru	-2612
مر	-2613
Dur	-2614
▁언제일까	-2615
▁단	-2616
Quanto	-2617
ken	-2618
ภาพยนตร์	-2619
nes	-2620
ott	-2621
▁اخر	-2622
▁work	-2623
gg	-2624
▁Welt	-2625
드라마	-2626
ได้รับ	-2627
บอล	-2628
eren	-2629
ียง	-2630
ég	-2631
irt	-2632
ister	-2633
ใครคือ	-2634
พัน	-2635
ienne	-2636
▁offic	-2637
lev	-2638
roit	-2639
لس	-2640
▁계	-2641
ias	-2642
مات	-2643
ドイツ	-2644
ject	-2645
iva	-2646
▁الحرب	-2647
▁system	-2648
lio	-2649
ักษ	-2650
▁time	-2651
yp	-2652
▁camb	-2653
▁syst	-2654
bour	-2655
ريكية	-2656
▁Teil	-2657
keit	-2658
▁2009	-2659
مو	-2660
ora	-2661
▁Grand	-2662
فض	-2663
ición	-2664
198	-2665
برا	-2666
▁date	-2667
▁الاش	-2668
สถ	-2669
▁defin	-2670
▁años	-2671
▁올	-2672
あり	-2673
ieg	-2674
นาม	-2675
ouv	-2676
ontr	-2677
대한	-2678
ícul	-2679
축구	-2680
▁verb	-2681
لب	-2682
の中	-2683
语言	-2684
자는	-2685
ยา	-2686
▁2014	-2687
▁popol	-2688
?"	-2689
▁Port	-2690
▁prom	-2691
of	-2692
▁불	-2693
Per	-2694
▁Wh	-2695
يش	-2696
يف	-2697
พิ	-2698
▁had	-2699
▁disc	-2700
▁während	-2701
▁포	-2702
▁يعت	-2703
▁belie	-2704
schaft	-2705
cle	-2706
อเม	-2707
▁بد	-2708
test	-2709
ที	-2710
▁현	-2711
Con	-2712
▁tre	-2713
present	-2714
ció	-2715
▁اث	-2716
eder	-2717
利亚	-2718
▁Fr	-2719
▁회	-2720
▁tér	-2721
▁main	-2722
▁groupe	-2723
除了	-2724
年の	-2725
ظام	-2726
▁who	-2727
▁분	-2728
uel	-2729
ellen	-2730
▁Verein	-2731
ึก	-2732
ート	-2733
다고	-2734
▁바	-2735
ilos	-2736
▁League	-2737
แล	-2738
เค	-2739
▁거	-2740
ตรี	-2741
にな	-2742
ric	-2743
▁2011	-2744
他们	-2745
지는	-2746
▁Beg	-2747
▁due	-2748
▁감	-2749
▁رئيس	-2750
▁الاول	-2751
▁cuando	-2752
▁Bo	-2753
iden	-2754
rieben	-2755
-1	-2756
ellt	-2757
ette	-2758
▁civ	-2759
▁ren	-2760
▁pobla	-2761
ในประเทศ	-2762
ues	-2763
▁ide	-2764
▁Grup	-2765
amento	-2766
▁located	-2767
▁Nasser	-2768
▁vend	-2769
▁country	-2770
öffentlich	-2771
كا	-2772
Los	-2773
ugar	-2774
หนึ่ง	-2775
▁prop	-2776
ein	-2777
▁ét	-2778
ween	-2779
Warum	-2780
▁area	-2781
▁größ	-2782
▁참	-2783
กี	-2784
▁인물	-2785
▁Rich	-2786
▁about	-2787
▁arm	-2788
cción	-2789
▁어디일까	-2790
▁목	-2791
었는가	-2792
▁términ	-2793
▁يت	-2794
ยุ	-2795
ams	-2796
ität	-2797
ères	-2798
สา	-2799
레이	-2800
way	-2801
▁plan	-2802
esto	-2803
ième	-2804
ements	-2805
▁강	-2806
作品	-2807
itz	-2808
▁با	-2809
▁당시	-2810
อเมริ	-2811
▁trab	-2812
되어	-2813
▁지역	-2814
▁char	-2815
하기	-2816
iana	-2817
องค์	-2818
▁Fil	-2819
▁Pol	-2820
▁World	-2821
▁파	-2822
▁we	-2823
adores	-2824
▁colon	-2825
60	-2826
indet	-2827
يب	-2828
urn	-2829
ajor	-2830
▁vie	-2831
の名	-2832
哪里	-2833
cha	-2834
국의	-2835
arr	-2836
▁pens	-2837
▁Queen	-2838
ges	-2839
▁Te	-2840
ครั้งแรก	-2841
▁industr	-2842
sel	-2843
ammen	-2844
ionale	-2845
añ	-2846
zo	-2847
rab	-2848
▁Proz	-2849
8?	-2850
系统	-2851
سيا	-2852
▁تن	-2853
Be	-2854
▁energ	-2855
▁لت	-2856
▁cel	-2857
▁gouvern	-2858
็ก	-2859
▁fl	-2860
mand	-2861
chi	-2862
▁Lib	-2863
จุ	-2864
▁النا	-2865
raf	-2866
▁int	-2867
▁lieu	-2868
▁المس	-2869
▁فيها	-2870
よう	-2871
▁영화	-2872
▁rom	-2873
▁been	-2874
ax	-2875
▁음	-2876
انون	-2877
▁ling	-2878
▁mort	-2879
▁الجن	-2880
völ	-2881
▁nu	-2882
▁val	-2883
기는	-2884
يان	-2885
Avec	-2886
ikan	-2887
하였는가	-2888
▁2012	-2889
سبب	-2890
berg	-2891
▁عندما	-2892
ibt	-2893
었을까	-2894
▁out	-2895
▁tras	-2896
▁music	-2897
ka	-2898
では	-2899
ume	-2900
head	-2901
▁domin	-2902
▁Cent	-2903
▁compos	-2904
itect	-2905
▁trouve	-2906
volution	-2907
afi	-2908
▁encuentra	-2909
ail	-2910
在哪个	-2911
▁2013	-2912
▁Kön	-2913
▁conn	-2914
叫什么名字	-2915
▁ident	-2916
リア	-2917
ุ่น	-2918
▁Cl	-2919
▁For	-2920
▁بشكل	-2921
ستخدام	-2922
学校	-2923
▁je	-2924
▁ur	-2925
حة	-2926
▁곳은	-2927
▁riv	-2928
▁magg	-2929
▁ذ	-2930
arm	-2931
影响	-2932
▁stat	-2933
imento	-2934
ถึง	-2935
▁11	-2936
▁chiam	-2937
itution	-2938
▁말	-2939
▁재	-2940
ない	-2941
oir	-2942
wei	-2943
했는가	-2944
▁cop	-2945
はいつ	-2946
اريخ	-2947
แข่ง	-2948
▁غير	-2949
しましたか	-2950
这个	-2951
ides	-2952
▁mad	-2953
anj	-2954
▁lors	-2955
▁Beyonce	-2956
ni	-2957
رس	-2958
▁forma	-2959
จักร	-2960
▁pendant	-2961
ิ่ม	-2962
▁población	-2963
앨범	-2964
udd	-2965
eben	-2966
▁high	-2967
▁remp	-2968
▁يكون	-2969
▁Southampton	-2970
ya	-2971
▁jue	-2972
▁열	-2973
って	-2974
reet	-2975
より	-2976
▁Stati	-2977
กํา	-2978
▁qual	-2979
▁trava	-2980
üt	-2981
▁الرئيس	-2982
▁ihre	-2983
▁président	-2984
pro	-2985
uale	-2986
พันธ	-2987
▁cat	-2988
▁ear	-2989
▁Spra	-2990
ologie	-2991
▁unter	-2992
▁Oklahoma	-2993
▁과	-2994
リン	-2995
▁intro	-2996
reg	-2997
▁pér	-2998
▁uno	-2999
ho	-3000
atore	-3001
▁succ	-3002
▁اليه	-3003
▁به	-3004
ucht	-3005
▁lar	-3006
▁unt	-3007
▁pourcentage	-3008
กุ	-3009
สู	-3010
ต้น	-3011
ター	-3012
يز	-3013
とな	-3014
▁som	-3015
▁some	-3016
เภ	-3017
▁Europe	-3018
谁是	-3019
▁personnes	-3020
ché	-3021
بال	-3022
กระ	-3023
▁Houston	-3024
ities	-3025
▁siè	-3026
▁University	-3027
ús	-3028
ثل	-3029
ปล	-3030
哪种	-3031
erk	-3032
egger	-3033
zioni	-3034
فل	-3035
än	-3036
وروب	-3037
▁الز	-3038
ely	-3039
édér	-3040
völker	-3041
ظم	-3042
主义	-3043
▁بعض	-3044
▁atta	-3045
▁deven	-3046
▁process	-3047
7?	-3048
lish	-3049
لف	-3050
clar	-3051
laub	-3052
▁cuánt	-3053
▁known	-3054
äsident	-3055
völkerung	-3056
ทั	-3057
▁Ex	-3058
▁ba	-3059
▁crit	-3060
lement	-3061
warzen	-3062
با	-3063
▁personas	-3064
▁dir	-3065
▁lugar	-3066
ーム	-3067
imm	-3068
for	-3069
▁Nam	-3070
▁best	-3071
▁grupo	-3072
▁عليها	-3073
▁estaba	-3074
فس	-3075
ณ์	-3076
▁pel	-3077
▁ses	-3078
▁หรือ	-3079
▁organiz	-3080
ีน	-3081
hund	-3082
▁gio	-3083
อย่าง	-3084
▁Guer	-3085
▁gener	-3086
▁입	-3087
fen	-3088
▁ai	-3089
เมื่อวัน	-3090
▁Bur	-3091
ุต	-3092
▁&	-3093
oug	-3094
▁Sup	-3095
▁Prin	-3096
fl	-3097
ron	-3098
▁mehr	-3099
كة	-3100
ages	-3101
▁into	-3102
▁tempo	-3103
ี้	-3104
สิ	-3105
▁타	-3106
▁Ges	-3107
▁paese	-3108
▁between	-3109
▁많	-3110
▁cro	-3111
▁real	-3112
▁final	-3113
▁econom	-3114
▁américa	-3115
wick	-3116
▁Del	-3117
▁trat	-3118
▁zwei	-3119
hington	-3120
Ar	-3121
วม	-3122
ude	-3123
تاب	-3124
sp	-3125
หลวง	-3126
▁dest	-3127
▁dopo	-3128
usammen	-3129
ディ	-3130
สํา	-3131
▁esc	-3132
▁zur	-3133
▁major	-3134
▁tarihi	-3135
戦争	-3136
▁conoc	-3137
▁fu	-3138
▁무슨	-3139
بت	-3140
▁데	-3141
リス	-3142
▁appel	-3143
▁실	-3144
들어	-3145
ize	-3146
ซึ่ง	-3147
▁Cor	-3148
▁bomb	-3149
▁الوق	-3150
ilt	-3151
▁Mel	-3152
▁Ply	-3153
되는	-3154
▁무엇을	-3155
▁Eisenhower	-3156
▁왕	-3157
리는	-3158
▁13	-3159
▁band	-3160
▁Austr	-3161
▁إ	-3162
urr	-3163
ตอน	-3164
▁fre	-3165
▁century	-3166
يج	-3167
▁첫	-3168
وان	-3169
▁Val	-3170
▁2000	-3171
▁divis	-3172
lex	-3173
▁lí	-3174
otto	-3175
براطور	-3176
ün	-3177
งาน	-3178
▁날짜	-3179
▁한국	-3180
▁Jahrhund	-3181
bar	-3182
oston	-3183
其他	-3184
termin	-3185
▁place	-3186
导致	-3187
uen	-3188
▁축구	-3189
ก่อตั้ง	-3190
▁Washington	-3191
équ	-3192
ังก	-3193
▁tuv	-3194
ém	-3195
แม	-3196
▁월드	-3197
▁واح	-3198
▁kind	-3199
리아	-3200
스가	-3201
ugh	-3202
หาร	-3203
่าย	-3204
etzt	-3205
ites	-3206
▁fem	-3207
▁لديها	-3208
หมาย	-3209
อด	-3210
cel	-3211
▁espe	-3212
isto	-3213
▁norm	-3214
عية	-3215
▁Premier	-3216
▁يج	-3217
icial	-3218
ศาสตร์	-3219
▁record	-3220
cast	-3221
itehead	-3222
▁popular	-3223
cher	-3224
ภาษา	-3225
▁play	-3226
类型	-3227
▁عمل	-3228
▁more	-3229
ps	-3230
lege	-3231
▁Tenn	-3232
▁terme	-3233
▁II	-3234
▁مص	-3235
lis	-3236
ular	-3237
▁Mex	-3238
▁Plymouth	-3239
ต้	-3240
ave	-3241
ใหญ	-3242
▁Fe	-3243
essee	-3244
ciones	-3245
cies	-3246
temp	-3247
▁무엇인가요	-3248
▁national	-3249
12	-3250
fe	-3251
azioni	-3252
▁활	-3253
组织	-3254
ife	-3255
▁ihr	-3256
▁repr	-3257
▁trib	-3258
▁proble	-3259
ัล	-3260
大的	-3261
▁larg	-3262
▁Roy	-3263
▁idi	-3264
▁zwischen	-3265
warzenegger	-3266
ensch	-3267
▁disp	-3268
▁jour	-3269
▁요	-3270
mpire	-3271
▁quando	-3272
2010	-3273
▁commer	-3274
Pod	-3275
net	-3276
lect	-3277
▁War	-3278
▁cir	-3279
ament	-3280
▁มีชื่อ	-3281
▁système	-3282
كر	-3283
ัฐ	-3284
第二	-3285
ane	-3286
▁قد	-3287
▁persone	-3288
▁Jahrhundert	-3289
طول	-3290
▁vi	-3291
ités	-3292
เริ่ม	-3293
▁made	-3294
▁territ	-3295
بع	-3296
ika	-3297
▁Som	-3298
▁deb	-3299
▁importante	-3300
ترة	-3301
ريط	-3302
▁초	-3303
ตุ	-3304
▁결과	-3305
onia	-3306
▁Gen	-3307
▁gran	-3308
하게	-3309
▁بي	-3310
anci	-3311
gest	-3312
▁Kon	-3313
▁Portug	-3314
▁program	-3315
그램	-3316
uan	-3317
▁gel	-3318
▁lim	-3319
▁britann	-3320
▁반	-3321
vil	-3322
▁Times	-3323
▁comenz	-3324
▁FI	-3325
▁né	-3326
▁선거	-3327
▁leur	-3328
▁están	-3329
ティ	-3330
ดับ	-3331
▁Je	-3332
적으로	-3333
▁App	-3334
▁Dame	-3335
▁Geor	-3336
▁الاخر	-3337
▁날짜는	-3338
▁Comm	-3339
▁الاست	-3340
สหร	-3341
▁발매	-3342
eden	-3343
している	-3344
▁inizi	-3345
かった	-3346
▁années	-3347
▁Begriff	-3348
▁language	-3349
rea	-3350
▁mis	-3351
▁fon	-3352
▁اين	-3353
▁Beyoncé	-3354
▁bekannt	-3355
▁Tennessee	-3356
เกา	-3357
▁مس	-3358
▁연도는	-3359
▁2010?	-3360
▁Vereinig	-3361
▁Geb	-3362
▁Island	-3363
Come	-3364
▁Har	-3365
▁Notre	-3366
acional	-3367
ktion	-3368
▁base	-3369
▁post	-3370
يور	-3371
たのは	-3372
by	-3373
โม	-3374
las	-3375
imin	-3376
▁Pop	-3377
▁cui	-3378
▁test	-3379
كس	-3380
เคร	-3381
▁this	-3382
▁작품	-3383
shall	-3384
▁Uniti	-3385
วี	-3386
▁에	-3387
提供	-3388
立的	-3389
وسط	-3390
▁Bro	-3391
▁over	-3392
▁الرو	-3393
▁Europa	-3394
▁op	-3395
▁result	-3396
▁tradition	-3397
50	-3398
ضا	-3399
▁Carol	-3400
▁الوقت	-3401
اث	-3402
▁번	-3403
▁Staaten	-3404
ED	-3405
bourne	-3406
▁school	-3407
عي	-3408
็จ	-3409
▁ين	-3410
▁Afr	-3411
▁이유	-3412
otball	-3413
ดา	-3414
▁wicht	-3415
▁écrit	-3416
들의	-3417
كثر	-3418
illi	-3419
mond	-3420
▁autor	-3421
▁veröffentlich	-3422
11	-3423
éc	-3424
แก	-3425
적인	-3426
lack	-3427
ชนิด	-3428
▁Mac	-3429
成为	-3430
▁Ad	-3431
▁universidad	-3432
تج	-3433
وز	-3434
cho	-3435
ley	-3436
▁Sw	-3437
▁hay	-3438
สร้าง	-3439
▁donn	-3440
▁الاج	-3441
indows	-3442
▁would	-3443
osp	-3444
ตํา	-3445
フラン	-3446
哪个国家	-3447
▁London	-3448
hm	-3449
197	-3450
▁zum	-3451
ierno	-3452
ใหญ่	-3453
ideo	-3454
وني	-3455
▁club	-3456
▁contra	-3457
อม	-3458
宗教	-3459
▁2015	-3460
▁mondiale	-3461
BS	-3462
には	-3463
▁누구야	-3464
▁welchen	-3465
▁역할	-3466
▁USA	-3467
▁don	-3468
▁erano	-3469
▁describ	-3470
ัท	-3471
▁14	-3472
▁types	-3473
▁학	-3474
سيق	-3475
แบบ	-3476
izione	-3477
▁siglo	-3478
▁sel	-3479
▁suo	-3480
▁بدا	-3481
ctions	-3482
เป็นผู้	-3483
▁lav	-3484
ที่มี	-3485
ณะ	-3486
win	-3487
ركز	-3488
▁american	-3489
▁Bevölkerung	-3490
lia	-3491
대한민국	-3492
▁알	-3493
esi	-3494
ขัน	-3495
enne	-3496
▁nota	-3497
▁게	-3498
▁tod	-3499
Mit	-3500
uda	-3501
เห	-3502
cuel	-3503
▁และ	-3504
▁percent	-3505
br	-3506
endo	-3507
ube	-3508
ฟุต	-3509
▁시즌	-3510
iver	-3511
oles	-3512
▁sing	-3513
▁اللغة	-3514
▁término	-3515
Da	-3516
られ	-3517
▁At	-3518
tır	-3519
asse	-3520
الية	-3521
inc	-3522
▁doc	-3523
▁avait	-3524
▁Boston	-3525
ete	-3526
▁ing	-3527
abeth	-3528
▁befindet	-3529
▁veröffentlicht	-3530
anc	-3531
▁ol	-3532
▁sou	-3533
▁출연한	-3534
▁Stud	-3535
▁rele	-3536
ュー	-3537
واع	-3538
▁Med	-3539
▁수상	-3540
blic	-3541
iente	-3542
▁anni	-3543
▁표	-3544
ibet	-3545
▁period	-3546
스는	-3547
الى	-3548
▁mu	-3549
ists	-3550
อุ	-3551
tes	-3552
▁fer	-3553
▁mal	-3554
▁wenn	-3555
▁Christ	-3556
▁소속	-3557
▁السي	-3558
▁الدولة	-3559
ผล	-3560
มิ	-3561
ัม	-3562
▁dev	-3563
▁algun	-3564
年的	-3565
érie	-3566
الة	-3567
▁fund	-3568
▁monde	-3569
▁Seattle	-3570
▁«	-3571
ved	-3572
▁Ein	-3573
▁può	-3574
▁اصب	-3575
▁acqu	-3576
▁يستخدم	-3577
add	-3578
ランド	-3579
atura	-3580
▁weit	-3581
▁génér	-3582
▁حصل	-3583
▁standard	-3584
iß	-3585
的人	-3586
▁ay	-3587
▁Fre	-3588
▁original	-3589
โอ	-3590
不是	-3591
orie	-3592
▁مرة	-3593
▁government	-3594
▁직	-3595
▁اب	-3596
による	-3597
▁Comp	-3598
ロー	-3599
获得	-3600
▁후보	-3601
▁escuel	-3602
▁gouvernement	-3603
esa	-3604
の中で	-3605
▁تحت	-3606
发现	-3607
ومة	-3608
▁앨범	-3609
▁déf	-3610
상을	-3611
دار	-3612
▁natur	-3613
▁He	-3614
▁مو	-3615
▁sex	-3616
▁appro	-3617
imon	-3618
ていますか	-3619
▁eines	-3620
▁Ste	-3621
▁المص	-3622
▁배우	-3623
▁cant	-3624
ฟุตบอล	-3625
▁bre	-3626
▁sua	-3627
ateur	-3628
unk	-3629
▁cin	-3630
▁Madonna	-3631
คํา	-3632
▁Ang	-3633
▁imm	-3634
▁두	-3635
哪一	-3636
战争	-3637
▁رو	-3638
isse	-3639
▁Pal	-3640
▁otro	-3641
ั้น	-3642
ละคร	-3643
▁ben	-3644
▁Vereinigten	-3645
ئة	-3646
ット	-3647
▁fois	-3648
▁percentage	-3649
▁جزء	-3650
▁mont	-3651
▁priv	-3652
▁Krieg	-3653
▁mundo	-3654
▁bro	-3655
▁mand	-3656
illa	-3657
انت	-3658
ismus	-3659
▁andere	-3660
ว์	-3661
ไม	-3662
bbe	-3663
มาก	-3664
第一次	-3665
▁sous	-3666
▁région	-3667
尼亚	-3668
use	-3669
على	-3670
▁ele	-3671
▁sin	-3672
▁películ	-3673
まで	-3674
โรง	-3675
▁관련	-3676
▁Bell	-3677
▁prote	-3678
แข่งขัน	-3679
ye	-3680
欧洲	-3681
ündet	-3682
▁يفعله	-3683
هد	-3684
림픽	-3685
lay	-3686
mar	-3687
2014	-3688
▁Dar	-3689
▁world	-3690
▁tienen	-3691
▁scrit	-3692
دى	-3693
통령	-3694
ony	-3695
▁tor	-3696
ynast	-3697
▁anci	-3698
len	-3699
▁Part	-3700
▁celeb	-3701
▁porcent	-3702
On	-3703
▁피	-3704
راج	-3705
▁Fo	-3706
▁ست	-3707
▁일본	-3708
achen	-3709
▁besch	-3710
าวิ	-3711
้าย	-3712
hmen	-3713
ellement	-3714
▁general	-3715
이는	-3716
อิน	-3717
▁추	-3718
اقة	-3719
ster	-3720
▁human	-3721
▁اجل	-3722
aires	-3723
▁FIFA	-3724
umento	-3725
อยู่ใน	-3726
คืออะไร	-3727
▁tempor	-3728
พล	-3729
ets	-3730
▁law	-3731
▁porcentaje	-3732
ذه	-3733
ต่อ	-3734
าลัย	-3735
▁pério	-3736
▁maggior	-3737
▁안	-3738
anza	-3739
ious	-3740
▁div	-3741
▁Pres	-3742
▁eing	-3743
▁loro	-3744
▁India	-3745
▁Kerry	-3746
▁begin	-3747
▁무엇입니까	-3748
أي	-3749
รู	-3750
▁%	-3751
▁Qu	-3752
▁사건	-3753
iami	-3754
amiento	-3755
▁dévelop	-3756
كبر	-3757
▁Ed	-3758
ouse	-3759
▁din	-3760
▁ley	-3761
▁حدث	-3762
▁Jahren	-3763
▁ersten	-3764
▁introdu	-3765
خل	-3766
▁eran	-3767
▁centro	-3768
▁segund	-3769
にお	-3770
▁받은	-3771
▁than	-3772
とい	-3773
により	-3774
vano	-3775
atori	-3776
▁cost	-3777
▁sort	-3778
فت	-3779
พื	-3780
ใต้	-3781
▁cha	-3782
ดน	-3783
cion	-3784
rael	-3785
▁bir	-3786
▁mor	-3787
いく	-3788
▁2006	-3789
▁there	-3790
NA	-3791
pir	-3792
▁Paris	-3793
▁occident	-3794
▁Präsident	-3795
สี	-3796
いて	-3797
กีฬ	-3798
ella	-3799
▁100	-3800
▁distr	-3801
▁Sprache	-3802
▁ot	-3803
▁الفي	-3804
▁capac	-3805
▁특징	-3806
▁Aus	-3807
▁méd	-3808
▁함	-3809
年代	-3810
▁lig	-3811
是在哪一年	-3812
▁dónde	-3813
ander	-3814
▁minist	-3815
นาย	-3816
▁ev	-3817
▁تص	-3818
▁변	-3819
ため	-3820
ี่ย	-3821
alia	-3822
สหรัฐ	-3823
▁refer	-3824
▁protest	-3825
▁Melbourne	-3826
زل	-3827
rat	-3828
▁진행	-3829
▁월드컵	-3830
▁الاح	-3831
ทยาลัย	-3832
▁contro	-3833
类型的	-3834
เรียน	-3835
▁album	-3836
30	-3837
대표	-3838
▁Gro	-3839
omas	-3840
ريكي	-3841
▁몇년도	-3842
TV	-3843
주의	-3844
ased	-3845
▁ric	-3846
▁rest	-3847
▁situ	-3848
▁نسبة	-3849
▁invest	-3850
▁langue	-3851
▁peu	-3852
istas	-3853
▁있어	-3854
▁König	-3855
หญ	-3856
▁속	-3857
2008	-3858
امعة	-3859
เมื่อปี	-3860
▁France	-3861
16	-3862
时间	-3863
arch	-3864
▁192	-3865
▁الانت	-3866
▁المنا	-3867
▁Street	-3868
▁بو	-3869
ruct	-3870
▁zona	-3871
▁لديه	-3872
lica	-3873
เขียน	-3874
▁어떠한가	-3875
اش	-3876
yle	-3877
▁red	-3878
Des	-3879
نين	-3880
บัน	-3881
▁La	-3882
▁start	-3883
่วน	-3884
mania	-3885
▁mater	-3886
▁Gruppe	-3887
▁associ	-3888
▁considér	-3889
ตะ	-3890
uta	-3891
يني	-3892
ange	-3893
ments	-3894
าศ	-3895
支持	-3896
▁exist	-3897
น้ํา	-3898
atter	-3899
▁Inst	-3900
ありますか	-3901
▁avant	-3902
▁nation	-3903
14	-3904
▁건	-3905
ราย	-3906
▁사망	-3907
在什么	-3908
ด้วย	-3909
▁jou	-3910
▁gobierno	-3911
سا	-3912
中国	-3913
어난	-3914
part	-3915
▁air	-3916
▁Bron	-3917
▁quali	-3918
▁القرن	-3919
alement	-3920
طلح	-3921
พรร	-3922
▁مق	-3923
▁nav	-3924
▁Ä	-3925
선거	-3926
วรร	-3927
▁fac	-3928
▁Apple	-3929
ilosoph	-3930
▁اكبر	-3931
▁British	-3932
▁라	-3933
▁팀은	-3934
مالية	-3935
▁altro	-3936
▁become	-3937
สง	-3938
ius	-3939
ital	-3940
▁env	-3941
▁türlerde	-3942
▁리	-3943
시아	-3944
▁alc	-3945
▁corr	-3946
▁comenzó	-3947
나라	-3948
▁العام	-3949
โก	-3950
▁독	-3951
通常	-3952
▁take	-3953
ทธ	-3954
もの	-3955
car	-3956
ührt	-3957
▁الما	-3958
▁radio	-3959
▁Londres	-3960
▁principale	-3961
ปร	-3962
명은	-3963
▁adop	-3964
▁inform	-3965
▁develop	-3966
▁»	-3967
بير	-3968
สาม	-3969
ี่ป	-3970
▁Mo	-3971
▁Com	-3972
▁gewonnen	-3973
ضاء	-3974
ญี่ป	-3975
andid	-3976
▁sett	-3977
▁techn	-3978
▁viene	-3979
▁accord	-3980
▁Schwarzenegger	-3981
ño	-3982
の名前	-3983
▁uso	-3984
▁filmini	-3985
انب	-3986
arrol	-3987
▁requ	-3988
建筑	-3989
▁mur	-3990
▁박	-3991
ชาย	-3992
▁프로그램	-3993
▁certa	-3994
ญี่ปุ่น	-3995
▁represent	-3996
اية	-3997
▁pou	-3998
▁compar	-3999
원은	-4000
err	-4001
▁Eg	-4002
ivid	-4003
ทั้ง	-4004
eo	-4005
cen	-4006
éta	-4007
▁frü	-4008
▁rif	-4009
▁capital	-4010
▁Ir	-4011
bert	-4012
▁diale	-4013
oth	-4014
▁اج	-4015
erson	-4016
igkeit	-4017
▁Miami	-4018
▁cause	-4019
▁divent	-4020
▁période	-4021
15	-4022
gi	-4023
▁로	-4024
动物	-4025
▁Die	-4026
ucson	-4027
▁seine	-4028
▁desarrol	-4029
▁임	-4030
ían	-4031
▁nell	-4032
▁faire	-4033
Der	-4034
blica	-4035
▁gegr	-4036
▁عليه	-4037
تش	-4038
ทะ	-4039
ฤษ	-4040
▁جم	-4041
▁구성	-4042
▁geh	-4043
▁China	-4044
▁orient	-4045
▁gegründet	-4046
دل	-4047
▁avuto	-4048
ثة	-4049
▁จ	-4050
agt	-4051
▁مب	-4052
▁Nor	-4053
▁pot	-4054
▁드라마	-4055
athol	-4056
senal	-4057
▁Francia	-4058
geb	-4059
كرة	-4060
用什么	-4061
ider	-4062
นักแสดง	-4063
อเมริกา	-4064
ieder	-4065
مانية	-4066
▁المش	-4067
FL	-4068
ba	-4069
通过	-4070
▁bl	-4071
▁jo	-4072
▁hatte	-4073
เศ	-4074
enci	-4075
▁avoir	-4076
代表	-4077
映画	-4078
法国	-4079
uge	-4080
asil	-4081
希腊	-4082
get	-4083
▁sem	-4084
▁educ	-4085
▁common	-4086
地方	-4087
gel	-4088
▁بر	-4089
はどの	-4090
▁otr	-4091
▁Portugal	-4092
lin	-4093
หญิง	-4094
▁conv	-4095
esehen	-4096
▁genre	-4097
▁العمل	-4098
▁propos	-4099
▁National	-4100
ギリス	-4101
▁Bez	-4102
▁ที่	-4103
▁인물은	-4104
▁2005	-4105
▁Delhi	-4106
▁yönetti	-4107
▁المدينة	-4108
udio	-4109
มาจาก	-4110
はどこですか	-4111
cy	-4112
▁แ	-4113
▁항	-4114
lem	-4115
เขา	-4116
amer	-4117
บริษ	-4118
▁dom	-4119
▁log	-4120
▁Niger	-4121
▁estable	-4122
시의	-4123
イギリス	-4124
ology	-4125
▁hacer	-4126
▁present	-4127
سمى	-4128
2012	-4129
▁ste	-4130
▁polít	-4131
▁منطقة	-4132
يث	-4133
ูน	-4134
dem	-4135
lymp	-4136
▁Bre	-4137
رح	-4138
กิ	-4139
นวน	-4140
▁Imp	-4141
▁pris	-4142
▁tele	-4143
زي	-4144
▁점	-4145
スの	-4146
될까	-4147
iles	-4148
▁Ber	-4149
▁Min	-4150
ريد	-4151
يات	-4152
▁Tuv	-4153
ersch	-4154
▁United	-4155
ks	-4156
▁auch	-4157
▁Marshall	-4158
ته	-4159
音乐	-4160
bur	-4161
▁년도에	-4162
▁dies	-4163
が多	-4164
联邦	-4165
▁تت	-4166
ares	-4167
▁tex	-4168
other	-4169
▁Intern	-4170
中的	-4171
可能	-4172
被认为	-4173
▁مست	-4174
ederal	-4175
▁causa	-4176
estival	-4177
▁signific	-4178
yl	-4179
▁mas	-4180
เตอร์	-4181
issance	-4182
を受	-4183
hlt	-4184
ält	-4185
▁Phil	-4186
ุง	-4187
uso	-4188
uter	-4189
▁baş	-4190
▁Tuvalu	-4191
▁frances	-4192
ضع	-4193
中心	-4194
west	-4195
▁대통령	-4196
▁sulla	-4197
▁leader	-4198
▁않	-4199
oso	-4200
▁Ha	-4201
做什么	-4202
eter	-4203
▁살	-4204
▁코	-4205
ンの	-4206
▁Yale	-4207
บริษัท	-4208
izabeth	-4209
isc	-4210
يري	-4211
▁gi	-4212
▁où	-4213
▁فاز	-4214
▁utiliza	-4215
事件	-4216
▁happ	-4217
ที่สุดใน	-4218
▁begonnen	-4219
คม	-4220
▁anderen	-4221
▁Whitehead	-4222
ST	-4223
▁ig	-4224
anta	-4225
لسلة	-4226
▁mes	-4227
änder	-4228
▁nord	-4229
▁prod	-4230
พระราช	-4231
▁invent	-4232
▁siècle	-4233
地域	-4234
amo	-4235
cep	-4236
ifs	-4237
irg	-4238
aint	-4239
▁west	-4240
เมื่อใด	-4241
▁histor	-4242
عم	-4243
เย	-4244
▁jug	-4245
▁Dell	-4246
▁vari	-4247
As	-4248
ja	-4249
需要	-4250
رات	-4251
▁podr	-4252
▁الامبراطور	-4253
ody	-4254
▁가지	-4255
abad	-4256
▁chr	-4257
aient	-4258
มหาวิ	-4259
▁يعتقد	-4260
Ch	-4261
▁bar	-4262
▁jud	-4263
▁Richmond	-4264
▁Det	-4265
していた	-4266
zeich	-4267
▁casa	-4268
▁perí	-4269
▁propr	-4270
fo	-4271
ัส	-4272
โน	-4273
▁كتب	-4274
Durante	-4275
▁contre	-4276
▁군	-4277
lant	-4278
▁Rom	-4279
▁add	-4280
▁mag	-4281
angen	-4282
▁visit	-4283
Im	-4284
▁감독	-4285
▁이후	-4286
▁gruppo	-4287
▁-	-4288
である	-4289
ians	-4290
rait	-4291
▁Mit	-4292
▁vot	-4293
▁termine	-4294
ปลา	-4295
▁أم	-4296
▁bis	-4297
▁religion	-4298
CA	-4299
mas	-4300
▁Os	-4301
▁리그	-4302
▁الأم	-4303
▁سكان	-4304
▁condu	-4305
▁الدول	-4306
▁design	-4307
▁signif	-4308
BM	-4309
ES	-4310
▁dr	-4311
▁where	-4312
ناك	-4313
▁oc	-4314
istes	-4315
racht	-4316
学院	-4317
acc	-4318
ías	-4319
▁ret	-4320
▁word	-4321
▁kimdir	-4322
いた	-4323
▁누가	-4324
Para	-4325
entr	-4326
▁trois	-4327
▁تستخدم	-4328
ภู	-4329
ีก	-4330
誰ですか	-4331
▁support	-4332
▁높	-4333
的一	-4334
▁Air	-4335
▁entr	-4336
▁السكان	-4337
▁contribu	-4338
ham	-4339
ike	-4340
ئيسي	-4341
▁ganó	-4342
▁فيلم	-4343
▁mayoría	-4344
▁capitale	-4345
ส่วน	-4346
▁este	-4347
▁tuvo	-4348
lished	-4349
▁separ	-4350
▁Barcel	-4351
▁kaçtır	-4352
üd	-4353
ergie	-4354
▁King	-4355
▁lange	-4356
ไฟ	-4357
▁투	-4358
▁형	-4359
▁ใด	-4360
▁being	-4361
▁können	-4362
장은	-4363
han	-4364
はどれ	-4365
كومة	-4366
▁arg	-4367
ationen	-4368
▁คือใคร	-4369
▁메	-4370
lie	-4371
ชนะ	-4372
โดยใคร	-4373
▁edific	-4374
▁escrib	-4375
ظر	-4376
صول	-4377
되었는가	-4378
▁البح	-4379
出版	-4380
ily	-4381
raft	-4382
▁이유는	-4383
▁iPod	-4384
▁الهند	-4385
▁활동	-4386
ford	-4387
ارات	-4388
▁ven	-4389
▁alto	-4390
▁desc	-4391
▁four	-4392
depend	-4393
▁Japan	-4394
แน	-4395
อาก	-4396
ื้อ	-4397
yder	-4398
▁Cal	-4399
▁Hol	-4400
affen	-4401
▁gibt	-4402
▁considered	-4403
谁在	-4404
eld	-4405
ices	-4406
▁Ing	-4407
▁tut	-4408
▁popolazione	-4409
とは	-4410
리가	-4411
▁Hay	-4412
▁Kir	-4413
▁Sud	-4414
▁انه	-4415
▁costru	-4416
▁important	-4417
bil	-4418
่อม	-4419
rain	-4420
sche	-4421
تحاد	-4422
وريا	-4423
▁mill	-4424
▁2009?	-4425
▁버	-4426
igu	-4427
นด์	-4428
เข้า	-4429
addafi	-4430
▁norte	-4431
▁développ	-4432
ña	-4433
工作	-4434
cif	-4435
ôle	-4436
▁We	-4437
▁را	-4438
เพื่อ	-4439
▁media	-4440
▁Darwin	-4441
▁George	-4442
▁카	-4443
었던	-4444
rom	-4445
2009	-4446
isce	-4447
▁Ital	-4448
▁quelles	-4449
▁wichtig	-4450
جلس	-4451
ําร	-4452
alis	-4453
raph	-4454
terne	-4455
▁make	-4456
大統	-4457
적은	-4458
▁év	-4459
大統領	-4460
folk	-4461
▁dalla	-4462
▁vinto	-4463
▁화	-4464
られた	-4465
▁differ	-4466
ًا	-4467
วิต	-4468
▁Ent	-4469
▁determin	-4470
je	-4471
위를	-4472
いのは	-4473
orea	-4474
yderabad	-4475
▁sé	-4476
▁pet	-4477
teurs	-4478
anjing	-4479
▁temper	-4480
gt	-4481
マン	-4482
レー	-4483
bol	-4484
ades	-4485
สถาน	-4486
▁mús	-4487
时期	-4488
Auf	-4489
بات	-4490
したの	-4491
▁لعب	-4492
▁países	-4493
▁호	-4494
原因	-4495
ورة	-4496
▁ايضا	-4497
erstüt	-4498
▁scient	-4499
▁período	-4500
有多	-4501
들을	-4502
امل	-4503
▁sud	-4504
▁tip	-4505
ciato	-4506
▁Tucson	-4507
▁divers	-4508
▁peuvent	-4509
لق	-4510
ديم	-4511
2011	-4512
は何年に	-4513
اط	-4514
บท	-4515
▁곡	-4516
eln	-4517
ves	-4518
فين	-4519
ises	-4520
ในการ	-4521
▁gagn	-4522
▁geschrieben	-4523
▁순	-4524
orr	-4525
▁gegen	-4526
owl	-4527
▁سب	-4528
▁akt	-4529
osten	-4530
▁الاع	-4531
▁따	-4532
斯特	-4533
罗马	-4534
app	-4535
▁معظم	-4536
▁antes	-4537
มหาวิทยาลัย	-4538
คุ	-4539
193	-4540
mio	-4541
▁mol	-4542
▁idioma	-4543
عات	-4544
cito	-4545
enden	-4546
▁Film	-4547
▁société	-4548
▁they	-4549
▁color	-4550
▁pueden	-4551
▁Carolina	-4552
人的	-4553
한국	-4554
elli	-4555
ield	-4556
ativo	-4557
▁quels	-4558
▁Regierung	-4559
ทีม	-4560
という	-4561
▁الاف	-4562
▁الوط	-4563
▁هناك	-4564
ニア	-4565
일본	-4566
pla	-4567
agne	-4568
วิทย	-4569
▁squ	-4570
▁writ	-4571
▁England	-4572
▁استخدام	-4573
جر	-4574
▁via	-4575
▁2013?	-4576
▁Bronx	-4577
▁Frank	-4578
▁pubblic	-4579
▁película	-4580
ودة	-4581
▁grandes	-4582
▁significa	-4583
hu	-4584
▁달	-4585
일에	-4586
ipe	-4587
utt	-4588
▁Cr	-4589
▁방영	-4590
▁alta	-4591
▁hace	-4592
▁lanz	-4593
▁mosa	-4594
BA	-4595
بية	-4596
2013	-4597
▁gek	-4598
ío	-4599
ives	-4600
▁لكي	-4601
▁data	-4602
▁السل	-4603
บา	-4604
▁득	-4605
▁매	-4606
重要	-4607
iven	-4608
▁mie	-4609
ather	-4610
▁Arch	-4611
ême	-4612
aska	-4613
เดีย	-4614
▁لها	-4615
▁Mont	-4616
▁volta	-4617
▁zuerst	-4618
เท่าไหร่	-4619
▁iniziato	-4620
دف	-4621
▁법	-4622
▁본	-4623
最高	-4624
فضل	-4625
่าน	-4626
▁전국	-4627
กีฬา	-4628
▁exper	-4629
حي	-4630
ชุ	-4631
▁할	-4632
国の	-4633
▁My	-4634
였는가	-4635
อากาศ	-4636
▁simil	-4637
▁cuántos	-4638
EFA	-4639
los	-4640
وائ	-4641
▁Ro	-4642
▁노선	-4643
utsch	-4644
▁estaban	-4645
▁Napoleon	-4646
uß	-4647
lim	-4648
▁Go	-4649
ating	-4650
inden	-4651
▁reci	-4652
▁years	-4653
ouve	-4654
▁تاريخ	-4655
영화	-4656
▁세계	-4657
发展	-4658
idé	-4659
راض	-4660
▁power	-4661
▁percentuale	-4662
行わ	-4663
اعد	-4664
▁Pe	-4665
▁나라	-4666
سيقى	-4667
▁particip	-4668
ช่	-4669
voir	-4670
▁wür	-4671
inder	-4672
ateurs	-4673
▁America	-4674
来的	-4675
ران	-4676
▁اخ	-4677
idas	-4678
▁thé	-4679
▁russ	-4680
▁activ	-4681
▁concept	-4682
خاب	-4683
จีน	-4684
▁المل	-4685
Welchen	-4686
▁Detroit	-4687
พบ	-4688
ket	-4689
▁Pl	-4690
orté	-4691
▁cou	-4692
▁mer	-4693
▁Paul	-4694
▁2011?	-4695
ser	-4696
Along	-4697
▁aver	-4698
cil	-4699
ว่าง	-4700
เดิม	-4701
▁scu	-4702
▁Repub	-4703
ié	-4704
át	-4705
成的	-4706
所有	-4707
2015	-4708
umann	-4709
▁stag	-4710
▁nueva	-4711
21	-4712
社会	-4713
사의	-4714
اسي	-4715
ostr	-4716
ural	-4717
▁الكل	-4718
ظمة	-4719
فية	-4720
▁24	-4721
▁dove	-4722
▁Super	-4723
▁College	-4724
อํา	-4725
▁Lu	-4726
نع	-4727
ファ	-4728
adre	-4729
ambi	-4730
หนัง	-4731
اضافة	-4732
▁serie	-4733
ท์	-4734
เด็จ	-4735
▁vez	-4736
▁2004	-4737
▁التح	-4738
▁2007?	-4739
BI	-4740
▁بول	-4741
▁2008?	-4742
▁Hayek	-4743
Pro	-4744
eau	-4745
2018	-4746
▁redu	-4747
▁شركة	-4748
図書	-4749
wer	-4750
สูง	-4751
▁agr	-4752
▁بلد	-4753
▁viol	-4754
▁عادة	-4755
하는가	-4756
▁britán	-4757
yd	-4758
▁Q	-4759
▁ú	-4760
gos	-4761
وير	-4762
▁تج	-4763
etter	-4764
สมเด็จ	-4765
▁notable	-4766
▁창	-4767
电影	-4768
خاص	-4769
▁مش	-4770
ized	-4771
▁انش	-4772
หม่อม	-4773
▁carr	-4774
▁mondo	-4775
▁estados	-4776
ös	-4777
cole	-4778
inter	-4779
▁국가대표	-4780
▁différ	-4781
ライ	-4782
ภาค	-4783
ga	-4784
zi	-4785
バー	-4786
bers	-4787
▁Ter	-4788
▁Cong	-4789
▁مجموعة	-4790
▁Elizabeth	-4791
▁저	-4792
했어	-4793
iot	-4794
▁él	-4795
▁위치	-4796
▁déb	-4797
▁fig	-4798
▁المست	-4799
▁الاخرى	-4800
▁dialect	-4801
ee	-4802
两个	-4803
ani	-4804
▁ord	-4805
▁يجب	-4806
▁season	-4807
pi	-4808
ณา	-4809
ecut	-4810
กรรม	-4811
▁187	-4812
▁cab	-4813
▁tur	-4814
▁land	-4815
▁Gesch	-4816
▁under	-4817
▁culture	-4818
▁الامريكية	-4819
德国	-4820
百分	-4821
ارك	-4822
ุ่ม	-4823
▁Su	-4824
rale	-4825
يورك	-4826
▁الناس	-4827
▁더	-4828
▁새	-4829
▁migr	-4830
▁sold	-4831
文化	-4832
점은	-4833
ode	-4834
▁uu	-4835
lung	-4836
▁الجز	-4837
▁igles	-4838
▁evento	-4839
وة	-4840
เกม	-4841
▁cél	-4842
▁جامعة	-4843
"؟	-4844
äd	-4845
فا	-4846
▁광	-4847
ftw	-4848
▁خط	-4849
▁lat	-4850
▁sat	-4851
▁nomin	-4852
▁zweit	-4853
▁dispos	-4854
▁trabajo	-4855
일은	-4856
قاط	-4857
▁Str	-4858
▁led	-4859
▁ของ	-4860
▁rank	-4861
▁sent	-4862
▁نظام	-4863
▁nelle	-4864
▁سلسلة	-4865
▁created	-4866
وك	-4867
ดู	-4868
weit	-4869
พื้น	-4870
▁alt	-4871
▁2016	-4872
▁Iran	-4873
▁conqu	-4874
▁occup	-4875
▁الملك	-4876
ín	-4877
โบ	-4878
▁اش	-4879
▁내용	-4880
▁tour	-4881
▁negli	-4882
▁encontr	-4883
▁passiert	-4884
ky	-4885
แพ	-4886
hem	-4887
▁So	-4888
ches	-4889
▁aer	-4890
▁العث	-4891
▁Armen	-4892
▁yayınlan	-4893
ندا	-4894
▁예선	-4895
▁تقع	-4896
gesch	-4897
▁individ	-4898
pa	-4899
多数	-4900
生产	-4901
uddh	-4902
▁dar	-4903
いですか	-4904
▁양	-4905
ادي	-4906
ดิน	-4907
crip	-4908
▁Tibet	-4909
▁desde	-4910
At	-4911
に対	-4912
之间	-4913
▁hö	-4914
▁style	-4915
▁company	-4916
▁gegeben	-4917
รถ	-4918
야구	-4919
▁ee	-4920
是如何	-4921
ลักษ	-4922
uelle	-4923
▁heiß	-4924
▁المك	-4925
▁again	-4926
▁música	-4927
▁entwick	-4928
▁집	-4929
▁Tur	-4930
▁rev	-4931
▁قامت	-4932
▁crist	-4933
▁point	-4934
ministr	-4935
▁effect	-4936
▁베	-4937
ush	-4938
▁FC	-4939
▁you	-4940
ision	-4941
entsatz	-4942
▁VI	-4943
itut	-4944
izio	-4945
▁ave	-4946
icano	-4947
▁rend	-4948
▁미국	-4949
teil	-4950
wood	-4951
▁올림픽	-4952
运动	-4953
ศึก	-4954
▁주장	-4955
かったのは	-4956
▁autres	-4957
▁größte	-4958
▁représ	-4959
▁Nigeria	-4960
▁Prozentsatz	-4961
قط	-4962
ูล	-4963
ルト	-4964
리의	-4965
apt	-4966
ائزة	-4967
Junto	-4968
anten	-4969
▁Virg	-4970
▁show	-4971
▁secolo	-4972
Ab	-4973
ift	-4974
eston	-4975
▁could	-4976
196	-4977
lad	-4978
ยาย	-4979
ierte	-4980
▁اليون	-4981
ji	-4982
وار	-4983
وفي	-4984
▁اثنين	-4985
▁insect	-4986
▁societ	-4987
ธาน	-4988
▁Bl	-4989
▁publi	-4990
▁العالمية	-4991
主教	-4992
存在	-4993
怎么	-4994
比例	-4995
스터	-4996
▁mom	-4997
▁conten	-4998
لاق	-4999
utzt	-5000
▁gra	-5001
ativa	-5002
ชีวิต	-5003
▁social	-5004
-2	-5005
سك	-5006
▁발표	-5007
elig	-5008
icio	-5009
▁nam	-5010
cn	-5011
かに	-5012
ตาม	-5013
▁CD	-5014
inos	-5015
ually	-5016
verno	-5017
▁palab	-5018
▁Center	-5019
▁provin	-5020
▁saison	-5021
▁largest	-5022
طي	-5023
وقع	-5024
▁مؤ	-5025
เครื่อง	-5026
▁lingua	-5027
FC	-5028
▁체	-5029
lar	-5030
fect	-5031
▁East	-5032
▁الاط	-5033
▁Diego	-5034
▁convert	-5035
โต	-5036
فال	-5037
▁az	-5038
▁최초	-5039
puis	-5040
▁Gal	-5041
▁llev	-5042
نى	-5043
不同	-5044
이야	-5045
▁함께	-5046
第一个	-5047
등학교	-5048
oren	-5049
▁Bew	-5050
ynman	-5051
▁School	-5052
▁نيويورك	-5053
يسة	-5054
ังกฤษ	-5055
▁minor	-5056
▁없	-5057
シア	-5058
ンド	-5059
وبر	-5060
นาด	-5061
▁대해	-5062
有哪些	-5063
omen	-5064
upart	-5065
▁complet	-5066
▁plupart	-5067
80	-5068
배우	-5069
เทพ	-5070
▁어땠	-5071
2007	-5072
2016	-5073
▁Gran	-5074
▁الاخ	-5075
▁بدات	-5076
▁فترة	-5077
▁difer	-5078
▁quand	-5079
Zusammen	-5080
โรงเรียน	-5081
ró	-5082
▁죽	-5083
▁هذه	-5084
edeut	-5085
▁Buch	-5086
▁deuxième	-5087
مع	-5088
ント	-5089
▁يش	-5090
リーズ	-5091
▁oft	-5092
はどちら	-5093
krieg	-5094
▁Park	-5095
▁build	-5096
学家	-5097
사를	-5098
▁ep	-5099
▁nú	-5100
คราม	-5101
▁فريق	-5102
édéric	-5103
▁scritto	-5104
▁الاتحاد	-5105
طن	-5106
ヨー	-5107
Das	-5108
▁الاص	-5109
▁another	-5110
▁travail	-5111
▁escribió	-5112
方法	-5113
ينا	-5114
ระห	-5115
▁이용	-5116
▁acuer	-5117
ใครร้อง	-5118
▁service	-5119
上的	-5120
共和	-5121
▁대표	-5122
▁bus	-5123
的是什么	-5124
▁House	-5125
▁sport	-5126
▁English	-5127
印度	-5128
问题	-5129
▁게임	-5130
▁이루	-5131
▁Arten	-5132
▁Roman	-5133
▁candid	-5134
ienda	-5135
vilup	-5136
▁1990	-5137
▁جانب	-5138
อังกฤษ	-5139
▁rapport	-5140
▁데뷔	-5141
인가요	-5142
اعدة	-5143
แม่น	-5144
▁wem	-5145
▁persona	-5146
▁Spielberg	-5147
での	-5148
ala	-5149
vin	-5150
▁mig	-5151
▁top	-5152
▁line	-5153
▁sido	-5154
▁große	-5155
นํา	-5156
いくつ	-5157
▁ult	-5158
พันธ์	-5159
pol	-5160
▁등장	-5161
اسية	-5162
arios	-5163
▁gior	-5164
▁Arbeit	-5165
▁signifie	-5166
วา	-5167
▁청	-5168
人类	-5169
法律	-5170
ula	-5171
ครอง	-5172
▁Auf	-5173
▁III	-5174
ประจํา	-5175
▁politique	-5176
وى	-5177
控制	-5178
ash	-5179
ายุ	-5180
▁opp	-5181
▁التق	-5182
genommen	-5183
ternehmen	-5184
パー	-5185
Für	-5186
uck	-5187
udo	-5188
ress	-5189
ขนาด	-5190
▁Tito	-5191
▁mass	-5192
▁Const	-5193
▁Organ	-5194
されましたか	-5195
▁الاشخاص	-5196
เธ	-5197
기의	-5198
ubs	-5199
▁اح	-5200
되었을까	-5201
▁الرئيسية	-5202
รม	-5203
رائ	-5204
เอก	-5205
erie	-5206
iers	-5207
ison	-5208
▁últ	-5209
▁help	-5210
▁gente	-5211
▁llama	-5212
ระหว่าง	-5213
ทุ	-5214
กุล	-5215
▁하는	-5216
udes	-5217
ينية	-5218
▁어디야	-5219
ambién	-5220
▁miemb	-5221
Or	-5222
인은	-5223
eros	-5224
สมัย	-5225
▁naz	-5226
tagne	-5227
▁bene	-5228
▁Willi	-5229
▁south	-5230
どちらですか	-5231
ห์	-5232
▁금	-5233
fér	-5234
erne	-5235
uman	-5236
ธรรม	-5237
▁العل	-5238
พระองค์	-5239
▁también	-5240
▁판	-5241
と呼	-5242
간은	-5243
디오	-5244
図書館	-5245
▁Aut	-5246
▁équ	-5247
actér	-5248
▁genannt	-5249
▁chiamato	-5250
ジョ	-5251
用来	-5252
자의	-5253
ago	-5254
ลูก	-5255
▁서울	-5256
▁leurs	-5257
▁svilup	-5258
▁Windows	-5259
▁produce	-5260
▁ม	-5261
ène	-5262
دير	-5263
▁ru	-5264
▁اد	-5265
世界大	-5266
▁184	-5267
glise	-5268
▁المب	-5269
érique	-5270
▁connu	-5271
▁الرئيسي	-5272
▁responsab	-5273
.?	-5274
yr	-5275
行的	-5276
▁많은	-5277
ほかに	-5278
inas	-5279
▁Sov	-5280
▁اخت	-5281
แม่น้ํา	-5282
▁Popper	-5283
▁independ	-5284
ใครเป็นผู้	-5285
▁dro	-5286
leston	-5287
▁escuela	-5288
▁gefunden	-5289
▁position	-5290
cs	-5291
다는	-5292
val	-5293
▁운행	-5294
ains	-5295
▁tun	-5296
▁dise	-5297
arbeit	-5298
▁verurs	-5299
▁musique	-5300
▁temporada	-5301
都市	-5302
تما	-5303
สาย	-5304
▁اغ	-5305
▁وج	-5306
▁183	-5307
▁Brasil	-5308
▁televis	-5309
äl	-5310
cos	-5311
lob	-5312
يام	-5313
edes	-5314
ours	-5315
ungs	-5316
▁190	-5317
ender	-5318
อส	-5319
▁합	-5320
ング	-5321
هور	-5322
ดาว	-5323
▁تس	-5324
▁평균	-5325
シリーズ	-5326
ights	-5327
▁normal	-5328
▁민	-5329
▁cla	-5330
▁هذا	-5331
▁결과는	-5332
▁livre	-5333
▁nouve	-5334
ใครคือผู้	-5335
ملكة	-5336
▁jap	-5337
ennen	-5338
usion	-5339
▁2015?	-5340
▁Arsenal	-5341
▁책	-5342
195	-5343
nal	-5344
off	-5345
される	-5346
的主要	-5347
enna	-5348
eres	-5349
rest	-5350
▁raz	-5351
▁나라는	-5352
▁tier	-5353
ología	-5354
▁2012?	-5355
▁tenía	-5356
พุ	-5357
▁각	-5358
▁산	-5359
总统	-5360
统治	-5361
ترا	-5362
دات	-5363
แต่	-5364
▁XX	-5365
ardin	-5366
ibles	-5367
istan	-5368
▁only	-5369
▁التن	-5370
▁total	-5371
がある	-5372
회의원	-5373
osci	-5374
▁وقت	-5375
▁rece	-5376
▁early	-5377
ครั้งที่	-5378
บน	-5379
ミー	-5380
íst	-5381
انيا	-5382
فق	-5383
รส	-5384
ald	-5385
▁ju	-5386
▁BBC	-5387
▁FBI	-5388
leich	-5389
uerto	-5390
▁대한민국	-5391
การแข่งขัน	-5392
▁ใช่หรือไม่	-5393
结束	-5394
のは何	-5395
▁Neumann	-5396
▁governo	-5397
▁fonction	-5398
เรียกว่าอะไร	-5399
où	-5400
aba	-5401
▁ta	-5402
▁대회	-5403
▁الاق	-5404
▁común	-5405
Cu	-5406
アル	-5407
리를	-5408
gyp	-5409
âge	-5410
▁شي	-5411
zeit	-5412
▁Act	-5413
▁cette	-5414
▁Israel	-5415
Is	-5416
aya	-5417
่วม	-5418
egen	-5419
ประก	-5420
ionen	-5421
▁sout	-5422
▁team	-5423
▁númer	-5424
▁quanti	-5425
▁البريط	-5426
めて	-5427
iato	-5428
หน้า	-5429
▁Mil	-5430
▁أول	-5431
สงคราม	-5432
isl	-5433
▁لع	-5434
ules	-5435
▁tan	-5436
▁cell	-5437
▁créé	-5438
▁التج	-5439
▁product	-5440
▁countries	-5441
kl	-5442
cie	-5443
ือก	-5444
▁Ba	-5445
▁ber	-5446
▁often	-5447
▁الاسم	-5448
▁الموا	-5449
▁dispon	-5450
▁الثاني	-5451
▁القوات	-5452
出现	-5453
스타	-5454
▁TV	-5455
▁edad	-5456
ญา	-5457
机构	-5458
ypt	-5459
▁بت	-5460
eles	-5461
▁hic	-5462
▁nei	-5463
▁만들어	-5464
illes	-5465
rench	-5466
▁mult	-5467
▁황	-5468
罗斯	-5469
Sur	-5470
دول	-5471
ราง	-5472
▁جن	-5473
▁المجموعة	-5474
参加	-5475
라이	-5476
och	-5477
anos	-5478
idge	-5479
▁사람의	-5480
laubt	-5481
▁large	-5482
▁equipo	-5483
رم	-5484
タイ	-5485
ポー	-5486
时代	-5487
lik	-5488
,000	-5489
neur	-5490
▁parl	-5491
▁sour	-5492
▁치	-5493
alk	-5494
irm	-5495
▁ضد	-5496
した人	-5497
2006	-5498
▁dit	-5499
▁트	-5500
지방	-5501
ฉาย	-5502
สาร	-5503
Amer	-5504
ใหม่	-5505
▁Sec	-5506
rough	-5507
何年のこと	-5508
▁Royal	-5509
▁nuevo	-5510
▁treat	-5511
▁الثانية	-5512
▁utilizzato	-5513
้ง	-5514
▁Ü	-5515
ivi	-5516
ney	-5517
▁ma	-5518
▁اق	-5519
▁것이	-5520
▁될까	-5521
▁Fra	-5522
▁mej	-5523
▁기록한	-5524
เสียง	-5525
▁2014?	-5526
▁civil	-5527
▁incre	-5528
▁document	-5529
Pr	-5530
Sh	-5531
óm	-5532
▁디	-5533
대의	-5534
نيسة	-5535
▁san	-5536
▁ออก	-5537
วิทยา	-5538
▁المج	-5539
▁invol	-5540
▁Norfolk	-5541
▁acuerdo	-5542
▁football	-5543
▁material	-5544
Re	-5545
▁โ	-5546
▁취	-5547
根据	-5548
Von	-5549
▁na	-5550
หน่ง	-5551
▁ได้	-5552
▁machen	-5553
▁partir	-5554
ที่เท่าไหร่	-5555
オー	-5556
犹太	-5557
Las	-5558
▁Rob	-5559
▁cam	-5560
▁pur	-5561
▁الض	-5562
igine	-5563
orben	-5564
▁Alaska	-5565
▁Grande	-5566
建立	-5567
egn	-5568
ilo	-5569
2000	-5570
▁عرض	-5571
round	-5572
▁book	-5573
▁dynast	-5574
▁الجنوب	-5575
'?	-5576
้ว	-5577
フィ	-5578
何时	-5579
프로	-5580
กรุง	-5581
▁fall	-5582
▁ital	-5583
▁تكون	-5584
▁obten	-5585
▁nacional	-5586
ラー	-5587
允许	-5588
唯一	-5589
랜드	-5590
erb	-5591
tto	-5592
üng	-5593
▁له	-5594
▁LED	-5595
ultur	-5596
▁Groß	-5597
▁against	-5598
irtschaft	-5599
13	-5600
YU	-5601
َن	-5602
▁크	-5603
วัล	-5604
대학교	-5605
alth	-5606
▁dig	-5607
▁dijo	-5608
▁lleg	-5609
▁أكبر	-5610
▁واحد	-5611
▁examp	-5612
▁objet	-5613
▁podría	-5614
▁produit	-5615
สหรัฐอเมริกา	-5616
▁논	-5617
▁물	-5618
tog	-5619
ทธิ	-5620
▁발생	-5621
とは何	-5622
anas	-5623
ตําแ	-5624
▁ayud	-5625
ตําแหน่ง	-5626
Se	-5627
장의	-5628
정은	-5629
ديو	-5630
ماء	-5631
หัว	-5632
▁Ma	-5633
▁dirig	-5634
▁zurück	-5635
之前	-5636
▁Ass	-5637
▁شخص	-5638
▁perd	-5639
▁model	-5640
▁States	-5641
enschaft	-5642
▁remporté	-5643
มีชื่อว่าอะไร	-5644
▁외	-5645
フォ	-5646
ヴィ	-5647
大き	-5648
원이	-5649
หมด	-5650
atum	-5651
ences	-5652
แลนด์	-5653
idades	-5654
什么时候开始	-5655
▁compet	-5656
▁ingles	-5657
▁Valencia	-5658
ซ์	-5659
经济	-5660
가는	-5661
소는	-5662
كمة	-5663
的哪个	-5664
ende	-5665
line	-5666
çais	-5667
▁sens	-5668
verton	-5669
แรกของ	-5670
▁Haupt	-5671
▁parti	-5672
▁클	-5673
东西	-5674
多く	-5675
asa	-5676
isti	-5677
nent	-5678
▁Arm	-5679
▁but	-5680
iforn	-5681
▁musul	-5682
Univers	-5683
▁gebaut	-5684
▁souvent	-5685
çu	-5686
他的	-5687
以前	-5688
增加	-5689
漱石	-5690
مَن	-5691
전에서	-5692
uses	-5693
zahl	-5694
▁Kar	-5695
何年ですか	-5696
ontrol	-5697
▁국가대표팀	-5698
อย่างไร	-5699
航空	-5700
บาล	-5701
▁fav	-5702
▁Form	-5703
▁expl	-5704
▁letz	-5705
▁plant	-5706
▁estudi	-5707
▁periodo	-5708
▁Barcelona	-5709
▁responsable	-5710
ctr	-5711
apos	-5712
▁بان	-5713
ances	-5714
yonce	-5715
▁gagné	-5716
▁quant	-5717
▁escrit	-5718
▁premio	-5719
สมเด็จพระ	-5720
▁philosoph	-5721
▁الأمريكية	-5722
▁الامبراطورية	-5723
Th	-5724
ey	-5725
제는	-5726
eri	-5727
▁Ur	-5728
였을까	-5729
wort	-5730
درسة	-5731
ونسي	-5732
ontin	-5733
▁IMDB	-5734
▁lung	-5735
▁Musik	-5736
▁arriv	-5737
▁comer	-5738
▁instr	-5739
▁appelé	-5740
▁numero	-5741
▁imperio	-5742
ification	-5743
هو	-5744
产生	-5745
关于	-5746
것은	-5747
oli	-5748
▁행정	-5749
itor	-5750
انات	-5751
ทะเล	-5752
▁fab	-5753
▁선수는	-5754
iblio	-5755
▁also	-5756
▁apoy	-5757
▁Burke	-5758
▁empres	-5759
▁happen	-5760
ulo	-5761
ويل	-5762
▁Fam	-5763
▁arte	-5764
▁cens	-5765
ชนิดใด	-5766
▁القانون	-5767
ef	-5768
斯顿	-5769
uni	-5770
2017	-5771
แต่ง	-5772
▁sans	-5773
▁child	-5774
Est	-5775
idd	-5776
บ้าน	-5777
enten	-5778
▁المنطقة	-5779
นน	-5780
▁اص	-5781
大多数	-5782
▁ถูก	-5783
▁James	-5784
▁ejemp	-5785
▁French	-5786
رش	-5787
▁얻	-5788
สัต	-5789
itzer	-5790
▁2001	-5791
▁dall	-5792
▁oficial	-5793
غي	-5794
ทิ	-5795
▁적	-5796
计划	-5797
nis	-5798
เกาะ	-5799
▁وضع	-5800
▁삼	-5801
청률	-5802
最大的	-5803
▁2018	-5804
itions	-5805
ชื่อว่าอะไร	-5806
▁간	-5807
▁토	-5808
طار	-5809
ารถ	-5810
▁30	-5811
▁연기	-5812
▁Met	-5813
▁Tex	-5814
▁day	-5815
▁Flor	-5816
western	-5817
▁gobern	-5818
▁trabaj	-5819
uti	-5820
เขต	-5821
▁ري	-5822
▁받았	-5823
تبار	-5824
▁far	-5825
▁pra	-5826
▁propor	-5827
▁mundial	-5828
▁레	-5829
人の	-5830
ief	-5831
isé	-5832
éro	-5833
สมา	-5834
adem	-5835
▁Mal	-5836
essen	-5837
▁einz	-5838
りましたか	-5839
tempor	-5840
▁Namib	-5841
▁spiel	-5842
▁iglesia	-5843
▁victoria	-5844
Am	-5845
ovo	-5846
โทร	-5847
taña	-5848
utes	-5849
▁Kirche	-5850
▁정부	-5851
▁terre	-5852
历史	-5853
帮助	-5854
역은	-5855
arn	-5856
قيق	-5857
▁국제	-5858
ling	-5859
olit	-5860
very	-5861
▁ged	-5862
▁باسم	-5863
ispiel	-5864
▁الغرب	-5865
yó	-5866
被称	-5867
loy	-5868
ศน์	-5869
▁ซึ่ง	-5870
Empire	-5871
▁الشمالية	-5872
90	-5873
学生	-5874
جلي	-5875
รูป	-5876
อัน	-5877
▁노래	-5878
▁발견	-5879
▁مار	-5880
▁가지고	-5881
ichte	-5882
▁ment	-5883
▁noch	-5884
▁Guerre	-5885
▁europe	-5886
gestellt	-5887
▁hicieron	-5888
术语	-5889
ظهر	-5890
ือน	-5891
oper	-5892
▁นัก	-5893
▁1980	-5894
outube	-5895
▁Guerra	-5896
▁Beispiel	-5897
èg	-5898
国际	-5899
独立	-5900
ños	-5901
اول	-5902
▁pú	-5903
▁BYU	-5904
▁시작한	-5905
▁이름이	-5906
▁Wort	-5907
▁rock	-5908
▁forme	-5909
▁territor	-5910
ira	-5911
ارع	-5912
anst	-5913
imat	-5914
▁wen	-5915
▁Vert	-5916
▁bata	-5917
lantic	-5918
▁الحيو	-5919
▁قانون	-5920
▁declar	-5921
▁algunos	-5922
Es	-5923
Te	-5924
一番	-5925
约翰	-5926
위는	-5927
ull	-5928
ธิบ	-5929
▁ni	-5930
▁역대	-5931
eron	-5932
ليون	-5933
▁Res	-5934
▁이루어	-5935
▁Plan	-5936
▁التع	-5937
ทั้งหมด	-5938
วร	-5939
▁ป	-5940
他们的	-5941
iendo	-5942
▁disco	-5943
▁quart	-5944
▁chopin	-5945
▁북	-5946
ابق	-5947
ีย์	-5948
년부터	-5949
▁Pat	-5950
▁dern	-5951
▁nouv	-5952
ttoman	-5953
▁Olymp	-5954
▁الحدي	-5955
最后	-5956
nam	-5957
الث	-5958
ศรี	-5959
▁بح	-5960
▁맡았	-5961
▁loi	-5962
▁house	-5963
▁الحكومة	-5964
40	-5965
▁캐	-5966
uls	-5967
เคย	-5968
▁명칭	-5969
▁참여	-5970
nect	-5971
なかった	-5972
有多少人	-5973
▁grie	-5974
itaire	-5975
▁attra	-5976
▁catal	-5977
▁liber	-5978
▁Mexico	-5979
▁transm	-5980
▁primero	-5981
▁stagione	-5982
จิ	-5983
标准	-5984
원의	-5985
Ins	-5986
für	-5987
فاع	-5988
▁사이	-5989
▁설립	-5990
▁moy	-5991
estic	-5992
▁dere	-5993
▁اصبح	-5994
▁처음으로	-5995
ของใคร	-5996
▁donné	-5997
▁otros	-5998
▁Canada	-5999
▁gesagt	-6000
▁الاكثر	-6001
izzazione	-6002
▁international	-6003
ตก	-6004
多久	-6005
比赛	-6006
现代	-6007
谁的	-6008
인이	-6009
▁수는	-6010
ような	-6011
▁Sun	-6012
▁hal	-6013
▁aument	-6014
▁Charles	-6015
▁entwickelt	-6016
uk	-6017
uz	-6018
会社	-6019
인의	-6020
äre	-6021
auft	-6022
ibil	-6023
▁anal	-6024
▁Saint	-6025
ราชวงศ์	-6026
▁dinast	-6027
25	-6028
PA	-6029
وث	-6030
▁담	-6031
▁حق	-6032
▁여자	-6033
ivos	-6034
▁Fin	-6035
▁cru	-6036
▁tub	-6037
▁produz	-6038
SA	-6039
ตา	-6040
でし	-6041
会的	-6042
哪家	-6043
服务	-6044
리스	-6045
una	-6046
uro	-6047
ness	-6048
ี่ยว	-6049
において	-6050
▁last	-6051
いつですか	-6052
During	-6053
▁estim	-6054
▁ferro	-6055
icamente	-6056
▁identif	-6057
▁ตั้งอยู่	-6058
번째	-6059
피언	-6060
هام	-6061
ฟ้า	-6062
▁Um	-6063
atos	-6064
▁dim	-6065
▁enf	-6066
▁sir	-6067
▁것들이	-6068
▁2003	-6069
▁Nept	-6070
▁كتاب	-6071
▁국회의원	-6072
▁quest	-6073
▁Nanjing	-6074
▁element	-6075
▁president	-6076
وط	-6077
มาร	-6078
▁대학	-6079
▁Far	-6080
สัตว์	-6081
بالاضافة	-6082
ยะ	-6083
军队	-6084
rei	-6085
uno	-6086
▁ها	-6087
ديدة	-6088
หลัก	-6089
▁amb	-6090
▁rad	-6091
被认为是	-6092
▁Berm	-6093
▁welches	-6094
بة	-6095
作为	-6096
군의	-6097
ったか	-6098
èces	-6099
ช่วง	-6100
iness	-6101
กลุ่ม	-6102
▁High	-6103
▁fort	-6104
▁joué	-6105
▁muer	-6106
▁كانوا	-6107
▁könnte	-6108
▁및	-6109
どれ	-6110
ニー	-6111
生物	-6112
Sch	-6113
رير	-6114
▁دا	-6115
▁조별	-6116
哪一个	-6117
▁uff	-6118
のほかに	-6119
anden	-6120
▁prat	-6121
▁usato	-6122
▁العديد	-6123
▁continu	-6124
تر	-6125
ウル	-6126
리즈	-6127
hor	-6128
ört	-6129
كار	-6130
etta	-6131
ought	-6132
▁Greek	-6133
▁roman	-6134
▁compañ	-6135
ยู	-6136
ょう	-6137
ジャ	-6138
教育	-6139
ฐาน	-6140
▁Tw	-6141
ager	-6142
atro	-6143
การ์	-6144
▁cuál	-6145
รางวัล	-6146
zeichnet	-6147
くら	-6148
拉斯	-6149
時代	-6150
ากร	-6151
ktur	-6152
oney	-6153
▁afr	-6154
▁dio	-6155
だったの	-6156
akter	-6157
▁الرا	-6158
emente	-6159
▁Reich	-6160
▁invas	-6161
▁traité	-6162
とも	-6163
への	-6164
名的	-6165
osh	-6166
챔피언	-6167
iani	-6168
reib	-6169
▁Kat	-6170
▁merc	-6171
▁appar	-6172
▁heißt	-6173
▁occur	-6174
intendo	-6175
▁demand	-6176
▁seiner	-6177
▁erhalten	-6178
▁investig	-6179
▁근	-6180
irl	-6181
เหน	-6182
▁HD	-6183
ause	-6184
utch	-6185
▁1970	-6186
▁isla	-6187
▁membres	-6188
▁คืออะไร	-6189
Nel	-6190
org	-6191
rap	-6192
ête	-6193
زال	-6194
▁우승	-6195
▁음반	-6196
▁전쟁	-6197
另一个	-6198
ionn	-6199
▁شكل	-6200
されたか	-6201
ศึกษา	-6202
▁البلد	-6203
▁before	-6204
ประเทศอะไร	-6205
فع	-6206
▁ก	-6207
선수	-6208
bra	-6209
غير	-6210
fall	-6211
schn	-6212
▁특징은	-6213
ancia	-6214
cific	-6215
▁Cour	-6216
▁Rock	-6217
▁ethn	-6218
▁المؤ	-6219
ically	-6220
▁Union	-6221
▁başrol	-6222
▁Gaddafi	-6223
تي	-6224
อฟ	-6225
akt	-6226
auf	-6227
ทรง	-6228
้อย	-6229
▁전투	-6230
ندية	-6231
يادة	-6232
▁185	-6233
▁حرب	-6234
フランス	-6235
▁مجلس	-6236
▁statt	-6237
▁edificio	-6238
维多	-6239
قتص	-6240
▁연구	-6241
ahre	-6242
häng	-6243
ogen	-6244
พุทธ	-6245
▁ach	-6246
▁bat	-6247
でしょう	-6248
维多利亚	-6249
▁Empire	-6250
▁mandol	-6251
▁Frédéric	-6252
▁architect	-6253
ัจ	-6254
くな	-6255
と何	-6256
形式	-6257
어났	-6258
ava	-6259
stadt	-6260
▁firm	-6261
▁pred	-6262
▁tecn	-6263
▁local	-6264
คา	-6265
이션	-6266
สัญ	-6267
初めて	-6268
zung	-6269
▁fut	-6270
▁الشرق	-6271
▁church	-6272
▁federal	-6273
▁palabra	-6274
▁الاوروب	-6275
Ol	-6276
拒绝	-6277
ban	-6278
ova	-6279
île	-6280
ired	-6281
▁dém	-6282
รายการ	-6283
Pendant	-6284
▁central	-6285
▁Hyderabad	-6286
แค	-6287
政治	-6288
艺术	-6289
eum	-6290
ไม้	-6291
▁ات	-6292
leur	-6293
tres	-6294
▁cod	-6295
▁فعل	-6296
cript	-6297
زب	-6298
▁브	-6299
法院	-6300
력은	-6301
élé	-6302
وروبا	-6303
▁devenu	-6304
ym	-6305
مار	-6306
ทอง	-6307
▁ra	-6308
에서는	-6309
▁font	-6310
▁sost	-6311
▁début	-6312
▁líder	-6313
▁lavoro	-6314
▁weiter	-6315
▁الاولى	-6316
▁financi	-6317
▁الموسيقى	-6318
▁เ	-6319
vic	-6320
成立的	-6321
▁prog	-6322
▁القدم	-6323
▁groupes	-6324
▁쓰	-6325
ckt	-6326
eta	-6327
▁ég	-6328
hrop	-6329
▁amp	-6330
▁hom	-6331
▁كبير	-6332
▁aveva	-6333
▁verbunden	-6334
bt	-6335
fü	-6336
▁증	-6337
シュ	-6338
นคร	-6339
开始的	-6340
ussi	-6341
وبان	-6342
▁186	-6343
▁règ	-6344
▁Vers	-6345
▁uran	-6346
▁compon	-6347
▁الكتاب	-6348
▁unterstüt	-6349
iten	-6350
อาณา	-6351
▁Cre	-6352
▁مات	-6353
▁يقع	-6354
▁대학교	-6355
▁بوصف	-6356
▁filos	-6357
▁الفرن	-6358
▁forces	-6359
▁number	-6360
侵攻	-6361
دية	-6362
第二次	-6363
itto	-6364
umer	-6365
▁Pap	-6366
▁mac	-6367
▁sac	-6368
▁하는가	-6369
acion	-6370
▁tent	-6371
▁Namen	-6372
▁fecha	-6373
▁study	-6374
▁اليها	-6375
▁ولاية	-6376
▁무엇일까요	-6377
سر	-6378
を何	-6379
关系	-6380
사가	-6381
어는	-6382
할까	-6383
زية	-6384
บิน	-6385
เซีย	-6386
▁مثل	-6387
行われた	-6388
pielt	-6389
ใดของ	-6390
▁held	-6391
▁rice	-6392
altung	-6393
urrent	-6394
▁cours	-6395
▁الطاقة	-6396
▁secondo	-6397
加拿	-6398
구의	-6399
점을	-6400
gar	-6401
olé	-6402
▁Pf	-6403
▁시청률	-6404
されている	-6405
▁واحدة	-6406
▁número	-6407
▁principales	-6408
▁เกิดเมื่อวัน	-6409
如果	-6410
平均	-6411
occ	-6412
vas	-6413
ارج	-6414
ough	-6415
▁ext	-6416
▁نها	-6417
▁recon	-6418
▁German	-6419
▁Mitgli	-6420
▁moderne	-6421
▁복	-6422
自由	-6423
는데	-6424
▁UN	-6425
▁Tod	-6426
▁챔피언	-6427
▁الجم	-6428
▁جميع	-6429
كتوريا	-6430
▁aerop	-6431
▁allow	-6432
▁würde	-6433
▁Grecia	-6434
管理	-6435
纽约	-6436
도의	-6437
드의	-6438
역의	-6439
èce	-6440
ิดา	-6441
เภอ	-6442
▁만든	-6443
▁최고	-6444
wards	-6445
▁الاد	-6446
étique	-6447
▁Insel	-6448
iennent	-6449
▁pouvoir	-6450
▁bataille	-6451
れる	-6452
发布	-6453
正式	-6454
▁فر	-6455
▁مك	-6456
▁다른	-6457
▁teor	-6458
▁inclu	-6459
▁chaque	-6460
▁through	-6461
جة	-6462
番目	-6463
orb	-6464
▁ib	-6465
▁통해	-6466
ريكا	-6467
icación	-6468
▁struct	-6469
ける	-6470
定义	-6471
isi	-6472
▁ger	-6473
▁set	-6474
istor	-6475
ución	-6476
▁rich	-6477
▁caused	-6478
是由	-6479
▁정당	-6480
▁Cons	-6481
▁bajo	-6482
▁zinc	-6483
ประธาน	-6484
▁الياب	-6485
▁campus	-6486
Di	-6487
üs	-6488
スタ	-6489
联合	-6490
bel	-6491
داد	-6492
فات	-6493
èmes	-6494
ทัศน์	-6495
▁المد	-6496
▁dello	-6497
▁poder	-6498
▁tradu	-6499
▁quanto	-6500
▁kimlerdir	-6501
▁relations	-6502
▁Unternehmen	-6503
แท	-6504
▁년	-6505
名称	-6506
植物	-6507
وقف	-6508
▁ub	-6509
▁لو	-6510
▁아버	-6511
▁Unt	-6512
▁urs	-6513
▁idea	-6514
▁prob	-6515
▁Monte	-6516
▁influen	-6517
ไว	-6518
ソ連	-6519
要求	-6520
기가	-6521
면서	-6522
äuf	-6523
▁سن	-6524
اهدة	-6525
▁asc	-6526
▁ban	-6527
Perché	-6528
▁region	-6529
▁sosten	-6530
To	-6531
อต	-6532
선의	-6533
นี้	-6534
มหา	-6535
اثير	-6536
▁aug	-6537
▁día	-6538
emple	-6539
หนังส	-6540
▁Alex	-6541
▁gespielt	-6542
เฉ	-6543
ใจ	-6544
方面	-6545
esp	-6546
最初の	-6547
▁polic	-6548
▁single	-6549
▁tierra	-6550
▁tratado	-6551
▁conocido	-6552
▁utilizan	-6553
▁political	-6554
Do	-6555
ög	-6556
يط	-6557
教堂	-6558
比亚	-6559
iza	-6560
้อน	-6561
▁Spe	-6562
▁태어난	-6563
▁rang	-6564
lassen	-6565
▁raison	-6566
▁الامريكي	-6567
Su	-6568
ธี	-6569
▁필	-6570
기를	-6571
Ein	-6572
ารา	-6573
2005	-6574
unta	-6575
غيير	-6576
รั่ง	-6577
อายุ	-6578
เสีย	-6579
▁pasó	-6580
قع	-6581
アン	-6582
漫画	-6583
ods	-6584
oni	-6585
▁sm	-6586
▁높은	-6587
▁열린	-6588
tens	-6589
اليا	-6590
▁ارس	-6591
▁نفس	-6592
▁agen	-6593
▁otra	-6594
▁macht	-6595
▁Albert	-6596
▁Marvel	-6597
็ม	-6598
条约	-6599
阿尔	-6600
azi	-6601
azz	-6602
iat	-6603
ieme	-6604
▁Hel	-6605
▁gla	-6606
▁run	-6607
だったか	-6608
ielle	-6609
ฝรั่ง	-6610
▁blan	-6611
▁ejér	-6612
atalla	-6613
▁Relig	-6614
ていましたか	-6615
▁adoles	-6616
▁dirige	-6617
▁aufgenommen	-6618
kr	-6619
ล์	-6620
创造	-6621
是从	-6622
ชีพ	-6623
burg	-6624
ouis	-6625
اصمة	-6626
▁Rus	-6627
▁roi	-6628
▁어디에	-6629
ตะวัน	-6630
▁song	-6631
▁무엇이라고	-6632
▁aspect	-6633
▁direct	-6634
▁segunda	-6635
▁certains	-6636
▁continent	-6637
▁약	-6638
不能	-6639
包括	-6640
ئية	-6641
▁ze	-6642
▁종류	-6643
erca	-6644
iend	-6645
itté	-6646
ประเภ	-6647
▁will	-6648
▁أطول	-6649
▁Spect	-6650
▁canad	-6651
▁liter	-6652
▁يعتبر	-6653
หนังสือ	-6654
▁권	-6655
▁병	-6656
この	-6657
기에	-6658
ؤول	-6659
ระบ	-6660
▁مل	-6661
▁들어	-6662
▁차지	-6663
ided	-6664
رنسا	-6665
aggio	-6666
เหนือ	-6667
▁Stato	-6668
แห่งชาติ	-6669
▁concent	-6670
▁천	-6671
シャ	-6672
国王	-6673
游戏	-6674
호는	-6675
lag	-6676
qué	-6677
umb	-6678
ริง	-6679
▁os	-6680
▁Bür	-6681
▁old	-6682
▁Stra	-6683
▁live	-6684
▁mean	-6685
▁بسبب	-6686
▁2006?	-6687
▁großen	-6688
▁tribun	-6689
▁proporcion	-6690
▁용	-6691
例子	-6692
基督	-6693
▁تط	-6694
▁도시	-6695
ería	-6696
äten	-6697
▁Bere	-6698
▁chef	-6699
▁perman	-6700
بد	-6701
グラ	-6702
生ま	-6703
ids	-6704
ทร์	-6705
ลํา	-6706
▁Es	-6707
olle	-6708
▁Bir	-6709
▁Chi	-6710
▁ale	-6711
▁gab	-6712
▁2020	-6713
estaur	-6714
ประเภท	-6715
▁antib	-6716
Si	-6717
زن	-6718
ปก	-6719
との	-6720
位于	-6721
동시	-6722
장을	-6723
▁영향	-6724
がより	-6725
ピック	-6726
กลาง	-6727
Oltre	-6728
poque	-6729
venue	-6730
▁Span	-6731
▁neue	-6732
▁death	-6733
▁creato	-6734
生活	-6735
있는	-6736
자가	-6737
ece	-6738
raz	-6739
หลี	-6740
▁سا	-6741
▁몇명	-6742
▁제작	-6743
ミー賞	-6744
iore	-6745
orme	-6746
ählt	-6747
igung	-6748
press	-6749
▁Coun	-6750
▁capt	-6751
▁prev	-6752
ierten	-6753
▁Black	-6754
▁Gramm	-6755
▁built	-6756
▁contempor	-6757
dom	-6758
رتب	-6759
▁ps	-6760
▁tom	-6761
▁ucc	-6762
▁قال	-6763
▁كرة	-6764
▁peup	-6765
▁zone	-6766
schnitt	-6767
▁System	-6768
▁déclar	-6769
▁military	-6770
미국	-6771
년까지	-6772
الات	-6773
▁Hen	-6774
▁abs	-6775
▁fra	-6776
▁فيه	-6777
▁역사는	-6778
されたの	-6779
▁cuer	-6780
▁neces	-6781
▁bacter	-6782
▁distin	-6783
▁versch	-6784
▁Estonia	-6785
▁batalla	-6786
でき	-6787
来自	-6788
지의	-6789
트의	-6790
프리	-6791
cis	-6792
ايا	-6793
cord	-6794
ท้าย	-6795
▁Lut	-6796
▁dés	-6797
itato	-6798
ดนตรี	-6799
▁fine	-6800
▁mais	-6801
▁incor	-6802
▁étudi	-6803
ฝรั่งเศ	-6804
▁aliment	-6805
▁possono	-6806
▁production	-6807
مي	-6808
▁편	-6809
人们	-6810
形成	-6811
期间	-6812
제가	-6813
ندن	-6814
คุณ	-6815
▁ún	-6816
▁방법	-6817
nder	-6818
فريق	-6819
▁Des	-6820
autres	-6821
▁adopt	-6822
▁tratt	-6823
▁Länder	-6824
▁stabil	-6825
▁Company	-6826
ós	-6827
ชิ	-6828
ハン	-6829
시즌	-6830
Ang	-6831
ful	-6832
▁목록	-6833
▁상대	-6834
▁Tit	-6835
▁cot	-6836
▁pag	-6837
▁call	-6838
▁tres	-6839
▁المسي	-6840
จัดขึ้น	-6841
▁Saison	-6842
▁actual	-6843
▁interp	-6844
▁publié	-6845
issenschaft	-6846
王国	-6847
하지	-6848
▁어떨	-6849
ใดใน	-6850
▁Dis	-6851
▁foc	-6852
▁nut	-6853
คือใคร	-6854
▁Chine	-6855
▁reino	-6856
▁resident	-6857
Sp	-6858
su	-6859
öm	-6860
โซ	-6861
cte	-6862
yth	-6863
oten	-6864
▁Las	-6865
▁قاد	-6866
มนตรี	-6867
▁clas	-6868
▁geog	-6869
▁Staat	-6870
▁austr	-6871
▁three	-6872
lection	-6873
▁proces	-6874
▁report	-6875
▁official	-6876
カー	-6877
発生	-6878
이가	-6879
لاح	-6880
แนว	-6881
olar	-6882
zeug	-6883
بتون	-6884
راسة	-6885
▁Fir	-6886
▁Jew	-6887
prüng	-6888
terre	-6889
▁لاول	-6890
iennes	-6891
▁china	-6892
ุ์	-6893
▁É	-6894
成立	-6895
最大	-6896
ape	-6897
ائل	-6898
كيل	-6899
▁XI	-6900
▁것을	-6901
arts	-6902
anger	-6903
earch	-6904
▁Mich	-6905
▁Rome	-6906
▁sede	-6907
▁السن	-6908
▁habit	-6909
▁어떠한가요	-6910
ฝรั่งเศส	-6911
öt	-6912
んだ	-6913
อัล	-6914
했나요	-6915
ulen	-6916
uras	-6917
ريقة	-6918
▁DST	-6919
▁نشر	-6920
▁gens	-6921
▁حصلت	-6922
▁لندن	-6923
发生了什么	-6924
▁مصطلح	-6925
เมืองหลวง	-6926
▁European	-6927
ชม	-6928
ตี	-6929
พร	-6930
▁네	-6931
决定	-6932
班牙	-6933
오는	-6934
irk	-6935
▁تد	-6936
西班牙	-6937
rote	-6938
ผลิต	-6939
▁hol	-6940
▁있나요	-6941
aster	-6942
weise	-6943
▁centre	-6944
▁menudo	-6945
▁William	-6946
トル	-6947
Sel	-6948
duc	-6949
เธอ	-6950
▁23	-6951
unic	-6952
▁어떨까	-6953
lique	-6954
▁back	-6955
จํานวน	-6956
▁angla	-6957
▁orden	-6958
▁similar	-6959
▁premiers	-6960
▁ursprüng	-6961
▁فيكتوريا	-6962
ッド	-6963
大会	-6964
理论	-6965
vor	-6966
سمح	-6967
นาน	-6968
オリン	-6969
หรับ	-6970
เหตุ	-6971
itute	-6972
▁انها	-6973
▁Canad	-6974
▁solar	-6975
▁الشخص	-6976
▁Deutsch	-6977
▁success	-6978
แผ	-6979
▁บ	-6980
到了	-6981
成员	-6982
进行	-6983
For	-6984
امج	-6985
ولي	-6986
ิร์	-6987
▁Do	-6988
عليم	-6989
▁You	-6990
▁attr	-6991
▁cree	-6992
▁höch	-6993
▁posit	-6994
▁الاصل	-6995
▁religi	-6996
▁الانجلي	-6997
▁released	-6998
▁construction	-6999
نت	-7000
▁별	-7001
させ	-7002
用于	-7003
fte	-7004
فلام	-7005
▁Kong	-7006
เกาหลี	-7007
▁Imper	-7008
▁based	-7009
▁offer	-7010
▁water	-7011
▁الانس	-7012
オリンピック	-7013
ización	-7014
leterre	-7015
▁became	-7016
▁change	-7017
▁einige	-7018
▁النظام	-7019
▁believe	-7020
▁società	-7021
▁패	-7022
チャ	-7023
加拿大	-7024
▁189	-7025
▁Mag	-7026
▁vida	-7027
▁تسمى	-7028
antwort	-7029
▁regard	-7030
▁Spectre	-7031
▁filosof	-7032
▁จังหวัด	-7033
▁festival	-7034
ikanischen	-7035
eme	-7036
ดีต	-7037
▁PC	-7038
itch	-7039
▁Jul	-7040
▁anc	-7041
▁2017	-7042
▁بناء	-7043
▁Trans	-7044
▁agric	-7045
▁islam	-7046
▁veces	-7047
▁cultura	-7048
▁utilisée	-7049
▁verursacht	-7050
▁애	-7051
自己	-7052
这些	-7053
보는	-7054
ueva	-7055
vuto	-7056
دارس	-7057
▁Men	-7058
▁Tag	-7059
▁ans	-7060
later	-7061
oléon	-7062
▁évén	-7063
▁mejor	-7064
cciones	-7065
▁Church	-7066
ลี	-7067
▁준	-7068
女王	-7069
hib	-7070
▁AC	-7071
▁eng	-7072
▁โดย	-7073
inese	-7074
organ	-7075
ories	-7076
▁gioc	-7077
▁champ	-7078
▁stand	-7079
▁members	-7080
ât	-7081
غو	-7082
성의	-7083
สัน	-7084
serv	-7085
▁élev	-7086
สามารถ	-7087
▁Schla	-7088
▁الاسل	-7089
▁altern	-7090
▁condens	-7091
▁conosci	-7092
▁Australia	-7093
AR	-7094
wh	-7095
나는	-7096
جين	-7097
▁Sc	-7098
เดอะ	-7099
▁Sal	-7100
▁발매한	-7101
▁head	-7102
▁anche	-7103
▁pubblicato	-7104
III	-7105
ahl	-7106
hnt	-7107
▁jeu	-7108
ใดที่	-7109
▁البرت	-7110
▁Gebiet	-7111
▁energía	-7112
▁caracter	-7113
▁transport	-7114
Tr	-7115
▁확	-7116
van	-7117
ياء	-7118
▁يد	-7119
조에서	-7120
iera	-7121
▁cub	-7122
▁dog	-7123
issau	-7124
▁open	-7125
▁무엇으로	-7126
▁2005?	-7127
▁Jahre	-7128
▁emper	-7129
▁elimin	-7130
▁offizi	-7131
óg	-7132
の方	-7133
位置	-7134
성이	-7135
aga	-7136
nel	-7137
tri	-7138
دمة	-7139
طلق	-7140
ั่น	-7141
▁PS	-7142
▁vu	-7143
ined	-7144
▁188	-7145
▁Jud	-7146
▁nob	-7147
▁Mess	-7148
▁haven	-7149
▁الموج	-7150
▁Irland	-7151
สะ	-7152
めた	-7153
建設	-7154
รัก	-7155
▁의해	-7156
atch	-7157
▁Pun	-7158
▁abb	-7159
▁alm	-7160
ables	-7161
ossen	-7162
قاطعة	-7163
▁dipl	-7164
▁يحدث	-7165
▁frequ	-7166
▁punto	-7167
▁attack	-7168
▁founded	-7169
▁nouveau	-7170
▁compañía	-7171
▁Frankreich	-7172
▁profession	-7173
ety	-7174
nah	-7175
▁Jo	-7176
▁생애	-7177
▁ces	-7178
▁río	-7179
ieden	-7180
laves	-7181
▁cada	-7182
▁them	-7183
ietnam	-7184
▁diese	-7185
▁probl	-7186
▁Philip	-7187
▁describe	-7188
▁disposit	-7189
▁historia	-7190
ór	-7191
طق	-7192
スー	-7193
何を	-7194
宣布	-7195
领导	-7196
관은	-7197
서울	-7198
으며	-7199
aro	-7200
يين	-7201
rich	-7202
work	-7203
▁Dem	-7204
▁rey	-7205
▁prix	-7206
▁الشم	-7207
▁อยู่	-7208
ftware	-7209
idence	-7210
▁conserv	-7211
▁personne	-7212
▁représent	-7213
นม	-7214
บั	-7215
技术	-7216
科学	-7217
율은	-7218
지가	-7219
hol	-7220
äch	-7221
دود	-7222
ache	-7223
ilia	-7224
▁Leg	-7225
▁osp	-7226
▁sov	-7227
▁للح	-7228
▁역할을	-7229
▁Bowl	-7230
▁coup	-7231
▁اخرى	-7232
▁استخ	-7233
Bissau	-7234
▁اليوم	-7235
▁affect	-7236
▁europé	-7237
▁groups	-7238
ในประเทศไทย	-7239
▁Charleston	-7240
hö	-7241
ยม	-7242
▁규	-7243
ンが	-7244
the	-7245
ream	-7246
▁الري	-7247
▁chino	-7248
▁given	-7249
▁morte	-7250
▁island	-7251
โทรทัศน์	-7252
▁registr	-7253
▁gebracht	-7254
▁채	-7255
eda	-7256
erd	-7257
เหล	-7258
▁기준	-7259
ัจจุ	-7260
▁verl	-7261
▁Datum	-7262
▁Gesetz	-7263
▁ejército	-7264
▁Universal	-7265
ki	-7266
▁ไ	-7267
▁철	-7268
保护	-7269
수가	-7270
이의	-7271
ogn	-7272
▁현재	-7273
ต้อง	-7274
지방선거	-7275
ilight	-7276
▁State	-7277
▁video	-7278
▁dieser	-7279
ณฑ	-7280
าะ	-7281
▁플	-7282
州的	-7283
皇帝	-7284
苏联	-7285
راع	-7286
edad	-7287
ffen	-7288
onie	-7289
▁ril	-7290
▁얼마나	-7291
emble	-7292
ธิบดี	-7293
▁miss	-7294
▁전국동시	-7295
▁Grund	-7296
▁artic	-7297
▁اصبحت	-7298
สุดท้าย	-7299
ัจจุบัน	-7300
▁meille	-7301
▁produc	-7302
ประพันธ์	-7303
อาณาจักร	-7304
▁présent	-7305
▁français	-7306
▁Königreich	-7307
ルー	-7308
了一	-7309
革命	-7310
جيل	-7311
فاق	-7312
▁스타	-7313
▁Jes	-7314
▁rép	-7315
▁sit	-7316
conde	-7317
▁어디에서	-7318
▁moins	-7319
▁تفعله	-7320
▁studio	-7321
▁segundo	-7322
تل	-7323
早期	-7324
سات	-7325
نيف	-7326
وتر	-7327
ชิก	-7328
▁ém	-7329
▁되었	-7330
fico	-7331
inde	-7332
inea	-7333
บุรี	-7334
还有什么	-7335
▁bien	-7336
▁decl	-7337
▁Islam	-7338
صة	-7339
Par	-7340
bit	-7341
oca	-7342
str	-7343
zza	-7344
سون	-7345
โอล	-7346
▁مث	-7347
اسيس	-7348
vaient	-7349
▁accus	-7350
landais	-7351
▁natural	-7352
▁Atlantic	-7353
né	-7354
شل	-7355
เฟ	-7356
▁골	-7357
教会	-7358
軍が	-7359
▁Dr	-7360
▁Kr	-7361
▁몇년	-7362
▁타이	-7363
blig	-7364
▁gar	-7365
▁own	-7366
▁roy	-7367
▁2002	-7368
▁UEFA	-7369
▁trov	-7370
▁Pruss	-7371
▁manif	-7372
▁concern	-7373
▁ก่อตั้ง	-7374
”?	-7375
种族	-7376
구는	-7377
서는	-7378
can	-7379
row	-7380
vah	-7381
ورن	-7382
▁득표	-7383
이라는	-7384
leri	-7385
▁عمر	-7386
▁수상한	-7387
▁home	-7388
▁favor	-7389
▁legge	-7390
▁murió	-7391
▁celebr	-7392
issement	-7393
ダム	-7394
ınd	-7395
ิลป	-7396
▁ke	-7397
iapp	-7398
onda	-7399
خلال	-7400
▁spé	-7401
▁tít	-7402
▁حول	-7403
▁phys	-7404
▁calend	-7405
▁التاريخ	-7406
lı	-7407
を行	-7408
زيل	-7409
มัน	-7410
▁og	-7411
在美国	-7412
lior	-7413
▁dif	-7414
▁شعب	-7415
▁시기는	-7416
▁Show	-7417
▁líne	-7418
▁want	-7419
▁얼마인가	-7420
▁juego	-7421
▁تاسيس	-7422
▁antigu	-7423
▁General	-7424
ué	-7425
هي	-7426
็ด	-7427
oft	-7428
اكم	-7429
ษัต	-7430
สิน	-7431
▁나타	-7432
▁항공	-7433
itar	-7434
ondo	-7435
orso	-7436
quel	-7437
unde	-7438
▁trav	-7439
▁Nueva	-7440
▁conse	-7441
▁dirit	-7442
laterra	-7443
▁bedeut	-7444
▁trouvent	-7445
▁Weltkrieg	-7446
▁Inglaterra	-7447
ุน	-7448
的大	-7449
adr	-7450
روف	-7451
▁개최	-7452
anda	-7453
หลัง	-7454
▁Dav	-7455
▁pes	-7456
▁نهر	-7457
icago	-7458
ษัตริ	-7459
▁Club	-7460
▁foss	-7461
▁الاب	-7462
▁Dutch	-7463
▁wrote	-7464
ได้รับการ	-7465
▁commerci	-7466
▁전국동시지방선거	-7467
足球	-7468
월에	-7469
iko	-7470
مية	-7471
▁참가	-7472
▁mic	-7473
ville	-7474
▁different	-7475
ロッ	-7476
禁止	-7477
드는	-7478
식은	-7479
امي	-7480
ิมป	-7481
▁21	-7482
arth	-7483
orma	-7484
vest	-7485
เกี่ยว	-7486
▁hecho	-7487
▁north	-7488
▁الصين	-7489
▁gestorben	-7490
IC	-7491
SR	-7492
US	-7493
اة	-7494
่ว	-7495
▁존	-7496
人物	-7497
com	-7498
irs	-7499
يست	-7500
รู้	-7501
▁if	-7502
ローマ	-7503
hung	-7504
ศิลป	-7505
▁gol	-7506
▁modo	-7507
▁vent	-7508
▁الاغ	-7509
▁بشان	-7510
▁2000?	-7511
▁Inter	-7512
▁adult	-7513
▁armen	-7514
▁فرنسا	-7515
▁Person	-7516
▁اوروبا	-7517
サン	-7518
一起	-7519
条約	-7520
시안	-7521
واس	-7522
ติด	-7523
2004	-7524
▁درج	-7525
armée	-7526
ummer	-7527
อาชีพ	-7528
▁Roma	-7529
▁nomm	-7530
▁patr	-7531
encias	-7532
พันธุ์	-7533
▁Louis	-7534
▁chans	-7535
▁papel	-7536
ษัตริย์	-7537
▁muerte	-7538
▁formato	-7539
▁station	-7540
▁Football	-7541
▁:	-7542
活动	-7543
장이	-7544
อีก	-7545
aggi	-7546
unty	-7547
▁abr	-7548
▁sop	-7549
▁사망한	-7550
Selon	-7551
▁body	-7552
▁catt	-7553
▁glob	-7554
▁idol	-7555
▁concl	-7556
vicenna	-7557
▁finanz	-7558
▁grupos	-7559
▁الوطني	-7560
▁اليهود	-7561
American	-7562
▁contrib	-7563
▁feature	-7564
▁miembros	-7565
▁established	-7566
เง	-7567
▁경우	-7568
▁hold	-7569
ポーランド	-7570
جموعات	-7571
▁Vertrag	-7572
▁partido	-7573
ificación	-7574
طر	-7575
ซิ	-7576
공항	-7577
ogo	-7578
▁No	-7579
▁وا	-7580
itos	-7581
▁Aug	-7582
▁صنع	-7583
alter	-7584
assen	-7585
ittel	-7586
▁ense	-7587
▁soll	-7588
▁solo	-7589
▁tend	-7590
aleigh	-7591
▁passé	-7592
▁species	-7593
▁cantidad	-7594
▁généralement	-7595
その	-7596
制作	-7597
反对	-7598
امة	-7599
chos	-7600
omet	-7601
เปิด	-7602
▁Mod	-7603
▁bew	-7604
▁dai	-7605
▁منذ	-7606
▁whom	-7607
▁منها	-7608
▁todos	-7609
▁scientif	-7610
▁diventato	-7611
之一	-7612
女性	-7613
当時	-7614
过程	-7615
fter	-7616
วัติ	-7617
▁bil	-7618
▁pen	-7619
▁جون	-7620
▁يوم	-7621
▁Fort	-7622
▁Sich	-7623
▁drei	-7624
▁need	-7625
▁몇년도에	-7626
quelle	-7627
▁había	-7628
▁famoso	-7629
▁letter	-7630
▁satell	-7631
▁América	-7632
ード	-7633
设计	-7634
حية	-7635
وجد	-7636
มาณ	-7637
▁Mc	-7638
▁Ré	-7639
▁아이	-7640
俄罗斯	-7641
From	-7642
allo	-7643
ولوج	-7644
▁Han	-7645
▁Bill	-7646
▁bran	-7647
uments	-7648
▁light	-7649
▁rifer	-7650
传统	-7651
描述	-7652
버스	-7653
احة	-7654
กาศ	-7655
จาร	-7656
▁ál	-7657
rent	-7658
▁USB	-7659
▁vic	-7660
▁appe	-7661
▁التص	-7662
▁titre	-7663
▁portug	-7664
▁región	-7665
▁considéré	-7666
تن	-7667
▁히	-7668
キャ	-7669
กาล	-7670
▁Lin	-7671
▁hin	-7672
▁kle	-7673
▁عقد	-7674
▁verd	-7675
▁verk	-7676
▁match	-7677
▁otten	-7678
▁police	-7679
何の	-7680
랑스	-7681
دمت	-7682
พิม	-7683
สอง	-7684
odox	-7685
▁muj	-7686
▁Roya	-7687
▁يعمل	-7688
Station	-7689
▁depart	-7690
aug	-7691
اعة	-7692
نان	-7693
ถือ	-7694
▁مج	-7695
abil	-7696
asth	-7697
brit	-7698
ارية	-7699
بيرة	-7700
chest	-7701
jiang	-7702
▁Grie	-7703
▁agua	-7704
▁view	-7705
▁Force	-7706
▁esemp	-7707
▁القدي	-7708
▁classe	-7709
▁través	-7710
▁britannique	-7711
زو	-7712
国は	-7713
▁역을	-7714
aden	-7715
ด้าน	-7716
スーパー	-7717
aiser	-7718
ologia	-7719
▁largo	-7720
▁current	-7721
▁utilisés	-7722
▁큰	-7723
始ま	-7724
斯的	-7725
许多	-7726
جوم	-7727
ياة	-7728
ผลง	-7729
▁배경	-7730
▁bât	-7731
▁say	-7732
▁حكم	-7733
aften	-7734
ember	-7735
iland	-7736
▁Cork	-7737
▁aper	-7738
▁sovi	-7739
▁اعلى	-7740
▁بريط	-7741
ชาวไทย	-7742
▁álbum	-7743
▁شوبان	-7744
▁نهاية	-7745
origine	-7746
▁العثور	-7747
▁convirt	-7748
方式	-7749
民族	-7750
行动	-7751
조선	-7752
190	-7753
gef	-7754
▁개발	-7755
あった	-7756
で最も	-7757
▁قدم	-7758
▁ناب	-7759
▁배우는	-7760
っていた	-7761
endre	-7762
▁Song	-7763
▁each	-7764
▁الحر	-7765
ตอนไหน	-7766
ลักษณะ	-7767
▁mostr	-7768
หมายถึง	-7769
▁comple	-7770
▁format	-7771
▁Napoléon	-7772
kk	-7773
멤버	-7774
jos	-7775
▁가진	-7776
▁cit	-7777
▁lég	-7778
ผลงาน	-7779
▁cerc	-7780
▁game	-7781
▁الار	-7782
▁دولة	-7783
▁يعرف	-7784
▁altri	-7785
▁campo	-7786
▁paesi	-7787
▁recib	-7788
▁regul	-7789
▁squad	-7790
▁scuola	-7791
▁المستخدم	-7792
▁américaine	-7793
ภาพยนตร์เรื่อง	-7794
هة	-7795
▁드	-7796
意思	-7797
داء	-7798
を受け	-7799
omat	-7800
eller	-7801
เนื้อ	-7802
▁joue	-7803
▁fréqu	-7804
▁hacen	-7805
▁ihren	-7806
▁padre	-7807
▁série	-7808
▁เริ่ม	-7809
osition	-7810
▁beiden	-7811
▁energy	-7812
▁contrôle	-7813
บล	-7814
委员	-7815
成功	-7816
수의	-7817
اصر	-7818
▁بم	-7819
▁발표한	-7820
térie	-7821
جلترا	-7822
▁segu	-7823
▁trop	-7824
▁haute	-7825
▁rilas	-7826
▁animal	-7827
▁depuis	-7828
▁juegos	-7829
ประเทศใด	-7830
▁Royaume	-7831
▁seconda	-7832
▁البريطانية	-7833
ルの	-7834
ريك	-7835
ค้น	-7836
ั่ง	-7837
atre	-7838
glés	-7839
مالي	-7840
จริง	-7841
▁Nob	-7842
▁gas	-7843
▁Kath	-7844
▁actu	-7845
▁fare	-7846
▁tous	-7847
▁Produ	-7848
▁nuovo	-7849
▁party	-7850
▁grandi	-7851
▁states	-7852
▁Gericht	-7853
▁Vietnam	-7854
▁은	-7855
위원	-7856
mal	-7857
ops	-7858
を受賞	-7859
▁Ide	-7860
▁sho	-7861
どの国の	-7862
aking	-7863
ibile	-7864
ollow	-7865
épend	-7866
خابات	-7867
atures	-7868
▁Straß	-7869
▁decis	-7870
▁sorti	-7871
▁permit	-7872
▁seinen	-7873
▁svilupp	-7874
▁المملكة	-7875
▁Schlacht	-7876
▁musulman	-7877
▁Northwestern	-7878
พ์	-7879
变化	-7880
誰か	-7881
Mac	-7882
igo	-7883
mee	-7884
تها	-7885
atif	-7886
umen	-7887
يريا	-7888
▁Kan	-7889
▁tot	-7890
となった	-7891
coles	-7892
onais	-7893
▁Bern	-7894
▁impl	-7895
อําเภอ	-7896
▁trouv	-7897
อินเดีย	-7898
▁Bürger	-7899
▁Feynman	-7900
▁augment	-7901
▁parties	-7902
▁Organisation	-7903
ii	-7904
이트	-7905
Ist	-7906
ويس	-7907
ロシア	-7908
akes	-7909
▁360	-7910
▁Ale	-7911
▁مخت	-7912
blico	-7913
▁grec	-7914
ination	-7915
▁Virgin	-7916
▁inglés	-7917
lichkeit	-7918
pression	-7919
▁conflic	-7920
▁version	-7921
▁desarroll	-7922
út	-7923
hil	-7924
rar	-7925
بعد	-7926
izia	-7927
どの国か	-7928
iller	-7929
▁Time	-7930
▁fium	-7931
▁rule	-7932
▁usar	-7933
▁المز	-7934
▁تسبب	-7935
▁جنوب	-7936
▁الارض	-7937
▁Soviet	-7938
▁الجوية	-7939
▁استخدمت	-7940
▁problema	-7941
IA	-7942
mm	-7943
ضر	-7944
▁졸	-7945
颜色	-7946
يار	-7947
ชัย	-7948
ตัน	-7949
▁남자	-7950
▁당선	-7951
ومات	-7952
▁Day	-7953
▁rac	-7954
ccord	-7955
▁tener	-7956
▁น	-7957
合衆	-7958
新的	-7959
فيذ	-7960
krit	-7961
prim	-7962
ช่อง	-7963
เล็ก	-7964
▁Geg	-7965
▁Lee	-7966
▁كار	-7967
قتصاد	-7968
ระดับ	-7969
ประกอบ	-7970
▁areas	-7971
▁lavor	-7972
▁critic	-7973
▁inspir	-7974
▁Everton	-7975
▁example	-7976
▁caractér	-7977
▁الانجليزية	-7978
一种	-7979
出生	-7980
eno	-7981
ชุด	-7982
เมตร	-7983
▁May	-7984
▁Tre	-7985
▁rit	-7986
▁Herr	-7987
▁forn	-7988
でしょうか	-7989
vision	-7990
▁corte	-7991
▁ايدول	-7992
พระเจ้า	-7993
▁المركز	-7994
▁بوصفها	-7995
Université	-7996
▁estableció	-7997
年以	-7998
대는	-7999
Aus	-8000
zas	-8001
ثير	-8002
▁أي	-8003
▁음악	-8004
alen	-8005
unid	-8006
urre	-8007
سمية	-8008
▁ogni	-8009
▁River	-8010
▁questo	-8011
▁الملكة	-8012
▁Namibia	-8013
▁allemand	-8014
▁constitution	-8015
วด	-8016
ーン	-8017
戴尔	-8018
斯坦	-8019
首都	-8020
opp	-8021
عاب	-8022
lage	-8023
zone	-8024
เนิด	-8025
▁뭐라고	-8026
ที่ใด	-8027
▁Mary	-8028
▁luch	-8029
▁vict	-8030
▁Corea	-8031
▁Music	-8032
▁ersch	-8033
▁source	-8034
▁gesehen	-8035
▁produziert	-8036
▁ä	-8037
ウィ	-8038
ウェ	-8039
加入	-8040
bli	-8041
▁40	-8042
eria	-8043
▁Gra	-8044
▁명칭은	-8045
はどこの	-8046
的另一个	-8047
otter	-8048
útbol	-8049
▁Ende	-8050
▁homb	-8051
▁مركز	-8052
โอลิมป	-8053
กําเนิด	-8054
▁Africa	-8055
▁معاهدة	-8056
▁momento	-8057
▁الاحيان	-8058
▁Religion	-8059
▁rappresent	-8060
▁<	-8061
군이	-8062
성은	-8063
ror	-8064
تبر	-8065
وست	-8066
ために	-8067
Nach	-8068
ving	-8069
▁Süd	-8070
▁Vol	-8071
▁bit	-8072
▁Hall	-8073
vention	-8074
▁Museum	-8075
▁الثالث	-8076
▁restaur	-8077
▁ministro	-8078
▁política	-8079
..	-8080
を持	-8081
지를	-8082
Bre	-8083
الب	-8084
ينغ	-8085
▁هم	-8086
▁많이	-8087
によって	-8088
▁1960	-8089
▁dato	-8090
▁evol	-8091
▁التس	-8092
▁Regel	-8093
▁estud	-8094
▁الدوري	-8095
▁Austral	-8096
▁نابليون	-8097
▁Napoleón	-8098
▁pourrait	-8099
فر	-8100
ジェ	-8101
第三	-8102
abe	-8103
put	-8104
มวย	-8105
▁조직	-8106
ركات	-8107
▁حيث	-8108
▁Tour	-8109
าธิบดี	-8110
▁diffic	-8111
▁fútbol	-8112
▁squadra	-8113
▁Griechen	-8114
▁versucht	-8115
▁estadounid	-8116
广播	-8117
教皇	-8118
جرة	-8119
▁Ag	-8120
▁졸업	-8121
▁bud	-8122
frica	-8123
อาหาร	-8124
▁الفر	-8125
ändern	-8126
▁droit	-8127
ificato	-8128
quitect	-8129
▁battag	-8130
▁command	-8131
▁centrale	-8132
▁relación	-8133
-0	-8134
ep	-8135
พู	-8136
▁뮤	-8137
ウォ	-8138
调查	-8139
開発	-8140
르는	-8141
علق	-8142
ยาว	-8143
▁Il	-8144
▁ho	-8145
は何人	-8146
arde	-8147
tere	-8148
คริส	-8149
ภูมิ	-8150
รถไฟ	-8151
▁Ser	-8152
▁Vor	-8153
▁bio	-8154
▁rim	-8155
代表什么	-8156
▁vide	-8157
▁القط	-8158
สมาชิก	-8159
▁enreg	-8160
▁ihrer	-8161
▁order	-8162
▁الخاص	-8163
ikanische	-8164
▁primeros	-8165
▁Revolution	-8166
23	-8167
PS	-8168
ลิ	-8169
日に	-8170
▁Bas	-8171
▁fle	-8172
▁vom	-8173
▁ذلك	-8174
▁ميل	-8175
ouver	-8176
▁Cubs	-8177
▁Sand	-8178
▁adlı	-8179
▁mouv	-8180
▁경기에서	-8181
izzato	-8182
▁Antar	-8183
▁Domin	-8184
▁Henry	-8185
▁beste	-8186
▁griech	-8187
▁estudio	-8188
▁الكنيسة	-8189
▁Princess	-8190
▁Hauptstadt	-8191
▁yayınlanma	-8192
んな	-8193
ベル	-8194
대에	-8195
신의	-8196
제의	-8197
ots	-8198
éra	-8199
اتي	-8200
واج	-8201
▁50	-8202
▁공격	-8203
เนีย	-8204
▁röm	-8205
orden	-8206
▁célè	-8207
▁grow	-8208
▁häuf	-8209
▁fédér	-8210
▁pract	-8211
▁característ	-8212
▁estudiantes	-8213
22	-8214
PC	-8215
▁백	-8216
世紀	-8217
ธาร	-8218
iser	-8219
oung	-8220
ظرية	-8221
ระบบ	-8222
▁ast	-8223
▁jur	-8224
における	-8225
ience	-8226
▁creó	-8227
▁관련하여	-8228
▁limit	-8229
▁reina	-8230
▁ประเทศ	-8231
แสดงเป็น	-8232
▁verantwort	-8233
▁organization	-8234
ซู	-8235
ยก	-8236
ไล	-8237
オス	-8238
减少	-8239
联盟	-8240
icia	-8241
iron	-8242
ivil	-8243
onne	-8244
ucle	-8245
▁Red	-8246
▁ترك	-8247
▁دور	-8248
einfl	-8249
ianos	-8250
örper	-8251
▁text	-8252
はどちらが	-8253
System	-8254
ustrie	-8255
▁categ	-8256
▁efect	-8257
▁Californ	-8258
▁administr	-8259
رل	-8260
地位	-8261
威尔	-8262
uns	-8263
ديل	-8264
وين	-8265
ั้ม	-8266
▁멤버	-8267
▁주요	-8268
enze	-8269
▁vit	-8270
empla	-8271
ettre	-8272
واسطة	-8273
เปอร์	-8274
▁grad	-8275
▁host	-8276
▁افضل	-8277
▁Party	-8278
▁Techn	-8279
▁franz	-8280
▁steht	-8281
▁انشاء	-8282
▁Helena	-8283
▁Institute	-8284
ประธานาธิบดี	-8285
Gr	-8286
起こ	-8287
ชิง	-8288
ตูน	-8289
▁aj	-8290
▁اط	-8291
▁تب	-8292
百分比	-8293
aris	-8294
isis	-8295
usqu	-8296
▁kil	-8297
哪个城市	-8298
lagen	-8299
mandu	-8300
ément	-8301
▁Camp	-8302
▁يسمى	-8303
erweise	-8304
▁Chinese	-8305
▁französ	-8306
เสียชีวิต	-8307
سل	-8308
ซา	-8309
▁Ö	-8310
▁농	-8311
一些	-8312
作用	-8313
誰が	-8314
赢得	-8315
계는	-8316
وفر	-8317
▁Kal	-8318
▁Sam	-8319
▁Gebä	-8320
▁star	-8321
intosh	-8322
▁indic	-8323
▁somal	-8324
アメリカ合衆	-8325
britann	-8326
▁بواسطة	-8327
รัฐมนตรี	-8328
▁Internet	-8329
▁arquitect	-8330
▁organización	-8331
.0	-8332
▁같	-8333
▁업	-8334
举行	-8335
土地	-8336
建造	-8337
cta	-8338
บาท	-8339
ิ่น	-8340
▁bi	-8341
▁의미	-8342
adel	-8343
criv	-8344
punk	-8345
▁vac	-8346
▁اقل	-8347
enses	-8348
▁1950	-8349
▁nive	-8350
▁force	-8351
▁menos	-8352
▁الجيش	-8353
ตั้งแต่	-8354
▁manifest	-8355
SC	-8356
uj	-8357
▁ณ	-8358
▁ด	-8359
▁뉴	-8360
っち	-8361
以外	-8362
何か	-8363
대가	-8364
도를	-8365
성을	-8366
▁Ob	-8367
otte	-8368
ourd	-8369
สิ่ง	-8370
▁got	-8371
iencia	-8372
▁eserc	-8373
▁kanye	-8374
▁biblio	-8375
▁propri	-8376
โอลิมปิก	-8377
▁beeinfl	-8378
▁ejemplo	-8379
▁الجديدة	-8380
وح	-8381
้ม	-8382
家庭	-8383
어로	-8384
kte	-8385
▁출전	-8386
了哪些	-8387
这个词	-8388
▁Jan	-8389
▁lic	-8390
▁اعل	-8391
▁누구의	-8392
ührer	-8393
▁Egypt	-8394
▁défin	-8395
▁esper	-8396
itución	-8397
▁cuerpo	-8398
▁rempla	-8399
のどちらですか	-8400
▁Veranst	-8401
▁average	-8402
▁Standard	-8403
▁especies	-8404
ทั้งหมดกี่	-8405
utilisation	-8406
▁verantwortlich	-8407
พั	-8408
必须	-8409
死亡	-8410
วัง	-8411
พรรค	-8412
▁IBM	-8413
porto	-8414
Accord	-8415
ientos	-8416
▁islas	-8417
▁visto	-8418
▁لديهم	-8419
▁habitu	-8420
▁Comcast	-8421
▁cuántas	-8422
▁الانواع	-8423
▁geschaffen	-8424
▁yönetmenleri	-8425
▁협	-8426
电视	-8427
정을	-8428
Dov	-8429
adh	-8430
jab	-8431
íos	-8432
اسع	-8433
يجة	-8434
คณะ	-8435
▁sw	-8436
之间的	-8437
asso	-8438
xico	-8439
ينات	-8440
▁pay	-8441
いますか	-8442
pollo	-8443
▁Soci	-8444
▁reçu	-8445
▁télé	-8446
▁يعيش	-8447
etwork	-8448
▁altra	-8449
▁former	-8450
▁lorsqu	-8451
▁treaty	-8452
▁équipe	-8453
▁établi	-8454
ontinent	-8455
▁Nintendo	-8456
▁students	-8457
▁utilizado	-8458
วิทยาศาสตร์	-8459
lè	-8460
سخ	-8461
会议	-8462
排名	-8463
hte	-8464
iar	-8465
تمع	-8466
▁my	-8467
▁وس	-8468
▁때는	-8469
되는가	-8470
▁byu	-8471
▁way	-8472
▁최초로	-8473
▁لعبة	-8474
▁front	-8475
▁اعادة	-8476
▁الطائ	-8477
▁consum	-8478
▁direction	-8479
مز	-8480
之后	-8481
写的	-8482
宪法	-8483
政策	-8484
화의	-8485
eff	-8486
key	-8487
èle	-8488
تمد	-8489
هزة	-8490
แม่	-8491
▁Wo	-8492
▁날은	-8493
fahr	-8494
ينيا	-8495
▁sea	-8496
▁Play	-8497
▁geme	-8498
▁iran	-8499
Cuando	-8500
▁equip	-8501
▁oblig	-8502
▁trasm	-8503
▁الاحت	-8504
▁هافين	-8505
Beyonce	-8506
▁Neptune	-8507
▁superfic	-8508
ขา	-8509
フェ	-8510
ヴァ	-8511
开发	-8512
니아	-8513
방송	-8514
Ant	-8515
ทวี	-8516
▁번째	-8517
ニュー	-8518
的一个	-8519
iker	-8520
▁pic	-8521
▁했을까	-8522
azine	-8523
icina	-8524
otion	-8525
petto	-8526
▁Sing	-8527
▁agli	-8528
▁batt	-8529
▁führ	-8530
▁rate	-8531
▁tard	-8532
สําหรับ	-8533
▁Proble	-8534
▁enfants	-8535
▁construit	-8536
Zu	-8537
ตน	-8538
▁온	-8539
法案	-8540
高い	-8541
lit	-8542
ueb	-8543
▁지방	-8544
atta	-8545
irse	-8546
unes	-8547
îles	-8548
▁life	-8549
▁said	-8550
พระนาม	-8551
▁Burma	-8552
ization	-8553
▁Thomas	-8554
▁Florida	-8555
▁schools	-8556
According	-8557
▁caratter	-8558
▁Kathmandu	-8559
▁wichtigste	-8560
ุธ	-8561
▁완	-8562
▁폐	-8563
ステ	-8564
哲学	-8565
도가	-8566
도로	-8567
ابل	-8568
รัช	-8569
▁Kn	-8570
▁هل	-8571
▁최종	-8572
스리그	-8573
Wenn	-8574
back	-8575
ماني	-8576
▁ogg	-8577
Wofür	-8578
reten	-8579
▁الات	-8580
rosoft	-8581
uption	-8582
▁Regno	-8583
▁conta	-8584
▁الاسب	-8585
▁العصر	-8586
ใครเป็น	-8587
▁souten	-8588
▁taille	-8589
▁università	-8590
24	-8591
บี	-8592
โย	-8593
제를	-8594
조의	-8595
cas	-8596
้าร	-8597
▁NY	-8598
▁بن	-8599
と呼ば	-8600
ロッパ	-8601
▁موج	-8602
video	-8603
▁läng	-8604
▁Great	-8605
▁court	-8606
▁lungo	-8607
นักร้อง	-8608
▁Region	-8609
เล่นเป็น	-8610
▁happened	-8611
▁organism	-8612
▁탄	-8613
何月	-8614
文学	-8615
风格	-8616
업은	-8617
Ind	-8618
abb	-8619
oco	-8620
acio	-8621
fois	-8622
kten	-8623
ünst	-8624
ชั้น	-8625
ิยาย	-8626
▁Ath	-8627
▁Per	-8628
▁vel	-8629
什么东西	-8630
▁fact	-8631
▁même	-8632
▁البي	-8633
ヨーロッパ	-8634
名字是什么	-8635
▁dimin	-8636
férence	-8637
hejiang	-8638
ชื่อว่า	-8639
▁comien	-8640
▁Chicago	-8641
▁Gruppen	-8642
▁religios	-8643
▁religión	-8644
▁بريطانيا	-8645
▁돌	-8646
ブル	-8647
查尔	-8648
马里	-8649
체는	-8650
ليل	-8651
โรค	-8652
▁Dé	-8653
▁Cup	-8654
▁일어난	-8655
Spiel	-8656
ittle	-8657
▁king	-8658
▁apare	-8659
▁potre	-8660
▁repla	-8661
énergie	-8662
▁Avenue	-8663
▁Grammy	-8664
▁alcuni	-8665
▁musica	-8666
▁الجديد	-8667
▁character	-8668
อิ	-8669
伊斯	-8670
负责	-8671
당의	-8672
지막	-8673
air	-8674
yen	-8675
علم	-8676
が最も	-8677
共和国	-8678
fass	-8679
inge	-8680
pose	-8681
▁Emp	-8682
▁big	-8683
Europ	-8684
istra	-8685
▁bois	-8686
▁stor	-8687
▁sugg	-8688
▁لكرة	-8689
▁great	-8690
▁legal	-8691
▁peque	-8692
▁جزيرة	-8693
▁azienda	-8694
▁usually	-8695
▁친	-8696
▁테	-8697
かけ	-8698
につ	-8699
세가	-8700
rig	-8701
rob	-8702
لاب	-8703
▁tí	-8704
นายก	-8705
▁Bel	-8706
▁Tra	-8707
▁niv	-8708
▁يحت	-8709
的一部分	-8710
anmar	-8711
rebbe	-8712
rogen	-8713
▁Haus	-8714
▁alli	-8715
▁cred	-8716
▁hard	-8717
atalan	-8718
ingham	-8719
ประมาณ	-8720
▁neuen	-8721
▁volte	-8722
▁Kultur	-8723
▁spesso	-8724
▁Bretaña	-8725
▁canción	-8726
▁المصطلح	-8727
▁bedeutet	-8728
▁published	-8729
▁territorio	-8730
ของประเทศไทย	-8731
ms	-8732
ショ	-8733
数据	-8734
组成	-8735
law	-8736
سمي	-8737
▁cô	-8738
ゲーム	-8739
uppe	-8740
สกุล	-8741
เลีย	-8742
▁beh	-8743
éxico	-8744
▁Mund	-8745
▁Verb	-8746
▁muss	-8747
▁อะไร	-8748
isiert	-8749
itario	-8750
▁cerve	-8751
▁supre	-8752
▁décrit	-8753
▁letzte	-8754
▁Twilight	-8755
先に	-8756
常见	-8757
接受	-8758
LED	-8759
esc	-8760
iew	-8761
xim	-8762
صبح	-8763
ดิ์	-8764
ภาย	-8765
ฤดู	-8766
▁ip	-8767
の方が	-8768
تيجة	-8769
▁nur	-8770
▁rip	-8771
antin	-8772
prise	-8773
พิมพ์	-8774
▁croy	-8775
▁voul	-8776
▁시청률은	-8777
▁Pflan	-8778
▁fuera	-8779
▁nucle	-8780
▁using	-8781
▁انواع	-8782
itation	-8783
▁preced	-8784
▁título	-8785
▁indigen	-8786
วันที่เท่าไร	-8787
وء	-8788
▁심	-8789
的な	-8790
▁Ze	-8791
▁ép	-8792
世界上	-8793
erve	-8794
izar	-8795
todo	-8796
▁Div	-8797
▁Mic	-8798
▁احت	-8799
ended	-8800
iante	-8801
▁Nach	-8802
▁tant	-8803
uzione	-8804
▁Titel	-8805
▁retir	-8806
▁Schule	-8807
▁district	-8808
▁américain	-8809
▁attravers	-8810
▁International	-8811
ปฏ	-8812
▁쓴	-8813
hab	-8814
zie	-8815
اتل	-8816
นาง	-8817
่วย	-8818
1945	-8819
halt	-8820
راضي	-8821
▁Gol	-8822
▁Zwe	-8823
▁bal	-8824
▁señ	-8825
ようにな	-8826
ommun	-8827
parte	-8828
▁anti	-8829
▁engl	-8830
▁선거에서	-8831
ทางการ	-8832
▁Night	-8833
▁named	-8834
▁times	-8835
▁Guinea	-8836
▁empire	-8837
▁manten	-8838
▁tercer	-8839
▁zusammen	-8840
▁nationale	-8841
โค	-8842
ジア	-8843
基因	-8844
fin	-8845
รัส	-8846
สาว	-8847
▁Bü	-8848
▁يس	-8849
ards	-8850
umin	-8851
▁ABC	-8852
▁Sen	-8853
▁시리즈	-8854
▁الله	-8855
▁بالل	-8856
reiben	-8857
เท่าไร	-8858
▁grieg	-8859
▁sujet	-8860
▁élect	-8861
นวนิยาย	-8862
▁Bereich	-8863
▁Bermuda	-8864
▁individu	-8865
▁battaglia	-8866
▁populaire	-8867
ضم	-8868
فن	-8869
後の	-8870
誰の	-8871
viv	-8872
هرب	-8873
โคร	-8874
▁FA	-8875
于什么	-8876
2002	-8877
hire	-8878
iqué	-8879
ught	-8880
▁Cap	-8881
▁cho	-8882
▁اذا	-8883
ocrat	-8884
▁المط	-8885
abhäng	-8886
iction	-8887
▁dichi	-8888
▁medio	-8889
第二次世界大	-8890
lamento	-8891
▁confer	-8892
▁legisl	-8893
อเมริกัน	-8894
▁Seconde	-8895
▁benefic	-8896
▁Avicenna	-8897
▁escuelas	-8898
▁للولايات	-8899
▁développement	-8900
▁싱	-8901
▁폭	-8902
ーの	-8903
发明	-8904
관의	-8905
กรม	-8906
ยาน	-8907
วิล	-8908
▁위한	-8909
チーム	-8910
番目に	-8911
cita	-8912
iegt	-8913
onic	-8914
uert	-8915
unch	-8916
zept	-8917
โมสร	-8918
▁Tor	-8919
▁erw	-8920
▁نور	-8921
▁아시안	-8922
aines	-8923
▁Arab	-8924
▁brev	-8925
▁circ	-8926
▁down	-8927
▁teil	-8928
はどれくら	-8929
▁fiume	-8930
▁these	-8931
▁الشعب	-8932
▁누구입니까	-8933
▁cultur	-8934
▁membri	-8935
Bretagne	-8936
ducation	-8937
▁encuentran	-8938
▁มีชื่อว่าอะไร	-8939
Lo	-8940
▁페	-8941
王星	-8942
的に	-8943
명한	-8944
にある	-8945
cono	-8946
zion	-8947
▁Lig	-8948
▁XIX	-8949
▁bra	-8950
▁마지막	-8951
▁중에서	-8952
istic	-8953
terra	-8954
▁Germ	-8955
▁taux	-8956
スーパーボ	-8957
▁broad	-8958
▁benutzt	-8959
▁portato	-8960
▁proceso	-8961
▁religie	-8962
▁laquelle	-8963
นี	-8964
優勝	-8965
Sec	-8966
gew	-8967
örd	-8968
▁يف	-8969
บั้ม	-8970
▁dép	-8971
▁علم	-8972
れている	-8973
orias	-8974
ผู้ใด	-8975
▁dice	-8976
▁site	-8977
▁الوح	-8978
れましたか	-8979
iziert	-8980
ouvert	-8981
▁الدين	-8982
ตัวละคร	-8983
▁computer	-8984
▁temperatura	-8985
▁x	-8986
▁못	-8987
民主	-8988
œuv	-8989
▁hi	-8990
▁وز	-8991
▁عشر	-8992
▁موا	-8993
ereur	-8994
iddle	-8995
สถานี	-8996
omaine	-8997
がありますか	-8998
▁quante	-8999
▁recher	-9000
iquement	-9001
▁anglais	-9002
▁Festival	-9003
▁geworden	-9004
▁Christian	-9005
▁convirtió	-9006
▁également	-9007
▁movimiento	-9008
▁Großbritann	-9009
▁unterstützt	-9010
ám	-9011
تى	-9012
のか	-9013
伦敦	-9014
地震	-9015
提出	-9016
بار	-9017
يمة	-9018
ยัง	-9019
▁사회	-9020
▁있었	-9021
▁출시	-9022
cted	-9023
name	-9024
طولة	-9025
▁baj	-9026
▁luz	-9027
っている	-9028
どちらの	-9029
ものは何	-9030
ศาสนา	-9031
▁Jack	-9032
▁Mass	-9033
▁Samo	-9034
▁rôle	-9035
กํากับ	-9036
▁Bezug	-9037
▁tipos	-9038
Quiénes	-9039
▁Robert	-9040
▁employ	-9041
▁Britain	-9042
▁regione	-9043
▁structure	-9044
TA	-9045
zz	-9046
สน	-9047
▁آ	-9048
乐部	-9049
格兰	-9050
试图	-9051
选举	-9052
Hat	-9053
Uni	-9054
ieß	-9055
ศัก	-9056
สมุ	-9057
▁عض	-9058
▁몇개	-9059
▁하나	-9060
リング	-9061
俱乐部	-9062
amen	-9063
face	-9064
unst	-9065
ائية	-9066
บ้าง	-9067
▁Her	-9068
autre	-9069
▁Sony	-9070
▁berü	-9071
▁biet	-9072
unicip	-9073
▁claim	-9074
▁formed	-9075
azionale	-9076
▁austral	-9077
▁building	-9078
▁adolescent	-9079
اخ	-9080
▁ร	-9081
ンは	-9082
一次	-9083
警察	-9084
했을	-9085
Ent	-9086
fit	-9087
سيك	-9088
▁26	-9089
どっち	-9090
ettr	-9091
tein	-9092
▁God	-9093
▁Sie	-9094
▁voy	-9095
vered	-9096
ética	-9097
▁Hand	-9098
▁Love	-9099
▁bird	-9100
▁doll	-9101
▁méth	-9102
▁سانت	-9103
▁gioco	-9104
▁repub	-9105
▁seule	-9106
▁title	-9107
▁México	-9108
▁observ	-9109
ปัจจุบัน	-9110
▁langues	-9111
▁weiterer	-9112
70	-9113
GB	-9114
äh	-9115
世の	-9116
情况	-9117
意大	-9118
경기	-9119
단은	-9120
동차	-9121
ähl	-9122
الح	-9123
راق	-9124
ลาย	-9125
เปล	-9126
otel	-9127
ทวีป	-9128
▁يست	-9129
verse	-9130
ونسيه	-9131
▁Game	-9132
▁symb	-9133
▁التش	-9134
ทําให้	-9135
▁diffus	-9136
▁parola	-9137
▁Myanmar	-9138
▁célèbre	-9139
▁science	-9140
By	-9141
▁획	-9142
停止	-9143
完成	-9144
後に	-9145
部门	-9146
非洲	-9147
요한	-9148
ope	-9149
rio	-9150
ฒนา	-9151
▁On	-9152
▁só	-9153
▁เอ	-9154
▁정치	-9155
▁하계	-9156
2001	-9157
▁Los	-9158
▁Mov	-9159
After	-9160
uppen	-9161
▁Eins	-9162
▁Hill	-9163
▁race	-9164
▁Buddh	-9165
▁Shell	-9166
▁invad	-9167
lemagne	-9168
▁adopté	-9169
▁appear	-9170
▁famous	-9171
▁maison	-9172
▁sexual	-9173
▁argument	-9174
Angleterre	-9175
หา	-9176
机场	-9177
相信	-9178
프트	-9179
nen	-9180
ดอก	-9181
ตรา	-9182
▁독립	-9183
意大利	-9184
2003	-9185
Adem	-9186
klär	-9187
tera	-9188
▁255	-9189
▁gal	-9190
entro	-9191
▁Oper	-9192
▁erhö	-9193
▁erre	-9194
▁magn	-9195
▁todo	-9196
Además	-9197
▁corre	-9198
aziland	-9199
istoire	-9200
การ์ตูน	-9201
▁Kinder	-9202
▁estilo	-9203
▁follow	-9204
▁العامة	-9205
▁contiene	-9206
▁developed	-9207
▁industria	-9208
Au	-9209
ษฐ	-9210
상의	-9211
우는	-9212
전의	-9213
céd	-9214
ema	-9215
ريت	-9216
▁Cy	-9217
amin	-9218
esla	-9219
inin	-9220
▁iss	-9221
▁ارت	-9222
assin	-9223
troit	-9224
▁Miss	-9225
▁يتعلق	-9226
iciones	-9227
▁descub	-9228
▁theory	-9229
▁utilizó	-9230
▁القديمة	-9231
▁responsible	-9232
ป์	-9233
อี	-9234
하며	-9235
imp	-9236
oto	-9237
راه	-9238
ถนน	-9239
แทน	-9240
▁تخ	-9241
导致了	-9242
วรรณ	-9243
เกีย	-9244
▁amo	-9245
▁جعل	-9246
▁역할은	-9247
▁late	-9248
▁rais	-9249
▁بالن	-9250
▁aussi	-9251
▁serve	-9252
▁الأول	-9253
▁nasser	-9254
เกิดขึ้น	-9255
の名前は何ですか	-9256
จังหวัดอะไร	-9257
▁갖	-9258
影響	-9259
改变	-9260
이스	-9261
ابة	-9262
จุด	-9263
▁Sm	-9264
▁운영	-9265
에서의	-9266
arse	-9267
bero	-9268
▁Law	-9269
▁Pub	-9270
▁اعط	-9271
▁برو	-9272
▁متى	-9273
▁Mart	-9274
▁Mill	-9275
▁لعام	-9276
▁causó	-9277
▁forte	-9278
▁unido	-9279
▁transl	-9280
▁wieder	-9281
▁économ	-9282
▁dichiar	-9283
▁gewählt	-9284
▁البلدان	-9285
▁اليونان	-9286
▁événement	-9287
ุษ	-9288
一天	-9289
自然	-9290
력을	-9291
ثلة	-9292
راد	-9293
ورج	-9294
abet	-9295
inen	-9296
▁bor	-9297
▁web	-9298
▁حتى	-9299
▁지역은	-9300
使用什么	-9301
icode	-9302
inner	-9303
▁Test	-9304
▁Armee	-9305
▁cerca	-9306
▁berühm	-9307
▁destin	-9308
▁pestic	-9309
▁nachdem	-9310
▁angesehen	-9311
▁걸	-9312
アー	-9313
德里	-9314
자로	-9315
azu	-9316
▁ปี	-9317
▁만들	-9318
คนใด	-9319
เงิน	-9320
▁dep	-9321
▁usa	-9322
hique	-9323
isión	-9324
▁inte	-9325
▁meth	-9326
▁îles	-9327
▁معدل	-9328
▁línea	-9329
▁sotto	-9330
▁المال	-9331
▁معركة	-9332
▁civile	-9333
▁السوفي	-9334
▁mouvement	-9335
▁verwenden	-9336
ใครร้องเพลง	-9337
に入	-9338
制造	-9339
英语	-9340
Cos	-9341
Man	-9342
eso	-9343
rog	-9344
▁90	-9345
亡くな	-9346
建立的	-9347
日本の	-9348
affe	-9349
agli	-9350
erei	-9351
hält	-9352
rado	-9353
vant	-9354
▁won	-9355
▁اخذ	-9356
Après	-9357
▁Ziel	-9358
▁dazu	-9359
▁ناصر	-9360
ellung	-9361
lossen	-9362
▁Bezie	-9363
▁Santa	-9364
▁grado	-9365
ropolit	-9366
ประวัติ	-9367
พื้นที่	-9368
▁contest	-9369
▁lorsque	-9370
▁المناطق	-9371
แร	-9372
▁줄	-9373
と言	-9374
ロン	-9375
ワイ	-9376
协议	-9377
尔兰	-9378
概念	-9379
일의	-9380
lor	-9381
สถา	-9382
▁MP	-9383
▁يؤ	-9384
gono	-9385
side	-9386
ستور	-9387
บิดา	-9388
▁age	-9389
▁she	-9390
▁âge	-9391
lands	-9392
stone	-9393
مانيا	-9394
▁Bush	-9395
▁suoi	-9396
▁Fluss	-9397
▁selon	-9398
▁النبات	-9399
▁Raleigh	-9400
เกี่ยวกับ	-9401
▁troisième	-9402
bn	-9403
عد	-9404
ップ	-9405
hne	-9406
ump	-9407
ämp	-9408
عمل	-9409
into	-9410
omme	-9411
onte	-9412
ต่าง	-9413
เรือ	-9414
▁Off	-9415
arden	-9416
ennes	-9417
▁habl	-9418
▁mark	-9419
▁العن	-9420
了什么样的	-9421
▁Japon	-9422
▁Schwe	-9423
▁Tesla	-9424
▁اثناء	-9425
▁عاصمة	-9426
▁häufig	-9427
▁villes	-9428
▁bombard	-9429
▁combatt	-9430
▁certaines	-9431
▁languages	-9432
ิป	-9433
▁환	-9434
レイ	-9435
福克	-9436
Out	-9437
▁되는	-9438
เส้น	-9439
▁AFL	-9440
▁Mat	-9441
▁rem	-9442
▁Flug	-9443
▁dens	-9444
▁vice	-9445
▁woll	-9446
▁اكتش	-9447
▁طريق	-9448
▁어땠을까	-9449
▁conte	-9450
▁aleman	-9451
▁colleg	-9452
▁muchos	-9453
▁profes	-9454
▁الموسم	-9455
▁highest	-9456
▁nouvelle	-9457
▁Geschichte	-9458
عر	-9459
มะ	-9460
時期	-9461
议会	-9462
重新	-9463
광역	-9464
상은	-9465
cés	-9466
dic	-9467
طرة	-9468
هاز	-9469
▁UK	-9470
▁بج	-9471
▁획득	-9472
fica	-9473
reas	-9474
روفة	-9475
▁كات	-9476
ercul	-9477
▁init	-9478
▁باري	-9479
▁ولكن	-9480
▁تشكيل	-9481
▁누구인가요	-9482
wendung	-9483
▁factor	-9484
▁libros	-9485
▁market	-9486
▁öffent	-9487
histoire	-9488
▁idiomas	-9489
▁perform	-9490
▁théorie	-9491
▁المحكمة	-9492
▁relation	-9493
▁utiliser	-9494
▁Montevideo	-9495
CD	-9496
قر	-9497
物种	-9498
과는	-9499
وبة	-9500
คัญ	-9501
บรร	-9502
่อย	-9503
▁가능	-9504
ivre	-9505
what	-9506
ทธิ์	-9507
▁Anf	-9508
▁Ann	-9509
▁bur	-9510
▁تاي	-9511
▁لاع	-9512
▁لاي	-9513
▁ماي	-9514
hovah	-9515
ipend	-9516
èrent	-9517
▁just	-9518
▁pero	-9519
▁الاعل	-9520
▁الصنا	-9521
▁الطبي	-9522
▁author	-9523
hilterra	-9524
▁comment	-9525
▁install	-9526
▁contribué	-9527
??	-9528
ôt	-9529
▁ظ	-9530
アフ	-9531
レン	-9532
任命	-9533
拥有	-9534
方言	-9535
황은	-9536
rak	-9537
لمن	-9538
สู่	-9539
้อม	-9540
は何年	-9541
爱尔兰	-9542
itud	-9543
ived	-9544
▁يتح	-9545
เข้าร	-9546
เดือน	-9547
▁bord	-9548
▁cong	-9549
▁Milit	-9550
▁revol	-9551
▁언제인가요	-9552
▁Mexiko	-9553
▁chiama	-9554
▁البرتغ	-9555
▁الفيلم	-9556
▁municip	-9557
▁الافراج	-9558
▁Microsoft	-9559
▁organisation	-9560
Ex	-9561
وذ	-9562
량은	-9563
이나	-9564
00?	-9565
idi	-9566
pes	-9567
คาร	-9568
▁ah	-9569
犹太人	-9570
chte	-9571
less	-9572
onom	-9573
pond	-9574
▁Dig	-9575
▁Old	-9576
▁dej	-9577
▁어떤것	-9578
ประชา	-9579
▁Girl	-9580
▁Guam	-9581
▁liga	-9582
▁orth	-9583
▁vert	-9584
▁Über	-9585
ciales	-9586
▁Texas	-9587
lerinde	-9588
▁década	-9589
▁necess	-9590
▁استخدم	-9591
istiques	-9592
▁college	-9593
▁tiempos	-9594
▁studenti	-9595
▁interpret	-9596
▁instrument	-9597
▁principalmente	-9598
之外	-9599
受到	-9600
有关	-9601
軍の	-9602
부의	-9603
아가	-9604
정된	-9605
طاق	-9606
لول	-9607
กอง	-9608
ทิศ	-9609
ยอด	-9610
▁NA	-9611
百分之	-9612
ènes	-9613
▁191	-9614
▁pie	-9615
▁sue	-9616
▁برن	-9617
▁منح	-9618
▁esta	-9619
▁find	-9620
▁vale	-9621
▁مثال	-9622
สําคัญ	-9623
▁lingu	-9624
▁oppos	-9625
▁vient	-9626
cuencia	-9627
▁estánd	-9628
▁fuerza	-9629
▁unidos	-9630
▁Francis	-9631
▁algunas	-9632
▁connect	-9633
▁empresa	-9634
▁geführt	-9635
▁emperador	-9636
▁başrollerinde	-9637
地球	-9638
بول	-9639
جاج	-9640
▁Em	-9641
▁KU	-9642
stru	-9643
▁Top	-9644
▁cad	-9645
ientí	-9646
tagna	-9647
▁elev	-9648
▁prot	-9649
▁svol	-9650
▁Ägyp	-9651
▁구성되어	-9652
▁하였는가	-9653
achsen	-9654
▁Maria	-9655
▁Sport	-9656
▁genet	-9657
▁madre	-9658
▁monar	-9659
▁متوسط	-9660
▁femmes	-9661
▁scuole	-9662
▁vielen	-9663
▁Armenia	-9664
▁الاطفال	-9665
▁internet	-9666
▁servicio	-9667
▁Napoleone	-9668
▁influence	-9669
év	-9670
開催	-9671
ค้า	-9672
จัน	-9673
▁시절	-9674
adır	-9675
▁Kre	-9676
▁مقد	-9677
▁وصل	-9678
สโมสร	-9679
▁atte	-9680
▁eleg	-9681
▁mois	-9682
▁rédu	-9683
▁2004?	-9684
▁Lutero	-9685
▁costitu	-9686
▁Brasilia	-9687
▁software	-9688
▁Großbritannien	-9689
报告	-9690
게임	-9691
역을	-9692
운동	-9693
진이	-9694
NES	-9695
พาน	-9696
▁80	-9697
▁cy	-9698
▁va	-9699
▁لي	-9700
▁모델	-9701
▁인해	-9702
enta	-9703
ären	-9704
แล้ว	-9705
▁Bei	-9706
▁sen	-9707
▁나오는	-9708
▁선수의	-9709
มีการ	-9710
▁Gott	-9711
▁Mand	-9712
▁Qing	-9713
▁like	-9714
名称是什么	-9715
ichtet	-9716
▁Grèce	-9717
▁ligne	-9718
▁primi	-9719
Insieme	-9720
▁cientí	-9721
▁inglese	-9722
▁profess	-9723
▁utilise	-9724
จังหวัดใด	-9725
▁superficie	-9726
IS	-9727
ty	-9728
แป	-9729
▁충	-9730
ナル	-9731
ーズ	-9732
太阳	-9733
领域	-9734
ปาก	-9735
ยุค	-9736
▁Po	-9737
▁따라	-9738
iken	-9739
oire	-9740
usst	-9741
▁var	-9742
有多少个	-9743
omano	-9744
▁verw	-9745
▁carta	-9746
▁films	-9747
▁reine	-9748
▁السنة	-9749
ception	-9750
▁includ	-9751
cimiento	-9752
▁internation	-9753
bs	-9754
ตู	-9755
เฮ	-9756
▁루	-9757
エン	-9758
奥斯	-9759
殖民	-9760
連合	-9761
ria	-9762
ائد	-9763
مثل	-9764
▁شب	-9765
▁역사	-9766
회에서	-9767
folg	-9768
لاثة	-9769
▁sam	-9770
▁내용은	-9771
▁caso	-9772
▁بالت	-9773
是什么意思	-9774
ettato	-9775
ußball	-9776
▁Brown	-9777
は誰でしたか	-9778
จักรพรร	-9779
▁Greece	-9780
▁amount	-9781
▁europä	-9782
▁impact	-9783
▁الاصلي	-9784
▁aumento	-9785
▁انجلترا	-9786
▁ricevuto	-9787
▁educación	-9788
uh	-9789
อว	-9790
▁식	-9791
▁홍	-9792
▁효	-9793
制度	-9794
基金	-9795
现在	-9796
開始	-9797
어의	-9798
했나	-9799
ilm	-9800
ندي	-9801
▁جي	-9802
委员会	-9803
anni	-9804
ateg	-9805
▁caz	-9806
▁faç	-9807
▁voc	-9808
ining	-9809
ohner	-9810
สาธาร	-9811
▁drit	-9812
lauben	-9813
▁Ergeb	-9814
▁البشر	-9815
▁النها	-9816
▁zweite	-9817
▁gemeins	-9818
▁business	-9819
▁détermin	-9820
▁esercito	-9821
▁President	-9822
▁considera	-9823
▁commercial	-9824
▁송	-9825
发表	-9826
計画	-9827
限制	-9828
éré	-9829
ساء	-9830
▁싱글	-9831
▁출마	-9832
伊斯兰	-9833
aval	-9834
ipto	-9835
ก่อน	-9836
▁DNA	-9837
▁mai	-9838
▁سان	-9839
ansas	-9840
เลือก	-9841
▁cher	-9842
▁extr	-9843
▁hand	-9844
izioni	-9845
▁Nobel	-9846
▁Supre	-9847
▁money	-9848
ที่เป็น	-9849
อะไรคือ	-9850
▁action	-9851
▁crisis	-9852
▁object	-9853
▁chanson	-9854
▁couleur	-9855
▁0	-9856
▁ช	-9857
▁탈	-9858
受賞	-9859
团体	-9860
大陆	-9861
群体	-9862
西亚	-9863
인공	-9864
har	-9865
دون	-9866
فقة	-9867
لفة	-9868
ทาน	-9869
ปฏิ	-9870
▁ca	-9871
▁조선	-9872
러시아	-9873
1940	-9874
edio	-9875
makt	-9876
zial	-9877
وفقا	-9878
สมรส	-9879
▁Por	-9880
▁Pul	-9881
▁cul	-9882
itter	-9883
▁1930	-9884
▁erst	-9885
▁Unito	-9886
▁romano	-9887
minister	-9888
▁artista	-9889
▁conduit	-9890
▁esempio	-9891
▁incorpor	-9892
▁ministre	-9893
▁yayınlanm	-9894
อร	-9895
ุก	-9896
スが	-9897
共同	-9898
皇家	-9899
세기	-9900
정한	-9901
치는	-9902
مون	-9903
วาง	-9904
อิส	-9905
▁22	-9906
▁لج	-9907
afen	-9908
cias	-9909
▁179	-9910
▁Leb	-9911
▁Tem	-9912
▁hyd	-9913
做了什么	-9914
▁Vict	-9915
▁excl	-9916
อันดับ	-9917
ชื่อของ	-9918
▁frühen	-9919
maktadır	-9920
▁اليابان	-9921
▁occidental	-9922
▁responsabile	-9923
▁악	-9924
利用	-9925
属于	-9926
应该	-9927
戦い	-9928
発表	-9929
씨의	-9930
ote	-9931
öst	-9932
▁نق	-9933
▁설치	-9934
▁출신	-9935
られる	-9936
インド	-9937
이라고	-9938
arsi	-9939
urai	-9940
▁لان	-9941
▁لغة	-9942
angel	-9943
▁ofre	-9944
▁sert	-9945
▁vidé	-9946
atives	-9947
▁aktör	-9948
▁hasta	-9949
▁isola	-9950
▁month	-9951
▁resist	-9952
▁specie	-9953
▁الفترة	-9954
anischen	-9955
▁espèces	-9956
▁thought	-9957
▁desarrollo	-9958
▁occidentale	-9959
โท	-9960
▁퍼	-9961
ダー	-9962
マー	-9963
市场	-9964
獲得	-9965
贝尔	-9966
가수	-9967
드가	-9968
리에	-9969
민주	-9970
해야	-9971
현재	-9972
Una	-9973
asi	-9974
ram	-9975
تمي	-9976
ظيم	-9977
โปร	-9978
้าว	-9979
▁27	-9980
▁Sa	-9981
bell	-9982
هاور	-9983
▁win	-9984
▁تست	-9985
▁sull	-9986
▁يسمح	-9987
action	-9988
ildung	-9989
inning	-9990
Église	-9991
▁الجام	-9992
▁الهدف	-9993
anische	-9994
▁الرياض	-9995
▁Mundial	-9996
▁allowed	-9997
▁gedacht	-9998
▁llamado	-9999
▁refiere	-10000
▁tarihte	-10001
▁dynastie	-10002
▁processus	-10003
ใครแสดงเป็น	-10004
يح	-10005
ไอ	-10006
に出	-10007
んで	-10008
起源	-10009
Reg	-10010
ael	-10011
urt	-10012
▁때문	-10013
halb	-10014
▁All	-10015
▁fal	-10016
▁rid	-10017
했습니까	-10018
attan	-10019
ilien	-10020
▁Stat	-10021
▁case	-10022
▁ساوث	-10023
▁مكتب	-10024
どのような	-10025
iments	-10026
▁Japón	-10027
▁envoy	-10028
▁ordin	-10029
▁sépar	-10030
▁terms	-10031
▁عملية	-10032
▁Apollo	-10033
▁create	-10034
▁챔피언스리그	-10035
▁Schweiz	-10036
ış	-10037
شب	-10038
โจ	-10039
▁길	-10040
アカ	-10041
コー	-10042
安全	-10043
拉夫	-10044
本土	-10045
每年	-10046
爱沙	-10047
미널	-10048
트는	-10049
เวณ	-10050
▁Ju	-10051
▁li	-10052
▁정규	-10053
John	-10054
idió	-10055
uest	-10056
▁Hit	-10057
▁Pak	-10058
▁erm	-10059
▁van	-10060
▁خلق	-10061
▁국가는	-10062
爱沙尼亚	-10063
Neben	-10064
istre	-10065
owers	-10066
▁cres	-10067
▁else	-10068
▁leng	-10069
▁seit	-10070
▁درجة	-10071
มีความ	-10072
▁among	-10073
▁audio	-10074
▁level	-10075
▁établ	-10076
Después	-10077
▁cardin	-10078
▁Gebäude	-10079
▁höchste	-10080
▁terminó	-10081
▁trovano	-10082
▁Minister	-10083
▁research	-10084
ภั	-10085
▁„	-10086
リオ	-10087
王朝	-10088
荷兰	-10089
die	-10090
ارد	-10091
แอน	-10092
일까요	-10093
UEFA	-10094
kehr	-10095
länd	-10096
▁Gew	-10097
れたのは	-10098
eland	-10099
achine	-10100
argent	-10101
▁gebor	-10102
▁otras	-10103
▁تعتبر	-10104
prochen	-10105
▁Commun	-10106
▁Egipto	-10107
▁Kaiser	-10108
▁امريكا	-10109
スーパーボウル	-10110
ในเรื่อง	-10111
▁militar	-10112
นก	-10113
イル	-10114
澳大	-10115
球队	-10116
碧昂	-10117
omo	-10118
数が多	-10119
的人口	-10120
ying	-10121
สนาม	-10122
▁Way	-10123
▁any	-10124
▁inm	-10125
▁선수권	-10126
▁참여한	-10127
はいくつ	-10128
澳大利亚	-10129
egung	-10130
▁Erit	-10131
▁Konf	-10132
▁Lord	-10133
▁Ming	-10134
▁list	-10135
▁شارع	-10136
▁ชื่อ	-10137
▁india	-10138
هامبتون	-10139
▁chasse	-10140
▁Energie	-10141
▁Western	-10142
▁prodotto	-10143
yo	-10144
▁며	-10145
物质	-10146
葡萄	-10147
迈阿	-10148
케이	-10149
ady	-10150
ونة	-10151
แชม	-10152
▁مه	-10153
迈阿密	-10154
uper	-10155
▁aud	-10156
▁ملك	-10157
▁태어났	-10158
owjet	-10159
produ	-10160
scher	-10161
uchen	-10162
école	-10163
▁Cina	-10164
▁ases	-10165
ilosop	-10166
équipe	-10167
จากการ	-10168
ใดเป็น	-10169
▁calle	-10170
▁الكون	-10171
▁انتاج	-10172
วงศ์เธอ	-10173
▁teoría	-10174
▁devenue	-10175
▁الانسان	-10176
▁gehalten	-10177
▁services	-10178
غر	-10179
▁검	-10180
政党	-10181
스를	-10182
▁Gl	-10183
▁담당	-10184
▁이적	-10185
oses	-10186
äfte	-10187
▁فقط	-10188
craft	-10189
ified	-10190
ervice	-10191
▁David	-10192
▁شعبية	-10193
は何でしたか	-10194
อัลบั้ม	-10195
▁Londra	-10196
▁écoles	-10197
▁disting	-10198
▁mission	-10199
▁Alemania	-10200
▁الجنوبية	-10201
▁habituellement	-10202
▁밝	-10203
ッツ	-10204
ブラ	-10205
移民	-10206
经常	-10207
임한	-10208
주는	-10209
hov	-10210
rot	-10211
uvo	-10212
عند	-10213
海王星	-10214
ológ	-10215
▁Raj	-10216
▁بور	-10217
▁لاح	-10218
▁cómo	-10219
▁phon	-10220
▁área	-10221
ändert	-10222
زنهاور	-10223
ปกครอง	-10224
▁museo	-10225
▁prior	-10226
▁still	-10227
▁tutti	-10228
หนึ่งใน	-10229
▁déclaré	-10230
▁général	-10231
▁mainten	-10232
▁receive	-10233
▁youtube	-10234
▁المدارس	-10235
▁programm	-10236
▁tubercul	-10237
▁religious	-10238
▁الالمانية	-10239
南部	-10240
最多	-10241
記録	-10242
키는	-10243
pre	-10244
rès	-10245
بيل	-10246
▁부분	-10247
▁승리	-10248
的哪一	-10249
的第一	-10250
cipe	-10251
edor	-10252
ommt	-10253
▁Esp	-10254
▁Out	-10255
▁Sci	-10256
▁ata	-10257
オースト	-10258
ambre	-10259
était	-10260
istica	-10261
itäten	-10262
▁finan	-10263
▁morto	-10264
▁جائزة	-10265
▁appart	-10266
▁dentro	-10267
▁reform	-10268
▁tempér	-10269
▁الشركة	-10270
▁movement	-10271
▁vorgestellt	-10272
Os	-10273
克里	-10274
北部	-10275
目标	-10276
부가	-10277
시에	-10278
회가	-10279
izó	-10280
صار	-10281
غات	-10282
เกล	-10283
▁Bu	-10284
▁وف	-10285
igur	-10286
omos	-10287
كاني	-10288
ักษ์	-10289
▁500	-10290
▁Mah	-10291
▁now	-10292
▁مصر	-10293
ingen	-10294
▁must	-10295
▁pron	-10296
▁spre	-10297
▁القر	-10298
▁있었을까	-10299
比例是多少	-10300
astern	-10301
hattan	-10302
บริเวณ	-10303
▁bevor	-10304
▁chrét	-10305
▁feder	-10306
▁focus	-10307
▁fourn	-10308
▁niños	-10309
▁تصنيف	-10310
ichtung	-10311
▁inizio	-10312
▁should	-10313
▁uranio	-10314
▁dizinin	-10315
▁stations	-10316
ذج	-10317
▁접	-10318
占領	-10319
去了	-10320
首相	-10321
년대	-10322
hui	-10323
igi	-10324
tei	-10325
yan	-10326
لعب	-10327
แก่	-10328
からの	-10329
rank	-10330
▁lan	-10331
▁جبل	-10332
▁لتح	-10333
▁carb	-10334
▁sólo	-10335
▁Barts	-10336
▁detto	-10337
▁finale	-10338
▁Entwick	-10339
▁canzone	-10340
▁reempla	-10341
▁trattato	-10342
▁Universität	-10343
DN	-10344
oo	-10345
▁Á	-10346
▁육	-10347
信仰	-10348
拿破	-10349
测试	-10350
里亚	-10351
단의	-10352
mos	-10353
ดํา	-10354
▁تف	-10355
▁교육	-10356
▁며칠	-10357
▁비판	-10358
拉斯加	-10359
拿破仑	-10360
드에서	-10361
البا	-10362
▁Seg	-10363
▁fol	-10364
▁دول	-10365
▁عصر	-10366
▁영향을	-10367
アフリカ	-10368
gypte	-10369
porte	-10370
สมุทร	-10371
▁Isra	-10372
▁Sans	-10373
▁fest	-10374
▁أكثر	-10375
cement	-10376
فريقيا	-10377
▁circu	-10378
▁immigr	-10379
▁الطيور	-10380
▁dernier	-10381
▁الوطنية	-10382
▁durchschnitt	-10383
êt	-10384
▁글	-10385
セン	-10386
公元	-10387
目的	-10388
pan	-10389
zer	-10390
▁gé	-10391
▁포함	-10392
是哪个	-10393
ensa	-10394
teca	-10395
لالة	-10396
▁Bes	-10397
▁타이틀	-10398
▁행정구	-10399
Union	-10400
ituto	-10401
oslav	-10402
▁Fall	-10403
▁proy	-10404
▁Zweit	-10405
éroport	-10406
▁Indian	-10407
▁Wasser	-10408
▁cathol	-10409
▁Sichuan	-10410
▁increase	-10411
โช	-10412
▁손	-10413
▁암	-10414
ッホ	-10415
ラス	-10416
古代	-10417
因为	-10418
자를	-10419
try	-10420
uve	-10421
زاب	-10422
▁قر	-10423
的什么	-10424
ardo	-10425
reso	-10426
▁성적은	-10427
▁Geld	-10428
▁Team	-10429
▁Vars	-10430
▁aves	-10431
被称为什么	-10432
ension	-10433
gleich	-10434
▁Radio	-10435
▁black	-10436
▁llegó	-10437
▁manch	-10438
▁tempr	-10439
▁applic	-10440
▁debido	-10441
▁Federal	-10442
▁bekommen	-10443
▁nombreux	-10444
▁diferentes	-10445
▁southampton	-10446
▁normalerweise	-10447
ศิ	-10448
▁뜻	-10449
プロ	-10450
一般	-10451
偶像	-10452
種類	-10453
群岛	-10454
萨斯	-10455
회는	-10456
edi	-10457
ums	-10458
كين	-10459
าลี	-10460
ื่น	-10461
cell	-10462
▁ولد	-10463
embre	-10464
uddha	-10465
▁Khan	-10466
▁Life	-10467
▁aura	-10468
▁doit	-10469
▁dont	-10470
▁grab	-10471
▁maje	-10472
รู้จัก	-10473
▁Farbe	-10474
▁Green	-10475
▁extra	-10476
▁speak	-10477
กรุงเทพ	-10478
▁Anzahl	-10479
▁Cathol	-10480
▁Provin	-10481
▁chiens	-10482
▁obtenu	-10483
▁Council	-10484
▁produced	-10485
ที่สุดในโลก	-10486
aï	-10487
肖邦	-10488
计算	-10489
记录	-10490
로의	-10491
lat	-10492
วิน	-10493
ากล	-10494
▁나온	-10495
▁변화	-10496
著名的	-10497
Laut	-10498
ptem	-10499
ında	-10500
▁Sir	-10501
▁الإ	-10502
endet	-10503
▁1920	-10504
▁pubs	-10505
▁الكم	-10506
いつのこと	-10507
ential	-10508
▁Macht	-10509
▁tedes	-10510
はどれですか	-10511
▁begann	-10512
▁cambio	-10513
▁formal	-10514
▁باللغة	-10515
ualmente	-10516
▁propied	-10517
▁Germania	-10518
▁institut	-10519
▁الموجودة	-10520
▁ساوثهامبتون	-10521
▁organizzazione	-10522
27	-10523
48	-10524
บู	-10525
▁쇼	-10526
天堂	-10527
대를	-10528
대학	-10529
되고	-10530
정이	-10531
emb	-10532
osc	-10533
▁Sy	-10534
▁بل	-10535
▁평가	-10536
ゴッホ	-10537
ktiv	-10538
บัติ	-10539
▁One	-10540
▁réc	-10541
中有多少	-10542
ompon	-10543
▁give	-10544
▁rema	-10545
▁يعني	-10546
สาธารณ	-10547
▁nommé	-10548
なかったのは	-10549
ünstler	-10550
▁Harbor	-10551
▁cuánto	-10552
▁niveau	-10553
▁prefer	-10554
▁المكسيك	-10555
▁ciudades	-10556
▁Studenten	-10557
▁americano	-10558
▁programme	-10559
DP	-10560
วก	-10561
博物	-10562
目の	-10563
식을	-10564
fra	-10565
oms	-10566
▁It	-10567
▁있던	-10568
▁주로	-10569
ールド	-10570
1990	-10571
ํารง	-10572
▁Bay	-10573
▁Bus	-10574
▁NYC	-10575
▁max	-10576
▁sia	-10577
izado	-10578
rique	-10579
▁2019	-10580
▁Meth	-10581
▁nave	-10582
▁الخط	-10583
▁2014,	-10584
▁Jehov	-10585
▁مقدار	-10586
▁Mittel	-10587
▁christ	-10588
▁comune	-10589
▁grands	-10590
▁Archite	-10591
▁appelle	-10592
▁الاصلية	-10593
▁Pulitzer	-10594
▁aktörler	-10595
▁erreicht	-10596
ใครเล่นเป็น	-10597
CM	-10598
入侵	-10599
兰经	-10600
最早	-10601
月に	-10602
現在	-10603
보다	-10604
eté	-10605
rif	-10606
بين	-10607
บับ	-10608
▁قط	-10609
使用的	-10610
古兰经	-10611
상에서	-10612
선에서	-10613
haus	-10614
ilie	-10615
وائز	-10616
ประช	-10617
เวีย	-10618
▁Ash	-10619
▁hor	-10620
▁let	-10621
▁سجل	-10622
▁1998	-10623
▁aber	-10624
▁seul	-10625
どこですか	-10626
▁raggi	-10627
▁think	-10628
▁veloc	-10629
▁الجزء	-10630
▁August	-10631
▁attacc	-10632
▁insegn	-10633
▁titolo	-10634
▁geboren	-10635
▁division	-10636
ว่าอย่างไร	-10637
-3	-10638
rá	-10639
▁ฮ	-10640
人员	-10641
伯特	-10642
离开	-10643
릭터	-10644
즈의	-10645
bst	-10646
exp	-10647
▁동계	-10648
天主教	-10649
uble	-10650
在哪一天	-10651
هورية	-10652
▁Bank	-10653
▁Gold	-10654
▁tasa	-10655
▁있습니까	-10656
heiten	-10657
ولندية	-10658
▁Album	-10659
▁asist	-10660
▁field	-10661
▁glaci	-10662
▁llevó	-10663
▁matér	-10664
▁rivol	-10665
▁باريس	-10666
ที่ใหญ่	-10667
▁Edward	-10668
▁Record	-10669
▁compte	-10670
▁giorno	-10671
▁termes	-10672
▁totale	-10673
ตั้งอยู่ใน	-10674
▁satellite	-10675
▁considerato	-10676
哪位	-10677
学者	-10678
定的	-10679
부분	-10680
คิด	-10681
สภา	-10682
▁اض	-10683
▁했던	-10684
スター	-10685
最初に	-10686
ases	-10687
coup	-10688
tagon	-10689
▁took	-10690
▁되었는가	-10691
Europe	-10692
forman	-10693
▁leben	-10694
▁prime	-10695
▁small	-10696
▁ouvert	-10697
▁europea	-10698
▁Philosoph	-10699
▁허	-10700
欢迎	-10701
职业	-10702
조는	-10703
하면	-10704
mat	-10705
raw	-10706
tér	-10707
واء	-10708
กิจ	-10709
คคล	-10710
แดน	-10711
▁aé	-10712
▁fi	-10713
▁경제	-10714
▁표현	-10715
▁학교	-10716
アカデ	-10717
▁Eig	-10718
▁det	-10719
▁نقل	-10720
▁이름을	-10721
阿拉斯加	-10722
artet	-10723
▁Kind	-10724
▁ocup	-10725
▁same	-10726
▁vita	-10727
▁المض	-10728
▁محطة	-10729
什么类型的	-10730
▁corps	-10731
▁luogo	-10732
▁olymp	-10733
▁since	-10734
▁어디인가요	-10735
istique	-10736
▁ancien	-10737
▁réalis	-10738
▁المعما	-10739
▁famille	-10740
▁private	-10741
▁constitu	-10742
▁partecip	-10743
▁successo	-10744
▁militaire	-10745
▁originale	-10746
هب	-10747
たち	-10748
攻撃	-10749
時点	-10750
結婚	-10751
行为	-10752
进入	-10753
로는	-10754
카이	-10755
بيو	-10756
ออส	-10757
ektr	-10758
etro	-10759
itet	-10760
ถ่าย	-10761
▁And	-10762
▁Cro	-10763
▁Fun	-10764
▁Kol	-10765
▁opt	-10766
▁위치한	-10767
innen	-10768
licht	-10769
บุคคล	-10770
▁Wars	-10771
▁paar	-10772
是什么样的	-10773
terior	-10774
▁ocurr	-10775
▁الاخت	-10776
ynastie	-10777
▁Indien	-10778
▁addition	-10779
▁conquist	-10780
▁dinastía	-10781
▁servizio	-10782
▁encontrar	-10783
▁politische	-10784
ไข	-10785
作家	-10786
公园	-10787
增长	-10788
意味	-10789
니메	-10790
해서	-10791
DNA	-10792
avy	-10793
egu	-10794
ple	-10795
rav	-10796
ارل	-10797
رنت	-10798
هود	-10799
่าว	-10800
▁28	-10801
▁رب	-10802
▁غر	-10803
▁لن	-10804
Star	-10805
قافة	-10806
▁Dan	-10807
▁Lat	-10808
▁Mid	-10809
▁Tom	-10810
▁ply	-10811
▁rep	-10812
▁قتل	-10813
imate	-10814
คนแรก	-10815
▁1940	-10816
▁Best	-10817
▁Post	-10818
▁nato	-10819
▁النو	-10820
からですか	-10821
▁Mater	-10822
พระพุทธ	-10823
▁around	-10824
▁permis	-10825
▁moderno	-10826
▁التعليم	-10827
▁พระองค์	-10828
▁Republic	-10829
▁concentr	-10830
▁francese	-10831
▁possible	-10832
▁potrebbe	-10833
▁verkauft	-10834
▁resultado	-10835
▁experiment	-10836
▁Wissenschaft	-10837
5,	-10838
▁면	-10839
だと	-10840
ナー	-10841
州の	-10842
아이	-10843
zug	-10844
ดวง	-10845
ดูก	-10846
▁GE	-10847
▁sí	-10848
▁새로	-10849
▁중국	-10850
ways	-10851
▁lum	-10852
▁سيا	-10853
▁주장한	-10854
itive	-10855
▁1997	-10856
▁debe	-10857
▁rejo	-10858
▁السب	-10859
▁موسم	-10860
▁무엇이라	-10861
iseaux	-10862
ในช่วง	-10863
▁المقد	-10864
▁الوسط	-10865
していますか	-10866
▁droits	-10867
▁ganado	-10868
▁unters	-10869
onnement	-10870
▁Britann	-10871
▁Richard	-10872
▁Society	-10873
▁größten	-10874
▁Zhejiang	-10875
▁derechos	-10876
▁découvert	-10877
批准	-10878
森纳	-10879
영이	-10880
sta	-10881
vió	-10882
wan	-10883
افظ	-10884
▁وت	-10885
▁운동	-10886
ったの	-10887
任天堂	-10888
Inde	-10889
chio	-10890
culo	-10891
iPod	-10892
iner	-10893
osso	-10894
▁방영된	-10895
istro	-10896
▁anun	-10897
▁사용하는	-10898
▁opera	-10899
▁reven	-10900
▁العسك	-10901
▁batter	-10902
▁elettr	-10903
▁integr	-10904
▁scoper	-10905
Amérique	-10906
publique	-10907
ที่เมือง	-10908
▁einzige	-10909
▁sostitu	-10910
▁Position	-10911
▁verlassen	-10912
اؤ	-10913
غط	-10914
チェ	-10915
丽莎	-10916
产品	-10917
伯克	-10918
公共	-10919
社区	-10920
設立	-10921
chè	-10922
iev	-10923
قرا	-10924
ป่า	-10925
▁승차	-10926
▁유럽	-10927
Punk	-10928
gers	-10929
iede	-10930
igos	-10931
oute	-10932
เชีย	-10933
▁Who	-10934
▁hog	-10935
▁rus	-10936
▁يون	-10937
occup	-10938
▁code	-10939
▁sang	-10940
accord	-10941
imonio	-10942
▁Russia	-10943
▁perros	-10944
▁secret	-10945
เข้าร่วม	-10946
▁journal	-10947
▁ottoman	-10948
▁religiö	-10949
▁antibiot	-10950
▁plymouth	-10951
▁Inghilterra	-10952
AC	-10953
权力	-10954
流行	-10955
袭击	-10956
选择	-10957
트가	-10958
▁Ap	-10959
▁클럽	-10960
いくら	-10961
到什么	-10962
国家的	-10963
ฉบับ	-10964
อยุธ	-10965
ี่ยน	-10966
▁jam	-10967
▁pun	-10968
に対して	-10969
ammad	-10970
عندما	-10971
▁Live	-10972
▁vuel	-10973
untain	-10974
▁keine	-10975
▁route	-10976
▁اللعب	-10977
ésident	-10978
▁connue	-10979
▁family	-10980
▁negoci	-10981
▁within	-10982
arbeitet	-10983
▁Protest	-10984
▁Schulen	-10985
▁compagn	-10986
▁proyect	-10987
▁electric	-10988
▁Manhattan	-10989
▁particular	-10990
军事	-10991
持续	-10992
호가	-10993
log	-10994
roy	-10995
zan	-10996
äft	-10997
▁PI	-10998
▁뮤직	-10999
▁분류	-11000
多くの	-11001
rier	-11002
äter	-11003
ร้อน	-11004
▁Jug	-11005
▁برا	-11006
▁연기한	-11007
lavos	-11008
การณ์	-11009
▁1999	-11010
▁Conf	-11011
▁Hong	-11012
▁able	-11013
▁both	-11014
グラミー賞	-11015
▁immun	-11016
▁dispar	-11017
▁offici	-11018
▁Ottoman	-11019
▁estándar	-11020
▁posición	-11021
▁Verwendung	-11022
นายกรัฐมนตรี	-11023
▁맞	-11024
▁잡	-11025
コン	-11026
メン	-11027
征服	-11028
었나	-11029
ads	-11030
unu	-11031
▁기능	-11032
atte	-11033
ured	-11034
กว่า	-11035
▁apr	-11036
▁cur	-11037
▁flu	-11038
ators	-11039
jourd	-11040
หน่วย	-11041
▁guid	-11042
roffen	-11043
▁Arbor	-11044
▁Harry	-11045
▁Prinz	-11046
▁aband	-11047
▁antig	-11048
▁cargo	-11049
▁porta	-11050
▁ricon	-11051
térieur	-11052
▁encore	-11053
▁madera	-11054
ological	-11055
▁fondato	-11056
▁trasfer	-11057
▁นักแสดง	-11058
▁Pflanzen	-11059
▁children	-11060
▁propriet	-11061
▁education	-11062
▁yayınlanmaya	-11063
พง	-11064
ิว	-11065
ุม	-11066
๊ก	-11067
▁극	-11068
▁벌	-11069
信息	-11070
穆斯	-11071
189	-11072
ulg	-11073
äus	-11074
แดง	-11075
โรป	-11076
▁60	-11077
▁Ra	-11078
▁지원	-11079
丽莎白	-11080
诺福克	-11081
شرين	-11082
▁180	-11083
▁AFC	-11084
▁bem	-11085
▁oss	-11086
▁rot	-11087
▁جزر	-11088
伊丽莎白	-11089
니메이션	-11090
ières	-11091
▁agre	-11092
▁ساعد	-11093
▁년도인가	-11094
▁되었을까	-11095
▁París	-11096
▁prest	-11097
▁approv	-11098
▁cities	-11099
▁modèle	-11100
▁seinem	-11101
▁contain	-11102
▁release	-11103
▁المدرسة	-11104
▁communic	-11105
▁personal	-11106
▁processo	-11107
▁الحيوانات	-11108
TO	-11109
ox	-11110
など	-11111
島の	-11112
戦闘	-11113
投票	-11114
수를	-11115
시킨	-11116
어를	-11117
점이	-11118
Gli	-11119
acy	-11120
ربة	-11121
รวม	-11122
agen	-11123
แผ่น	-11124
▁Cop	-11125
▁Pra	-11126
▁dol	-11127
▁ähn	-11128
grund	-11129
idung	-11130
iglio	-11131
اثولي	-11132
بيوتر	-11133
▁fais	-11134
▁wood	-11135
▁الدا	-11136
▁يجعل	-11137
adhafi	-11138
issent	-11139
▁ajout	-11140
▁fondé	-11141
▁initi	-11142
▁motor	-11143
▁nació	-11144
▁women	-11145
▁center	-11146
▁destru	-11147
▁holand	-11148
▁nécess	-11149
▁Zweiten	-11150
▁llamada	-11151
▁الاراضي	-11152
▁الغربية	-11153
▁specific	-11154
▁términos	-11155
▁americana	-11156
▁communaut	-11157
▁bezeichnet	-11158
▁Veranstaltung	-11159
SS	-11160
为了	-11161
体育	-11162
全国	-11163
라의	-11164
Ver	-11165
osi	-11166
اسة	-11167
ريف	-11168
็อง	-11169
会发生	-11170
들에게	-11171
aken	-11172
osen	-11173
وستن	-11174
▁dam	-11175
▁ابن	-11176
ないのは	-11177
inado	-11178
ingia	-11179
ureau	-11180
▁1992	-11181
▁hunt	-11182
▁언제부터	-11183
économ	-11184
▁Juden	-11185
▁Leben	-11186
▁might	-11187
▁tibet	-11188
▁انشاؤ	-11189
▁Körper	-11190
▁Potter	-11191
▁projet	-11192
▁الحياة	-11193
▁العليا	-11194
▁Kadhafi	-11195
▁humanos	-11196
▁musical	-11197
ได้รับรางวัล	-11198
▁Jahrhunderts	-11199
-9	-11200
iy	-11201
قم	-11202
▁뒤	-11203
ウス	-11204
クロ	-11205
不再	-11206
동안	-11207
Une	-11208
แมน	-11209
▁Nä	-11210
▁결혼	-11211
▁계획	-11212
▁존재	-11213
▁형태	-11214
프리카	-11215
essa	-11216
iali	-11217
urer	-11218
สิ้น	-11219
▁pir	-11220
▁캐릭터	-11221
すること	-11222
nahme	-11223
▁aggi	-11224
▁gene	-11225
▁remo	-11226
▁ubic	-11227
▁يقوم	-11228
▁Kunst	-11229
▁Polit	-11230
▁sirve	-11231
▁نتيجة	-11232
ération	-11233
▁Frauen	-11234
▁chines	-11235
Oklahoma	-11236
▁Kontrol	-11237
▁fuerzas	-11238
▁initial	-11239
▁objetivo	-11240
不可	-11241
前に	-11242
同盟	-11243
教徒	-11244
电容	-11245
贸易	-11246
과의	-11247
시는	-11248
hin	-11249
عار	-11250
موث	-11251
ปริ	-11252
▁BC	-11253
▁그룹	-11254
何年に	-11255
하였나	-11256
tage	-11257
ígen	-11258
ابقة	-11259
▁sui	-11260
▁اصل	-11261
▁تمت	-11262
▁لمن	-11263
率是多少	-11264
utter	-11265
▁aiut	-11266
▁ferm	-11267
▁نطاق	-11268
▁ويست	-11269
ientes	-11270
ública	-11271
ลักษณ์	-11272
▁Child	-11273
▁clima	-11274
▁colla	-11275
▁diseñ	-11276
▁expos	-11277
▁Gegend	-11278
▁discip	-11279
▁energia	-11280
▁interno	-11281
▁partito	-11282
▁written	-11283
▁الاجتما	-11284
▁الملكية	-11285
▁magazine	-11286
▁Mitglieder	-11287
▁beeinflusst	-11288
▁internacional	-11289
EC	-11290
ár	-11291
ธา	-11292
▁엔	-11293
翻译	-11294
耶鲁	-11295
لية	-11296
▁لح	-11297
▁مي	-11298
斯拉夫	-11299
被称为	-11300
inst	-11301
teid	-11302
▁Tro	-11303
▁him	-11304
▁مدى	-11305
▁작품은	-11306
고등학교	-11307
field	-11308
ierto	-11309
رائيل	-11310
ตําบล	-11311
▁Städ	-11312
▁hous	-11313
▁rail	-11314
itness	-11315
▁donne	-11316
▁Lebens	-11317
▁storia	-11318
▁street	-11319
▁الطلاب	-11320
▁Prozess	-11321
istischen	-11322
▁cultures	-11323
▁superior	-11324
▁travaill	-11325
▁السوفييت	-11326
▁الكاثولي	-11327
▁Alexander	-11328
ประวัติศาสตร์	-11329
作者	-11330
死的	-11331
设备	-11332
그룹	-11333
전에	-11334
bet	-11335
duğ	-11336
sin	-11337
uft	-11338
الن	-11339
ميم	-11340
▁야구	-11341
となる	-11342
どこの	-11343
哪两个	-11344
穆斯林	-11345
nung	-11346
vail	-11347
หมู่	-11348
▁جاء	-11349
诺福克岛	-11350
itore	-11351
zentr	-11352
▁Gall	-11353
▁Jews	-11354
▁Zust	-11355
▁cabo	-11356
▁chez	-11357
▁تعمل	-11358
adelph	-11359
▁Diale	-11360
▁Oscar	-11361
▁crede	-11362
▁emple	-11363
▁perdu	-11364
▁proto	-11365
▁tourn	-11366
▁recent	-11367
▁último	-11368
หนึ่งของ	-11369
▁Messico	-11370
▁Montini	-11371
▁discuss	-11372
▁mujeres	-11373
▁plantas	-11374
ไทยเรื่อง	-11375
▁posizione	-11376
โอลิมปิกฤดู	-11377
AF	-11378
áp	-11379
▁ท	-11380
いる	-11381
取代	-11382
아의	-11383
팀은	-11384
rid	-11385
تون	-11386
นิว	-11387
hors	-11388
▁Ast	-11389
cteur	-11390
inger	-11391
▁يشير	-11392
กับใคร	-11393
ที่ใช้	-11394
▁2003?	-11395
▁2010,	-11396
▁Leute	-11397
▁Solar	-11398
▁femme	-11399
▁olduğ	-11400
▁press	-11401
▁senza	-11402
▁العلم	-11403
▁Straße	-11404
▁istitu	-11405
▁league	-11406
▁Sprachen	-11407
▁Virginia	-11408
▁industry	-11409
ny	-11410
▁야	-11411
国会	-11412
基础	-11413
年谁	-11414
-19	-11415
iac	-11416
▁XV	-11417
▁تر	-11418
▁تو	-11419
▁سل	-11420
▁관계	-11421
▁진출	-11422
écut	-11423
شرات	-11424
موذج	-11425
▁ens	-11426
▁주인공	-11427
賞を受賞	-11428
adium	-11429
crito	-11430
ildet	-11431
ليموث	-11432
▁Dieu	-11433
▁يوجد	-11434
aucoup	-11435
vasion	-11436
▁Story	-11437
Windows	-11438
▁comput	-11439
▁explor	-11440
▁llaman	-11441
▁potere	-11442
▁reason	-11443
▁résult	-11444
▁الحديد	-11445
▁الوسطى	-11446
▁هيوستن	-11447
▁Russian	-11448
▁régions	-11449
▁الجزيرة	-11450
▁conocida	-11451
▁university	-11452
SF	-11453
ıl	-11454
何が	-11455
埃及	-11456
文件	-11457
材料	-11458
였나	-11459
였어	-11460
전은	-11461
New	-11462
kin	-11463
met	-11464
لاث	-11465
نطن	-11466
กาย	-11467
ไว้	-11468
▁Kl	-11469
▁Up	-11470
ickt	-11471
imal	-11472
kien	-11473
onas	-11474
tura	-11475
غيرة	-11476
▁Boy	-11477
▁har	-11478
▁حدي	-11479
▁عنه	-11480
▁للب	-11481
▁정보는	-11482
icans	-11483
หน่าย	-11484
เดียว	-11485
▁know	-11486
▁tomb	-11487
▁موقع	-11488
▁ร้อง	-11489
▁국제공항	-11490
raient	-11491
öffnet	-11492
รัฐบาล	-11493
▁estar	-11494
▁labor	-11495
▁reach	-11496
inación	-11497
▁Studie	-11498
▁dismin	-11499
▁données	-11500
จักรพรรดิ	-11501
▁Republik	-11502
▁développé	-11503
▁Constitution	-11504
▁investigación	-11505
โป	-11506
▁난	-11507
サー	-11508
国内	-11509
孩子	-11510
文書	-11511
联系	-11512
项目	-11513
시가	-11514
aco	-11515
aña	-11516
via	-11517
▁31	-11518
▁도입	-11519
▁에피	-11520
的影响	-11521
2019	-11522
illo	-11523
lace	-11524
ladı	-11525
mbre	-11526
éctr	-11527
ทยาน	-11528
▁Ost	-11529
▁bul	-11530
▁mut	-11531
▁tax	-11532
▁ประ	-11533
เชียง	-11534
▁Band	-11535
▁Bund	-11536
▁Fred	-11537
▁Mond	-11538
▁Pers	-11539
▁opin	-11540
▁شمال	-11541
สํานัก	-11542
▁Champ	-11543
▁Georg	-11544
▁nivel	-11545
▁اعضاء	-11546
▁غالبا	-11547
▁chiesa	-11548
▁hatten	-11549
▁interd	-11550
▁proper	-11551
▁teoria	-11552
▁الكهرب	-11553
▁Irlanda	-11554
▁Prozent	-11555
▁başladı	-11556
▁ersetzt	-11557
▁history	-11558
▁الشرقية	-11559
▁dernière	-11560
▁gekommen	-11561
▁generale	-11562
▁programa	-11563
▁الفرنسية	-11564
▁britische	-11565
▁Philadelph	-11566
▁britischen	-11567
▁metropolit	-11568
ON	-11569
▁색	-11570
デル	-11571
勢力	-11572
处理	-11573
最终	-11574
box	-11575
مام	-11576
บรม	-11577
▁نش	-11578
和其他	-11579
clam	-11580
ทั่ว	-11581
▁Cub	-11582
▁sug	-11583
crire	-11584
enzen	-11585
يانات	-11586
▁Baum	-11587
▁créd	-11588
▁crít	-11589
▁role	-11590
▁الول	-11591
대한민국의	-11592
ention	-11593
▁began	-11594
▁litté	-11595
▁montr	-11596
▁الحزب	-11597
▁الصوت	-11598
ありましたか	-11599
issione	-11600
peratur	-11601
▁Italia	-11602
▁prohib	-11603
จําหน่าย	-11604
สร้างขึ้น	-11605
▁rispetto	-11606
▁الاوروبي	-11607
▁nazionale	-11608
▁Entwicklung	-11609
▁ursprünglich	-11610
28	-11611
زم	-11612
ヴェ	-11613
金属	-11614
阿维	-11615
레일	-11616
스와	-11617
agé	-11618
bes	-11619
ßer	-11620
فاء	-11621
บุญ	-11622
▁Af	-11623
Dopo	-11624
hips	-11625
▁Bet	-11626
▁Lod	-11627
▁adm	-11628
▁nor	-11629
▁pan	-11630
▁اسب	-11631
タイトル	-11632
board	-11633
ctica	-11634
▁Real	-11635
▁bamb	-11636
▁ress	-11637
▁المق	-11638
tación	-11639
▁Autor	-11640
▁Progr	-11641
▁asoci	-11642
▁entde	-11643
▁exemp	-11644
▁sound	-11645
▁torch	-11646
▁مدرسة	-11647
บิดาของ	-11648
▁Canadá	-11649
▁Chiesa	-11650
▁Nation	-11651
▁battle	-11652
▁impero	-11653
▁Königin	-11654
▁because	-11655
▁consejo	-11656
▁moyenne	-11657
▁Imperial	-11658
▁orientale	-11659
▁religione	-11660
▁Presidente	-11661
▁conosciuto	-11662
MA	-11663
fs	-11664
wa	-11665
レオ	-11666
出身	-11667
区域	-11668
選手	-11669
법은	-11670
스크	-11671
Bes	-11672
gio	-11673
ugu	-11674
ترو	-11675
كال	-11676
บาง	-11677
ปรา	-11678
มือ	-11679
▁정책	-11680
heim	-11681
▁Gio	-11682
▁Kor	-11683
▁see	-11684
▁رفض	-11685
▁للق	-11686
▁에피소	-11687
Whose	-11688
hemat	-11689
▁1991	-11690
▁Dark	-11691
▁كلمة	-11692
Depuis	-11693
▁angeb	-11694
▁facil	-11695
▁molti	-11696
▁muest	-11697
▁تطوير	-11698
ว่าเป็น	-11699
▁attemp	-11700
▁longue	-11701
▁plants	-11702
アメリカ合衆国	-11703
itecture	-11704
▁المنظمة	-11705
▁bâtiment	-11706
▁consiste	-11707
▁orthodox	-11708
▁quartier	-11709
▁movimento	-11710
▁พระองค์เจ้า	-11711
▁architecture	-11712
ณี	-11713
ษฎ	-11714
▁ล	-11715
タン	-11716
克拉	-11717
哪两	-11718
建的	-11719
早く	-11720
選挙	-11721
黑文	-11722
체의	-11723
IBM	-11724
ورد	-11725
▁연도	-11726
重要的	-11727
uted	-11728
لاسي	-11729
▁Den	-11730
▁Web	-11731
▁aér	-11732
▁انح	-11733
zeigt	-11734
เกมส์	-11735
▁came	-11736
▁diss	-11737
▁tema	-11738
▁york	-11739
▁ثاني	-11740
▁جورج	-11741
▁مكان	-11742
asthan	-11743
อยุธยา	-11744
▁Jesus	-11745
▁acqua	-11746
▁restr	-11747
▁البرو	-11748
ftwaffe	-11749
▁acerca	-11750
▁ascens	-11751
▁charge	-11752
▁corres	-11753
▁gehört	-11754
▁introd	-11755
▁promin	-11756
▁مقاطعة	-11757
▁Ägypten	-11758
▁Ergebnis	-11759
▁reemplaz	-11760
▁verloren	-11761
▁temperature	-11762
ae	-11763
็บ	-11764
▁먹	-11765
つの	-11766
乔治	-11767
人在	-11768
以上	-11769
出的	-11770
啤酒	-11771
因素	-11772
玛丽	-11773
관이	-11774
ท่า	-11775
▁개의	-11776
▁논란	-11777
▁생각	-11778
▁유로	-11779
大学的	-11780
纽黑文	-11781
▁nas	-11782
▁nov	-11783
▁Ära	-11784
▁éle	-11785
asons	-11786
olare	-11787
onstr	-11788
ยุโรป	-11789
▁Asia	-11790
▁Star	-11791
▁arab	-11792
▁bell	-11793
▁cast	-11794
▁nied	-11795
utsche	-11796
ศักดิ์	-11797
อุทยาน	-11798
▁Congo	-11799
▁enter	-11800
▁games	-11801
▁posto	-11802
▁البحر	-11803
▁الساد	-11804
▁المفت	-11805
▁تحديد	-11806
univers	-11807
▁Virgil	-11808
▁assist	-11809
▁fusion	-11810
▁gouver	-11811
▁helped	-11812
▁accordo	-11813
▁celebra	-11814
▁primary	-11815
▁weniger	-11816
ที่เท่าใด	-11817
▁montagne	-11818
ืน	-11819
ไซ	-11820
▁질	-11821
▁커	-11822
伊朗	-11823
克斯	-11824
官方	-11825
居民	-11826
改革	-11827
당은	-11828
사한	-11829
하려	-11830
ربع	-11831
فيا	-11832
は何歳	-11833
With	-11834
Zeit	-11835
ande	-11836
colo	-11837
igan	-11838
onor	-11839
orto	-11840
ware	-11841
äger	-11842
ونيا	-11843
เวลา	-11844
▁Sur	-11845
▁œuv	-11846
▁واش	-11847
▁목록은	-11848
▁순위는	-11849
めたのは	-11850
▁Nähe	-11851
▁appr	-11852
▁stop	-11853
ionali	-11854
وتردام	-11855
▁2002?	-11856
▁Osman	-11857
▁Power	-11858
▁award	-11859
▁metal	-11860
▁único	-11861
▁اسمها	-11862
▁نظرية	-11863
▁Battle	-11864
▁County	-11865
▁membre	-11866
▁Fußball	-11867
▁Germany	-11868
▁provide	-11869
▁เป็นนัก	-11870
มากที่สุด	-11871
▁almaktadır	-11872
▁development	-11873
イタ	-11874
スは	-11875
マイ	-11876
从来	-11877
生産	-11878
程序	-11879
bew	-11880
enc	-11881
ood	-11882
ímp	-11883
اكل	-11884
▁45	-11885
▁tu	-11886
▁메달	-11887
发生的	-11888
索马里	-11889
osto	-11890
otti	-11891
upes	-11892
▁End	-11893
▁Sky	-11894
▁fus	-11895
▁hit	-11896
▁usb	-11897
▁يكن	-11898
▁기록은	-11899
▁후보는	-11900
itori	-11901
ivent	-11902
▁cató	-11903
▁near	-11904
▁sant	-11905
▁supr	-11906
▁يريد	-11907
いましたか	-11908
ansion	-11909
ischer	-11910
▁Korea	-11911
▁außer	-11912
▁banda	-11913
▁forze	-11914
▁inaug	-11915
▁later	-11916
▁sehen	-11917
estellt	-11918
▁السلطة	-11919
▁الفريق	-11920
▁finales	-11921
▁trouver	-11922
▁voulait	-11923
สาธารณรัฐ	-11924
▁Kontrolle	-11925
▁costruito	-11926
▁eisenhower	-11927
ID	-11928
ได	-11929
▁끝	-11930
クの	-11931
发射	-11932
合作	-11933
多大	-11934
知事	-11935
西哥	-11936
국이	-11937
사우	-11938
스템	-11939
Dou	-11940
FPA	-11941
ขาว	-11942
ินี	-11943
็อก	-11944
▁독일	-11945
hand	-11946
kins	-11947
lach	-11948
ถิ่น	-11949
อดีต	-11950
▁età	-11951
▁vec	-11952
▁باي	-11953
▁감독은	-11954
cipit	-11955
orcha	-11956
ragen	-11957
zogen	-11958
▁defe	-11959
▁note	-11960
▁دوري	-11961
▁regla	-11962
▁varia	-11963
▁تاثير	-11964
▁climat	-11965
▁antorcha	-11966
▁probable	-11967
▁الانترنت	-11968
▁Swaziland	-11969
▁elecciones	-11970
▁introduced	-11971
▁generalmente	-11972
If	-11973
lé	-11974
تق	-11975
カリ	-11976
サイ	-11977
解释	-11978
费曼	-11979
세의	-11980
인물	-11981
특별	-11982
ائن	-11983
الو	-11984
طات	-11985
คู่	-11986
▁문화	-11987
▁뭐가	-11988
▁민주	-11989
▁이론	-11990
ufen	-11991
يبيا	-11992
▁Bra	-11993
▁Lab	-11994
▁ble	-11995
▁gam	-11996
uscon	-11997
ático	-11998
▁Army	-11999
▁adul	-12000
▁ebre	-12001
▁gain	-12002
▁gilt	-12003
▁حاول	-12004
ograph	-12005
▁Laser	-12006
▁ahora	-12007
▁canon	-12008
▁datos	-12009
▁libre	-12010
▁somet	-12011
▁Russie	-12012
▁belong	-12013
▁واشنطن	-12014
▁anthrop	-12015
▁diritto	-12016
▁نوتردام	-12017
▁frequent	-12018
▁majority	-12019
▁philosop	-12020
▁documento	-12021
▁typically	-12022
▁construcción	-12023
Me	-12024
شف	-12025
วจ	-12026
▁홈	-12027
基本	-12028
才能	-12029
期間	-12030
用的	-12031
라가	-12032
부는	-12033
유럽	-12034
hir	-12035
ملة	-12036
พ่อ	-12037
▁يب	-12038
▁생활	-12039
▁알려	-12040
▁회차	-12041
スティ	-12042
올림픽	-12043
1939	-12044
gent	-12045
itan	-12046
ستان	-12047
يران	-12048
มหาน	-12049
▁adv	-12050
▁맡았던	-12051
▁앨범의	-12052
unter	-12053
ريكان	-12054
แชมป์	-12055
▁Dest	-12056
▁Dios	-12057
▁فيما	-12058
ikaner	-12059
▁annon	-12060
▁asiat	-12061
▁jusqu	-12062
▁viven	-12063
ospital	-12064
▁Origin	-12065
▁dinero	-12066
▁regina	-12067
▁serait	-12068
▁antigua	-12069
▁carrera	-12070
▁indipend	-12071
▁broadcast	-12072
▁establish	-12073
▁référence	-12074
▁principali	-12075
▁ก่อตั้งขึ้น	-12076
26	-12077
يق	-12078
▁침	-12079
ネル	-12080
性的	-12081
調査	-12082
阻止	-12083
도록	-12084
베르	-12085
이지	-12086
قبل	-12087
ล่า	-12088
▁سم	-12089
▁وح	-12090
▁공항	-12091
受欢迎	-12092
墨西哥	-12093
联合国	-12094
chan	-12095
otos	-12096
ruck	-12097
ذافي	-12098
▁178	-12099
▁fib	-12100
▁hub	-12101
▁inn	-12102
▁urb	-12103
▁ält	-12104
▁بار	-12105
▁خاص	-12106
したこと	-12107
iquer	-12108
ultan	-12109
ังกัด	-12110
▁Berg	-12111
▁Rück	-12112
▁afro	-12113
▁army	-12114
▁fabr	-12115
▁giud	-12116
▁préd	-12117
autama	-12118
▁Corée	-12119
▁avail	-12120
▁اطلاق	-12121
เปลี่ยน	-12122
▁ciento	-12123
▁launch	-12124
▁Militär	-12125
▁Nations	-12126
▁network	-12127
erlandais	-12128
▁Sanskrit	-12129
▁animales	-12130
▁economía	-12131
▁militare	-12132
▁politica	-12133
▁popolare	-12134
▁transfer	-12135
▁premières	-12136
▁블	-12137
どう	-12138
エル	-12139
Hay	-12140
ซีซ	-12141
▁70	-12142
アルバ	-12143
地区的	-12144
aker	-12145
otta	-12146
امية	-12147
▁Rep	-12148
▁acr	-12149
▁blo	-12150
▁low	-12151
allen	-12152
année	-12153
وانين	-12154
▁Eton	-12155
▁Last	-12156
▁clos	-12157
▁الحك	-12158
▁genoc	-12159
▁دراسة	-12160
▁كبيرة	-12161
fassung	-12162
▁fabric	-12163
▁finden	-12164
▁mensch	-12165
▁partes	-12166
▁played	-12167
▁última	-12168
▁الدفاع	-12169
▁derecho	-12170
▁erlaubt	-12171
▁funzion	-12172
▁lanzado	-12173
是什么时候开始的	-12174
▁Mitglied	-12175
ël	-12176
スペ	-12177
ビア	-12178
变得	-12179
是哪	-12180
監督	-12181
飞机	-12182
치의	-12183
roc	-12184
اند	-12185
เตร	-12186
▁29	-12187
▁Lo	-12188
▁계약	-12189
▁사고	-12190
以什么	-12191
长时间	-12192
اليف	-12193
▁deg	-12194
▁dou	-12195
▁rat	-12196
▁six	-12197
▁بيل	-12198
▁관련된	-12199
りますか	-12200
イタリア	-12201
ahlen	-12202
lasse	-12203
จารย์	-12204
▁1996	-12205
▁cess	-12206
▁punt	-12207
▁schw	-12208
▁الاز	-12209
▁تعرف	-12210
▁كيري	-12211
会发生什么	-12212
ในสมัย	-12213
▁rango	-12214
▁refus	-12215
Secondo	-12216
chester	-12217
rededor	-12218
▁antrop	-12219
▁infect	-12220
▁livres	-12221
▁quatre	-12222
▁status	-12223
▁بليموث	-12224
กษัตริย์	-12225
การศึกษา	-12226
▁African	-12227
▁comport	-12228
▁supérie	-12229
▁relacion	-12230
เดิมว่าอะไร	-12231
▁Temperatur	-12232
▁croissance	-12233
.5	-12234
แฮ	-12235
▁묘	-12236
同意	-12237
定居	-12238
相似	-12239
국은	-12240
머니	-12241
소년	-12242
Afr	-12243
ñas	-12244
وعة	-12245
▁말은	-12246
▁문제	-12247
▁시간	-12248
了一个	-12249
졌는가	-12250
agna	-12251
esen	-12252
ober	-12253
orno	-12254
osis	-12255
อักษ	-12256
▁176	-12257
▁Ord	-12258
▁kar	-12259
▁sla	-12260
▁اهم	-12261
▁ويل	-12262
▁경력은	-12263
bbero	-12264
▁Link	-12265
▁dogs	-12266
▁less	-12267
▁الشي	-12268
▁الوز	-12269
▁ريتش	-12270
アメリカの	-12271
▁enfer	-12272
▁ideal	-12273
truktur	-12274
▁ancora	-12275
▁arrivé	-12276
▁durant	-12277
▁lequel	-12278
▁التاسع	-12279
économie	-12280
เรียกว่า	-12281
▁dynasty	-12282
▁funcion	-12283
▁القذافي	-12284
▁aeropuerto	-12285
▁ซ	-12286
プト	-12287
公開	-12288
怀特	-12289
版本	-12290
面積	-12291
군은	-12292
선은	-12293
소의	-12294
iny	-12295
pal	-12296
ทุก	-12297
ราว	-12298
ส่ง	-12299
▁가족	-12300
edia	-12301
jekt	-12302
rabe	-12303
rice	-12304
سيطر	-12305
▁Sil	-12306
▁것으로	-12307
について	-12308
union	-12309
เวอร์	-12310
▁chim	-12311
▁hakk	-12312
▁vive	-12313
▁الصو	-12314
lament	-12315
ของไทย	-12316
▁2001?	-12317
▁ayudó	-12318
▁mismo	-12319
iamento	-12320
itaires	-12321
เป็นที่	-12322
▁Kansas	-12323
▁announ	-12324
▁recens	-12325
▁Theorie	-12326
▁terrest	-12327
▁بالنسبة	-12328
เกาหลีใต้	-12329
▁entdeckt	-12330
▁estación	-12331
▁hakkında	-12332
▁ottenuto	-12333
▁الاقتصاد	-12334
▁británico	-12335
▁rilasciato	-12336
VD	-12337
ضة	-12338
ษ์	-12339
人々	-12340
発見	-12341
还有	-12342
시한	-12343
었어	-12344
زني	-12345
ตรง	-12346
▁되어	-12347
どんな	-12348
年から	-12349
电容器	-12350
장으로	-12351
cido	-12352
ipes	-12353
แพทย	-12354
▁ott	-12355
▁ادى	-12356
▁توس	-12357
▁عضو	-12358
alité	-12359
ينيسي	-12360
ค้นพบ	-12361
ดํารง	-12362
มารดา	-12363
▁amen	-12364
▁كلية	-12365
▁Enter	-12366
▁Giapp	-12367
▁maxim	-12368
▁provo	-12369
▁royal	-12370
ulation	-12371
▁electr	-12372
▁tradic	-12373
▁الحديث	-12374
▁الخارج	-12375
▁السابق	-12376
▁الطريقة	-12377
▁empresas	-12378
▁político	-12379
▁construyó	-12380
▁enthalten	-12381
▁individual	-12382
رع	-12383
فه	-12384
▁돼	-12385
▁뭘	-12386
ミネ	-12387
商业	-12388
结构	-12389
근혜	-12390
로가	-12391
재인	-12392
전을	-12393
his	-12394
شرة	-12395
ندو	-12396
ติน	-12397
อิต	-12398
เซล	-12399
▁Ac	-12400
公司的	-12401
bles	-12402
iels	-12403
لفزي	-12404
▁Rod	-12405
▁Sel	-12406
▁ciò	-12407
▁dav	-12408
▁mix	-12409
▁ابل	-12410
▁배경은	-12411
▁플레이	-12412
คนที่	-12413
▁acto	-12414
▁früh	-12415
▁noto	-12416
▁poly	-12417
▁spaz	-12418
▁well	-12419
▁الفن	-12420
▁Broad	-12421
▁Court	-12422
▁First	-12423
▁angef	-12424
▁canal	-12425
▁clase	-12426
▁dépla	-12427
▁sería	-12428
▁التبت	-12429
▁القيا	-12430
landese	-12431
▁BeiDou	-12432
▁aujourd	-12433
▁estruct	-12434
▁الحرارة	-12435
▁الفرنسي	-12436
▁Catholic	-12437
▁imperial	-12438
▁Università	-12439
▁Deutschland	-12440
าช	-12441
็ต	-12442
▁윤	-12443
特征	-12444
环境	-12445
给了	-12446
网络	-12447
적을	-12448
Arm	-12449
ota	-12450
vos	-12451
سين	-12452
ضية	-12453
يبد	-12454
يرا	-12455
ฟิล	-12456
▁IV	-12457
▁기술	-12458
ermo	-12459
rach	-12460
ارنة	-12461
▁احد	-12462
▁명인가	-12463
arias	-12464
fluss	-12465
étude	-12466
درالي	-12467
สะพาน	-12468
▁Bond	-12469
▁Engl	-12470
▁Holz	-12471
▁dial	-12472
▁emer	-12473
▁meas	-12474
▁sell	-12475
▁نادي	-12476
▁만들어진	-12477
engono	-12478
immung	-12479
kenazi	-12480
▁colle	-12481
▁doctr	-12482
▁مسؤول	-12483
▁arbeit	-12484
▁perten	-12485
▁strada	-12486
▁époque	-12487
▁انتخاب	-12488
▁descubr	-12489
▁economy	-12490
▁oficina	-12491
▁systems	-12492
▁travers	-12493
▁الحديثة	-12494
ที่มีชื่อ	-12495
▁agricult	-12496
▁producción	-12497
▁soviétique	-12498
75	-12499
มร	-12500
ัพ	-12501
็ง	-12502
专辑	-12503
保持	-12504
收入	-12505
联赛	-12506
规定	-12507
铁路	-12508
권을	-12509
란드	-12510
상이	-12511
치가	-12512
ätz	-12513
่อน	-12514
▁สุ	-12515
▁라이	-12516
休斯顿	-12517
基督教	-12518
eras	-12519
oden	-12520
orts	-12521
unit	-12522
อาร์	-12523
เดิน	-12524
▁Pan	-12525
▁lle	-12526
▁نان	-12527
了多少钱	-12528
ragon	-12529
techn	-12530
زابيث	-12531
antage	-12532
wealth	-12533
▁Samoa	-12534
▁altre	-12535
▁notre	-12536
▁oltre	-12537
▁piano	-12538
▁المدن	-12539
วงดนตรี	-12540
▁Secret	-12541
▁attend	-12542
▁besond	-12543
▁judíos	-12544
▁moment	-12545
▁África	-12546
▁الخاصة	-12547
ตะวันออก	-12548
▁Records	-12549
▁special	-12550
▁المسؤول	-12551
หม่อมเจ้า	-12552
▁Japanese	-12553
▁cultural	-12554
▁indépend	-12555
▁produits	-12556
▁controllo	-12557
▁publication	-12558
▁wichtigsten	-12559
ปา	-12560
ยง	-12561
▁좋	-12562
ノー	-12563
已经	-12564
年度	-12565
dos	-12566
edy	-12567
iso	-12568
เซน	-12569
いつか	-12570
arte	-12571
phen	-12572
ร่วม	-12573
▁Ele	-12574
▁Män	-12575
▁reb	-12576
indre	-12577
سياسي	-12578
▁Mehr	-12579
▁alte	-12580
▁cere	-12581
▁food	-12582
▁suel	-12583
iciale	-12584
▁2008,	-12585
▁Rolle	-12586
▁accep	-12587
▁asent	-12588
▁every	-12589
▁libri	-12590
▁movie	-12591
▁preso	-12592
▁proté	-12593
▁سلالة	-12594
ruzione	-12595
▁efecto	-12596
▁marché	-12597
▁المنزل	-12598
▁Somalia	-12599
▁europeo	-12600
▁organis	-12601
▁respect	-12602
▁الكلاسي	-12603
▁Giappone	-12604
▁believed	-12605
▁especial	-12606
▁Macintosh	-12607
▁المجموعات	-12608
▁característica	-12609
แฟ	-12610
▁키	-12611
えた	-12612
の一	-12613
シェ	-12614
住在	-12615
明治	-12616
bro	-12617
ych	-12618
رشح	-12619
▁몇월	-12620
▁모두	-12621
있을까	-12622
1980	-12623
arto	-12624
hood	-12625
ربية	-12626
شروع	-12627
ورية	-12628
ونية	-12629
ราษฎ	-12630
▁Ort	-12631
▁dov	-12632
▁طول	-12633
▁ياش	-12634
▁พระ	-12635
美国偶像	-12636
illed	-12637
stand	-12638
เชื้อ	-12639
▁bere	-12640
▁dame	-12641
▁suff	-12642
▁البن	-12643
▁انته	-12644
▁ในปี	-12645
百分之多少	-12646
prises	-12647
époque	-12648
มหานคร	-12649
▁Franz	-12650
▁Juifs	-12651
▁birds	-12652
▁comté	-12653
▁miles	-12654
▁passe	-12655
idencia	-12656
ประชากร	-12657
▁Anteil	-12658
▁contrô	-12659
▁cuatro	-12660
▁instal	-12661
▁ياشيبد	-12662
▁Islands	-12663
▁avrebbe	-12664
▁causato	-12665
▁moderna	-12666
▁nations	-12667
▁publicó	-12668
▁systèmes	-12669
▁américains	-12670
กฎ	-12671
จน	-12672
จี	-12673
巴黎	-12674
曼陀	-12675
الف	-12676
ชุม	-12677
เพช	-12678
▁왕은	-12679
▁팀의	-12680
は何の	-12681
식으로	-12682
Name	-12683
site	-12684
قلال	-12685
โครง	-12686
▁típ	-12687
▁ذات	-12688
▁شرق	-12689
▁طلب	-12690
▁프랑스	-12691
스트레일	-12692
ackel	-12693
erior	-12694
immen	-12695
▁Alli	-12696
▁Wahl	-12697
▁hinz	-12698
▁tama	-12699
▁vote	-12700
▁الرب	-12701
▁اللا	-12702
▁عنها	-12703
▁Movie	-12704
▁Recht	-12705
▁accue	-12706
▁dedic	-12707
▁ebrei	-12708
▁impro	-12709
▁stile	-12710
▁المشت	-12711
人は誰ですか	-12712
▁Martin	-12713
▁aperto	-12714
▁combin	-12715
▁method	-12716
▁trouvé	-12717
▁antiguo	-12718
▁gaddafi	-12719
▁recibió	-12720
▁influenz	-12721
▁province	-12722
▁sistemas	-12723
▁Wirtschaft	-12724
▁삶	-12725
▁폴	-12726
に関	-12727
变成	-12728
姆斯	-12729
感染	-12730
時間	-12731
灭绝	-12732
视频	-12733
谁说	-12734
ipp	-12735
درة	-12736
ชัน	-12737
ภาษ	-12738
▁Du	-12739
▁광고	-12740
博物馆	-12741
gang	-12742
immt	-12743
▁lie	-12744
▁sil	-12745
▁وقع	-12746
haupt	-12747
▁Kill	-12748
▁auto	-12749
▁lois	-12750
▁état	-12751
▁بانه	-12752
imenti	-12753
▁Rusia	-12754
▁avere	-12755
▁extre	-12756
▁lanzó	-12757
▁razón	-12758
▁جوائز	-12759
▁어떠했는가	-12760
となったのは	-12761
▁Prince	-12762
▁captur	-12763
▁conven	-12764
▁famili	-12765
▁Kingdom	-12766
▁Spanish	-12767
▁exemple	-12768
▁madaris	-12769
▁project	-12770
▁السياسي	-12771
▁anterior	-12772
▁problème	-12773
▁performan	-12774
▁propriété	-12775
▁associated	-12776
▁continente	-12777
▁représente	-12778
▁PlayStation	-12779
▁arquitectura	-12780
▁estadounidenses	-12781
SO	-12782
พา	-12783
▁슈	-12784
デン	-12785
功能	-12786
卡罗	-12787
最近	-12788
우가	-12789
All	-12790
Mus	-12791
سسة	-12792
فاظ	-12793
▁از	-12794
曼陀林	-12795
的哪些	-12796
odes	-12797
นิยม	-12798
เกิล	-12799
▁Urs	-12800
▁ora	-12801
▁rib	-12802
▁rul	-12803
▁vio	-12804
▁승점은	-12805
▁있었던	-12806
用什么来	-12807
altet	-12808
ieurs	-12809
ommes	-12810
orial	-12811
กี่คน	-12812
▁Cast	-12813
▁Rang	-12814
▁USAF	-12815
▁reun	-12816
▁vier	-12817
▁المخ	-12818
▁والم	-12819
années	-12820
enswer	-12821
คําว่า	-12822
▁Human	-12823
▁Marie	-12824
▁angek	-12825
▁costa	-12826
▁lanci	-12827
▁trade	-12828
▁انحاء	-12829
스트레일리아	-12830
reichen	-12831
بيونسيه	-12832
▁dimens	-12833
▁gruppi	-12834
▁include	-12835
▁started	-12836
▁البحرية	-12837
▁Mehrheit	-12838
▁majorité	-12839
▁promedio	-12840
▁résident	-12841
▁المعروفة	-12842
▁República	-12843
▁propiedad	-12844
▁recherche	-12845
▁offizielle	-12846
xt	-12847
ไท	-12848
▁q	-12849
华盛	-12850
最小	-12851
東京	-12852
登場	-12853
访问	-12854
连接	-12855
阿拉	-12856
가지	-12857
나이	-12858
리오	-12859
메리	-12860
세계	-12861
였던	-12862
eep	-12863
gem	-12864
هير	-12865
อนุ	-12866
▁일으	-12867
ディズ	-12868
华盛顿	-12869
aine	-12870
alto	-12871
ผ่าน	-12872
▁She	-12873
▁ign	-12874
▁sor	-12875
▁بيت	-12876
▁للت	-12877
esten	-12878
onato	-12879
ongol	-12880
ónica	-12881
อักษร	-12882
เซอร์	-12883
▁1994	-12884
▁Dead	-12885
▁ehem	-12886
▁جزءا	-12887
▁سويس	-12888
▁대회에서	-12889
كنولوج	-12890
▁attiv	-12891
▁conne	-12892
▁donde	-12893
▁estos	-12894
▁famig	-12895
▁fundó	-12896
▁sulle	-12897
▁today	-12898
▁التوق	-12899
▁الميل	-12900
▁Common	-12901
▁aufget	-12902
▁fondée	-12903
▁gleich	-12904
▁الاقلي	-12905
▁parfois	-12906
▁rivière	-12907
▁soutenu	-12908
ariamente	-12909
▁dinastia	-12910
▁meilleur	-12911
อยู่ในวงศ์	-12912
▁utilisent	-12913
▁universidades	-12914
29	-12915
لى	-12916
ใบ	-12917
アイ	-12918
完全	-12919
援助	-12920
签署	-12921
规则	-12922
라운	-12923
Mad	-12924
oce	-12925
ريا	-12926
ملك	-12927
▁ak	-12928
▁بق	-12929
▁동안	-12930
▁부문	-12931
▁얻은	-12932
不同的	-12933
发现的	-12934
وائل	-12935
ซีรี	-12936
▁Ben	-12937
▁Ibn	-12938
▁Nov	-12939
▁hid	-12940
▁syn	-12941
▁اقت	-12942
▁حقق	-12943
▁과정은	-12944
是由什么	-12945
ètres	-12946
วงการ	-12947
▁Carn	-12948
▁fatt	-12949
▁haut	-12950
▁lign	-12951
▁mant	-12952
▁داخل	-12953
Wessen	-12954
เท่าใด	-12955
▁ihrem	-12956
▁روسيا	-12957
amerika	-12958
แผ่นดิน	-12959
▁Muslim	-12960
▁Somali	-12961
▁concep	-12962
▁erklär	-12963
▁Eritrea	-12964
▁environ	-12965
▁fédéral	-12966
▁purpose	-12967
▁erstellt	-12968
▁geschickt	-12969
▁เสียชีวิต	-12970
▁California	-12971
▁originally	-12972
▁Griechenland	-12973
ui	-12974
يك	-12975
ธง	-12976
キー	-12977
三个	-12978
主義	-12979
程度	-12980
范围	-12981
upe	-12982
urz	-12983
شار	-12984
هرت	-12985
คอม	-12986
▁입단	-12987
共和党	-12988
ocon	-12989
omes	-12990
osex	-12991
rary	-12992
werk	-12993
ögel	-12994
▁Dio	-12995
▁Mur	-12996
▁Wer	-12997
▁hoy	-12998
▁étr	-12999
▁لدى	-13000
▁영화는	-13001
▁획득한	-13002
lande	-13003
nelle	-13004
اريات	-13005
▁Merc	-13006
▁Sina	-13007
▁Skla	-13008
▁fore	-13009
▁surn	-13010
▁town	-13011
▁الحق	-13012
▁الحم	-13013
▁خارج	-13014
▁조별리그	-13015
▁essay	-13016
▁situé	-13017
▁terra	-13018
▁vidéo	-13019
▁élevé	-13020
▁compan	-13021
▁corpor	-13022
▁ehemal	-13023
▁export	-13024
▁libert	-13025
▁sollte	-13026
▁teatro	-13027
▁troops	-13028
▁tuvalu	-13029
▁usando	-13030
▁تينيسي	-13031
▁Digimon	-13032
▁attempt	-13033
▁concert	-13034
▁consent	-13035
▁consist	-13036
▁miglior	-13037
▁troupes	-13038
▁المانيا	-13039
▁comercio	-13040
▁referred	-13041
geschlagen	-13042
▁ufficiale	-13043
▁gesprochen	-13044
▁televisión	-13045
▁ร้องโดยใคร	-13046
SP	-13047
วะ	-13048
สห	-13049
▁터	-13050
トン	-13051
上帝	-13052
機関	-13053
结果	-13054
다가	-13055
독일	-13056
사로	-13057
서의	-13058
센트	-13059
았던	-13060
어가	-13061
이며	-13062
188	-13063
Har	-13064
Mar	-13065
ray	-13066
كلة	-13067
พืช	-13068
เลข	-13069
▁공개	-13070
ジョー	-13071
中世纪	-13072
奥斯曼	-13073
常见的	-13074
美尼亚	-13075
quer	-13076
ريبا	-13077
وسطن	-13078
ยุทธ	-13079
ร่าง	-13080
▁coû	-13081
▁lui	-13082
▁mez	-13083
▁منه	-13084
はどこで	-13085
最高法院	-13086
Under	-13087
وسكار	-13088
▁Stre	-13089
▁neur	-13090
▁spok	-13091
▁tipi	-13092
▁بالق	-13093
▁Kraft	-13094
▁jetzt	-13095
▁trait	-13096
▁الامم	-13097
ecutive	-13098
ตะวันตก	-13099
▁acquis	-13100
▁affili	-13101
▁aurait	-13102
▁intent	-13103
▁modelo	-13104
ขนาดใหญ่	-13105
▁hombres	-13106
▁solaire	-13107
▁الوزراء	-13108
Allemagne	-13109
▁according	-13110
▁available	-13111
▁sviluppato	-13112
▁institution	-13113
▁néerlandais	-13114
▁amerikanischen	-13115
.1	-13116
Ne	-13117
แซ	-13118
内容	-13119
南极	-13120
卫星	-13121
活動	-13122
구에	-13123
하던	-13124
▁영국	-13125
从哪里	-13126
되었나	-13127
aben	-13128
eite	-13129
▁Inn	-13130
▁abg	-13131
▁ill	-13132
▁nat	-13133
▁مقر	-13134
▁장소는	-13135
いたのは	-13136
▁Janu	-13137
▁Stil	-13138
▁basa	-13139
▁born	-13140
▁face	-13141
▁sare	-13142
▁تقوم	-13143
▁haber	-13144
▁áreas	-13145
▁اجهزة	-13146
▁الحدث	-13147
▁الخشب	-13148
▁Awards	-13149
▁Middle	-13150
▁causes	-13151
▁regiert	-13152
ประเทศไทย	-13153
▁olduğunu	-13154
▁sociedad	-13155
▁formation	-13156
▁produzione	-13157
architecture	-13158
▁principalement	-13159
Bo	-13160
ao	-13161
ré	-13162
جز	-13163
ดร	-13164
พี	-13165
える	-13166
中央	-13167
公民	-13168
君主	-13169
得到	-13170
战役	-13171
截至	-13172
温度	-13173
部隊	-13174
領土	-13175
이크	-13176
وعا	-13177
▁ár	-13178
▁국민	-13179
▁세운	-13180
▁유래	-13181
人は誰	-13182
aged	-13183
alie	-13184
unda	-13185
ابات	-13186
يناء	-13187
▁Von	-13188
▁ple	-13189
▁sav	-13190
▁دار	-13191
▁누구를	-13192
▁되나요	-13193
▁어디로	-13194
の名前は	-13195
Black	-13196
orfen	-13197
ليدية	-13198
เชื่อ	-13199
▁Einw	-13200
▁bank	-13201
▁matr	-13202
▁بالم	-13203
▁แห่ง	-13204
▁아버지는	-13205
在哪个城市	-13206
auteur	-13207
ซีรีส์	-13208
▁Premi	-13209
▁clubs	-13210
▁nativ	-13211
▁ruolo	-13212
▁école	-13213
▁colore	-13214
▁propós	-13215
▁travel	-13216
▁المحلي	-13217
▁conseil	-13218
▁familia	-13219
▁reprodu	-13220
是什么时候成立的	-13221
▁apparten	-13222
▁pubblica	-13223
▁attraverso	-13224
▁controvers	-13225
▁Architektur	-13226
▁considerado	-13227
-4	-13228
วล	-13229
古老	-13230
数字	-13231
最不	-13232
赛季	-13233
종의	-13234
ocr	-13235
جال	-13236
جمع	-13237
ورا	-13238
▁فل	-13239
▁공연	-13240
▁다시	-13241
▁생산	-13242
lair	-13243
last	-13244
دونا	-13245
▁NES	-13246
▁leb	-13247
▁باع	-13248
▁صحي	-13249
▁기간은	-13250
什么语言	-13251
atten	-13252
byter	-13253
conóm	-13254
reibt	-13255
▁Home	-13256
▁Inse	-13257
▁Jose	-13258
▁barr	-13259
▁cito	-13260
▁erit	-13261
▁flor	-13262
▁meno	-13263
▁père	-13264
▁size	-13265
▁كندا	-13266
ที่ถูก	-13267
▁inten	-13268
▁novel	-13269
▁paper	-13270
▁المخت	-13271
▁access	-13272
▁bouddh	-13273
▁tamaño	-13274
▁الحالي	-13275
▁برنامج	-13276
▁monarch	-13277
▁nazione	-13278
▁prevent	-13279
▁التاثير	-13280
▁beaucoup	-13281
▁ในเรื่อง	-13282
▁sometimes	-13283
▁whitehead	-13284
▁République	-13285
ko	-13286
حو	-13287
หว	-13288
▁또	-13289
▁측	-13290
▁헌	-13291
使わ	-13292
几个	-13293
原子	-13294
喜欢	-13295
尔的	-13296
思想	-13297
支配	-13298
海洋	-13299
苹果	-13300
電所	-13301
우리	-13302
خرج	-13303
سيم	-13304
لاف	-13305
وقد	-13306
สเป	-13307
▁DC	-13308
▁éx	-13309
▁تؤ	-13310
▁할까	-13311
最後の	-13312
民主党	-13313
avia	-13314
itte	-13315
olas	-13316
urso	-13317
تجاه	-13318
บุตร	-13319
▁Kap	-13320
▁اسل	-13321
▁رسم	-13322
▁وجد	-13323
亚美尼亚	-13324
이었는가	-13325
ayana	-13326
وفالو	-13327
พัฒนา	-13328
▁Kamp	-13329
▁beso	-13330
▁mamm	-13331
▁mati	-13332
▁stim	-13333
▁جبال	-13334
原因是什么	-13335
amment	-13336
ensive	-13337
ership	-13338
Égypte	-13339
▁White	-13340
▁españ	-13341
▁vista	-13342
▁تحتوي	-13343
▁كارول	-13344
▁ayudar	-13345
▁bemerk	-13346
▁recogn	-13347
▁tropas	-13348
第二次世界大戦	-13349
▁console	-13350
▁gezeigt	-13351
▁happens	-13352
▁lumière	-13353
▁افريقيا	-13354
▁الشمسية	-13355
▁Bretagna	-13356
▁bacteria	-13357
▁befinden	-13358
▁contient	-13359
▁genommen	-13360
▁interest	-13361
▁الحديدية	-13362
▁problemas	-13363
มาเมื่อไหร่	-13364
▁angefangen	-13365
▁discovered	-13366
▁influenced	-13367
▁philosophie	-13368
IP	-13369
ód	-13370
ไน	-13371
▁갈	-13372
いの	-13373
の著	-13374
授予	-13375
能源	-13376
道院	-13377
나의	-13378
수로	-13379
원을	-13380
이자	-13381
100	-13382
Are	-13383
ask	-13384
auv	-13385
ète	-13386
انا	-13387
ค่า	-13388
สัง	-13389
▁중에	-13390
▁해당	-13391
は何を	-13392
사에서	-13393
1943	-13394
erva	-13395
thur	-13396
▁Sub	-13397
▁rue	-13398
▁vir	-13399
▁هيل	-13400
Desde	-13401
Insel	-13402
thers	-13403
ترويت	-13404
▁meet	-13405
▁السك	-13406
▁بدلا	-13407
ington	-13408
كتيريا	-13409
▁Fackel	-13410
▁Punjab	-13411
▁dehors	-13412
▁jamais	-13413
▁السادس	-13414
▁الطريق	-13415
▁Montana	-13416
▁attribu	-13417
▁changes	-13418
▁miembro	-13419
▁méthode	-13420
▁commonly	-13421
▁distribu	-13422
▁included	-13423
▁location	-13424
Ad	-13425
▁왜	-13426
ウム	-13427
動物	-13428
同じ	-13429
拉丁	-13430
最低	-13431
相比	-13432
领土	-13433
Pre	-13434
ged	-13435
öße	-13436
ستر	-13437
سخة	-13438
هار	-13439
ลัง	-13440
วัฒ	-13441
▁공식	-13442
▁관한	-13443
▁제공	-13444
与什么	-13445
광역시	-13446
1998	-13447
host	-13448
ning	-13449
yste	-13450
رحلة	-13451
▁Wal	-13452
▁وين	-13453
▁발생한	-13454
▁방법은	-13455
▁연도별	-13456
▁차지한	-13457
▁nick	-13458
▁ohne	-13459
▁orig	-13460
▁papa	-13461
されていた	-13462
hungen	-13463
ichten	-13464
▁1990?	-13465
▁2009,	-13466
▁Zweck	-13467
▁alten	-13468
▁estat	-13469
▁navig	-13470
▁rival	-13471
▁zones	-13472
▁أفلام	-13473
▁الفرق	-13474
▁archit	-13475
▁bietet	-13476
▁später	-13477
▁wollte	-13478
براطورية	-13479
▁descend	-13480
▁distrit	-13481
▁trovava	-13482
▁Birmania	-13483
▁clasific	-13484
▁présenté	-13485
▁Barcelone	-13486
▁enregistr	-13487
▁financial	-13488
▁programma	-13489
▁utilisées	-13490
▁étudiants	-13491
▁Präsidenten	-13492
▁vorgeschlagen	-13493
、「	-13494
それ	-13495
もっ	-13496
何日	-13497
奴隶	-13498
批评	-13499
纳米	-13500
西部	-13501
超过	-13502
还是	-13503
销售	-13504
首次	-13505
가의	-13506
중국	-13507
تبع	-13508
لاد	-13509
จอม	-13510
▁لش	-13511
▁결승	-13512
▁수록	-13513
▁임명	-13514
碧昂丝	-13515
iang	-13516
orse	-13517
ître	-13518
ائلة	-13519
ستون	-13520
مبية	-13521
▁CBC	-13522
▁Hal	-13523
▁lit	-13524
▁tel	-13525
▁éch	-13526
▁بيع	-13527
▁جدا	-13528
▁جيم	-13529
▁فتح	-13530
ering	-13531
زنيجر	-13532
กี่ปี	-13533
▁parc	-13534
▁sequ	-13535
▁tout	-13536
▁الرئ	-13537
▁عالم	-13538
▁고등학교	-13539
▁Suiza	-13540
▁annun	-13541
▁façon	-13542
▁gradu	-13543
▁teach	-13544
▁works	-13545
▁كنيسة	-13546
▁bactér	-13547
▁elektr	-13548
▁القيام	-13549
▁الكلمة	-13550
position	-13551
▁informa	-13552
▁publica	-13553
▁público	-13554
▁vengono	-13555
▁director	-13556
▁replaced	-13557
▁trouvait	-13558
▁Verfassung	-13559
▁importantes	-13560
3,	-13561
Er	-13562
TC	-13563
▁귀	-13564
▁막	-13565
▁빌	-13566
の大	-13567
の間	-13568
ジラ	-13569
全球	-13570
국제	-13571
ría	-13572
zia	-13573
علة	-13574
รอง	-13575
▁TB	-13576
▁eg	-13577
▁종교	-13578
葡萄牙	-13579
ennt	-13580
hren	-13581
idio	-13582
onde	-13583
ritt	-13584
นั้น	-13585
▁cac	-13586
▁wid	-13587
▁بنا	-13588
▁나이는	-13589
▁사건은	-13590
ahmen	-13591
iving	-13592
ufact	-13593
▁Lage	-13594
▁coin	-13595
▁park	-13596
▁روما	-13597
▁والت	-13598
▁등장인물	-13599
在哪个国家	-13600
jectif	-13601
▁conna	-13602
▁ganar	-13603
▁mosaï	-13604
▁resol	-13605
▁العرق	-13606
หน้าที่	-13607
▁Bedeut	-13608
▁Impero	-13609
▁garant	-13610
▁return	-13611
▁romana	-13612
▁الكلاب	-13613
وارزنيجر	-13614
▁acquist	-13615
▁records	-13616
▁จัดขึ้น	-13617
何年のことですか	-13618
industrie	-13619
▁protagon	-13620
▁companies	-13621
▁transform	-13622
▁اليونانية	-13623
สโมสรฟุตบอล	-13624
▁changement	-13625
▁الانتخابات	-13626
▁costruzione	-13627
▁crecimiento	-13628
ót	-13629
زا	-13630
▁벤	-13631
が出	-13632
スク	-13633
モン	-13634
引起	-13635
森豪	-13636
生息	-13637
西方	-13638
观点	-13639
시대	-13640
App	-13641
Wen	-13642
صور	-13643
منذ	-13644
▁Zy	-13645
是怎么	-13646
有多大	-13647
而不是	-13648
艾森豪	-13649
irat	-13650
moto	-13651
ount	-13652
พิธี	-13653
สถาป	-13654
เลย์	-13655
▁etn	-13656
▁ديل	-13657
▁صنا	-13658
に対する	-13659
front	-13660
تبارا	-13661
▁1984	-13662
▁Buck	-13663
▁Geme	-13664
▁chaî	-13665
▁mess	-13666
▁pasa	-13667
▁scon	-13668
▁الطب	-13669
艾森豪威尔	-13670
étaire	-13671
▁Flugh	-13672
▁klass	-13673
▁kommt	-13674
▁modif	-13675
▁russe	-13676
▁الزمن	-13677
▁الممت	-13678
▁Associ	-13679
▁Kanada	-13680
▁Nieder	-13681
▁ejecut	-13682
▁office	-13683
▁rights	-13684
▁tenido	-13685
▁terror	-13686
▁uscito	-13687
ออกอากาศ	-13688
▁artícul	-13689
▁beyonce	-13690
▁ديترويت	-13691
▁Amérique	-13692
▁التجارية	-13693
▁principios	-13694
▁température	-13695
OM	-13696
เผ	-13697
▁범	-13698
▁봉	-13699
とき	-13700
の主	-13701
必要	-13702
找到	-13703
能量	-13704
部队	-13705
종이	-13706
-10	-13707
rad	-13708
حول	-13709
เบล	-13710
▁ya	-13711
公元前	-13712
Eine	-13713
Tube	-13714
ised	-13715
oint	-13716
ugen	-13717
vizz	-13718
هوما	-13719
ตาร์	-13720
ร้าง	-13721
เต็ม	-13722
▁Imm	-13723
▁cli	-13724
ウォルト	-13725
図書館の	-13726
illos	-13727
▁1995	-13728
▁Long	-13729
▁Schw	-13730
▁verh	-13731
▁받았을까	-13732
▁1970?	-13733
▁Order	-13734
▁bezie	-13735
▁genes	-13736
▁subst	-13737
▁viagg	-13738
▁الماء	-13739
▁يتحدث	-13740
minster	-13741
อยู่ที่	-13742
▁nature	-13743
▁valeur	-13744
adamente	-13745
▁Station	-13746
▁feynman	-13747
▁naciones	-13748
▁particul	-13749
▁proyecto	-13750
▁required	-13751
▁الاساسية	-13752
▁باستخدام	-13753
enschaften	-13754
▁frecuencia	-13755
▁philosophy	-13756
▁originalmente	-13757
CR	-13758
▁붙	-13759
制定	-13760
化学	-13761
数は	-13762
海军	-13763
理由	-13764
瑞士	-13765
者的	-13766
西洋	-13767
명을	-13768
명의	-13769
gor	-13770
اما	-13771
هات	-13772
هرج	-13773
ออฟ	-13774
▁Op	-13775
▁과정	-13776
▁않는	-13777
▁인터	-13778
▁일반	-13779
되었던	-13780
2020	-13781
Char	-13782
icut	-13783
raum	-13784
rift	-13785
sers	-13786
▁Bib	-13787
▁tir	-13788
生まれた	-13789
Entre	-13790
achst	-13791
▁Mosa	-13792
▁farm	-13793
られたのは	-13794
▁Firma	-13795
▁Jones	-13796
▁cross	-13797
▁تشارل	-13798
ientras	-13799
▁Termin	-13800
▁calcio	-13801
▁décenn	-13802
▁económ	-13803
▁incand	-13804
▁método	-13805
▁signal	-13806
▁symbol	-13807
▁croyait	-13808
▁equipos	-13809
▁marshall	-13810
▁Beziehung	-13811
▁terremoto	-13812
▁الكمبيوتر	-13813
หมายถึงอะไร	-13814
▁biblioteca	-13815
▁correspond	-13816
▁politiques	-13817
▁responsabil	-13818
اك	-13819
▁급	-13820
▁볼	-13821
ダル	-13822
个人	-13823
德的	-13824
担任	-13825
特别	-13826
电脑	-13827
美元	-13828
表示	-13829
语的	-13830
단이	-13831
스테	-13832
위에	-13833
인을	-13834
aps	-13835
asc	-13836
ohl	-13837
ياس	-13838
ยาม	-13839
▁종목	-13840
阿森纳	-13841
graf	-13842
gung	-13843
ötet	-13844
سكان	-13845
ทหาร	-13846
มนุษ	-13847
▁175	-13848
▁Don	-13849
▁oct	-13850
▁oro	-13851
▁بود	-13852
▁شهر	-13853
▁عبر	-13854
▁정당은	-13855
查尔斯顿	-13856
light	-13857
table	-13858
▁Pass	-13859
▁Sovi	-13860
▁Trib	-13861
▁días	-13862
▁neut	-13863
▁vitt	-13864
▁ينظر	-13865
られている	-13866
哪种类型的	-13867
ประกาศ	-13868
▁créée	-13869
▁pense	-13870
▁range	-13871
▁Academ	-13872
▁Jahres	-13873
▁Parigi	-13874
▁questa	-13875
stellung	-13876
ซึ่งเป็น	-13877
▁Michael	-13878
▁Truppen	-13879
▁plantes	-13880
▁suprême	-13881
▁uranium	-13882
▁statunit	-13883
▁มีพระนาม	-13884
enaissance	-13885
▁الاوروبية	-13886
▁البريطاني	-13887
▁섬	-13888
を務	-13889
カル	-13890
世が	-13891
年到	-13892
空军	-13893
과학	-13894
어진	-13895
화를	-13896
شاء	-13897
شال	-13898
ولد	-13899
يال	-13900
ياه	-13901
▁أص	-13902
▁أل	-13903
▁لأ	-13904
▁판매	-13905
ジョン	-13906
까지의	-13907
uste	-13908
วรรษ	-13909
▁Haw	-13910
▁Mot	-13911
▁rag	-13912
▁เคย	-13913
になった	-13914
issen	-13915
ueblo	-13916
▁Dire	-13917
▁days	-13918
▁الصح	-13919
▁للمن	-13920
▁이루어져	-13921
iscono	-13922
itaria	-13923
▁causé	-13924
▁ideas	-13925
▁third	-13926
▁البرا	-13927
enseign	-13928
ktionen	-13929
▁belieb	-13930
▁ارتفاع	-13931
▁سويسرا	-13932
されていますか	-13933
▁airport	-13934
▁digital	-13935
acionales	-13936
วรวงศ์เธอ	-13937
▁sviluppo	-13938
▁gestartet	-13939
▁implement	-13940
▁sostenuto	-13941
กรุงเทพมหานคร	-13942
6,	-13943
Br	-13944
DA	-13945
gu	-13946
nu	-13947
ラム	-13948
人民	-13949
今天	-13950
价值	-13951
布朗	-13952
的新	-13953
長い	-13954
세는	-13955
식이	-13956
주가	-13957
진은	-13958
촬영	-13959
ery	-13960
het	-13961
inf	-13962
ède	-13963
تمر	-13964
زين	-13965
▁최대	-13966
ヨーク	-13967
ートル	-13968
aper	-13969
fügt	-13970
hnen	-13971
iane	-13972
icle	-13973
icom	-13974
oven	-13975
unds	-13976
ائمة	-13977
واية	-13978
ธาตุ	-13979
สากล	-13980
แก้ว	-13981
▁254	-13982
▁mob	-13983
▁reç	-13984
▁자신의	-13985
rière	-13986
vanni	-13987
élect	-13988
▁1988	-13989
▁Good	-13990
▁died	-13991
▁fail	-13992
▁torn	-13993
▁حاكم	-13994
▁والد	-13995
สีอะไร	-13996
สูงสุด	-13997
อิตาลี	-13998
▁Menge	-13999
▁ayuda	-14000
▁fuori	-14001
▁makes	-14002
▁moyen	-14003
▁suite	-14004
▁بداية	-14005
▁بطولة	-14006
▁سياتل	-14007
▁언제입니까	-14008
anasius	-14009
สัญชาติ	-14010
▁Unione	-14011
▁selbst	-14012
▁Service	-14013
▁ancient	-14014
▁atteint	-14015
▁devenir	-14016
▁livello	-14017
▁nanjing	-14018
▁premios	-14019
▁without	-14020
▁conflict	-14021
▁geglaubt	-14022
▁naturale	-14023
▁Unterstüt	-14024
▁dominante	-14025
▁nouvelles	-14026
▁disponible	-14027
▁imperatore	-14028
▁populations	-14029
ทางวิทยาศาสตร์	-14030
NE	-14031
مم	-14032
يه	-14033
クス	-14034
分类	-14035
基地	-14036
总部	-14037
死刑	-14038
물은	-14039
센터	-14040
eds	-14041
mon	-14042
انة	-14043
جلة	-14044
ณฑ์	-14045
วอล	-14046
▁sk	-14047
▁상을	-14048
修道院	-14049
殖民地	-14050
自己的	-14051
iest	-14052
ูนย์	-14053
โบรา	-14054
▁Ham	-14055
▁TCM	-14056
ograp	-14057
شلونة	-14058
▁Cost	-14059
▁Cypr	-14060
▁Fakt	-14061
▁atom	-14062
▁fron	-14063
▁pont	-14064
▁المه	-14065
▁مبنى	-14066
▁منزل	-14067
▁abrió	-14068
▁afect	-14069
▁citiz	-14070
▁denen	-14071
▁esist	-14072
▁formó	-14073
▁oeste	-14074
▁salió	-14075
▁write	-14076
▁تغيير	-14077
▁enferm	-14078
▁ethnic	-14079
tainment	-14080
▁Bildung	-14081
▁Ländern	-14082
▁Switzer	-14083
▁Bewegung	-14084
▁aircraft	-14085
▁musicale	-14086
▁rapporto	-14087
▁aeroporto	-14088
▁películas	-14089
▁propósito	-14090
▁provincia	-14091
▁الهولندية	-14092
▁considérée	-14093
abhängigkeit	-14094
บาทสมเด็จพระ	-14095
▁contribuito	-14096
BO	-14097
My	-14098
▁ฟ	-14099
きた	-14100
なん	-14101
关闭	-14102
唱片	-14103
圣母	-14104
太平	-14105
数量	-14106
普利	-14107
更多	-14108
波普	-14109
대전	-14110
olf	-14111
urg	-14112
yse	-14113
écu	-14114
ايك	-14115
رطة	-14116
غرا	-14117
แหล	-14118
▁دم	-14119
▁مد	-14120
▁부르	-14121
▁부른	-14122
▁속해	-14123
▁없는	-14124
当時の	-14125
었나요	-14126
있는가	-14127
장에서	-14128
SFSR	-14129
ader	-14130
écur	-14131
ثناء	-14132
มหาก	-14133
าราช	-14134
▁flo	-14135
▁ibn	-14136
▁lok	-14137
▁océ	-14138
▁للط	-14139
▁للن	-14140
何ですか	-14141
abord	-14142
ished	-14143
umbia	-14144
▁Blan	-14145
▁Hard	-14146
▁irán	-14147
▁jeux	-14148
▁saga	-14149
▁targ	-14150
คริสต์	-14151
มนุษย์	-14152
▁Earth	-14153
▁nuova	-14154
▁offre	-14155
▁parmi	-14156
▁الجما	-14157
アカデミー賞	-14158
ikistan	-14159
เมื่อไร	-14160
▁acción	-14161
▁comand	-14162
▁quitté	-14163
▁sortie	-14164
▁الشعلة	-14165
▁beendet	-14166
▁besteht	-14167
▁besucht	-14168
▁erklärt	-14169
▁letzten	-14170
▁regular	-14171
▁election	-14172
▁question	-14173
▁remplacé	-14174
▁Bedeutung	-14175
▁Britanniques	-14176
xi	-14177
显示	-14178
竞争	-14179
당이	-14180
회를	-14181
ägt	-14182
เวล	-14183
▁لد	-14184
▁기초	-14185
▁북한	-14186
탈리아	-14187
트에서	-14188
hang	-14189
lers	-14190
ogue	-14191
uten	-14192
جينج	-14193
ียร์	-14194
▁Cru	-14195
▁mid	-14196
▁ved	-14197
▁wir	-14198
▁عدم	-14199
▁وصف	-14200
anner	-14201
entre	-14202
▁hieß	-14203
▁seen	-14204
▁vinc	-14205
▁مرتب	-14206
▁อดีต	-14207
の名前は何	-14208
etzung	-14209
▁Arena	-14210
▁habla	-14211
▁immer	-14212
▁jours	-14213
▁malad	-14214
▁pouss	-14215
▁stock	-14216
▁valor	-14217
▁شيوعا	-14218
Besides	-14219
agement	-14220
▁concer	-14221
▁expand	-14222
▁higher	-14223
▁inclus	-14224
▁romain	-14225
▁policía	-14226
▁subject	-14227
éducation	-14228
▁Künstler	-14229
▁Material	-14230
▁manchmal	-14231
▁Champions	-14232
▁migration	-14233
▁problèmes	-14234
▁römischen	-14235
▁Unabhängigkeit	-14236
35	-14237
اذ	-14238
กะ	-14239
元素	-14240
几年	-14241
色列	-14242
行政	-14243
와의	-14244
And	-14245
jes	-14246
uit	-14247
urb	-14248
émo	-14249
ابا	-14250
وتي	-14251
สัม	-14252
้าม	-14253
▁WW	-14254
▁구조	-14255
で一番	-14256
の作品	-14257
onné	-14258
راجع	-14259
موند	-14260
▁Bal	-14261
▁Int	-14262
▁Sat	-14263
▁ใช้	-14264
しますか	-14265
スペイン	-14266
icios	-14267
udson	-14268
yoncé	-14269
ıştır	-14270
โบราณ	-14271
▁fand	-14272
▁kein	-14273
▁liqu	-14274
▁sept	-14275
▁جهاز	-14276
哪个国家的	-14277
okkien	-14278
علومات	-14279
▁2012,	-14280
▁Alter	-14281
▁fosse	-14282
▁issue	-14283
▁nello	-14284
▁sitio	-14285
▁staat	-14286
▁unión	-14287
▁wegen	-14288
▁éxito	-14289
▁growth	-14290
▁killed	-14291
▁strutt	-14292
▁tenían	-14293
byterian	-14294
ologique	-14295
▁Amerika	-14296
▁brought	-14297
▁chinois	-14298
▁oiseaux	-14299
▁permite	-14300
▁relativ	-14301
▁britannico	-14302
▁dichiarato	-14303
▁principaux	-14304
▁Switzerland	-14305
▁relationship	-14306
▁amerikanische	-14307
体的	-14308
年は	-14309
日の	-14310
沥青	-14311
나가	-14312
화가	-14313
برغ	-14314
تهي	-14315
กัด	-14316
รติ	-14317
ียม	-14318
▁تز	-14319
どこに	-14320
大きな	-14321
ieri	-14322
zähl	-14323
état	-14324
กรณ์	-14325
ระยะ	-14326
▁süd	-14327
▁일어났	-14328
eitet	-14329
olfen	-14330
äsent	-14331
üssen	-14332
ศูนย์	-14333
▁1000	-14334
▁Auss	-14335
▁Book	-14336
▁Jeff	-14337
▁Mann	-14338
▁Reno	-14339
▁free	-14340
▁prév	-14341
▁turn	-14342
▁وفقا	-14343
▁along	-14344
▁medic	-14345
▁until	-14346
▁الالب	-14347
▁الديم	-14348
▁السكك	-14349
▁العلا	-14350
▁اهوما	-14351
ทีมชาติ	-14352
▁Afrika	-14353
▁Gouver	-14354
▁Suisse	-14355
▁fuerte	-14356
▁mascul	-14357
▁réseau	-14358
▁toutes	-14359
akterien	-14360
มารดาของ	-14361
▁getötet	-14362
▁geholfen	-14363
hropologie	-14364
▁المستخدمة	-14365
▁británicos	-14366
▁conditions	-14367
ละครโทรทัศน์	-14368
▁recensement	-14369
ธ์	-14370
ุล	-14371
▁혼	-14372
イス	-14373
立法	-14374
角色	-14375
لات	-14376
รณ์	-14377
▁Ak	-14378
▁Sk	-14379
▁má	-14380
▁مر	-14381
は誰が	-14382
ゴジラ	-14383
以色列	-14384
cken	-14385
izei	-14386
กิโล	-14387
ค่าย	-14388
▁Bab	-14389
▁Not	-14390
▁Squ	-14391
▁ráp	-14392
▁vig	-14393
▁دعم	-14394
▁فقد	-14395
▁مون	-14396
哪家公司	-14397
iados	-14398
icien	-14399
lemán	-14400
zlach	-14401
▁Lanc	-14402
▁Meer	-14403
▁acus	-14404
▁conj	-14405
▁lamp	-14406
▁اللي	-14407
▁منصب	-14408
▁يزال	-14409
しているの	-14410
どれですか	-14411
▁enseñ	-14412
▁villa	-14413
何年のことか	-14414
erstand	-14415
▁erhöht	-14416
▁الوحيد	-14417
▁بجائزة	-14418
▁مارشال	-14419
▁Airport	-14420
▁benannt	-14421
▁montaña	-14422
▁sociale	-14423
▁الجنوبي	-14424
▁الحشرات	-14425
▁برشلونة	-14426
ellschaft	-14427
▁Englisch	-14428
▁Pakistan	-14429
▁البرتغال	-14430
▁ايزنهاور	-14431
▁comúnmente	-14432
พระบาทสมเด็จพระ	-14433
ül	-14434
غل	-14435
▁잘	-14436
▁축	-14437
、『	-14438
の本	-14439
スコ	-14440
交通	-14441
以来	-14442
佛罗	-14443
学的	-14444
执行	-14445
模式	-14446
양의	-14447
Did	-14448
geg	-14449
ibe	-14450
اذا	-14451
نائ	-14452
ศาล	-14453
▁én	-14454
▁유일	-14455
▁학생	-14456
太平洋	-14457
颜色的	-14458
1970	-14459
1996	-14460
Disc	-14461
avía	-14462
irió	-14463
izza	-14464
lett	-14465
onse	-14466
view	-14467
▁Der	-14468
▁Sco	-14469
▁prá	-14470
▁tab	-14471
▁사용한	-14472
▁생애는	-14473
redit	-14474
étend	-14475
▁Bomb	-14476
▁Sain	-14477
▁chem	-14478
▁east	-14479
▁sexu	-14480
▁wann	-14481
▁العق	-14482
▁القب	-14483
cteurs	-14484
▁Größe	-14485
▁censo	-14486
▁cover	-14487
▁dalle	-14488
▁minim	-14489
▁perso	-14490
▁signé	-14491
▁البوم	-14492
▁قاعدة	-14493
▁affirm	-14494
▁fuente	-14495
▁pueblo	-14496
▁البروت	-14497
▁الهجرة	-14498
▁animals	-14499
▁defensa	-14500
したのは誰ですか	-14501
▁previous	-14502
icialmente	-14503
▁information	-14504
-6	-14505
دو	-14506
จร	-14507
▁넘	-14508
安普	-14509
成分	-14510
時の	-14511
知识	-14512
纳赛	-14513
고려	-14514
구가	-14515
기로	-14516
amt	-14517
ecu	-14518
orf	-14519
يتو	-14520
▁시티	-14521
▁않은	-14522
▁초대	-14523
かれた	-14524
してい	-14525
フォル	-14526
会导致	-14527
adém	-14528
ocia	-14529
plor	-14530
vous	-14531
จะมี	-14532
▁177	-14533
▁emb	-14534
▁err	-14535
▁노선은	-14536
この文書	-14537
どちらか	-14538
itude	-14539
onsor	-14540
ordin	-14541
คล้าย	-14542
▁Inde	-14543
▁Liga	-14544
▁aere	-14545
▁fast	-14546
▁fino	-14547
▁jugó	-14548
▁près	-14549
▁roya	-14550
▁sopr	-14551
▁supp	-14552
▁المر	-14553
▁حركة	-14554
▁والع	-14555
ettura	-14556
ración	-14557
schung	-14558
▁2011,	-14559
▁autom	-14560
▁delhi	-14561
▁rouge	-14562
▁بوسطن	-14563
▁والتي	-14564
liament	-14565
▁Landes	-14566
▁kommen	-14567
▁statut	-14568
ministra	-14569
▁Central	-14570
▁contact	-14571
▁inaugur	-14572
▁ricerca	-14573
▁todavía	-14574
▁verific	-14575
▁الرومان	-14576
▁Division	-14577
▁francesi	-14578
▁involved	-14579
▁japonais	-14580
▁maggiore	-14581
▁tribunal	-14582
▁النباتات	-14583
ของประเทศใด	-14584
▁européenne	-14585
▁häufigsten	-14586
▁université	-14587
▁utilizzati	-14588
RA	-14589
▁와	-14590
以降	-14591
外国	-14592
它的	-14593
我们	-14594
昆虫	-14595
演じ	-14596
美洲	-14597
能力	-14598
被害	-14599
받은	-14600
업을	-14601
텔레	-14602
호를	-14603
호의	-14604
186	-14605
apa	-14606
طية	-14607
لاك	-14608
สวน	-14609
เกษ	-14610
▁Kü	-14611
▁이야	-14612
▁인가	-14613
時点で	-14614
aban	-14615
énie	-14616
▁Mer	-14617
▁حجم	-14618
▁يدع	-14619
纳米比亚	-14620
erset	-14621
onian	-14622
ouest	-14623
▁Sign	-14624
▁capp	-14625
▁lago	-14626
▁تقدم	-14627
▁فريد	-14628
▁있었는가	-14629
▁Hunde	-14630
▁charg	-14631
▁fight	-14632
▁obras	-14633
▁river	-14634
▁الطرق	-14635
百分比是多少	-14636
amentos	-14637
▁Buddha	-14638
▁entsch	-14639
▁infant	-14640
▁proven	-14641
▁puerto	-14642
▁المواد	-14643
▁توفالو	-14644
كنولوجيا	-14645
การเมือง	-14646
▁Alexand	-14647
▁Freddie	-14648
▁fondata	-14649
▁llamaba	-14650
▁militär	-14651
▁mondial	-14652
▁related	-14653
▁الهندسة	-14654
▁Caroline	-14655
▁examples	-14656
▁เกิดขึ้น	-14657
▁Rajasthan	-14658
▁proprietà	-14659
▁universal	-14660
▁الرومانية	-14661
▁desarrolló	-14662
▁territoire	-14663
▁disponibles	-14664
He	-14665
ît	-14666
カン	-14667
ビル	-14668
乐队	-14669
学习	-14670
本书	-14671
的主	-14672
議員	-14673
里士	-14674
鉄道	-14675
사람	-14676
선이	-14677
day	-14678
egt	-14679
enf	-14680
ihe	-14681
imi	-14682
uez	-14683
اطق	-14684
▁Ep	-14685
▁ار	-14686
▁뭘까	-14687
南安普	-14688
部电影	-14689
iett	-14690
oyen	-14691
uern	-14692
umes	-14693
uran	-14694
ยนต์	-14695
▁CBS	-14696
▁Kup	-14697
▁Muh	-14698
▁cav	-14699
▁cic	-14700
▁dat	-14701
▁sum	-14702
▁فون	-14703
▁아시아	-14704
アルバム	-14705
liest	-14706
under	-14707
เกล้า	-14708
▁1979	-14709
▁Hung	-14710
▁Luft	-14711
▁oggi	-14712
▁unif	-14713
▁تشير	-14714
Inseln	-14715
▁earth	-14716
▁golpe	-14717
▁guard	-14718
▁parts	-14719
▁عنوان	-14720
▁Kompon	-14721
▁changé	-14722
▁deport	-14723
▁halten	-14724
▁nieder	-14725
▁oldest	-14726
▁اللعبة	-14727
cription	-14728
empereur	-14729
▁Détroit	-14730
▁Jackson	-14731
▁Problem	-14732
▁Supreme	-14733
▁dirigió	-14734
▁modello	-14735
▁suggest	-14736
▁Russland	-14737
▁augmenté	-14738
▁commerce	-14739
▁elemento	-14740
▁العسكرية	-14741
▁maintenant	-14742
▁الكلاسيكية	-14743
),	-14744
ิจ	-14745
ไต	-14746
▁ó	-14747
古典	-14748
家族	-14749
解决	-14750
야마	-14751
abt	-14752
asy	-14753
iód	-14754
raî	-14755
الت	-14756
▁CE	-14757
▁Ta	-14758
▁채널	-14759
すると	-14760
出版的	-14761
古老的	-14762
스에서	-14763
1991	-14764
bury	-14765
cles	-14766
nell	-14767
onen	-14768
ินส์	-14769
▁PIB	-14770
▁tal	-14771
▁élu	-14772
▁اسس	-14773
▁ผู้	-14774
はどこに	-14775
多长时间	-14776
About	-14777
icana	-14778
tient	-14779
سيقية	-14780
▁Fire	-14781
▁Year	-14782
▁entw	-14783
▁luce	-14784
▁تظهر	-14785
ettbew	-14786
▁Durch	-14787
▁Emper	-14788
▁Moyen	-14789
▁Sound	-14790
▁congr	-14791
▁impos	-14792
▁jedes	-14793
▁march	-14794
▁السري	-14795
▁الشمس	-14796
▁สร้าง	-14797
bellion	-14798
ontroll	-14799
▁Sowjet	-14800
▁Städte	-14801
▁strong	-14802
▁Austria	-14803
▁gekauft	-14804
▁guidato	-14805
▁matière	-14806
▁الاعمال	-14807
▁نانجينج	-14808
▁designed	-14809
▁Luftwaffe	-14810
▁الامريكيين	-14811
▁dispositivo	-14812
▁scientifique	-14813
Bl	-14814
バル	-14815
占领	-14816
工业	-14817
应用	-14818
時に	-14819
玻璃	-14820
由于	-14821
目前	-14822
结核	-14823
里达	-14824
간의	-14825
성한	-14826
IBA	-14827
Ste	-14828
now	-14829
بيق	-14830
حاس	-14831
ทัพ	-14832
เหร	-14833
イング	-14834
情况下	-14835
漱石が	-14836
的例子	-14837
1995	-14838
earl	-14839
pool	-14840
جميع	-14841
รัตน	-14842
อร์ด	-14843
ื่อน	-14844
▁Erw	-14845
▁Mem	-14846
▁jem	-14847
▁neu	-14848
▁จาก	-14849
▁당선된	-14850
▁사람이	-14851
▁시스템	-14852
▁영화의	-14853
▁종류는	-14854
ワールド	-14855
Stadt	-14856
aylor	-14857
élior	-14858
▁care	-14859
▁décl	-14860
▁gave	-14861
▁iniz	-14862
▁move	-14863
▁rech	-14864
▁بناؤ	-14865
▁سوبر	-14866
pieler	-14867
ulaire	-14868
▁Daten	-14869
▁Instr	-14870
▁Unter	-14871
▁Vögel	-14872
▁apoyo	-14873
▁infer	-14874
▁label	-14875
▁lleva	-14876
▁magas	-14877
▁reduz	-14878
▁space	-14879
▁زيادة	-14880
第一次世界大	-14881
zlachta	-14882
▁Berlin	-14883
▁Design	-14884
▁father	-14885
▁histór	-14886
▁mesure	-14887
▁nación	-14888
▁periód	-14889
▁المحيط	-14890
กิโลเมตร	-14891
▁Connect	-14892
▁colonie	-14893
▁humains	-14894
▁podrían	-14895
▁ranking	-14896
▁Giovanni	-14897
▁millones	-14898
▁republic	-14899
▁sexuelle	-14900
▁bacterias	-14901
▁dirección	-14902
ชาวอเมริกัน	-14903
▁corruption	-14904
▁commerciale	-14905
▁différentes	-14906
▁traditional	-14907
äß	-14908
▁맺	-14909
▁머	-14910
▁밀	-14911
▁핵	-14912
シー	-14913
下降	-14914
物理	-14915
187	-14916
Vor	-14917
Wem	-14918
فاض	-14919
▁أن	-14920
▁로마	-14921
▁발전	-14922
▁여러	-14923
▁이전	-14924
▁출판	-14925
阿拉伯	-14926
coln	-14927
erse	-14928
yens	-14929
بورن	-14930
طلسي	-14931
فهوم	-14932
وائي	-14933
เด็ก	-14934
▁Zel	-14935
▁fur	-14936
▁منت	-14937
elect	-14938
แพทย์	-14939
▁Thur	-14940
▁allo	-14941
▁côté	-14942
▁envi	-14943
▁jähr	-14944
▁사람들이	-14945
andelt	-14946
lywood	-14947
จันทร์	-14948
▁added	-14949
▁discr	-14950
▁heute	-14951
▁legno	-14952
▁الوحي	-14953
▁كانون	-14954
的比例是多少	-14955
imately	-14956
เกียรติ	-14957
▁Schiff	-14958
▁الحدود	-14959
▁มีความ	-14960
▁animaux	-14961
▁ferrovi	-14962
▁ocurrió	-14963
▁الاشارة	-14964
▁الصينية	-14965
▁امريكان	-14966
▁estudios	-14967
▁stazione	-14968
▁officielle	-14969
กีฬาโอลิมปิกฤดู	-14970
MS	-14971
มง	-14972
แอ	-14973
▁석	-14974
エジ	-14975
ズの	-14976
关注	-14977
冲突	-14978
初の	-14979
十年	-14980
問題	-14981
图书	-14982
威廉	-14983
少数	-14984
旅行	-14985
考え	-14986
거나	-14987
우의	-14988
이를	-14989
제로	-14990
neo	-14991
خفض	-14992
روس	-14993
يوخ	-14994
กล้	-14995
พูด	-14996
ศัย	-14997
เฉล	-14998
▁같은	-14999
▁곡은	-15000
▁바이	-15001
▁받아	-15002
▁선언	-15003
▁초기	-15004
▁통산	-15005
计算机	-15006
나라의	-15007
ifer	-15008
واعد	-15009
▁MBC	-15010
▁NBA	-15011
▁Tai	-15012
▁ash	-15013
▁erf	-15014
▁무엇에	-15015
▁직업은	-15016
从来没有	-15017
onien	-15018
▁bill	-15019
的哪一部分	-15020
indung	-15021
▁María	-15022
▁allen	-15023
▁lived	-15024
▁بورما	-15025
▁مستوى	-15026
Afrique	-15027
geführt	-15028
étiques	-15029
▁Egitto	-15030
▁Partei	-15031
▁alcune	-15032
▁cuivre	-15033
▁ilumin	-15034
▁permet	-15035
▁celebró	-15036
▁convers	-15037
▁demandé	-15038
▁elected	-15039
▁extranj	-15040
▁foreign	-15041
▁francés	-15042
▁mercado	-15043
▁العملية	-15044
entemente	-15045
▁exemples	-15046
▁كارولينا	-15047
▁ออกอากาศ	-15048
▁filosofía	-15049
▁finalmente	-15050
▁gearbeitet	-15051
▁utilizzata	-15052
▁มีชื่อจริง	-15053
▁internationale	-15054
خي	-15055
▁콘	-15056
める	-15057
ジン	-15058
作戦	-15059
希望	-15060
교육	-15061
비의	-15062
사에	-15063
향은	-15064
화는	-15065
One	-15066
ayy	-15067
dec	-15068
eto	-15069
ائق	-15070
صلة	-15071
▁Ol	-15072
▁ox	-15073
できる	-15074
多少钱	-15075
일본의	-15076
anal	-15077
eten	-15078
iare	-15079
inte	-15080
ownt	-15081
ulas	-15082
über	-15083
ปราก	-15084
▁Big	-15085
▁Kop	-15086
▁دفع	-15087
▁صوت	-15088
▁ถึง	-15089
▁졸업한	-15090
によると	-15091
طولات	-15092
ประดิ	-15093
▁bron	-15094
▁cual	-15095
▁laws	-15096
▁pian	-15097
▁uses	-15098
▁المغ	-15099
▁الوا	-15100
▁انهم	-15101
▁사람들은	-15102
ディズニー	-15103
ออสเตร	-15104
▁Video	-15105
▁Volks	-15106
▁cobre	-15107
▁hacia	-15108
▁honor	-15109
▁inner	-15110
▁molto	-15111
▁white	-15112
▁어디입니까	-15113
américa	-15114
ictions	-15115
razione	-15116
écurité	-15117
▁Govern	-15118
▁dirigé	-15119
▁früher	-15120
▁script	-15121
▁vivent	-15122
▁étrang	-15123
▁abgesch	-15124
▁distrib	-15125
▁strateg	-15126
▁السنوات	-15127
▁المجتمع	-15128
▁scoperto	-15129
▁alrededor	-15130
▁hyderabad	-15131
▁العثمانية	-15132
▁المعمارية	-15133
▁gouverneur	-15134
▁proporciona	-15135
▁الكاثوليكية	-15136
▁Commonwealth	-15137
CC	-15138
tv	-15139
มุ	-15140
▁떠	-15141
▁절	-15142
》?	-15143
ラク	-15144
公路	-15145
共济	-15146
場所	-15147
宣言	-15148
布告	-15149
细胞	-15150
购买	-15151
高等	-15152
개의	-15153
Gre	-15154
utz	-15155
بيض	-15156
رعة	-15157
صال	-15158
ฉัน	-15159
พย์	-15160
ลาด	-15161
▁여성	-15162
▁오브	-15163
のため	-15164
anes	-15165
asta	-15166
eaux	-15167
ußen	-15168
دمات	-15169
لسفة	-15170
هوري	-15171
يامي	-15172
▁Dre	-15173
▁jun	-15174
▁sun	-15175
▁كما	-15176
▁배우의	-15177
を受けた	-15178
佛罗里达	-15179
되었나요	-15180
elehr	-15181
ients	-15182
وريدا	-15183
▁Ball	-15184
▁Jeux	-15185
▁abit	-15186
▁atac	-15187
▁cart	-15188
▁dado	-15189
▁feel	-15190
▁flam	-15191
▁krit	-15192
▁love	-15193
▁mère	-15194
▁الخل	-15195
▁برون	-15196
▁تحدث	-15197
▁تحمل	-15198
▁لاعب	-15199
▁وجود	-15200
amenti	-15201
▁aérea	-15202
▁collè	-15203
▁corpo	-15204
▁hogar	-15205
▁الحكم	-15206
▁السبب	-15207
▁كوريا	-15208
▁besoin	-15209
▁eléctr	-15210
▁exécut	-15211
▁gehabt	-15212
▁montag	-15213
▁risult	-15214
▁traduc	-15215
▁الشيوخ	-15216
ものは何ですか	-15217
▁Katmand	-15218
▁appoint	-15219
▁enseign	-15220
▁könnten	-15221
▁nombres	-15222
▁rejoint	-15223
▁السيطرة	-15224
▁economic	-15225
▁kontroll	-15226
▁untersch	-15227
▁Bakterien	-15228
▁Buckingham	-15229
▁tecnología	-15230
▁changements	-15231
ดํารงตําแหน่ง	-15232
▁bemerkenswer	-15233
保罗	-15234
宮崎	-15235
开放	-15236
構成	-15237
治疗	-15238
皮尔	-15239
記念	-15240
내는	-15241
당한	-15242
300	-15243
Als	-15244
تقد	-15245
غام	-15246
غيل	-15247
พวก	-15248
▁حل	-15249
▁나왔	-15250
▁따르	-15251
▁모습	-15252
▁시설	-15253
を獲得	-15254
普利茅	-15255
英格兰	-15256
Team	-15257
aton	-15258
gend	-15259
igli	-15260
▁alf	-15261
▁fün	-15262
▁kam	-15263
▁org	-15264
▁phr	-15265
▁كون	-15266
▁ليس	-15267
はいくら	-15268
ahren	-15269
istán	-15270
manie	-15271
quart	-15272
▁Tier	-15273
▁bein	-15274
▁casi	-15275
▁clás	-15276
▁subs	-15277
กฎหมาย	-15278
การบิน	-15279
วันที่	-15280
▁Monat	-15281
▁merid	-15282
▁unico	-15283
▁verde	-15284
▁ايران	-15285
▁حكومة	-15286
▁علاقة	-15287
ugefügt	-15288
ถ่ายทํา	-15289
▁alemán	-15290
▁copper	-15291
▁decade	-15292
▁existe	-15293
▁اكتشاف	-15294
ivamente	-15295
▁concorr	-15296
▁grecque	-15297
▁italien	-15298
▁التغيير	-15299
เหตุการณ์	-15300
▁Computer	-15301
▁Struktur	-15302
▁konzentr	-15303
▁presente	-15304
▁calendario	-15305
▁concernant	-15306
▁parlamento	-15307
▁มีชื่อเล่น	-15308
▁hinzugefügt	-15309
8,	-15310
EA	-15311
Ir	-15312
مد	-15313
▁찾	-15314
で何	-15315
事故	-15316
发行	-15317
杂志	-15318
者の	-15319
软件	-15320
하이	-15321
행한	-15322
ebt	-15323
ekt	-15324
elf	-15325
ymn	-15326
نال	-15327
นิก	-15328
บัญ	-15329
รี่	-15330
▁حر	-15331
▁그의	-15332
▁우리	-15333
▁주변	-15334
▁하루	-15335
在英国	-15336
大西洋	-15337
所大学	-15338
1984	-15339
abel	-15340
iage	-15341
rief	-15342
ี่ยม	-15343
▁Kub	-15344
▁Loc	-15345
▁Rog	-15346
▁كيف	-15347
▁متح	-15348
▁방송된	-15349
▁작품의	-15350
であるか	-15351
エジプト	-15352
南安普敦	-15353
aufen	-15354
ieben	-15355
ility	-15356
phalt	-15357
ํารวจ	-15358
▁1982	-15359
▁Blue	-15360
▁Hind	-15361
▁Kenn	-15362
▁Stan	-15363
▁deve	-15364
▁mese	-15365
▁يملك	-15366
のタイトル	-15367
ailles	-15368
tograf	-15369
รัชกาล	-15370
▁bande	-15371
▁conçu	-15372
▁extin	-15373
▁grant	-15374
▁kerry	-15375
▁según	-15376
▁siège	-15377
▁Spiele	-15378
▁ataque	-15379
▁famosa	-15380
objectif	-15381
▁Angriff	-15382
▁Prussia	-15383
▁section	-15384
▁الدولية	-15385
▁décennie	-15386
▁insectos	-15387
▁السياسية	-15388
▁Billboard	-15389
▁getroffen	-15390
▁identific	-15391
1,	-15392
uy	-15393
ดม	-15394
อั	-15395
▁녹	-15396
世は	-15397
反应	-15398
声称	-15399
宣戦	-15400
尼日	-15401
年と	-15402
挙げ	-15403
方向	-15404
日期	-15405
汽车	-15406
犯罪	-15407
統治	-15408
関係	-15409
되기	-15410
력이	-15411
르크	-15412
명이	-15413
희가	-15414
Bew	-15415
ucr	-15416
راص	-15417
ويت	-15418
ขนม	-15419
ข้อ	-15420
เคล	-15421
เอล	-15422
แรง	-15423
▁정의	-15424
▁촬영	-15425
出生的	-15426
年以前	-15427
结束的	-15428
者は誰	-15429
비디오	-15430
alin	-15431
isée	-15432
راءة	-15433
ช่วย	-15434
▁Jay	-15435
▁NFL	-15436
▁gut	-15437
▁شيء	-15438
▁발매된	-15439
宣戦布告	-15440
하였을까	-15441
ading	-15442
ficos	-15443
porta	-15444
▁HDTV	-15445
▁left	-15446
▁loss	-15447
▁rete	-15448
フォルニア	-15449
forder	-15450
puesta	-15451
ลําดับ	-15452
▁Corte	-15453
▁crise	-15454
▁diplô	-15455
▁green	-15456
▁ignor	-15457
▁isole	-15458
▁porte	-15459
▁store	-15460
▁teams	-15461
▁المحت	-15462
▁تعيين	-15463
▁어떤것들이	-15464
ionales	-15465
issions	-15466
▁Bundes	-15467
▁arrest	-15468
▁cinese	-15469
▁encour	-15470
▁humans	-15471
▁quello	-15472
▁siendo	-15473
▁داروين	-15474
▁الالعاب	-15475
▁التحقيق	-15476
สงครามโลก	-15477
▁permitió	-15478
เป็นทางการ	-15479
▁Vergleich	-15480
▁plusieurs	-15481
▁شوارزنيجر	-15482
ก่อตั้งขึ้น	-15483
มากที่สุดใน	-15484
▁télévision	-15485
▁Connecticut	-15486
▁Westminster	-15487
▁información	-15488
▁independencia	-15489
Cl	-15490
Fe	-15491
kh	-15492
رد	-15493
▁앞	-15494
▁헤	-15495
さん	-15496
克的	-15497
合并	-15498
委員	-15499
指定	-15500
权利	-15501
火山	-15502
荷马	-15503
동을	-15504
전이	-15505
Mod	-15506
ogg	-15507
éné	-15508
ตระ	-15509
ลีก	-15510
เศษ	-15511
่ํา	-15512
▁مز	-15513
▁สิ	-15514
▁결정	-15515
▁모든	-15516
▁보고	-15517
▁피해	-15518
ことを	-15519
発電所	-15520
系统的	-15521
1992	-15522
SCII	-15523
hirn	-15524
luss	-15525
émin	-15526
نائس	-15527
ปลาก	-15528
เอ็น	-15529
▁Bed	-15530
▁Eff	-15531
▁Les	-15532
▁paz	-15533
▁جلب	-15534
▁غزو	-15535
▁했는가	-15536
是从哪里	-15537
Outre	-15538
bourg	-15539
ellig	-15540
obert	-15541
ograf	-15542
อาศัย	-15543
▁Ausw	-15544
▁Code	-15545
▁Fest	-15546
▁abge	-15547
▁alco	-15548
▁duré	-15549
▁join	-15550
▁lado	-15551
▁past	-15552
▁اقدم	-15553
▁운행하는	-15554
什么时候被	-15555
atorio	-15556
cional	-15557
ionato	-15558
▁deber	-15559
▁forza	-15560
▁olímp	-15561
▁rejet	-15562
▁tanto	-15563
▁train	-15564
▁übern	-15565
▁اسلوب	-15566
▁Golden	-15567
▁conect	-15568
▁depend	-15569
▁eingef	-15570
▁musulm	-15571
▁patent	-15572
▁quería	-15573
▁Krieges	-15574
▁bambini	-15575
▁collect	-15576
▁consomm	-15577
▁diritti	-15578
▁المالية	-15579
▁الوحيدة	-15580
▁Anführer	-15581
▁Einfluss	-15582
▁Veränder	-15583
▁distinct	-15584
▁ريتشموند	-15585
したのはいつですか	-15586
▁participé	-15587
▁الاتحادية	-15588
öffentlichung	-15589
HS	-15590
بط	-15591
وص	-15592
กู	-15593
ภิ	-15594
▁찍	-15595
オブ	-15596
ブリ	-15597
ヘル	-15598
取り	-15599
国際	-15600
大陸	-15601
建议	-15602
組織	-15603
考虑	-15604
英里	-15605
避免	-15606
동의	-15607
문을	-15608
물의	-15609
소가	-15610
alo	-15611
ائر	-15612
زاء	-15613
يدر	-15614
ซิล	-15615
ลิง	-15616
▁om	-15617
▁개념	-15618
▁살았	-15619
▁수도	-15620
▁작곡	-15621
▁지하	-15622
▁프랑	-15623
1999	-15624
erto	-15625
here	-15626
ring	-15627
toff	-15628
สูติ	-15629
เอ็ม	-15630
้นํา	-15631
▁도시는	-15632
是在哪里	-15633
avano	-15634
ciale	-15635
lumin	-15636
▁1989	-15637
▁2021	-15638
▁Frau	-15639
▁drug	-15640
▁mole	-15641
▁تشكل	-15642
▁حالة	-15643
▁Spitz	-15644
▁dagli	-15645
▁linea	-15646
▁purch	-15647
▁règne	-15648
▁santa	-15649
▁segur	-15650
▁spect	-15651
▁zonas	-15652
▁اغنية	-15653
とは何ですか	-15654
▁accept	-15655
▁appare	-15656
▁define	-15657
▁désign	-15658
aéroport	-15659
▁ciencia	-15660
▁Birmanie	-15661
▁Nationen	-15662
▁assassin	-15663
▁chiamata	-15664
▁catholique	-15665
▁revolución	-15666
▁performance	-15667
▁Presbyterian	-15668
Sc	-15669
cí	-15670
ตล	-15671
ジュ	-15672
ハー	-15673
世的	-15674
伯格	-15675
地亚	-15676
山脉	-15677
普查	-15678
用户	-15679
破坏	-15680
대로	-15681
보를	-15682
부산	-15683
즈가	-15684
Ges	-15685
ext	-15686
yer	-15687
ريب	-15688
ภัย	-15689
▁To	-15690
▁نج	-15691
▁건설	-15692
▁대신	-15693
▁부산	-15694
ノミネ	-15695
프랑스	-15696
atri	-15697
eilt	-15698
hmer	-15699
▁Ans	-15700
▁Völ	-15701
▁put	-15702
▁قرن	-15703
▁활동을	-15704
ombra	-15705
▁1993	-15706
▁Irak	-15707
▁epis	-15708
▁noms	-15709
▁proc	-15710
▁prus	-15711
▁verg	-15712
▁weiß	-15713
▁الشع	-15714
▁فران	-15715
▁ماري	-15716
ノミネート	-15717
フランスの	-15718
ashire	-15719
▁2000,	-15720
▁aprob	-15721
▁namib	-15722
▁terzo	-15723
▁الغذا	-15724
▁منظمة	-15725
オーストリア	-15726
adition	-15727
▁Campus	-15728
▁Inform	-15729
▁artist	-15730
▁global	-15731
▁member	-15732
▁things	-15733
▁tribus	-15734
▁Emperor	-15735
▁Ireland	-15736
▁complex	-15737
▁origine	-15738
▁älteste	-15739
▁الاطلسي	-15740
▁الروسية	-15741
▁Muhammad	-15742
▁earliest	-15743
▁ejemplos	-15744
▁elezioni	-15745
▁iniziata	-15746
▁manufact	-15747
▁comercial	-15748
▁definiert	-15749
▁militares	-15750
▁industrial	-15751
▁السوفييتية	-15752
OS	-15753
قب	-15754
وض	-15755
出了	-15756
土著	-15757
模型	-15758
狩猎	-15759
男性	-15760
設置	-15761
계를	-15762
년은	-15763
문화	-15764
사이	-15765
정의	-15766
종은	-15767
트남	-15768
Car	-15769
adi	-15770
agd	-15771
aye	-15772
hör	-15773
íes	-15774
ادر	-15775
فول	-15776
ليب	-15777
هاء	-15778
▁Nu	-15779
▁불리	-15780
大教堂	-15781
로부터	-15782
자들이	-15783
1994	-15784
1997	-15785
cker	-15786
etts	-15787
mark	-15788
unge	-15789
ésil	-15790
▁Apr	-15791
▁ern	-15792
▁lik	-15793
▁nie	-15794
▁للش	-15795
▁어디서	-15796
▁인원은	-15797
オスマン	-15798
点是什么	-15799
Tunes	-15800
biter	-15801
ibili	-15802
itare	-15803
วิหาร	-15804
▁Braz	-15805
▁Penn	-15806
▁hoch	-15807
▁ipod	-15808
▁look	-15809
▁للمس	-15810
Aparte	-15811
ctique	-15812
สังกัด	-15813
▁1980?	-15814
▁2007,	-15815
▁Gründ	-15816
▁Water	-15817
▁tutto	-15818
▁حديقة	-15819
illeurs	-15820
ptember	-15821
▁Taylor	-15822
▁basket	-15823
▁envoyé	-15824
▁especí	-15825
▁living	-15826
▁recomm	-15827
▁slaves	-15828
▁spécif	-15829
▁ultima	-15830
▁unique	-15831
ièrement	-15832
▁Catalan	-15833
▁Verteid	-15834
▁Wassers	-15835
▁cerveza	-15836
▁geograf	-15837
▁versión	-15838
▁الدينية	-15839
▁الرسمية	-15840
พระราชวัง	-15841
▁collabor	-15842
▁cristian	-15843
▁utilizza	-15844
▁dirigeant	-15845
▁territory	-15846
▁convertido	-15847
▁Philadelphia	-15848
▁öffentlichen	-15849
▁Premierminister	-15850
▁맨	-15851
▁울	-15852
ヒト	-15853
大量	-15854
物語	-15855
直接	-15856
谁不	-15857
速度	-15858
阶段	-15859
현이	-15860
สาท	-15861
เมน	-15862
▁ON	-15863
▁اف	-15864
▁자유	-15865
▁중심	-15866
▁프리	-15867
アジア	-15868
カール	-15869
anad	-15870
hold	-15871
isés	-15872
öder	-15873
صدار	-15874
فساء	-15875
ناصر	-15876
▁Dok	-15877
▁Erd	-15878
▁데뷔한	-15879
▁선수가	-15880
▁첫번째	-15881
什么不是	-15882
是在什么	-15883
agnol	-15884
stoff	-15885
teilt	-15886
temps	-15887
venir	-15888
มีกี่	-15889
เดอร์	-15890
▁Jour	-15891
▁VIII	-15892
▁quot	-15893
▁등장하는	-15894
ものですか	-15895
derick	-15896
▁Natur	-15897
▁debut	-15898
▁empie	-15899
▁stamp	-15900
ニューヨーク	-15901
เจ้าของ	-15902
เลย์บอล	-15903
▁Kommun	-15904
▁appara	-15905
▁attrib	-15906
▁branch	-15907
▁genere	-15908
▁german	-15909
▁mother	-15910
▁국가대표팀의	-15911
▁denomin	-15912
▁require	-15913
▁romanos	-15914
▁sarebbe	-15915
▁الممتاز	-15916
▁Michigan	-15917
▁Mondiale	-15918
▁ancienne	-15919
▁cantante	-15920
▁ซึ่งเป็น	-15921
▁capacidad	-15922
▁iluminación	-15923
▁internazionale	-15924
pf	-15925
รุ	-15926
โฮ	-15927
▁칭	-15928
けた	-15929
ソン	-15930
マル	-15931
协会	-15932
耶稣	-15933
节目	-15934
附近	-15935
지만	-15936
anv	-15937
bed	-15938
ลาว	-15939
อล์	-15940
เอส	-15941
▁fá	-15942
▁pá	-15943
▁تغ	-15944
とする	-15945
的研究	-15946
ands	-15947
assi	-15948
erta	-15949
اراة	-15950
جلات	-15951
قيقة	-15952
كلفة	-15953
لبية	-15954
▁Hot	-15955
▁Lis	-15956
▁Mor	-15957
▁افت	-15958
▁الظ	-15959
▁قوة	-15960
▁사건의	-15961
arter	-15962
ellow	-15963
ورنيا	-15964
เทือก	-15965
▁capo	-15966
▁deal	-15967
▁fans	-15968
▁lect	-15969
▁nept	-15970
▁renc	-15971
▁side	-15972
▁نقطة	-15973
▁يحمل	-15974
▁يلعب	-15975
▁기준으로	-15976
▁리그에서	-15977
เอเชีย	-15978
▁Fried	-15979
▁Licht	-15980
▁ampli	-15981
▁giapp	-15982
▁leyes	-15983
▁marzo	-15984
▁santé	-15985
▁share	-15986
▁tarde	-15987
▁اعمال	-15988
▁البدا	-15989
▁النظر	-15990
▁تشارك	-15991
▁تعداد	-15992
▁غرامي	-15993
▁프로그램은	-15994
▁Palace	-15995
▁cattol	-15996
▁cittad	-15997
▁nuevos	-15998
▁partis	-15999
▁qualif	-16000
▁suppos	-16001
▁terres	-16002
▁مقارنة	-16003
▁يعيشون	-16004
erschaft	-16005
igration	-16006
▁Konzept	-16007
▁article	-16008
▁finanzi	-16009
▁manager	-16010
▁surface	-16011
▁attività	-16012
▁nouveaux	-16013
▁البرازيل	-16014
▁agreement	-16015
▁bactéries	-16016
▁religiosa	-16017
▁économique	-16018
▁beschreiben	-16019
▁occidentales	-16020
dy	-16021
نك	-16022
▁먼	-16023
参与	-16024
坎耶	-16025
来源	-16026
理解	-16027
用途	-16028
白人	-16029
相关	-16030
确定	-16031
麦当	-16032
국가	-16033
름은	-16034
진의	-16035
학의	-16036
Imp	-16037
Sta	-16038
bey	-16039
cir	-16040
cks	-16041
ادل	-16042
جون	-16043
กูล	-16044
เลน	-16045
▁Sü	-16046
▁مم	-16047
▁속한	-16048
▁일어	-16049
▁조약	-16050
卡斯特	-16051
在一起	-16052
建立了	-16053
inal	-16054
usal	-16055
رجمة	-16056
▁Pur	-16057
▁Run	-16058
▁jüd	-16059
▁nac	-16060
▁러시아	-16061
▁미국의	-16062
▁최초의	-16063
哪个地区	-16064
尼日利亚	-16065
프로그램	-16066
atory	-16067
ieval	-16068
untos	-16069
▁Juan	-16070
▁News	-16071
▁Patr	-16072
▁rigu	-16073
▁فرقة	-16074
egriff	-16075
▁decre	-16076
▁hayek	-16077
▁micro	-16078
▁salud	-16079
▁spagn	-16080
▁value	-16081
▁الدرا	-16082
▁القطب	-16083
▁تسجيل	-16084
▁تقديم	-16085
Während	-16086
zählung	-16087
▁Hudson	-16088
▁Joseph	-16089
▁Kupfer	-16090
▁Mandol	-16091
▁cotton	-16092
▁creado	-16093
▁effica	-16094
▁espect	-16095
▁popper	-16096
▁signed	-16097
▁ارسنال	-16098
▁بروسيا	-16099
ähigkeit	-16100
▁homosex	-16101
▁japones	-16102
▁problem	-16103
▁romaine	-16104
▁suprema	-16105
▁zweiten	-16106
▁العالمي	-16107
▁المعروف	-16108
▁فلوريدا	-16109
▁Richtung	-16110
▁capacité	-16111
▁modernen	-16112
▁الأمريكي	-16113
▁Président	-16114
▁September	-16115
▁community	-16116
▁representa	-16117
▁utilizados	-16118
شة	-16119
ทา	-16120
に何	-16121
の何	-16122
专利	-16123
事業	-16124
办公	-16125
子の	-16126
小説	-16127
建築	-16128
情感	-16129
是在	-16130
有时	-16131
현대	-16132
pez	-16133
rew	-16134
صائ	-16135
ขวั	-16136
ขาย	-16137
ริก	-16138
▁35	-16139
▁ll	-16140
▁mp	-16141
▁성공	-16142
▁이상	-16143
には何	-16144
ション	-16145
Iran	-16146
emás	-16147
ربعة	-16148
ขวัญ	-16149
▁Def	-16150
▁KBS	-16151
▁mög	-16152
▁دون	-16153
▁ذكر	-16154
▁للع	-16155
のどちら	-16156
homme	-16157
icket	-16158
orien	-16159
▁Just	-16160
▁half	-16161
▁jefe	-16162
▁استع	-16163
▁ايرل	-16164
▁يطلق	-16165
▁전투에서	-16166
سيفساء	-16167
ใครชนะ	-16168
▁Young	-16169
▁actor	-16170
▁natür	-16171
▁rapid	-16172
▁الفائ	-16173
▁طريقة	-16174
▁علماء	-16175
▁يونيو	-16176
gesetzt	-16177
▁Freima	-16178
▁Jahrze	-16179
▁absorb	-16180
▁además	-16181
▁locale	-16182
▁surnom	-16183
▁الغربي	-16184
istische	-16185
▁Polizei	-16186
▁categor	-16187
▁trovato	-16188
▁الصغيرة	-16189
▁ميلبورن	-16190
اليفورنيا	-16191
เลือกตั้ง	-16192
▁Untersch	-16193
▁Williams	-16194
▁Beispiele	-16195
▁LaserDisc	-16196
หม่อมราชวงศ์	-16197
▁europäischen	-16198
▁französische	-16199
▁universities	-16200
bc	-16201
ds	-16202
جن	-16203
لت	-16204
ืด	-16205
ギリ	-16206
ゼル	-16207
ワー	-16208
亚洲	-16209
依赖	-16210
多い	-16211
大约	-16212
年龄	-16213
集团	-16214
바이	-16215
시간	-16216
식의	-16217
적이	-16218
hai	-16219
برى	-16220
طلب	-16221
มส์	-16222
มิส	-16223
▁CP	-16224
▁sl	-16225
▁ul	-16226
▁เจ	-16227
▁몇번	-16228
发布的	-16229
圣母院	-16230
年以来	-16231
的国家	-16232
誰なの	-16233
麦当娜	-16234
Inst	-16235
amas	-16236
iado	-16237
ittà	-16238
mont	-16239
ร้อย	-16240
เก่า	-16241
เนิน	-16242
▁How	-16243
▁Kom	-16244
▁Lie	-16245
▁Tri	-16246
▁fen	-16247
▁قسم	-16248
▁محا	-16249
▁라디오	-16250
▁성우는	-16251
认为什么	-16252
idenz	-16253
กระทร	-16254
พระยา	-16255
ภัณฑ์	-16256
▁SNES	-16257
▁Uran	-16258
▁Wind	-16259
▁away	-16260
▁hält	-16261
▁sele	-16262
▁upon	-16263
▁vacc	-16264
▁الحض	-16265
▁النم	-16266
▁ظهرت	-16267
▁فالن	-16268
▁يسبب	-16269
▁에피소드	-16270
iembre	-16271
ให้กับ	-16272
▁Pearl	-16273
▁anlat	-16274
▁confl	-16275
▁führt	-16276
▁lancé	-16277
▁llamó	-16278
▁newsp	-16279
▁revis	-16280
▁sever	-16281
▁while	-16282
したのはいつ	-16283
crivere	-16284
presión	-16285
▁aplica	-16286
▁expect	-16287
▁motore	-16288
▁vicino	-16289
▁الحصول	-16290
カリフォルニア	-16291
Dynastie	-16292
▁Machine	-16293
▁cambios	-16294
▁publish	-16295
▁الهوائي	-16296
▁فالنسيا	-16297
พระองค์ใด	-16298
▁cappella	-16299
▁involucr	-16300
▁mientras	-16301
▁presiden	-16302
▁pubblico	-16303
▁regional	-16304
▁versione	-16305
▁الطائرات	-16306
ภาษาอังกฤษ	-16307
▁Americans	-16308
▁Community	-16309
▁comunidad	-16310
▁significant	-16311
▁tradicional	-16312
▁classification	-16313
-5	-16314
Dr	-16315
HD	-16316
ยว	-16317
子的	-16318
容易	-16319
数が	-16320
海岸	-16321
评论	-16322
说法	-16323
ارب	-16324
افر	-16325
ضوع	-16326
พาก	-16327
สอน	-16328
ียญ	-16329
แอฟ	-16330
▁ri	-16331
▁구분	-16332
▁방문	-16333
▁사랑	-16334
▁지금	-16335
▁투표	-16336
图书馆	-16337
纳赛尔	-16338
횟수는	-16339
1950	-16340
ları	-16341
vard	-16342
érer	-16343
ويات	-16344
จิตร	-16345
▁Fox	-16346
▁Job	-16347
▁Kle	-16348
▁sic	-16349
▁سبب	-16350
▁시작된	-16351
▁어머니	-16352
メンバー	-16353
発生した	-16354
Progr	-16355
ersey	-16356
etzen	-16357
habit	-16358
ockey	-16359
▁Erde	-16360
▁apro	-16361
▁fase	-16362
▁fire	-16363
▁trip	-16364
▁الاث	-16365
église	-16366
ศิลปิน	-16367
▁emplo	-16368
▁nennt	-16369
▁الترك	-16370
▁تقسيم	-16371
はいつですか	-16372
owntown	-16373
จัดตั้ง	-16374
▁Hitler	-16375
▁fiesta	-16376
▁health	-16377
▁infrar	-16378
▁interc	-16379
▁medios	-16380
▁ultimo	-16381
▁الكبرى	-16382
▁المزيد	-16383
▁امريكي	-16384
▁Destiny	-16385
▁animali	-16386
▁annoncé	-16387
▁appelés	-16388
▁condado	-16389
▁mosaico	-16390
▁pública	-16391
▁alemanes	-16392
▁distance	-16393
▁politico	-16394
▁produire	-16395
ificazione	-16396
▁Consiglio	-16397
▁Victorias	-16398
▁regarding	-16399
▁sostituito	-16400
▁wirtschaft	-16401
▁technologie	-16402
▁griechischen	-16403
ผู	-16404
็อ	-16405
▁엘	-16406
を指	-16407
到达	-16408
来说	-16409
西藏	-16410
议院	-16411
輸送	-16412
부를	-16413
Gen	-16414
cus	-16415
hma	-16416
hyd	-16417
lab	-16418
oon	-16419
ارس	-16420
قال	-16421
ตัด	-16422
ือด	-16423
▁Ok	-16424
▁역의	-16425
に位置	-16426
科学家	-16427
스트는	-16428
졌을까	-16429
컵에서	-16430
esis	-16431
ulos	-16432
vole	-16433
ئوية	-16434
وقات	-16435
ฝั่ง	-16436
▁Blo	-16437
▁DVD	-16438
▁Pir	-16439
▁mel	-16440
▁sow	-16441
▁وسط	-16442
osper	-16443
retto	-16444
ฟิลิป	-16445
อวกาศ	-16446
เลอร์	-16447
▁Bapt	-16448
▁beer	-16449
▁lost	-16450
▁send	-16451
▁très	-16452
Chopin	-16453
entrum	-16454
▁Linie	-16455
▁Vater	-16456
▁bière	-16457
▁creen	-16458
▁entst	-16459
▁indem	-16460
▁البوذ	-16461
▁السلة	-16462
▁ثلاثة	-16463
▁شخصية	-16464
▁ميامي	-16465
▁acheté	-16466
▁erfolg	-16467
▁obiett	-16468
▁passed	-16469
▁sports	-16470
▁Politik	-16471
▁borough	-16472
▁défense	-16473
▁termini	-16474
▁استونيا	-16475
▁aufgrund	-16476
▁sécurité	-16477
▁organismo	-16478
▁entstanden	-16479
▁personnage	-16480
▁relaciones	-16481
▁Philosophie	-16482
▁Renaissance	-16483
▁griechische	-16484
▁Constitución	-16485
อุทยานแห่งชาติ	-16486
▁schwarzenegger	-16487
7,	-16488
Of	-16489
ظي	-16490
หอ	-16491
を結	-16492
业的	-16493
是否	-16494
火炬	-16495
表明	-16496
见证	-16497
过去	-16498
食物	-16499
스코	-16500
전쟁	-16501
ims	-16502
olt	-16503
ryt	-16504
راث	-16505
سام	-16506
▁Gi	-16507
▁tw	-16508
▁üb	-16509
▁기본	-16510
▁레이	-16511
▁상태	-16512
▁직책	-16513
▁출생	-16514
の名称	-16515
は何か	-16516
역에서	-16517
abor	-16518
هلية	-16519
ฉายา	-16520
น้อย	-16521
เบิล	-16522
▁Bon	-16523
▁bot	-16524
▁cód	-16525
▁mex	-16526
▁إلى	-16527
▁حزب	-16528
▁دين	-16529
▁وما	-16530
▁يهو	-16531
▁따르면	-16532
▁배역의	-16533
▁새로운	-16534
▁출마한	-16535
appro	-16536
arily	-16537
هرجان	-16538
ที่จะ	-16539
เทอร์	-16540
▁Slav	-16541
▁Wall	-16542
▁empê	-16543
▁faut	-16544
▁النف	-16545
▁تطور	-16546
▁خدمة	-16547
▁예선에서	-16548
cheurs	-16549
ección	-16550
▁April	-16551
▁Chief	-16552
▁abbre	-16553
▁coton	-16554
▁monta	-16555
▁schia	-16556
▁zerst	-16557
▁Übers	-16558
▁البيت	-16559
▁اللون	-16560
▁المئة	-16561
▁Neptun	-16562
▁Report	-16563
▁herman	-16564
▁nutzen	-16565
▁planta	-16566
▁sector	-16567
ierungen	-16568
ชื่ออะไร	-16569
▁Academy	-16570
▁Witness	-16571
▁account	-16572
▁climate	-16573
▁comcast	-16574
▁concurs	-16575
▁diverse	-16576
▁enthält	-16577
▁firmato	-16578
▁neptuno	-16579
▁soprann	-16580
▁uccelli	-16581
▁western	-16582
▁التنفيذ	-16583
▁création	-16584
▁esclavos	-16585
▁geograph	-16586
▁positive	-16587
▁الديمقرا	-16588
▁الموافقة	-16589
▁superiore	-16590
▁définition	-16591
▁Universitäten	-16592
34	-16593
DS	-16594
ضي	-16595
قى	-16596
▁쿠	-16597
▁향	-16598
が高	-16599
ッチ	-16600
テン	-16601
交易	-16602
初代	-16603
大型	-16604
它们	-16605
对于	-16606
巴西	-16607
收购	-16608
棉花	-16609
结合	-16610
評価	-16611
谁被	-16612
항공	-16613
Ass	-16614
ahn	-16615
ßen	-16616
éch	-16617
الد	-16618
▁서비	-16619
俄克拉	-16620
形成的	-16621
1960	-16622
Sind	-16623
bird	-16624
eget	-16625
iniz	-16626
kord	-16627
ايير	-16628
สั้น	-16629
สาขา	-16630
▁Ali	-16631
▁Cab	-16632
▁job	-16633
▁tar	-16634
▁كول	-16635
哪个组织	-16636
多大比例	-16637
Krieg	-16638
eball	-16639
entum	-16640
วิลด์	-16641
เบียน	-16642
▁1939	-16643
▁Four	-16644
▁coll	-16645
▁done	-16646
▁estr	-16647
▁goal	-16648
▁spir	-16649
▁week	-16650
▁اباد	-16651
▁العب	-16652
▁توقف	-16653
▁جديد	-16654
▁جيمس	-16655
▁كثير	-16656
cieron	-16657
iedene	-16658
ührung	-16659
จํากัด	-16660
ล่าสุด	-16661
▁Bible	-16662
▁crear	-16663
▁jurid	-16664
▁lower	-16665
▁prend	-16666
▁sumer	-16667
▁اتفاق	-16668
▁년도입니까	-16669
▁월드컵에서	-16670
▁Jewish	-16671
▁Schaus	-16672
▁exclus	-16673
▁législ	-16674
▁rechaz	-16675
▁colonia	-16676
▁diversi	-16677
▁domaine	-16678
▁elegido	-16679
▁giocato	-16680
▁längste	-16681
▁reconoc	-16682
▁spielen	-16683
▁venduto	-16684
อาชีพอะไร	-16685
▁Business	-16686
▁Canadian	-16687
▁citizens	-16688
▁definito	-16689
▁nickname	-16690
▁olandese	-16691
▁progetto	-16692
▁quantità	-16693
▁supervis	-16694
▁increased	-16695
▁montagnes	-16696
▁technique	-16697
ximadamente	-16698
ตั้งอยู่ที่	-16699
▁enregistre	-16700
▁finalement	-16701
45	-16702
AL	-16703
Ce	-16704
cm	-16705
gé	-16706
خط	-16707
▁긴	-16708
に分	-16709
分析	-16710
勝利	-16711
摧毁	-16712
释放	-16713
长老	-16714
격은	-16715
드리	-16716
들과	-16717
레스	-16718
비전	-16719
사회	-16720
신이	-16721
트로	-16722
uum	-16723
يغو	-16724
งาม	-16725
ลาม	-16726
สิง	-16727
สุข	-16728
เศร	-16729
▁8?	-16730
▁Rh	-16731
▁경찰	-16732
▁말한	-16733
▁특별	-16734
对什么	-16735
是一个	-16736
Play	-16737
coli	-16738
ered	-16739
fore	-16740
king	-16741
änge	-16742
ชั่น	-16743
เพชร	-16744
▁NBC	-16745
▁Vin	-16746
▁Weg	-16747
▁atr	-16748
▁fix	-16749
▁kom	-16750
▁pav	-16751
▁مما	-16752
▁ทํา	-16753
▁발견된	-16754
▁있다고	-16755
▁후보의	-16756
iende	-16757
letzt	-16758
phone	-16759
เจอร์	-16760
▁1918	-16761
▁Hano	-16762
▁Idee	-16763
▁Nank	-16764
▁célé	-16765
▁komp	-16766
▁once	-16767
▁الهي	-16768
▁تيتو	-16769
▁행정구역	-16770
Orient	-16771
glises	-16772
ilding	-16773
izzare	-16774
émoins	-16775
▁Latin	-16776
▁Peter	-16777
▁Quran	-16778
▁Serie	-16779
▁apodo	-16780
▁créer	-16781
▁lista	-16782
▁names	-16783
▁señal	-16784
▁stark	-16785
▁todas	-16786
▁urban	-16787
▁الصيد	-16788
▁يحتوي	-16789
cellona	-16790
▁astron	-16791
▁figure	-16792
▁formas	-16793
▁hommes	-16794
▁parque	-16795
▁policy	-16796
▁visité	-16797
▁Mercury	-16798
▁Science	-16799
[...]
