<unk>	0
<s>	0
</s>	0
<es>	0
<fr>	0
<it>	0
<de>	0
<ar>	0
<ja>	0
<en>	0
▁d	-0
en	-1
er	-2
es	-3
on	-4
▁ا	-5
an	-6
▁l	-7
in	-8
el	-9
at	-10
▁ال	-11
▁s	-12
▁p	-13
▁c	-14
▁a	-15
▁t	-16
▁de	-17
is	-18
ar	-19
or	-20
ch	-21
al	-22
it	-23
as	-24
▁W	-25
re	-26
Qu	-27
qu	-28
▁Qu	-29
▁م	-30
▁w	-31
un	-32
ent	-33
▁m	-34
os	-35
he	-36
▁f	-37
il	-38
ie	-39
▁la	-40
om	-41
ur	-42
le	-43
▁?	-44
ic	-45
▁h	-46
▁C	-47
ion	-48
▁qu	-49
▁in	-50
▁v	-51
▁g	-52
▁n	-53
ro	-54
est	-55
us	-56
id	-57
▁o	-58
▁b	-59
▁e	-60
te	-61
ad	-62
▁the	-63
▁Wh	-64
▁S	-65
ol	-66
am	-67
and	-68
▁A	-69
▁un	-70
▁en	-71
im	-72
▁ف	-73
ut	-74
▁r	-75
ed	-76
ig	-77
ci	-78
▁di	-79
ist	-80
▁ما	-81
▁le	-82
▁في	-83
▁con	-84
et	-85
▁P	-86
▁el	-87
▁of	-88
em	-89
ان	-90
▁B	-91
ra	-92
▁ه	-93
▁M	-94
▁D	-95
la	-96
▁se	-97
▁ت	-98
▁What	-99
▁der	-100
▁ع	-101
▁die	-102
▁E	-103
▁I	-104
▁من	-105
ers	-106
ich	-107
ale	-108
iv	-109
ta	-110
ية	-111
▁del	-112
▁ha	-113
ir	-114
▁1	-115
▁الم	-116
▁ب	-117
▁L	-118
▁est	-119
ce	-120
elle	-121
▁ك	-122
▁com	-123
ant	-124
de	-125
▁N	-126
▁re	-127
ال	-128
ing	-129
▁ل	-130
elch	-131
▁T	-132
ct	-133
▁H	-134
um	-135
▁G	-136
▁é	-137
ia	-138
▁par	-139
▁al	-140
ul	-141
▁Qué	-142
op	-143
▁pr	-144
ann	-145
▁des	-146
▁ي	-147
st	-148
▁st	-149
ation	-150
ien	-151
ato	-152
▁es	-153
▁R	-154
▁الت	-155
ue	-156
▁الا	-157
ين	-158
uá	-159
ón	-160
20	-161
to	-162
▁F	-163
ات	-164
▁to	-165
▁è	-166
io	-167
ier	-168
▁les	-169
hat	-170
ter	-171
ge	-172
▁K	-173
▁pro	-174
ont	-175
▁hat	-176
▁was	-177
▁J	-178
▁In	-179
ام	-180
▁von	-181
our	-182
▁20	-183
▁Was	-184
ow	-185
▁Cuá	-186
ib	-187
iz	-188
▁que	-189
up	-190
ans	-191
▁il	-192
ول	-193
▁Quel	-194
▁los	-195
▁z	-196
▁is	-197
ere	-198
▁الذ	-199
hr	-200
ot	-201
▁qué	-202
ort	-203
ري	-204
▁19	-205
ud	-206
ten	-207
ها	-208
▁be	-209
ve	-210
ung	-211
if	-212
▁و	-213
▁ein	-214
▁ist	-215
ell	-216
ab	-217
▁U	-218
▁هو	-219
▁الذي	-220
▁per	-221
▁V	-222
▁هي	-223
ap	-224
▁التي	-225
ica	-226
end	-227
ub	-228
▁اي	-229
▁er	-230
▁Welch	-231
ag	-232
▁did	-233
od	-234
▁for	-235
hi	-236
▁Qui	-237
した	-238
ass	-239
isch	-240
pe	-241
すか	-242
ess	-243
ار	-244
én	-245
té	-246
tr	-247
▁O	-248
ون	-249
▁im	-250
▁y	-251
▁au	-252
▁à	-253
ente	-254
ac	-255
ne	-256
eg	-257
▁ن	-258
és	-259
ér	-260
me	-261
▁an	-262
▁كان	-263
que	-264
▁what	-265
omb	-266
▁En	-267
do	-268
▁k	-269
ens	-270
ción	-271
ff	-272
▁du	-273
ay	-274
ip	-275
iel	-276
▁س	-277
oc	-278
rit	-279
▁war	-280
▁عل	-281
ine	-282
ですか	-283
pr	-284
les	-285
▁welch	-286
▁gr	-287
ind	-288
▁son	-289
ado	-290
ür	-291
را	-292
▁ق	-293
▁"	-294
▁ان	-295
ée	-296
ione	-297
li	-298
▁j	-299
uer	-300
دي	-301
ate	-302
ver	-303
▁tr	-304
ou	-305
▁fue	-306
▁wur	-307
og	-308
▁Wie	-309
ach	-310
ست	-311
▁zu	-312
▁ver	-313
osa	-314
▁Cuán	-315
all	-316
ment	-317
ew	-318
▁su	-319
ور	-320
az	-321
▁pl	-322
den	-323
du	-324
▁as	-325
mp	-326
▁ch	-327
▁las	-328
ire	-329
▁St	-330
va	-331
のは	-332
ben	-333
▁200	-334
▁or	-335
▁été	-336
▁Quand	-337
ient	-338
▁الع	-339
der	-340
▁ann	-341
▁pour	-342
are	-343
▁éta	-344
ian	-345
ond	-346
▁Quelle	-347
▁ج	-348
▁ح	-349
ير	-350
au	-351
ahr	-352
▁qui	-353
▁على	-354
▁Qual	-355
▁ar	-356
▁and	-357
▁do	-358
ما	-359
▁Un	-360
▁das	-361
▁i	-362
ber	-363
دة	-364
▁Quale	-365
يا	-366
ran	-367
▁che	-368
▁et	-369
▁ex	-370
▁Welche	-371
ante	-372
▁201	-373
▁para	-374
any	-375
ata	-376
▁den	-377
▁für	-378
ement	-379
▁una	-380
ذا	-381
▁تم	-382
ame	-383
mer	-384
▁Cuál	-385
▁wurde	-386
ang	-387
▁prim	-388
▁Ar	-389
▁Jahr	-390
ico	-391
per	-392
ug	-393
lich	-394
th	-395
▁الح	-396
cc	-397
mo	-398
▁comp	-399
▁pre	-400
ía	-401
▁How	-402
▁dans	-403
▁Who	-404
▁quale	-405
は何	-406
men	-407
ore	-408
▁us	-409
eit	-410
▁ge	-411
ob	-412
res	-413
▁Wer	-414
▁était	-415
▁Quién	-416
▁si	-417
ard	-418
util	-419
▁الق	-420
pp	-421
und	-422
se	-423
ique	-424
▁at	-425
ord	-426
▁Chi	-427
ity	-428
▁era	-429
اب	-430
▁dé	-431
▁Ch	-432
▁und	-433
▁ont	-434
▁ent	-435
ma	-436
سم	-437
▁الب	-438
ischen	-439
▁viel	-440
ton	-441
av	-442
▁Z	-443
▁ter	-444
▁الس	-445
ik	-446
った	-447
▁por	-448
ano	-449
ome	-450
▁عام	-451
▁part	-452
ás	-453
▁are	-454
したか	-455
▁cosa	-456
▁della	-457
▁الى	-458
onn	-459
▁لل	-460
ure	-461
ult	-462
ati	-463
▁util	-464
▁Che	-465
▁nel	-466
port	-467
art	-468
ite	-469
され	-470
▁كم	-471
وا	-472
▁مت	-473
iss	-474
oi	-475
سي	-476
▁on	-477
ec	-478
دد	-479
ombien	-480
ina	-481
▁ش	-482
tro	-483
▁plus	-484
ign	-485
▁quelle	-486
ito	-487
▁wh	-488
cia	-489
ive	-490
▁(	-491
ies	-492
▁الج	-493
▁fr	-494
▁ser	-495
نا	-496
▁cons	-497
ong	-498
▁sono	-499
emp	-500
▁dur	-501
ial	-502
يل	-503
▁sont	-504
▁welchem	-505
▁so	-506
▁rel	-507
وع	-508
lo	-509
▁stato	-510
ost	-511
ly	-512
ern	-513
ident	-514
ils	-515
▁tra	-516
وم	-517
▁Be	-518
za	-519
ada	-520
▁auf	-521
▁عدد	-522
▁más	-523
▁ad	-524
▁An	-525
▁dis	-526
ais	-527
vent	-528
kt	-529
▁pers	-530
▁ab	-531
ast	-532
sch	-533
دم	-534
عل	-535
▁no	-536
ivers	-537
▁tro	-538
▁ty	-539
ction	-540
ith	-541
▁th	-542
▁viele	-543
てい	-544
urs	-545
ide	-546
▁quel	-547
aj	-548
▁cl	-549
ió	-550
age	-551
ear	-552
▁مع	-553
▁الك	-554
ische	-555
ft	-556
▁أ	-557
man	-558
▁sur	-559
▁ماذا	-560
iert	-561
amp	-562
▁many	-563
▁res	-564
▁Combien	-565
ipo	-566
ain	-567
co	-568
uch	-569
▁18	-570
▁When	-571
iè	-572
رة	-573
land	-574
ak	-575
ados	-576
cent	-577
enn	-578
▁co	-579
gr	-580
▁متى	-581
رب	-582
tre	-583
icht	-584
▁Al	-585
▁als	-586
cu	-587
دا	-588
▁dem	-589
aus	-590
min	-591
ido	-592
▁pe	-593
▁Sch	-594
▁Le	-595
▁pop	-596
▁gen	-597
ru	-598
one	-599
ales	-600
▁pol	-601
igh	-602
وب	-603
▁me	-604
the	-605
▁La	-606
ill	-607
▁haben	-608
▁الش	-609
ión	-610
▁Cuándo	-611
vo	-612
▁The	-613
ese	-614
▁mit	-615
▁añ	-616
cl	-617
for	-618
▁um	-619
▁الن	-620
▁sind	-621
▁ré	-622
▁الف	-623
▁reg	-624
▁fa	-625
ck	-626
▁Y	-627
ación	-628
▁عن	-629
▁خ	-630
tos	-631
▁sich	-632
تح	-633
ité	-634
fer	-635
▁col	-636
▁cre	-637
▁grand	-638
che	-639
▁ne	-640
مل	-641
00	-642
▁Wann	-643
ition	-644
▁tipo	-645
قة	-646
▁Gr	-647
▁ر	-648
▁eine	-649
att	-650
ques	-651
▁Quando	-652
ins	-653
▁ind	-654
con	-655
out	-656
▁sp	-657
ille	-658
ork	-659
▁gro	-660
▁inter	-661
cip	-662
ex	-663
hn	-664
▁pub	-665
uss	-666
lic	-667
▁prem	-668
▁New	-669
▁with	-670
▁De	-671
▁بال	-672
▁une	-673
يف	-674
ces	-675
لا	-676
はど	-677
gen	-678
▁that	-679
ated	-680
▁الر	-681
anti	-682
▁aut	-683
olog	-684
ées	-685
▁does	-686
▁nom	-687
▁pres	-688
ice	-689
اي	-690
▁am	-691
▁were	-692
ons	-693
▁Com	-694
cr	-695
▁pi	-696
رك	-697
idad	-698
ux	-699
▁pa	-700
▁app	-701
▁fin	-702
▁type	-703
ven	-704
ando	-705
كن	-706
▁produ	-707
▁الد	-708
iones	-709
gan	-710
▁car	-711
された	-712
no	-713
تم	-714
ict	-715
än	-716
ائ	-717
يس	-718
esch	-719
▁Re	-720
ations	-721
ze	-722
rie	-723
▁by	-724
▁Which	-725
ento	-726
▁più	-727
ste	-728
ific	-729
▁د	-730
cé	-731
ise	-732
▁nomb	-733
▁ro	-734
اء	-735
بر	-736
▁prin	-737
ect	-738
مة	-739
ted	-740
tat	-741
▁كانت	-742
▁year	-743
▁cr	-744
ura	-745
of	-746
urop	-747
tra	-748
pt	-749
▁mod	-750
▁can	-751
▁da	-752
ican	-753
▁mon	-754
ird	-755
ios	-756
▁aus	-757
ile	-758
▁وال	-759
ましたか	-760
▁Sp	-761
▁pos	-762
ous	-763
▁cap	-764
fl	-765
elles	-766
gl	-767
▁dell	-768
لي	-769
ónde	-770
اد	-771
▁ant	-772
▁Ver	-773
zione	-774
iene	-775
▁mar	-776
itt	-777
ov	-778
itu	-779
▁Mar	-780
ali	-781
go	-782
▁cent	-783
اف	-784
era	-785
ستخ	-786
ence	-787
iste	-788
▁Pr	-789
▁from	-790
we	-791
ors	-792
lam	-793
▁form	-794
بل	-795
▁guer	-796
▁quoi	-797
chen	-798
azione	-799
▁av	-800
▁Par	-801
▁año	-802
▁nombre	-803
ett	-804
▁mus	-805
▁anno	-806
▁pu	-807
▁utiliz	-808
▁temp	-809
án	-810
▁cu	-811
uto	-812
▁all	-813
act	-814
ole	-815
fr	-816
une	-817
سب	-818
▁اين	-819
وس	-820
▁lo	-821
0?	-822
▁ac	-823
▁ers	-824
▁princip	-825
ase	-826
▁he	-827
▁como	-828
▁sup	-829
be	-830
▁Wo	-831
▁wer	-832
oria	-833
▁الص	-834
mente	-835
ah	-836
عة	-837
▁lib	-838
vec	-839
وق	-840
acht	-841
vel	-842
▁Art	-843
pos	-844
ph	-845
は誰	-846
ble	-847
Un	-848
▁pas	-849
État	-850
▁it	-851
ish	-852
ero	-853
▁Pro	-854
▁fir	-855
▁sol	-856
▁te	-857
ino	-858
どの	-859
bl	-860
ele	-861
عد	-862
▁يم	-863
crit	-864
ions	-865
▁cal	-866
から	-867
▁Que	-868
▁consid	-869
▁Welcher	-870
▁الط	-871
▁caus	-872
oy	-873
ger	-874
▁année	-875
▁Where	-876
▁parte	-877
ance	-878
ière	-879
her	-880
▁sch	-881
▁cor	-882
كل	-883
ater	-884
anno	-885
ioni	-886
vol	-887
ca	-888
"?	-889
ador	-890
ts	-891
ita	-892
▁El	-893
▁wird	-894
ior	-895
▁نوع	-896
hen	-897
ود	-898
able	-899
ريك	-900
ry	-901
▁fil	-902
▁werden	-903
▁go	-904
▁2	-905
▁chi	-906
ied	-907
▁acc	-908
éd	-909
▁الام	-910
▁الان	-911
▁popul	-912
صل	-913
▁'	-914
▁const	-915
ke	-916
▁يع	-917
▁Dónde	-918
iques	-919
▁ci	-920
oma	-921
▁sy	-922
▁sign	-923
▁199	-924
▁Où	-925
ità	-926
▁have	-927
fic	-928
aut	-929
▁fo	-930
وي	-931
par	-932
ede	-933
amb	-934
من	-935
▁person	-936
ism	-937
جم	-938
merican	-939
▁المتح	-940
▁لا	-941
▁3	-942
ays	-943
نة	-944
ants	-945
جل	-946
▁fuer	-947
هم	-948
▁ü	-949
▁man	-950
▁Fran	-951
いつ	-952
Quel	-953
ok	-954
▁US	-955
▁utilis	-956
▁غ	-957
zen	-958
elt	-959
▁non	-960
▁comm	-961
pl	-962
▁stata	-963
▁group	-964
▁اسم	-965
ön	-966
ómo	-967
▁الي	-968
▁المتحدة	-969
خر	-970
ori	-971
af	-972
▁act	-973
تب	-974
عب	-975
▁rec	-976
▁Die	-977
vern	-978
حت	-979
vis	-980
يد	-981
▁يمكن	-982
ida	-983
▁welcher	-984
▁Welches	-985
▁الث	-986
▁hanno	-987
pu	-988
ational	-989
▁اله	-990
▁first	-991
こと	-992
ますか	-993
ثر	-994
ustr	-995
▁entre	-996
▁Is	-997
▁ob	-998
ical	-999
ove	-1000
What	-1001
encia	-1002
▁Con	-1003
▁grande	-1004
wend	-1005
cial	-1006
▁wurden	-1007
رن	-1008
اني	-1009
ution	-1010
▁name	-1011
▁sec	-1012
amente	-1013
▁Cuántos	-1014
ade	-1015
▁ag	-1016
vers	-1017
▁organ	-1018
uf	-1019
ath	-1020
Qui	-1021
tas	-1022
ungen	-1023
▁اك	-1024
ents	-1025
ès	-1026
する	-1027
قد	-1028
yon	-1029
したのは	-1030
▁med	-1031
aux	-1032
ستخدم	-1033
▁relig	-1034
▁trans	-1035
hl	-1036
ono	-1037
igin	-1038
▁cont	-1039
ün	-1040
iet	-1041
دين	-1042
الم	-1043
▁vers	-1044
▁Ge	-1045
▁pla	-1046
▁min	-1047
zt	-1048
انية	-1049
▁über	-1050
por	-1051
ary	-1052
لة	-1053
ét	-1054
ista	-1055
وف	-1056
▁univers	-1057
سا	-1058
وج	-1059
po	-1060
ís	-1061
ower	-1062
ولاي	-1063
▁Quelles	-1064
▁Cómo	-1065
▁dei	-1066
▁قبل	-1067
▁Quels	-1068
▁Br	-1069
▁ass	-1070
▁الخ	-1071
▁come	-1072
idos	-1073
لال	-1074
ولايات	-1075
form	-1076
▁durante	-1077
udad	-1078
br	-1079
erg	-1080
▁mil	-1081
)?	-1082
ラン	-1083
ativ	-1084
▁ص	-1085
▁cer	-1086
cer	-1087
ohn	-1088
tet	-1089
izo	-1090
iale	-1091
▁الل	-1092
eral	-1093
▁État	-1094
opin	-1095
ime	-1096
▁dass	-1097
olo	-1098
▁nome	-1099
بي	-1100
▁Se	-1101
▁ciudad	-1102
ick	-1103
enz	-1104
ally	-1105
amm	-1106
▁ap	-1107
ana	-1108
شر	-1109
يم	-1110
ari	-1111
ige	-1112
كون	-1113
▁hizo	-1114
ho	-1115
▁gem	-1116
tag	-1117
▁Reg	-1118
ている	-1119
▁stud	-1120
▁Name	-1121
istr	-1122
pres	-1123
▁Quali	-1124
▁À	-1125
ines	-1126
ند	-1127
19	-1128
▁Quanti	-1129
وت	-1130
▁lang	-1131
int	-1132
agn	-1133
▁comme	-1134
iento	-1135
▁which	-1136
▁ط	-1137
ild	-1138
▁يتم	-1139
كم	-1140
▁pass	-1141
ario	-1142
▁Est	-1143
▁nach	-1144
hal	-1145
▁aux	-1146
igen	-1147
▁comb	-1148
bre	-1149
▁loc	-1150
orm	-1151
▁vol	-1152
▁تق	-1153
▁spe	-1154
▁guerra	-1155
▁wie	-1156
▁Dans	-1157
▁198	-1158
▁grup	-1159
uv	-1160
ئيس	-1161
はどこ	-1162
▁inv	-1163
wo	-1164
ight	-1165
oss	-1166
▁194	-1167
▁has	-1168
اص	-1169
لك	-1170
omin	-1171
▁term	-1172
▁الذين	-1173
1?	-1174
دينة	-1175
▁import	-1176
ld	-1177
▁Beyon	-1178
して	-1179
ren	-1180
ual	-1181
れた	-1182
▁Te	-1183
uán	-1184
اري	-1185
▁estab	-1186
In	-1187
は何ですか	-1188
▁emp	-1189
▁gli	-1190
何年	-1191
ちら	-1192
5?	-1193
▁may	-1194
リー	-1195
hil	-1196
▁diff	-1197
▁serv	-1198
iti	-1199
▁sc	-1200
led	-1201
ires	-1202
▁تع	-1203
▁197	-1204
liche	-1205
▁fam	-1206
isten	-1207
jo	-1208
▁Or	-1209
▁em	-1210
でしたか	-1211
▁sein	-1212
▁War	-1213
▁York	-1214
ional	-1215
ced	-1216
▁tiene	-1217
ument	-1218
▁verwend	-1219
▁avec	-1220
▁الأ	-1221
▁used	-1222
اح	-1223
fin	-1224
erst	-1225
anz	-1226
ek	-1227
ieren	-1228
▁trad	-1229
▁inc	-1230
▁nicht	-1231
esse	-1232
anto	-1233
سة	-1234
▁polit	-1235
▁الولايات	-1236
▁art	-1237
ait	-1238
▁bas	-1239
▁contro	-1240
▁Univers	-1241
▁u	-1242
▁Dove	-1243
▁beg	-1244
▁Ne	-1245
▁contr	-1246
▁Europ	-1247
▁delle	-1248
▁États	-1249
orth	-1250
▁leg	-1251
antes	-1252
aron	-1253
adt	-1254
ولة	-1255
ictoria	-1256
▁cos	-1257
ht	-1258
▁لدي	-1259
▁af	-1260
▁seg	-1261
atur	-1262
ates	-1263
▁not	-1264
lichen	-1265
stem	-1266
aft	-1267
▁Er	-1268
▁cult	-1269
كان	-1270
▁cas	-1271
▁Gre	-1272
4?	-1273
uc	-1274
▁pays	-1275
rem	-1276
▁Ind	-1277
ommen	-1278
iff	-1279
pro	-1280
رت	-1281
▁gew	-1282
▁class	-1283
▁Tr	-1284
▁origin	-1285
によ	-1286
▁ed	-1287
cess	-1288
▁fe	-1289
ät	-1290
▁constru	-1291
▁fran	-1292
▁país	-1293
omm	-1294
▁consider	-1295
▁po	-1296
ust	-1297
▁mem	-1298
▁brit	-1299
▁primer	-1300
▁الو	-1301
▁occ	-1302
▁met	-1303
▁ins	-1304
own	-1305
yn	-1306
3?	-1307
▁لم	-1308
arg	-1309
tern	-1310
uld	-1311
وري	-1312
▁كيف	-1313
ارة	-1314
erm	-1315
ici	-1316
agg	-1317
▁17	-1318
طل	-1319
él	-1320
يرة	-1321
▁deux	-1322
يت	-1323
دث	-1324
uth	-1325
its	-1326
être	-1327
annt	-1328
▁sie	-1329
▁sh	-1330
▁ten	-1331
idente	-1332
ose	-1333
▁inst	-1334
ute	-1335
رض	-1336
ったのは	-1337
ismo	-1338
8?	-1339
ähr	-1340
▁coun	-1341
ti	-1342
ある	-1343
ona	-1344
طة	-1345
été	-1346
▁Les	-1347
Unis	-1348
▁Lond	-1349
▁most	-1350
▁prima	-1351
son	-1352
▁film	-1353
▁ou	-1354
▁Car	-1355
▁dal	-1356
erv	-1357
▁اع	-1358
ola	-1359
▁اول	-1360
▁As	-1361
ople	-1362
▁siste	-1363
2?	-1364
▁قام	-1365
▁dire	-1366
▁ess	-1367
flu	-1368
▁está	-1369
رق	-1370
ريق	-1371
ua	-1372
ركة	-1373
▁llam	-1374
▁verwendet	-1375
▁population	-1376
▁علي	-1377
centage	-1378
يو	-1379
cul	-1380
▁tie	-1381
egr	-1382
رف	-1383
▁ام	-1384
▁X	-1385
▁welche	-1386
aten	-1387
ama	-1388
9?	-1389
ible	-1390
enti	-1391
iens	-1392
▁Comment	-1393
ther	-1394
orte	-1395
▁fueron	-1396
ima	-1397
▁سنة	-1398
red	-1399
▁id	-1400
هر	-1401
ديد	-1402
▁Land	-1403
▁تح	-1404
outh	-1405
ert	-1406
▁fait	-1407
▁sa	-1408
este	-1409
▁trou	-1410
▁Chopin	-1411
aison	-1412
▁Cosa	-1413
▁port	-1414
▁much	-1415
▁خلال	-1416
ha	-1417
▁vis	-1418
▁nella	-1419
▁premier	-1420
▁American	-1421
اع	-1422
▁alla	-1423
ني	-1424
▁tiemp	-1425
obre	-1426
▁Quante	-1427
ium	-1428
▁resp	-1429
ena	-1430
▁sul	-1431
▁long	-1432
▁mayor	-1433
▁Mus	-1434
اج	-1435
icos	-1436
▁Sta	-1437
▁state	-1438
cht	-1439
▁بعد	-1440
7?	-1441
oci	-1442
ていた	-1443
▁John	-1444
oman	-1445
▁Cuántas	-1446
صر	-1447
ivo	-1448
▁waren	-1449
▁Ab	-1450
در	-1451
sen	-1452
▁hist	-1453
oll	-1454
الي	-1455
aven	-1456
リカ	-1457
▁Por	-1458
velop	-1459
▁wo	-1460
▁prés	-1461
▁5	-1462
سية	-1463
قت	-1464
قا	-1465
年に	-1466
▁Nap	-1467
▁gemacht	-1468
öff	-1469
ühr	-1470
سل	-1471
crib	-1472
▁hum	-1473
▁بين	-1474
▁citt	-1475
▁deg	-1476
anye	-1477
▁camp	-1478
II	-1479
▁gesch	-1480
isation	-1481
tt	-1482
▁bef	-1483
ake	-1484
▁einen	-1485
▁bo	-1486
▁mot	-1487
▁العالم	-1488
dol	-1489
ادة	-1490
iche	-1491
▁196	-1492
▁influ	-1493
صب	-1494
▁ges	-1495
bor	-1496
ange	-1497
▁vor	-1498
▁المن	-1499
ank	-1500
ère	-1501
fe	-1502
▁المع	-1503
rol	-1504
pend	-1505
▁South	-1506
ones	-1507
الية	-1508
kla	-1509
▁intern	-1510
ace	-1511
どちら	-1512
atto	-1513
imes	-1514
▁Mens	-1515
▁Fl	-1516
asser	-1517
▁است	-1518
▁Pour	-1519
▁progr	-1520
érica	-1521
6?	-1522
في	-1523
inn	-1524
ores	-1525
jet	-1526
▁bet	-1527
ack	-1528
isen	-1529
alt	-1530
izz	-1531
ory	-1532
جموع	-1533
▁men	-1534
▁West	-1535
▁estado	-1536
lt	-1537
なの	-1538
▁sub	-1539
ars	-1540
▁تش	-1541
iger	-1542
bum	-1543
▁dec	-1544
leg	-1545
onnen	-1546
▁للم	-1547
▁commen	-1548
▁people	-1549
▁gan	-1550
▁aff	-1551
▁neg	-1552
aff	-1553
▁eff	-1554
orld	-1555
ifica	-1556
ör	-1557
ール	-1558
▁zw	-1559
pués	-1560
quoi	-1561
▁erste	-1562
قل	-1563
uál	-1564
rieg	-1565
خت	-1566
▁capit	-1567
غة	-1568
هل	-1569
▁عند	-1570
▁fond	-1571
atal	-1572
▁sistema	-1573
ool	-1574
hy	-1575
adas	-1576
piel	-1577
▁ville	-1578
chn	-1579
▁cour	-1580
▁einer	-1581
ún	-1582
ule	-1583
unto	-1584
ros	-1585
▁sus	-1586
izi	-1587
▁193	-1588
▁Menschen	-1589
ature	-1590
▁Haven	-1591
▁città	-1592
unden	-1593
pect	-1594
▁Zeit	-1595
conom	-1596
▁countr	-1597
▁Victoria	-1598
ball	-1599
ix	-1600
▁prof	-1601
ierung	-1602
▁être	-1603
ative	-1604
esso	-1605
▁4	-1606
oro	-1607
was	-1608
▁sta	-1609
près	-1610
▁other	-1611
اض	-1612
▁cond	-1613
ít	-1614
▁new	-1615
pub	-1616
▁imp	-1617
▁dist	-1618
war	-1619
esta	-1620
▁rég	-1621
▁City	-1622
éta	-1623
▁Idol	-1624
ury	-1625
▁بش	-1626
enza	-1627
▁rap	-1628
▁str	-1629
▁degli	-1630
vi	-1631
cio	-1632
▁poss	-1633
▁195	-1634
▁tiempo	-1635
▁المح	-1636
aciones	-1637
col	-1638
ues	-1639
▁hab	-1640
▁oder	-1641
از	-1642
▁alle	-1643
▁primo	-1644
▁their	-1645
فعل	-1646
▁encu	-1647
▁stati	-1648
aje	-1649
لم	-1650
▁/	-1651
▁prov	-1652
Quelle	-1653
ker	-1654
▁bel	-1655
tal	-1656
▁جز	-1657
▁his	-1658
ival	-1659
▁déc	-1660
▁الغ	-1661
pen	-1662
iment	-1663
ibu	-1664
▁Dur	-1665
duc	-1666
atz	-1667
وات	-1668
endant	-1669
▁public	-1670
عض	-1671
ler	-1672
ri	-1673
ieron	-1674
▁mo	-1675
▁مح	-1676
▁quién	-1677
كت	-1678
ック	-1679
vert	-1680
ock	-1681
▁Stadt	-1682
▁nue	-1683
▁event	-1684
صف	-1685
omp	-1686
old	-1687
aire	-1688
onna	-1689
▁num	-1690
▁mat	-1691
öß	-1692
▁Mit	-1693
wn	-1694
▁Hous	-1695
ings	-1696
▁kön	-1697
لف	-1698
▁how	-1699
アメ	-1700
▁einem	-1701
Welch	-1702
▁كل	-1703
ماذا	-1704
▁enc	-1705
reich	-1706
öffent	-1707
アメリカ	-1708
ics	-1709
▁durch	-1710
▁هل	-1711
lass	-1712
▁bek	-1713
▁sobre	-1714
ili	-1715
▁sal	-1716
▁cuán	-1717
unt	-1718
▁contin	-1719
日本	-1720
heit	-1721
▁Brit	-1722
دام	-1723
vait	-1724
▁انت	-1725
▁we	-1726
▁city	-1727
▁ben	-1728
▁encuent	-1729
▁incl	-1730
äs	-1731
يز	-1732
iere	-1733
▁lie	-1734
sh	-1735
▁première	-1736
スト	-1737
▁dos	-1738
▁bec	-1739
▁مدينة	-1740
▁presidente	-1741
▁kann	-1742
▁Sh	-1743
cept	-1744
▁perm	-1745
är	-1746
▁اس	-1747
のこと	-1748
وية	-1749
▁Am	-1750
beit	-1751
▁principal	-1752
قي	-1753
は誰ですか	-1754
ein	-1755
▁typ	-1756
aria	-1757
されたのは	-1758
▁europ	-1759
opo	-1760
orn	-1761
odo	-1762
▁Mon	-1763
bra	-1764
طور	-1765
▁respons	-1766
ئي	-1767
▁Per	-1768
يع	-1769
etto	-1770
▁commencé	-1771
▁Bar	-1772
طقة	-1773
▁Napole	-1774
どこ	-1775
イン	-1776
ème	-1777
▁gef	-1778
▁modern	-1779
▁puede	-1780
▁『	-1781
rop	-1782
▁gén	-1783
▁liv	-1784
▁milit	-1785
voir	-1786
▁viv	-1787
ague	-1788
▁control	-1789
最も	-1790
igr	-1791
▁bu	-1792
▁alg	-1793
▁esp	-1794
▁peut	-1795
▁govern	-1796
▁pod	-1797
öl	-1798
▁called	-1799
▁Ger	-1800
رية	-1801
entes	-1802
halten	-1803
▁two	-1804
▁المو	-1805
▁one	-1806
ampton	-1807
klah	-1808
▁oper	-1809
undo	-1810
▁bes	-1811
als	-1812
▁eu	-1813
amento	-1814
▁conf	-1815
ures	-1816
▁pré	-1817
▁könn	-1818
どの国	-1819
▁mov	-1820
▁San	-1821
▁Los	-1822
▁sci	-1823
ég	-1824
▁después	-1825
▁sim	-1826
اس	-1827
راء	-1828
▁gre	-1829
▁gest	-1830
▁fatto	-1831
▁perio	-1832
▁Th	-1833
attle	-1834
▁when	-1835
ret	-1836
adio	-1837
des	-1838
▁Beyonce	-1839
erc	-1840
änder	-1841
ährend	-1842
▁Ein	-1843
افة	-1844
▁عندما	-1845
isme	-1846
els	-1847
ras	-1848
erein	-1849
▁primera	-1850
▁ض	-1851
▁Kanye	-1852
da	-1853
▁Il	-1854
teur	-1855
hower	-1856
isenhower	-1857
سبة	-1858
▁Jap	-1859
let	-1860
▁tem	-1861
ense	-1862
▁personn	-1863
▁دي	-1864
▁sig	-1865
klahoma	-1866
lav	-1867
▁use	-1868
▁Russ	-1869
▁imper	-1870
iano	-1871
▁groß	-1872
hed	-1873
▁bei	-1874
▁during	-1875
▁Co	-1876
▁conc	-1877
▁ej	-1878
▁Char	-1879
خص	-1880
igt	-1881
▁ce	-1882
▁hel	-1883
▁after	-1884
▁étaient	-1885
andard	-1886
▁partic	-1887
otre	-1888
▁بها	-1889
▁á	-1890
under	-1891
▁ز	-1892
▁For	-1893
▁comun	-1894
ner	-1895
▁fl	-1896
▁لماذا	-1897
として	-1898
ession	-1899
▁meisten	-1900
▁pal	-1901
▁vin	-1902
gt	-1903
ناء	-1904
▁kn	-1905
iter	-1906
icas	-1907
▁essere	-1908
ula	-1909
ontr	-1910
sten	-1911
▁Can	-1912
حة	-1913
ième	-1914
▁Cuáles	-1915
imo	-1916
ini	-1917
▁ول	-1918
▁او	-1919
▁يق	-1920
abet	-1921
▁han	-1922
だった	-1923
▁Col	-1924
▁Unidos	-1925
lan	-1926
يش	-1927
نية	-1928
▁Estados	-1929
با	-1930
ias	-1931
mes	-1932
▁exp	-1933
ats	-1934
ken	-1935
keit	-1936
▁equ	-1937
ienen	-1938
▁ris	-1939
acter	-1940
▁gu	-1941
▁يح	-1942
mouth	-1943
▁Pa	-1944
▁Prem	-1945
schaft	-1946
imiento	-1947
رج	-1948
ajo	-1949
▁اكثر	-1950
يك	-1951
▁ث	-1952
▁gou	-1953
fol	-1954
ward	-1955
فعله	-1956
▁pob	-1957
▁Cuánto	-1958
BC	-1959
ctor	-1960
▁anim	-1961
▁Nord	-1962
▁المت	-1963
▁ang	-1964
うち	-1965
▁libro	-1966
▁fun	-1967
▁combien	-1968
▁Mad	-1969
▁Spiel	-1970
gg	-1971
uo	-1972
▁après	-1973
▁utilizz	-1974
ral	-1975
جموعة	-1976
mand	-1977
▁utilisé	-1978
▁Pourquoi	-1979
▁super	-1980
▁بد	-1981
▁autre	-1982
ited	-1983
▁trova	-1984
ドイ	-1985
bour	-1986
did	-1987
のうち	-1988
▁end	-1989
▁Why	-1990
▁compr	-1991
مر	-1992
▁están	-1993
na	-1994
tru	-1995
▁اخر	-1996
ara	-1997
test	-1998
tain	-1999
▁الحرب	-2000
ric	-2001
▁temps	-2002
udi	-2003
hing	-2004
▁با	-2005
ello	-2006
لد	-2007
qui	-2008
▁pat	-2009
▁tit	-2010
▁يعت	-2011
ienne	-2012
▁its	-2013
▁arch	-2014
▁At	-2015
▁pap	-2016
▁Quanto	-2017
فض	-2018
ドイツ	-2019
▁get	-2020
▁8	-2021
▁Teil	-2022
▁الاش	-2023
▁guerre	-2024
▁partie	-2025
▁camb	-2026
ريكية	-2027
imin	-2028
Qué	-2029
alu	-2030
roit	-2031
برا	-2032
▁lead	-2033
▁North	-2034
▁اث	-2035
▁let	-2036
▁años	-2037
▁「	-2038
▁br	-2039
erry	-2040
▁her	-2041
▁off	-2042
あり	-2043
iva	-2044
ette	-2045
▁Chr	-2046
bo	-2047
▁ir	-2048
ouv	-2049
▁rés	-2050
ission	-2051
の中	-2052
egen	-2053
▁popol	-2054
لب	-2055
▁lu	-2056
▁Amer	-2057
present	-2058
مو	-2059
nes	-2060
▁während	-2061
▁Welt	-2062
ück	-2063
▁found	-2064
eng	-2065
ición	-2066
?"	-2067
ció	-2068
▁cré	-2069
▁defin	-2070
ellen	-2071
yp	-2072
lación	-2073
St	-2074
▁رئيس	-2075
éc	-2076
ree	-2077
▁سي	-2078
▁tér	-2079
年の	-2080
cle	-2081
ظام	-2082
lev	-2083
lio	-2084
▁commun	-2085
ai	-2086
▁Port	-2087
▁Verein	-2088
ート	-2089
▁second	-2090
اه	-2091
▁arm	-2092
にな	-2093
uel	-2094
▁up	-2095
bert	-2096
▁soci	-2097
▁الاول	-2098
▁cuando	-2099
reg	-2100
rieben	-2101
▁Grup	-2102
ellt	-2103
▁langu	-2104
زة	-2105
▁due	-2106
ames	-2107
▁Grand	-2108
ason	-2109
iden	-2110
ister	-2111
öffentlich	-2112
ora	-2113
eren	-2114
▁arr	-2115
ez	-2116
▁ih	-2117
▁größ	-2118
▁Warum	-2119
ges	-2120
▁disc	-2121
tes	-2122
▁Gu	-2123
cha	-2124
by	-2125
▁términ	-2126
arr	-2127
ilt	-2128
▁النا	-2129
urch	-2130
iam	-2131
▁offic	-2132
▁7	-2133
esto	-2134
etz	-2135
gel	-2136
▁Fr	-2137
Cuál	-2138
▁trab	-2139
▁work	-2140
ugar	-2141
ator	-2142
▁vend	-2143
▁prop	-2144
ements	-2145
▁val	-2146
ität	-2147
▁ide	-2148
adores	-2149
の名	-2150
ünd	-2151
▁يت	-2152
indet	-2153
▁بي	-2154
ستخدام	-2155
▁16	-2156
▁Kön	-2157
▁who	-2158
mar	-2159
▁mond	-2160
ظم	-2161
▁date	-2162
▁syst	-2163
irt	-2164
▁لت	-2165
▁Rich	-2166
▁system	-2167
ammen	-2168
▁Proz	-2169
ionale	-2170
▁belie	-2171
ps	-2172
▁civ	-2173
añ	-2174
▁تن	-2175
▁Nasser	-2176
zo	-2177
ink	-2178
▁بعض	-2179
▁prom	-2180
▁Auf	-2181
▁Pol	-2182
itz	-2183
onia	-2184
temp	-2185
انون	-2186
وك	-2187
arm	-2188
▁Aus	-2189
▁الجن	-2190
ém	-2191
▁فيها	-2192
よう	-2193
sel	-2194
▁Queen	-2195
part	-2196
▁had	-2197
▁2010	-2198
völ	-2199
▁ref	-2200
▁main	-2201
▁بشكل	-2202
▁plan	-2203
▁لك	-2204
▁Da	-2205
ween	-2206
ibt	-2207
ows	-2208
bers	-2209
▁tras	-2210
では	-2211
سبب	-2212
▁time	-2213
upt	-2214
ikan	-2215
▁ren	-2216
▁ling	-2217
bar	-2218
iana	-2219
oston	-2220
▁encuentra	-2221
afi	-2222
itect	-2223
▁energ	-2224
▁15	-2225
▁6	-2226
▁ذ	-2227
リア	-2228
▁غير	-2229
▁groupe	-2230
▁cat	-2231
Quién	-2232
▁الشم	-2233
يب	-2234
▁magg	-2235
▁country	-2236
000	-2237
▁Fil	-2238
imento	-2239
▁industr	-2240
▁located	-2241
▁chiam	-2242
ない	-2243
wei	-2244
▁Fe	-2245
はいつ	-2246
اريخ	-2247
▁Spra	-2248
しましたか	-2249
▁pens	-2250
▁بر	-2251
▁ident	-2252
▁forma	-2253
▁rom	-2254
rab	-2255
itution	-2256
▁población	-2257
▁area	-2258
▁يكون	-2259
ume	-2260
osop	-2261
head	-2262
▁jue	-2263
▁about	-2264
اق	-2265
って	-2266
▁اليه	-2267
▁الرئيس	-2268
より	-2269
▁Stati	-2270
ctions	-2271
ktion	-2272
▁domin	-2273
pla	-2274
way	-2275
▁vo	-2276
▁qual	-2277
▁verb	-2278
uale	-2279
ologie	-2280
▁unter	-2281
リン	-2282
▁Des	-2283
üt	-2284
ides	-2285
▁uno	-2286
iers	-2287
▁الز	-2288
▁به	-2289
udd	-2290
ター	-2291
fen	-2292
▁ange	-2293
とな	-2294
▁mad	-2295
Combien	-2296
chi	-2297
▁Lib	-2298
ثل	-2299
▁ur	-2300
volution	-2301
ams	-2302
▁vie	-2303
ús	-2304
▁unt	-2305
▁gouvern	-2306
وروب	-2307
▁cop	-2308
atore	-2309
▁League	-2310
ular	-2311
édér	-2312
▁char	-2313
völker	-2314
egger	-2315
las	-2316
ucht	-2317
▁mort	-2318
▁compos	-2319
▁Oklahoma	-2320
▁Southampton	-2321
عم	-2322
▁ني	-2323
▁lieu	-2324
▁remp	-2325
▁termin	-2326
laub	-2327
▁stat	-2328
äsident	-2329
völkerung	-2330
anj	-2331
▁riv	-2332
▁tre	-2333
ities	-2334
▁personas	-2335
عي	-2336
warzen	-2337
▁lugar	-2338
ーム	-2339
▁Houston	-2340
تاب	-2341
▁grupo	-2342
▁عليها	-2343
▁estaba	-2344
▁Ges	-2345
▁been	-2346
▁trouve	-2347
▁gio	-2348
▁pel	-2349
▁conn	-2350
وز	-2351
▁ai	-2352
فل	-2353
ché	-2354
▁je	-2355
▁succ	-2356
▁Phil	-2357
▁mehr	-2358
sp	-2359
بت	-2360
bol	-2361
berg	-2362
▁président	-2363
▁10	-2364
▁esc	-2365
▁tempo	-2366
فس	-2367
▁Bur	-2368
▁Mel	-2369
▁paese	-2370
▁Nam	-2371
lement	-2372
ude	-2373
ajor	-2374
▁lar	-2375
▁trat	-2376
▁zwei	-2377
▁intro	-2378
▁Guer	-2379
▁dopo	-2380
▁مص	-2381
▁الال	-2382
▁الوق	-2383
usammen	-2384
ディ	-2385
戦争	-2386
▁pér	-2387
▁zur	-2388
▁conoc	-2389
ystem	-2390
▁Avec	-2391
▁pendant	-2392
リス	-2393
وان	-2394
anci	-2395
▁Cent	-2396
▁lors	-2397
▁music	-2398
▁واح	-2399
ciones	-2400
▁gener	-2401
▁عمل	-2402
ages	-2403
wick	-2404
لس	-2405
▁إ	-2406
يان	-2407
hunder	-2408
▁organiz	-2409
isto	-2410
▁Gen	-2411
▁real	-2412
▁App	-2413
▁tu	-2414
▁fon	-2415
▁best	-2416
▁Cl	-2417
▁lí	-2418
otto	-2419
▁University	-2420
براطور	-2421
hington	-2422
icial	-2423
▁Jahrhunder	-2424
An	-2425
ka	-2426
▁dir	-2427
lis	-2428
what	-2429
▁يج	-2430
▁Kon	-2431
▁crit	-2432
fo	-2433
▁fu	-2434
▁ear	-2435
▁لديها	-2436
▁final	-2437
urr	-2438
▁econom	-2439
▁Eisenhower	-2440
cel	-2441
ize	-2442
▁191	-2443
▁att	-2444
▁espe	-2445
▁some	-2446
عية	-2447
Quale	-2448
▁base	-2449
▁Del	-2450
▁atta	-2451
▁quando	-2452
uen	-2453
clar	-2454
▁dest	-2455
▁high	-2456
En	-2457
▁som	-2458
▁الاس	-2459
ites	-2460
▁siè	-2461
lymouth	-2462
▁Boston	-2463
▁trava	-2464
▁pourcentage	-2465
▁Cor	-2466
ject	-2467
▁Europe	-2468
inc	-2469
egriff	-2470
▁fre	-2471
▁Austr	-2472
ennesse	-2473
imm	-2474
▁ihr	-2475
▁out	-2476
▁personnes	-2477
ely	-2478
▁deven	-2479
▁الملك	-2480
ennessee	-2481
oug	-2482
▁idi	-2483
▁bomb	-2484
azioni	-2485
كة	-2486
▁américa	-2487
ensch	-2488
▁norm	-2489
itehead	-2490
warzenegger	-2491
▁تا	-2492
cast	-2493
▁zwischen	-2494
▁mé	-2495
▁Washington	-2496
▁play	-2497
▁process	-2498
▁Ad	-2499
cción	-2500
▁band	-2501
▁divis	-2502
▁persone	-2503
▁9	-2504
طول	-2505
ités	-2506
▁int	-2507
▁known	-2508
▁between	-2509
ترة	-2510
ريط	-2511
▁12	-2512
erk	-2513
▁ét	-2514
cies	-2515
lege	-2516
▁Beyoncé	-2517
▁Su	-2518
▁تحت	-2519
▁proble	-2520
▁gran	-2521
▁Madonna	-2522
▁الاست	-2523
ضا	-2524
▁comenz	-2525
ティ	-2526
▁الاخر	-2527
rea	-2528
▁cro	-2529
▁colon	-2530
▁inizi	-2531
▁Plymouth	-2532
cher	-2533
▁fem	-2534
している	-2535
obier	-2536
▁trib	-2537
▁importante	-2538
▁Je	-2539
かった	-2540
mpire	-2541
▁Begriff	-2542
▁Sec	-2543
▁2007	-2544
▁into	-2545
▁bekannt	-2546
mond	-2547
▁appel	-2548
▁popular	-2549
▁Vereinig	-2550
uvalu	-2551
世界	-2552
lex	-2553
etzt	-2554
▁Portug	-2555
ctr	-2556
acional	-2557
▁Europa	-2558
たのは	-2559
▁Pop	-2560
ika	-2561
urn	-2562
▁Ant	-2563
▁cui	-2564
▁major	-2565
▁الوقت	-2566
▁Me	-2567
ourn	-2568
▁بدا	-2569
▁Uniti	-2570
▁century	-2571
gle	-2572
use	-2573
▁Mex	-2574
▁Val	-2575
▁zum	-2576
▁2008	-2577
bourne	-2578
▁2010?	-2579
uan	-2580
وسط	-2581
ament	-2582
▁Staaten	-2583
▁Sup	-2584
▁territ	-2585
ott	-2586
▁deb	-2587
▁contra	-2588
▁jo	-2589
asse	-2590
▁cir	-2591
▁2009	-2592
▁vi	-2593
▁place	-2594
▁wicht	-2595
▁Premier	-2596
▁Ha	-2597
▁Har	-2598
▁chang	-2599
▁veröffentlich	-2600
pon	-2601
▁Geor	-2602
▁larg	-2603
osp	-2604
tend	-2605
▁universidad	-2606
ax	-2607
▁britann	-2608
كوم	-2609
▁Im	-2610
フラン	-2611
كر	-2612
▁Geb	-2613
▁repr	-2614
win	-2615
▁On	-2616
▁kind	-2617
▁gobier	-2618
▁record	-2619
يات	-2620
▁اب	-2621
▁Man	-2622
には	-2623
▁Som	-2624
▁terme	-2625
▁welchen	-2626
▁erano	-2627
▁اللغة	-2628
ogra	-2629
▁lim	-2630
izione	-2631
▁Notre	-2632
▁siglo	-2633
▁commer	-2634
▁suo	-2635
otball	-2636
ved	-2637
سيق	-2638
▁Dame	-2639
▁Roy	-2640
▁hay	-2641
geben	-2642
▁Stud	-2643
▁Bevölkerung	-2644
▁اصب	-2645
▁autor	-2646
▁Tennessee	-2647
كثر	-2648
▁lav	-2649
تج	-2650
neh	-2651
net	-2652
enne	-2653
▁more	-2654
▁test	-2655
▁national	-2656
orie	-2657
▁ses	-2658
cuel	-2659
iqu	-2660
▁soc	-2661
▁المص	-2662
▁London	-2663
▁término	-2664
られ	-2665
▁USA	-2666
▁né	-2667
▁الدولة	-2668
يين	-2669
▁Ex	-2670
▁Times	-2671
رس	-2672
cho	-2673
uda	-2674
ideo	-2675
▁post	-2676
▁Carol	-2677
▁système	-2678
▁befindet	-2679
▁veröffentlicht	-2680
▁sua	-2681
▁يستخدم	-2682
ュー	-2683
reet	-2684
▁Come	-2685
▁american	-2686
blic	-2687
▁anni	-2688
▁tod	-2689
200	-2690
الة	-2691
▁He	-2692
zioni	-2693
▁wenn	-2694
▁حصل	-2695
▁percent	-2696
illi	-2697
▁Mac	-2698
▁algun	-2699
▁années	-2700
érie	-2701
abeth	-2702
ibet	-2703
▁sel	-2704
▁mondiale	-2705
▁può	-2706
▁made	-2707
ランド	-2708
▁Med	-2709
▁weit	-2710
ya	-2711
▁sin	-2712
▁language	-2713
▁Afr	-2714
▁مرة	-2715
table	-2716
ركز	-2717
▁club	-2718
による	-2719
shall	-2720
ga	-2721
ロー	-2722
▁Bell	-2723
▁escuel	-2724
▁describ	-2725
hip	-2726
の中で	-2727
cion	-2728
▁Las	-2729
-1	-2730
iß	-2731
▁tradition	-2732
bbe	-2733
دار	-2734
▁Prin	-2735
▁mu	-2736
cy	-2737
▁ay	-2738
ists	-2739
ていますか	-2740
▁eines	-2741
utsch	-2742
▁acqu	-2743
atura	-2744
▁جزء	-2745
ateur	-2746
▁écrit	-2747
gra	-2748
▁Der	-2749
▁cant	-2750
Ar	-2751
▁op	-2752
▁leur	-2753
▁otro	-2754
Wer	-2755
eden	-2756
▁ele	-2757
▁fund	-2758
▁ihre	-2759
▁rele	-2760
▁Krieg	-2761
▁would	-2762
▁Vereinigten	-2763
ット	-2764
▁mal	-2765
estival	-2766
▁school	-2767
gest	-2768
▁mundo	-2769
esa	-2770
▁مو	-2771
eces	-2772
ony	-2773
ismus	-2774
▁andere	-2775
esi	-2776
▁قد	-2777
▁doc	-2778
ments	-2779
add	-2780
iem	-2781
▁pelí	-2782
まで	-2783
▁Bo	-2784
▁2014	-2785
ane	-2786
ündet	-2787
▁donn	-2788
▁يفعله	-2789
دى	-2790
▁Pal	-2791
▁fer	-2792
▁avait	-2793
▁natur	-2794
▁tienen	-2795
▁scrit	-2796
▁Seattle	-2797
str	-2798
▁ست	-2799
▁Isra	-2800
▁over	-2801
▁types	-2802
انيا	-2803
▁Dar	-2804
▁sou	-2805
▁besch	-2806
▁porcent	-2807
▁Melbourne	-2808
راج	-2809
ئة	-2810
eder	-2811
▁monde	-2812
ellement	-2813
▁original	-2814
Cuán	-2815
▁cin	-2816
cep	-2817
▁تص	-2818
▁Fre	-2819
ys	-2820
ذه	-2821
Pod	-2822
car	-2823
▁اجل	-2824
umento	-2825
اقة	-2826
▁sex	-2827
▁porcentaje	-2828
▁appro	-2829
▁maggior	-2830
هد	-2831
ieder	-2832
ynast	-2833
▁eing	-2834
▁loro	-2835
أي	-2836
ased	-2837
achen	-2838
amiento	-2839
▁tempor	-2840
▁ين	-2841
▁inf	-2842
▁حدث	-2843
▁cele	-2844
▁priv	-2845
▁prote	-2846
▁Island	-2847
▁Jahren	-2848
▁ersten	-2849
زل	-2850
unk	-2851
▁eran	-2852
▁centro	-2853
▁standard	-2854
にお	-2855
انت	-2856
▁din	-2857
▁ing	-2858
▁ley	-2859
とい	-2860
により	-2861
▁this	-2862
▁period	-2863
▁Präsident	-2864
ail	-2865
▁mis	-2866
▁sing	-2867
▁ア	-2868
いく	-2869
anza	-2870
vano	-2871
▁Ste	-2872
▁الاح	-2873
▁general	-2874
▁mand	-2875
▁gouvernement	-2876
いて	-2877
▁ph	-2878
▁génér	-2879
▁Sprache	-2880
arch	-2881
▁geb	-2882
▁tor	-2883
▁mont	-2884
كبر	-2885
▁2012	-2886
▁Kerry	-2887
▁program	-2888
iode	-2889
quelle	-2890
▁dónde	-2891
▁dev	-2892
▁2011	-2893
▁المنا	-2894
alement	-2895
ugh	-2896
▁ot	-2897
ため	-2898
▁mor	-2899
▁Pres	-2900
▁cost	-2901
▁publi	-2902
国の	-2903
cula	-2904
▁نسبة	-2905
acc	-2906
alia	-2907
iami	-2908
▁grie	-2909
▁الانت	-2910
▁ric	-2911
▁König	-2912
▁bre	-2913
▁div	-2914
▁result	-2915
▁région	-2916
▁anci	-2917
▁human	-2918
▁Gro	-2919
▁capac	-2920
▁quali	-2921
خل	-2922
امعة	-2923
▁don	-2924
▁occident	-2925
نين	-2926
▁Comp	-2927
▁zona	-2928
▁لديه	-2929
omas	-2930
▁sous	-2931
▁Ä	-2932
▁bl	-2933
▁اكبر	-2934
istas	-2935
ähl	-2936
ital	-2937
▁القرن	-2938
▁Gruppe	-2939
ته	-2940
ثة	-2941
ثير	-2942
▁مق	-2943
▁gel	-2944
▁fois	-2945
▁India	-2946
▁percentage	-2947
▁Ed	-2948
imon	-2949
atori	-2950
▁protest	-2951
يج	-2952
illa	-2953
oles	-2954
▁def	-2955
ありますか	-2956
istian	-2957
ظر	-2958
▁جم	-2959
▁2013	-2960
▁gobierno	-2961
len	-2962
other	-2963
طلح	-2964
iver	-2965
▁minist	-2966
je	-2967
mania	-2968
اش	-2969
▁Unter	-2970
▁elect	-2971
▁192	-2972
▁Bro	-2973
▁imm	-2974
▁altro	-2975
ave	-2976
ورك	-2977
▁ev	-2978
▁lig	-2979
▁gi	-2980
▁مب	-2981
▁comenzó	-2982
اية	-2983
▁alc	-2984
▁العام	-2985
gos	-2986
もの	-2987
ührt	-2988
▁Nor	-2989
▁dévelop	-2990
▁méd	-2991
▁ste	-2992
▁2000	-2993
▁invest	-2994
uta	-2995
بير	-2996
erson	-2997
▁distr	-2998
▁viene	-2999
▁gewonnen	-3000
▁Schwarzenegger	-3001
ks	-3002
ño	-3003
▁سا	-3004
の名前	-3005
ella	-3006
ivid	-3007
ruct	-3008
▁refer	-3009
انب	-3010
arrol	-3011
undial	-3012
▁mater	-3013
▁Hay	-3014
▁Apple	-3015
▁World	-3016
▁bro	-3017
▁uso	-3018
bil	-3019
▁law	-3020
▁Sw	-3021
▁frü	-3022
ni	-3023
ty	-3024
▁Bron	-3025
▁phil	-3026
▁situ	-3027
فت	-3028
andid	-3029
▁الاج	-3030
igkeit	-3031
▁divent	-3032
▁Fo	-3033
atter	-3034
▁seine	-3035
▁desarrol	-3036
ían	-3037
▁We	-3038
ucson	-3039
▁nell	-3040
▁than	-3041
▁Paris	-3042
▁album	-3043
▁العمل	-3044
▁Francia	-3045
blica	-3046
était	-3047
▁gegr	-3048
▁عليه	-3049
201	-3050
▁rif	-3051
▁China	-3052
▁Londres	-3053
▁gegründet	-3054
▁principale	-3055
bur	-3056
▁geh	-3057
▁Comm	-3058
▁sort	-3059
▁المش	-3060
▁avuto	-3061
agt	-3062
▁France	-3063
äng	-3064
▁nav	-3065
senal	-3066
pi	-3067
ادي	-3068
ares	-3069
▁represent	-3070
▁بو	-3071
athol	-3072
▁hatte	-3073
▁associ	-3074
enci	-3075
▁rest	-3076
▁منطقة	-3077
▁considér	-3078
映画	-3079
atta	-3080
▁bis	-3081
▁mur	-3082
▁يعتقد	-3083
▁langue	-3084
▁المدينة	-3085
はどの	-3086
teil	-3087
▁otr	-3088
esehen	-3089
yle	-3090
▁Ir	-3091
ギリス	-3092
iles	-3093
▁Bez	-3094
▁contribu	-3095
▁signific	-3096
يث	-3097
はどこですか	-3098
▁Eg	-3099
▁estable	-3100
تش	-3101
イギリス	-3102
▁hacer	-3103
isé	-3104
سمى	-3105
▁Ro	-3106
▁peu	-3107
▁pot	-3108
▁requ	-3109
▁polít	-3110
رح	-3111
▁él	-3112
udio	-3113
▁مست	-3114
▁معظم	-3115
▁radio	-3116
▁government	-3117
angen	-3118
スの	-3119
يري	-3120
▁inform	-3121
▁orient	-3122
lem	-3123
▁air	-3124
▁compar	-3125
▁capital	-3126
▁«	-3127
▁auch	-3128
▁diale	-3129
rat	-3130
west	-3131
▁الامبراطور	-3132
ضع	-3133
が多	-3134
▁cha	-3135
▁fac	-3136
▁sett	-3137
▁there	-3138
▁europe	-3139
▁nation	-3140
▁dies	-3141
▁Niger	-3142
▁causa	-3143
▁Portugal	-3144
نع	-3145
を受	-3146
oso	-3147
uso	-3148
ält	-3149
▁Met	-3150
issance	-3151
ín	-3152
Chi	-3153
isc	-3154
équ	-3155
وني	-3156
▁période	-3157
▁Whitehead	-3158
tains	-3159
▁adop	-3160
hm	-3161
uge	-3162
ريد	-3163
ederal	-3164
▁Miami	-3165
▁avant	-3166
▁sulla	-3167
▁Delhi	-3168
▁become	-3169
ンの	-3170
▁oc	-3171
▁pou	-3172
▁فاز	-3173
▁sem	-3174
▁utiliza	-3175
anc	-3176
▁Engl	-3177
▁educ	-3178
▁techn	-3179
▁world	-3180
▁present	-3181
▁begonnen	-3182
ius	-3183
▁conv	-3184
最初	-3185
ley	-3186
ارات	-3187
▁British	-3188
ifs	-3189
rait	-3190
▁dom	-3191
ology	-3192
▁prod	-3193
▁jud	-3194
▁كتب	-3195
▁develop	-3196
▁National	-3197
▁»	-3198
▁ig	-3199
▁أم	-3200
▁تت	-3201
▁podr	-3202
termin	-3203
nis	-3204
amer	-3205
▁anderen	-3206
▁mas	-3207
▁Yale	-3208
▁avoir	-3209
izabeth	-3210
amo	-3211
abad	-3212
していた	-3213
zeich	-3214
▁perí	-3215
▁faire	-3216
lymp	-3217
quel	-3218
Al	-3219
▁اج	-3220
entr	-3221
▁Jahrhundert	-3222
lim	-3223
مال	-3224
▁cause	-3225
▁gruppo	-3226
地域	-3227
app	-3228
واع	-3229
▁où	-3230
である	-3231
ours	-3232
▁log	-3233
▁الدول	-3234
▁Dell	-3235
▁casa	-3236
▁الأم	-3237
▁تستخدم	-3238
▁Richmond	-3239
▁Eng	-3240
ube	-3241
ises	-3242
▁هنا	-3243
▁propos	-3244
▁termine	-3245
作品	-3246
ías	-3247
ouse	-3248
sect	-3249
▁اعل	-3250
いた	-3251
lin	-3252
ander	-3253
▁leader	-3254
pol	-3255
誰ですか	-3256
▁فيلم	-3257
▁Durante	-3258
▁este	-3259
▁البح	-3260
ily	-3261
off	-3262
ious	-3263
uter	-3264
ئيسي	-3265
▁Ber	-3266
ergie	-3267
▁ganó	-3268
▁الهند	-3269
▁mayoría	-3270
▁jug	-3271
▁ven	-3272
▁tuvo	-3273
lished	-3274
صول	-3275
▁13	-3276
▁Von	-3277
▁mes	-3278
istes	-3279
▁lange	-3280
ba	-3281
oth	-3282
wer	-3283
▁tex	-3284
▁Tuvalu	-3285
▁können	-3286
مت	-3287
はどれ	-3288
anta	-3289
كومة	-3290
وريا	-3291
▁Imp	-3292
▁begin	-3293
▁propr	-3294
ationen	-3295
▁استخدام	-3296
▁edific	-3297
▁escrib	-3298
وة	-3299
lie	-3300
▁Kir	-3301
▁Min	-3302
▁سكان	-3303
▁هناك	-3304
▁common	-3305
cen	-3306
▁Os	-3307
▁alto	-3308
▁corr	-3309
▁Barcel	-3310
▁invent	-3311
üd	-3312
affen	-3313
▁gibt	-3314
▁exist	-3315
▁genre	-3316
▁II	-3317
▁Pl	-3318
تحاد	-3319
▁gra	-3320
▁انه	-3321
▁desc	-3322
▁popolazione	-3323
とは	-3324
teurs	-3325
▁west	-3326
▁costru	-3327
err	-3328
elig	-3329
▁entr	-3330
genommen	-3331
▁introdu	-3332
ets	-3333
▁را	-3334
ices	-3335
▁Rom	-3336
▁tut	-3337
▁norte	-3338
▁separ	-3339
▁visit	-3340
▁capitale	-3341
ôle	-3342
folk	-3343
yder	-3344
addafi	-3345
pir	-3346
▁bar	-3347
▁wichtig	-3348
▁Zusammen	-3349
جلس	-3350
pour	-3351
大統	-3352
大統領	-3353
▁dalla	-3354
▁vinto	-3355
يط	-3356
られた	-3357
▁لعب	-3358
▁Intern	-3359
▁Napoleon	-3360
ña	-3361
ًا	-3362
cif	-3363
▁Para	-3364
▁philosop	-3365
irg	-3366
vil	-3367
いのは	-3368
▁2009?	-3369
▁where	-3370
yderabad	-3371
بات	-3372
عات	-3373
▁مس	-3374
anjing	-3375
▁George	-3376
マン	-3377
レー	-3378
▁mús	-3379
▁Marshall	-3380
زي	-3381
したの	-3382
لسلة	-3383
▁red	-3384
▁gegen	-3385
▁media	-3386
▁الصين	-3387
▁países	-3388
ورة	-3389
lant	-3390
▁arg	-3391
▁ايضا	-3392
erstüt	-3393
▁United	-3394
▁período	-3395
رش	-3396
امل	-3397
orea	-3398
ciato	-3399
▁take	-3400
▁siècle	-3401
met	-3402
▁وف	-3403
cito	-3404
▁Det	-3405
は何年に	-3406
▁amer	-3407
▁iPod	-3408
depend	-3409
ED	-3410
دف	-3411
änd	-3412
▁14	-3413
▁trois	-3414
▁geschrieben	-3415
Wie	-3416
indows	-3417
▁design	-3418
▁Bre	-3419
▁tip	-3420
ersch	-3421
osten	-3422
▁Japan	-3423
ye	-3424
رات	-3425
▁happ	-3426
▁antes	-3427
▁Darwin	-3428
The	-3429
com	-3430
ietà	-3431
▁add	-3432
▁nord	-3433
▁idioma	-3434
hu	-3435
مار	-3436
iente	-3437
▁الاف	-3438
▁Regierung	-3439
▁pet	-3440
▁pueden	-3441
▁Mo	-3442
ilia	-3443
▁لكي	-3444
ativo	-3445
▁الوط	-3446
という	-3447
agne	-3448
▁divers	-3449
gi	-3450
ニア	-3451
ودة	-3452
▁tele	-3453
▁histor	-3454
▁ret	-3455
ultur	-3456
nehmen	-3457
▁contre	-3458
▁pubblic	-3459
▁película	-3460
بية	-3461
▁mill	-3462
▁significa	-3463
ians	-3464
ster	-3465
▁chr	-3466
▁mol	-3467
▁Ital	-3468
▁alta	-3469
▁lanz	-3470
لاب	-3471
▁gek	-3472
▁hace	-3473
ío	-3474
idé	-3475
ser	-3476
▁Es	-3477
▁تاريخ	-3478
فضل	-3479
▁Sud	-3480
▁Film	-3481
▁pris	-3482
▁عادة	-3483
ié	-3484
ême	-3485
▁لها	-3486
▁Tucson	-3487
▁zuerst	-3488
▁iniziato	-3489
▁mag	-3490
▁Bras	-3491
eln	-3492
han	-3493
▁dar	-3494
▁via	-3495
▁2013?	-3496
▁cuántos	-3497
▁Carolina	-3498
uß	-3499
وائ	-3500
▁dr	-3501
elli	-3502
▁estaban	-3503
راض	-3504
inter	-3505
▁reci	-3506
FL	-3507
▁Air	-3508
▁sud	-3509
▁شركة	-3510
▁considered	-3511
Wh	-3512
لق	-3513
▁اخ	-3514
▁being	-3515
▁quelles	-3516
aint	-3517
ouve	-3518
▁Cal	-3519
▁vot	-3520
enden	-3521
▁dove	-3522
▁السل	-3523
▁المب	-3524
▁religion	-3525
▁percentuale	-3526
60	-3527
行わ	-3528
سيقى	-3529
▁développ	-3530
Le	-3531
▁wür	-3532
ating	-3533
▁data	-3534
▁star	-3535
ateurs	-3536
▁Hayek	-3537
▁temper	-3538
eld	-3539
lica	-3540
ware	-3541
▁Sur	-3542
▁squ	-3543
get	-3544
خاب	-3545
▁volta	-3546
▁استخدم	-3547
▁الناس	-3548
▁Street	-3549
▁grandes	-3550
val	-3551
raft	-3552
▁تج	-3553
orté	-3554
▁scu	-3555
pa	-3556
atr	-3557
ech	-3558
los	-3559
cole	-3560
umann	-3561
▁mosa	-3562
▁التح	-3563
▁nueva	-3564
▁scient	-3565
etti	-3566
iven	-3567
▁بول	-3568
▁Mont	-3569
▁color	-3570
▁Welchen	-3571
ظمة	-3572
ostr	-3573
▁differ	-3574
bro	-3575
ham	-3576
adre	-3577
▁مجموعة	-3578
ファ	-3579
▁Arch	-3580
▁Bronx	-3581
▁société	-3582
كس	-3583
▁vez	-3584
aires	-3585
arios	-3586
▁السيا	-3587
▁Detroit	-3588
وط	-3589
ران	-3590
وتر	-3591
▁jou	-3592
▁بلد	-3593
▁2011?	-3594
▁activ	-3595
bt	-3596
▁Cr	-3597
اضافة	-3598
▁Part	-3599
▁gagn	-3600
▁الجز	-3601
図書	-3602
inden	-3603
▁stag	-3604
▁exper	-3605
▁المست	-3606
▁جامعة	-3607
▁England	-3608
▁important	-3609
át	-3610
وير	-3611
▁مش	-3612
ltre	-3613
▁يجب	-3614
▁serie	-3615
▁britán	-3616
▁ú	-3617
▁انش	-3618
▁simil	-3619
خاص	-3620
▁aver	-3621
▁mondo	-3622
▁estados	-3623
▁peuvent	-3624
ös	-3625
فة	-3626
ves	-3627
▁sé	-3628
ades	-3629
▁187	-3630
▁Ent	-3631
▁dig	-3632
▁Repub	-3633
ライ	-3634
▁نظام	-3635
バー	-3636
▁خط	-3637
ider	-3638
▁they	-3639
▁conse	-3640
▁signif	-3641
ized	-3642
▁Nach	-3643
▁carr	-3644
▁2007?	-3645
▁الاخرى	-3646
ières	-3647
▁writ	-3648
▁Gesch	-3649
▁quels	-3650
▁év	-3651
▁mer	-3652
▁make	-3653
▁الامريكية	-3654
lack	-3655
lung	-3656
oule	-3657
▁Iran	-3658
▁2008?	-3659
▁antig	-3660
ambi	-3661
جر	-3662
قط	-3663
▁اش	-3664
▁agr	-3665
ويورك	-3666
▁igles	-3667
▁اليون	-3668
▁سلسلة	-3669
▁evento	-3670
▁%	-3671
▁uu	-3672
▁Gal	-3673
▁تقع	-3674
inder	-3675
▁2006	-3676
"؟	-3677
سك	-3678
ket	-3679
روف	-3680
▁gl	-3681
enna	-3682
▁tur	-3683
▁العث	-3684
▁المك	-3685
▁years	-3686
▁zweit	-3687
▁trabajo	-3688
▁particip	-3689
قاط	-3690
▁fig	-3691
▁nelle	-3692
weit	-3693
▁cab	-3694
▁Frank	-3695
▁بالاضافة	-3696
▁Elizabeth	-3697
ja	-3698
▁negli	-3699
▁encontr	-3700
▁passiert	-3701
▁aer	-3702
bres	-3703
izio	-3704
▁Hol	-3705
gesch	-3706
▁Gran	-3707
zi	-3708
uft	-3709
▁11	-3710
▁هذه	-3711
いですか	-3712
äd	-3713
ندا	-3714
ield	-3715
▁Inst	-3716
▁قامت	-3717
▁desde	-3718
に対	-3719
orr	-3720
▁hö	-3721
zahl	-3722
uelle	-3723
▁gegeben	-3724
ife	-3725
▁ee	-3726
crip	-3727
▁ave	-3728
aient	-3729
▁heiß	-3730
▁nomin	-3731
▁música	-3732
▁entwick	-3733
mas	-3734
uddh	-3735
▁Paul	-3736
▁College	-3737
isse	-3738
rale	-3739
ierte	-3740
▁Armen	-3741
▁under	-3742
entsatz	-3743
▁السكان	-3744
▁dialect	-3745
erie	-3746
icano	-3747
اط	-3748
eau	-3749
inos	-3750
▁اثنين	-3751
▁Länder	-3752
▁größte	-3753
▁Prozentsatz	-3754
mi	-3755
وار	-3756
ينا	-3757
ريكي	-3758
▁183	-3759
eston	-3760
▁viol	-3761
▁بدات	-3762
かったのは	-3763
ルト	-3764
ائزة	-3765
anten	-3766
ision	-3767
▁Junto	-3768
▁secolo	-3769
▁اح	-3770
▁Along	-3771
▁franc	-3772
▁Nigeria	-3773
▁notable	-3774
utt	-3775
▁Bew	-3776
▁المس	-3777
▁dispos	-3778
ضاء	-3779
▁الاط	-3780
▁فترة	-3781
pre	-3782
▁مؤ	-3783
icio	-3784
▁dern	-3785
▁العالمية	-3786
Who	-3787
qué	-3788
لاق	-3789
unda	-3790
quipe	-3791
▁Tito	-3792
cil	-3793
utzt	-3794
▁led	-3795
رم	-3796
نى	-3797
owl	-3798
▁Q	-3799
かに	-3800
verno	-3801
▁الاخ	-3802
▁conqu	-3803
▁palab	-3804
▁نيويورك	-3805
aug	-3806
نيس	-3807
▁sold	-3808
▁occup	-3809
▁power	-3810
▁lingua	-3811
élé	-3812
idas	-3813
puis	-3814
▁sat	-3815
▁culture	-3816
isce	-3817
▁mig	-3818
ually	-3819
▁llev	-3820
▁العل	-3821
فال	-3822
▁az	-3823
bern	-3824
▁thé	-3825
▁individ	-3826
وقع	-3827
يني	-3828
▁Buch	-3829
▁sent	-3830
シア	-3831
ンド	-3832
ody	-3833
انات	-3834
▁Ter	-3835
upart	-3836
▁word	-3837
▁يش	-3838
▁Das	-3839
ynman	-3840
▁difer	-3841
▁Ü	-3842
وبر	-3843
oren	-3844
ativa	-3845
▁الاص	-3846
▁فريق	-3847
▁conten	-3848
▁différ	-3849
▁الاتحاد	-3850
ント	-3851
ارك	-3852
リーズ	-3853
itut	-3854
はどちら	-3855
krieg	-3856
▁rank	-3857
▁nú	-3858
▁oft	-3859
ainst	-3860
▁rend	-3861
▁tour	-3862
édéric	-3863
▁scritto	-3864
ヨー	-3865
yan	-3866
▁ord	-3867
▁Arten	-3868
▁escribió	-3869
BI	-3870
ES	-3871
▁اق	-3872
▁100	-3873
▁mom	-3874
glich	-3875
▁acuer	-3876
▁cultur	-3877
سيك	-3878
▁Popper	-3879
▁سب	-3880
rest	-3881
▁Tibet	-3882
ala	-3883
cos	-3884
▁rev	-3885
vilup	-3886
▁Cong	-3887
▁جانب	-3888
Welcher	-3889
fér	-3890
geb	-3891
▁wem	-3892
ienda	-3893
▁Arbeit	-3894
▁persona	-3895
での	-3896
ubs	-3897
▁lat	-3898
▁2005	-3899
▁sido	-3900
▁große	-3901
▁provin	-3902
▁الاشخاص	-3903
NA	-3904
いくつ	-3905
ives	-3906
▁Fra	-3907
▁migr	-3908
▁ke	-3909
eter	-3910
▁déb	-3911
▁gior	-3912
▁Organ	-3913
▁social	-3914
▁created	-3915
وى	-3916
ani	-3917
▁التق	-3918
▁normal	-3919
mal	-3920
▁Für	-3921
▁هذا	-3922
▁Willi	-3923
▁insect	-3924
▁représ	-3925
パー	-3926
▁Um	-3927
wood	-3928
▁Diego	-3929
▁condu	-3930
▁quand	-3931
されましたか	-3932
▁الرئيسية	-3933
▁وج	-3934
ison	-3935
▁Aut	-3936
▁اخت	-3937
رائ	-3938
▁ult	-3939
▁últ	-3940
▁land	-3941
▁gente	-3942
▁llama	-3943
ministr	-3944
bs	-3945
äl	-3946
▁اغ	-3947
erne	-3948
udes	-3949
▁miem	-3950
▁style	-3951
▁Ph	-3952
tagne	-3953
▁East	-3954
▁Super	-3955
どちらですか	-3956
▁Israel	-3957
▁deuxième	-3958
Qual	-3959
inas	-3960
itions	-3961
ording	-3962
▁minor	-3963
と呼	-3964
irm	-3965
udo	-3966
▁اد	-3967
図書館	-3968
actér	-3969
▁poder	-3970
▁concept	-3971
▁genannt	-3972
▁chiamato	-3973
ジョ	-3974
دير	-3975
وما	-3976
▁بح	-3977
▁svilup	-3978
▁الرئيسي	-3979
يام	-3980
▁VI	-3981
ather	-3982
glise	-3983
▁Virg	-3984
ambién	-3985
érique	-3986
▁saison	-3987
yl	-3988
ほかに	-3989
▁nam	-3990
▁Const	-3991
où	-3992
hys	-3993
iot	-3994
jor	-3995
▁naz	-3996
▁escuela	-3997
▁también	-3998
▁gefunden	-3999
دل	-4000
▁184	-4001
▁التن	-4002
arbeit	-4003
▁Center	-4004
▁verurs	-4005
▁America	-4006
▁largest	-4007
▁Spielberg	-4008
▁temporada	-4009
ترا	-4010
ديم	-4011
▁جن	-4012
▁190	-4013
▁Alas	-4014
leston	-4015
▁sport	-4016
▁candid	-4017
iang	-4018
iato	-4019
ionn	-4020
omen	-4021
▁autres	-4022
▁company	-4023
▁responsab	-4024
.?	-4025
ef	-4026
ング	-4027
How	-4028
هور	-4029
trag	-4030
シリーズ	-4031
ungs	-4032
▁mass	-4033
▁produce	-4034
Pro	-4035
tere	-4036
▁bus	-4037
▁منذ	-4038
▁وقت	-4039
▁effect	-4040
ène	-4041
▁CD	-4042
▁ep	-4043
される	-4044
ches	-4045
▁raz	-4046
▁tun	-4047
▁line	-4048
▁tier	-4049
ología	-4050
▁build	-4051
▁tenía	-4052
ym	-4053
lia	-4054
cted	-4055
dans	-4056
edes	-4057
▁dise	-4058
▁celebr	-4059
▁quanti	-4060
kl	-4061
▁ma	-4062
がある	-4063
▁show	-4064
▁الاق	-4065
▁Roman	-4066
▁القوات	-4067
ミー	-4068
íst	-4069
نيسة	-4070
apt	-4071
isl	-4072
vin	-4073
▁Sel	-4074
▁الموا	-4075
18	-4076
yr	-4077
のは何	-4078
▁Bus	-4079
▁Tur	-4080
▁التج	-4081
▁2015?	-4082
▁governo	-4083
▁independ	-4084
neur	-4085
oper	-4086
▁jap	-4087
▁común	-4088
▁rapport	-4089
▁televis	-4090
gyp	-4091
ike	-4092
âge	-4093
▁Av	-4094
osci	-4095
ملكة	-4096
▁nuo	-4097
uerto	-4098
▁Groß	-4099
Welches	-4100
▁service	-4101
▁ضد	-4102
▁númer	-4103
▁الاسم	-4104
▁البريط	-4105
めて	-4106
▁So	-4107
anas	-4108
zeit	-4109
▁opp	-4110
▁أول	-4111
ennen	-4112
▁2012?	-4113
▁could	-4114
فق	-4115
▁éle	-4116
illes	-4117
istan	-4118
▁المج	-4119
bracht	-4120
▁south	-4121
▁الثاني	-4122
▁Windows	-4123
gar	-4124
▁nu	-4125
▁بت	-4126
▁لع	-4127
ardin	-4128
▁edad	-4129
▁another	-4130
▁ber	-4131
▁dro	-4132
▁hic	-4133
▁nei	-4134
Quand	-4135
ibles	-4136
ontin	-4137
▁المجموعة	-4138
▁Ma	-4139
▁cla	-4140
▁واحد	-4141
▁plupart	-4142
ST	-4143
ivi	-4144
した人	-4145
laubt	-4146
▁equipo	-4147
▁Arsenal	-4148
▁support	-4149
▁politique	-4150
タイ	-4151
ポー	-4152
▁Sov	-4153
▁tan	-4154
▁2015	-4155
bel	-4156
mat	-4157
nam	-4158
ulo	-4159
ontrol	-4160
▁season	-4161
isti	-4162
▁top	-4163
何年のこと	-4164
▁nuevo	-4165
▁الثانية	-4166
▁utilizzato	-4167
▁عرض	-4168
▁weiter	-4169
ald	-4170
vir	-4171
chie	-4172
ende	-4173
▁connu	-4174
▁dispon	-4175
▁acuerdo	-4176
rag	-4177
دول	-4178
uman	-4179
▁total	-4180
▁machen	-4181
▁Norfolk	-4182
▁الامبراطورية	-4183
オー	-4184
▁الض	-4185
igine	-4186
orben	-4187
▁الجنوب	-4188
▁signifie	-4189
10	-4190
aba	-4191
▁Neumann	-4192
▁musique	-4193
フィ	-4194
anos	-4195
ress	-4196
▁BBC	-4197
▁FBI	-4198
▁redu	-4199
▁تكون	-4200
▁livre	-4201
▁Alaska	-4202
▁nacional	-4203
ラー	-4204
▁له	-4205
▁2014?	-4206
▁Burke	-4207
Univers	-4208
'?	-4209
َن	-4210
ypt	-4211
▁XX	-4212
▁شخص	-4213
▁Form	-4214
▁dijo	-4215
▁lleg	-4216
▁أكبر	-4217
▁podría	-4218
▁Cu	-4219
とは何	-4220
ender	-4221
▁ayud	-4222
▁leurs	-4223
تر	-4224
ماء	-4225
▁اص	-4226
volu	-4227
▁product	-4228
aw	-4229
طن	-4230
ira	-4231
tto	-4232
▁Vor	-4233
▁Musik	-4234
ynastie	-4235
▁العديد	-4236
enschaft	-4237
irtschaft	-4238
BM	-4239
フォ	-4240
ヴィ	-4241
大き	-4242
inten	-4243
▁mult	-4244
idades	-4245
▁objet	-4246
▁ingles	-4247
▁partir	-4248
TV	-4249
都市	-4250
▁To	-4251
çais	-4252
▁cam	-4253
ences	-4254
verton	-4255
▁nouve	-4256
▁start	-4257
▁English	-4258
▁المنطقة	-4259
多く	-4260
Empire	-4261
▁School	-4262
▁gebaut	-4263
▁zurück	-4264
çu	-4265
漱石	-4266
lik	-4267
داد	-4268
ديو	-4269
مَن	-4270
ويل	-4271
▁Bl	-4272
▁Gl	-4273
▁Pe	-4274
eros	-4275
uses	-4276
ichte	-4277
▁letz	-4278
▁parl	-4279
何年ですか	-4280
▁early	-4281
▁القانون	-4282
rain	-4283
▁ital	-4284
▁estudi	-4285
▁periodo	-4286
▁Valencia	-4287
▁fonction	-4288
▁Ba	-4289
▁ju	-4290
▁Nel	-4291
▁بان	-4292
ionen	-4293
▁secon	-4294
▁الالم	-4295
▁escrit	-4296
▁premio	-4297
▁الأمريكية	-4298
كمة	-4299
ياب	-4300
درسة	-4301
▁188	-4302
rench	-4303
▁help	-4304
▁perd	-4305
▁Secon	-4306
▁cette	-4307
▁comer	-4308
▁numero	-4309
▁imperio	-4310
ification	-4311
ains	-4312
ونسي	-4313
▁Str	-4314
▁dit	-4315
enten	-4316
iblio	-4317
▁apoy	-4318
▁cell	-4319
▁dirig	-4320
▁empres	-4321
▁remporté	-4322
▁offer	-4323
▁Barcelona	-4324
loy	-4325
nent	-4326
▁Park	-4327
▁arte	-4328
▁Royal	-4329
▁material	-4330
alis	-4331
▁وضع	-4332
▁rece	-4333
▁civil	-4334
▁LED	-4335
▁لمن	-4336
▁lung	-4337
▁only	-4338
▁sour	-4339
▁الجم	-4340
▁ejemp	-4341
▁large	-4342
▁قانون	-4343
western	-4344
éro	-4345
▁ru	-4346
atum	-4347
ختلف	-4348
itzer	-4349
▁dall	-4350
tempor	-4351
ilo	-4352
ليز	-4353
▁Ur	-4354
alth	-4355
itor	-4356
▁pur	-4357
▁King	-4358
▁musul	-4359
▁oficial	-4360
eo	-4361
طار	-4362
line	-4363
▁185	-4364
▁obten	-4365
icación	-4366
YU	-4367
▁often	-4368
▁gobern	-4369
▁trabaj	-4370
▁-	-4371
cir	-4372
uten	-4373
تبار	-4374
rough	-4375
▁instr	-4376
▁propor	-4377
▁mundial	-4378
0,	-4379
غي	-4380
人の	-4381
▁dim	-4382
iland	-4383
▁cens	-4384
▁einz	-4385
▁اصبح	-4386
りましたか	-4387
▁model	-4388
▁spiel	-4389
▁الغرب	-4390
▁Kirche	-4391
▁iglesia	-4392
ause	-4393
ussi	-4394
▁fav	-4395
▁ged	-4396
▁créé	-4397
▁Guerra	-4398
▁victoria	-4399
وح	-4400
▁دا	-4401
iendo	-4402
uni	-4403
قيق	-4404
▁مك	-4405
▁sens	-4406
▁team	-4407
▁البر	-4408
▁باسم	-4409
ispiel	-4410
▁incre	-4411
▁الحكومة	-4412
▁document	-4413
yó	-4414
▁189	-4415
▁Namib	-4416
▁liber	-4417
▁parti	-4418
▁souvent	-4419
▁الشمالية	-4420
▁countries	-4421
asa	-4422
uti	-4423
بال	-4424
uber	-4425
▁sum	-4426
organ	-4427
▁noch	-4428
▁quant	-4429
▁Grande	-4430
gestellt	-4431
▁Beispiel	-4432
▁hicieron	-4433
ظهر	-4434
▁Do	-4435
taña	-4436
ères	-4437
▁Tod	-4438
▁colle	-4439
طي	-4440
ños	-4441
▁na	-4442
▁pú	-4443
▁حول	-4444
▁قدم	-4445
iforn	-4446
▁Vers	-4447
▁Wort	-4448
▁against	-4449
▁convert	-4450
ارع	-4451
▁Af	-4452
ules	-4453
▁compet	-4454
▁algunos	-4455
▁produit	-4456
dé	-4457
ecn	-4458
فاع	-4459
anst	-4460
▁Mal	-4461
▁wen	-4462
▁fall	-4463
▁Haupt	-4464
▁الروم	-4465
▁football	-4466
▁Stra	-4467
lantic	-4468
▁الحدي	-4469
▁frances	-4470
اة	-4471
وث	-4472
esp	-4473
ابق	-4474
wort	-4475
▁chopin	-4476
▁responsable	-4477
cs	-4478
hor	-4479
سيس	-4480
ليون	-4481
▁Berm	-4482
▁also	-4483
▁التع	-4484
▁كتاب	-4485
▁James	-4486
▁territor	-4487
なかった	-4488
itaire	-4489
▁plant	-4490
▁الاكثر	-4491
▁primero	-4492
▁stagione	-4493
name	-4494
▁san	-4495
round	-4496
▁بسبب	-4497
▁otros	-4498
▁gesagt	-4499
izzazione	-4500
ban	-4501
هام	-4502
ような	-4503
idge	-4504
▁dio	-4505
▁aument	-4506
▁entwickelt	-4507
occ	-4508
oli	-4509
äre	-4510
auft	-4511
olit	-4512
estic	-4513
▁dinast	-4514
会社	-4515
▁حق	-4516
ivos	-4517
utes	-4518
▁Mil	-4519
▁fab	-4520
▁hal	-4521
essen	-4522
▁arriv	-4523
▁gagné	-4524
▁appelé	-4525
▁happen	-4526
▁produz	-4527
でし	-4528
▁far	-4529
において	-4530
いつですか	-4531
▁examp	-4532
▁declar	-4533
icamente	-4534
ogen	-4535
▁catal	-4536
Or	-4537
su	-4538
一番	-4539
dem	-4540
▁Kar	-4541
▁المؤ	-4542
▁Guerre	-4543
▁Charles	-4544
rei	-4545
الث	-4546
تها	-4547
▁ho	-4548
atro	-4549
eron	-4550
imat	-4551
ديدة	-4552
▁الوح	-4553
▁welches	-4554
رير	-4555
▁Di	-4556
ったか	-4557
▁uff	-4558
▁Flor	-4559
▁muer	-4560
▁ferro	-4561
▁كانوا	-4562
▁könnte	-4563
どれ	-4564
ニー	-4565
▁ات	-4566
يادة	-4567
▁Unt	-4568
▁اذا	-4569
anden	-4570
▁sans	-4571
▁usato	-4572
▁الانج	-4573
بة	-4574
ウル	-4575
ktur	-4576
serv	-4577
▁Ass	-4578
▁amb	-4579
▁sir	-4580
▁book	-4581
▁compañ	-4582
ょう	-4583
ジャ	-4584
▁ري	-4585
atos	-4586
ling	-4587
▁Arm	-4588
▁BYU	-4589
▁شكل	-4590
のほかに	-4591
▁cuál	-4592
▁الرا	-4593
▁complet	-4594
くら	-4595
時代	-4596
ava	-4597
تما	-4598
ecut	-4599
fico	-4600
だったの	-4601
usion	-4602
emente	-4603
ttoman	-4604
▁Reich	-4605
▁attra	-4606
▁Grecia	-4607
とも	-4608
への	-4609
cie	-4610
مية	-4611
zung	-4612
▁heißt	-4613
▁البلد	-4614
▁Canada	-4615
▁seiner	-4616
▁Nanjing	-4617
▁erhalten	-4618
▁position	-4619
▁الموسيقى	-4620
فا	-4621
una	-4622
uro	-4623
ibil	-4624
▁Rus	-4625
▁bata	-4626
▁forme	-4627
▁الشرق	-4628
▁element	-4629
ash	-4630
ête	-4631
onom	-4632
▁but	-4633
▁pra	-4634
されたか	-4635
▁مجلس	-4636
autres	-4637
▁الحيو	-4638
▁States	-4639
auf	-4640
uno	-4641
زال	-4642
schn	-4643
▁حرب	-4644
ances	-4645
ancia	-4646
▁merc	-4647
▁child	-4648
intendo	-4649
ندية	-4650
▁Act	-4651
▁cru	-4652
フランス	-4653
ically	-4654
▁statt	-4655
▁edificio	-4656
▁Hyderabad	-4657
dr	-4658
فع	-4659
قتص	-4660
iten	-4661
▁نيو	-4662
でしょう	-4663
▁الدين	-4664
▁Deutsch	-4665
▁travail	-4666
くな	-4667
と何	-4668
ift	-4669
▁ni	-4670
▁يقع	-4671
▁anal	-4672
▁isla	-4673
▁tecn	-4674
▁Olymp	-4675
▁roman	-4676
Cuántos	-4677
初めて	-4678
fect	-4679
istor	-4680
stadt	-4681
▁ment	-4682
▁conne	-4683
▁quart	-4684
▁palabra	-4685
▁الاوروب	-4686
île	-4687
ört	-4688
▁moy	-4689
▁فعل	-4690
ights	-4691
▁Christ	-4692
▁investig	-4693
سر	-4694
▁&	-4695
idd	-4696
uls	-4697
▁rad	-4698
▁Saint	-4699
زب	-4700
▁شي	-4701
tres	-4702
▁Far	-4703
▁مثل	-4704
وروبا	-4705
▁2004	-4706
▁بوصف	-4707
▁French	-4708
zeichnet	-4709
▁determin	-4710
BA	-4711
غير	-4712
reib	-4713
▁afr	-4714
▁sost	-4715
▁جميع	-4716
▁Mitgl	-4717
▁disco	-4718
▁estim	-4719
▁filos	-4720
▁líder	-4721
▁lavoro	-4722
▁الاولى	-4723
▁الكتاب	-4724
▁حا	-4725
▁loi	-4726
ommun	-4727
▁nouv	-4728
▁كبير	-4729
▁local	-4730
▁القدم	-4731
▁فر	-4732
année	-4733
iedad	-4734
iness	-4735
venue	-4736
▁joué	-4737
▁aveva	-4738
▁verbunden	-4739
fü	-4740
シュ	-4741
har	-4742
fall	-4743
وبان	-4744
▁Nept	-4745
▁prog	-4746
▁الطاقة	-4747
▁festival	-4748
▁unterstüt	-4749
pas	-4750
ahre	-4751
aille	-4752
▁fort	-4753
▁donné	-4754
▁الفرن	-4755
▁واحدة	-4756
▁identif	-4757
▁international	-4758
La	-4759
侵攻	-4760
olé	-4761
itto	-4762
ريكا	-4763
▁Pap	-4764
▁hom	-4765
acion	-4766
▁Namen	-4767
▁fecha	-4768
▁invas	-4769
▁quest	-4770
▁اليها	-4771
▁ولاية	-4772
▁secondo	-4773
▁president	-4774
を何	-4775
vas	-4776
emás	-4777
ired	-4778
▁186	-4779
▁Tex	-4780
▁ban	-4781
▁نها	-4782
行われた	-4783
pielt	-4784
▁rice	-4785
altung	-4786
سات	-4787
▁وا	-4788
work	-4789
▁cél	-4790
▁مات	-4791
されている	-4792
▁número	-4793
▁Gaddafi	-4794
hod	-4795
ارج	-4796
ساس	-4797
▁الاد	-4798
▁comple	-4799
itecture	-4800
▁Frédéric	-4801
adem	-4802
cific	-4803
cript	-4804
ected	-4805
▁pred	-4806
كتوريا	-4807
▁Insel	-4808
▁aerop	-4809
▁würde	-4810
▁federal	-4811
ería	-4812
▁III	-4813
▁cod	-4814
▁firm	-4815
▁rock	-4816
étique	-4817
iennent	-4818
▁Mexico	-4819
▁demand	-4820
▁Unternehmen	-4821
れる	-4822
▁HD	-4823
prün	-4824
utch	-4825
▁teor	-4826
▁المد	-4827
urrent	-4828
▁Greek	-4829
▁recon	-4830
▁compon	-4831
番目	-4832
aty	-4833
▁Zu	-4834
▁ethn	-4835
▁terre	-4836
▁central	-4837
▁financi	-4838
ky	-4839
ける	-4840
ager	-4841
ought	-4842
▁Monte	-4843
▁الياب	-4844
▁quanto	-4845
▁principales	-4846
▁amp	-4847
▁enf	-4848
▁bajo	-4849
▁expl	-4850
▁uran	-4851
ulaire	-4852
▁Relig	-4853
▁appar	-4854
▁During	-4855
▁mandol	-4856
CA	-4857
スタ	-4858
يدر	-4859
▁1990	-4860
▁dello	-4861
▁inclu	-4862
üs	-4863
جة	-4864
كرة	-4865
لعب	-4866
وقف	-4867
▁Go	-4868
▁سن	-4869
▁Union	-4870
▁transm	-4871
kr	-4872
ソ連	-4873
äuf	-4874
كار	-4875
olle	-4876
اهدة	-4877
▁urs	-4878
wards	-4879
lassen	-4880
▁sosten	-4881
dec	-4882
لاف	-4883
▁ub	-4884
▁日本	-4885
▁día	-4886
▁Perché	-4887
▁gespielt	-4888
مي	-4889
ney	-4890
▁UN	-4891
▁os	-4892
最初の	-4893
▁Bes	-4894
▁dém	-4895
▁fra	-4896
▁mac	-4897
▁نفس	-4898
emple	-4899
▁rich	-4900
▁tierra	-4901
▁tratado	-4902
▁conocido	-4903
▁utilizan	-4904
lish	-4905
èmes	-4906
▁day	-4907
▁Alex	-4908
▁groupes	-4909
eum	-4910
many	-4911
غيير	-4912
▁fut	-4913
▁1980	-4914
▁pasó	-4915
▁traité	-4916
ويس	-4917
▁ze	-4918
▁bor	-4919
▁pag	-4920
▁sac	-4921
▁otra	-4922
▁macht	-4923
▁يعتبر	-4924
▁German	-4925
طق	-4926
sie	-4927
brit	-4928
ford	-4929
عليم	-4930
▁asc	-4931
だったか	-4932
▁ejér	-4933
atalla	-4934
▁Spect	-4935
▁occur	-4936
ていましたか	-4937
▁Albert	-4938
▁aufgenommen	-4939
اصمة	-4940
▁tent	-4941
▁vari	-4942
▁house	-4943
▁tradu	-4944
▁segunda	-4945
egn	-4946
iza	-4947
▁تس	-4948
▁تط	-4949
erca	-4950
itté	-4951
ough	-4952
▁rus	-4953
▁قال	-4954
▁Cour	-4955
▁أطول	-4956
▁devenu	-4957
FA	-4958
この	-4959
ンが	-4960
Sch	-4961
ؤول	-4962
▁ib	-4963
▁اف	-4964
رنسا	-4965
aggio	-4966
▁font	-4967
▁Stato	-4968
▁مصطلح	-4969
▁moderne	-4970
シャ	-4971
国は	-4972
iore	-4973
▁Bür	-4974
▁Kat	-4975
▁ger	-4976
terre	-4977
▁idea	-4978
ierten	-4979
▁großen	-4980
▁membres	-4981
▁bataille	-4982
▁proporcion	-4983
azi	-4984
cte	-4985
ene	-4986
▁ég	-4987
▁بم	-4988
äten	-4989
▁Fam	-4990
▁gla	-4991
▁allow	-4992
▁William	-4993
グラ	-4994
生ま	-4995
oni	-4996
▁Bere	-4997
▁last	-4998
▁polic	-4999
▁before	-5000
との	-5001
ピック	-5002
▁ale	-5003
▁déf	-5004
▁كرة	-5005
▁neue	-5006
▁campus	-5007
▁creato	-5008
▁Pendant	-5009
ré	-5010
دو	-5011
ミー賞	-5012
ählt	-5013
▁gab	-5014
igung	-5015
poque	-5016
estaur	-5017
▁Oltre	-5018
▁カ	-5019
رتب	-5020
がより	-5021
ouis	-5022
اليا	-5023
▁gar	-5024
▁ucc	-5025
▁cours	-5026
▁début	-5027
▁point	-5028
schnitt	-5029
▁forces	-5030
▁struct	-5031
▁tribun	-5032
▁pouvoir	-5033
▁desarroll	-5034
アル	-5035
人口	-5036
▁Bu	-5037
term	-5038
▁فيه	-5039
されたの	-5040
outube	-5041
▁Gramm	-5042
▁neces	-5043
▁distin	-5044
▁batalla	-5045
でき	-5046
سيح	-5047
▁ra	-5048
▁rè	-5049
sont	-5050
الات	-5051
itato	-5052
▁prob	-5053
▁2006?	-5054
▁chaque	-5055
▁church	-5056
▁possono	-5057
ece	-5058
ندن	-5059
▁ún	-5060
▁Fin	-5061
▁Nue	-5062
ielle	-5063
▁zinc	-5064
▁Schla	-5065
▁tratt	-5066
ós	-5067
ائل	-5068
burg	-5069
▁Lut	-5070
▁alt	-5071
▁aug	-5072
▁bir	-5073
▁prev	-5074
▁tres	-5075
▁Staat	-5076
▁Saison	-5077
▁adoles	-5078
issenschaft	-5079
▁Charleston	-5080
ضم	-5081
ull	-5082
vor	-5083
éle	-5084
لاح	-5085
▁agen	-5086
▁cuer	-5087
▁fine	-5088
▁لندن	-5089
▁reino	-5090
▁Empire	-5091
▁number	-5092
▁stabil	-5093
▁فيكتوريا	-5094
óm	-5095
öm	-5096
زن	-5097
▁É	-5098
▁Tw	-5099
ided	-5100
oten	-5101
▁Res	-5102
▁hin	-5103
▁قاد	-5104
▁clas	-5105
▁rang	-5106
▁لاول	-5107
▁House	-5108
▁canad	-5109
▁actual	-5110
▁caused	-5111
▁النظام	-5112
ró	-5113
uj	-5114
事件	-5115
発生	-5116
org	-5117
zeug	-5118
بتون	-5119
راسة	-5120
▁Hel	-5121
▁Pla	-5122
▁roi	-5123
▁نشر	-5124
▁capt	-5125
▁الاب	-5126
▁حصلت	-5127
iennes	-5128
▁الشخص	-5129
▁aspect	-5130
▁dirige	-5131
▁perman	-5132
▁proces	-5133
-2	-5134
قع	-5135
ハン	-5136
tens	-5137
▁sede	-5138
▁السن	-5139
ouvert	-5140
▁china	-5141
▁incor	-5142
▁region	-5143
▁concent	-5144
▁influen	-5145
んだ	-5146
كيل	-5147
ulen	-5148
ريقة	-5149
▁1970	-5150
▁held	-5151
iso	-5152
med	-5153
▁تد	-5154
When	-5155
▁Hen	-5156
▁tom	-5157
lique	-5158
weise	-5159
▁انها	-5160
▁study	-5161
inación	-5162
▁Marvel	-5163
▁menudo	-5164
▁Spectre	-5165
▁through	-5166
トル	-5167
orden	-5168
uring	-5169
▁liter	-5170
▁orden	-5171
▁continu	-5172
▁filosof	-5173
▁ursprün	-5174
の方	-5175
ッド	-5176
オリン	-5177
lais	-5178
▁nut	-5179
▁Imper	-5180
▁Estonia	-5181
امج	-5182
سمح	-5183
فلام	-5184
▁Jud	-5185
▁Span	-5186
▁höch	-5187
▁وفقا	-5188
▁antib	-5189
▁الاصل	-5190
▁الانس	-5191
▁religi	-5192
▁contempor	-5193
させ	-5194
ark	-5195
▁Si	-5196
▁XI	-5197
iety	-5198
ليزية	-5199
▁cree	-5200
▁تسمى	-5201
オリンピック	-5202
ización	-5203
▁einige	-5204
gleterre	-5205
▁società	-5206
▁certains	-5207
▁military	-5208
チャ	-5209
fte	-5210
used	-5211
lands	-5212
▁High	-5213
▁vida	-5214
▁بناء	-5215
▁System	-5216
▁bacter	-5217
▁aliment	-5218
ikanischen	-5219
adr	-5220
olar	-5221
itute	-5222
▁chef	-5223
▁veces	-5224
▁الاسل	-5225
▁cultura	-5226
▁verursacht	-5227
hib	-5228
fica	-5229
rote	-5230
vuto	-5231
دارس	-5232
▁abs	-5233
▁hol	-5234
oléon	-5235
press	-5236
▁austr	-5237
▁mejor	-5238
cciones	-5239
▁continent	-5240
Am	-5241
zz	-5242
カー	-5243
ياء	-5244
▁Lo	-5245
▁Tag	-5246
▁nor	-5247
▁blan	-5248
▁gioc	-5249
▁peup	-5250
▁Canad	-5251
▁publié	-5252
▁relations	-5253
▁Frankreich	-5254
ât	-5255
Est	-5256
oph	-5257
inese	-5258
▁conosci	-5259
▁political	-5260
50	-5261
大学	-5262
III	-5263
arn	-5264
put	-5265
دية	-5266
▁ps	-5267
itar	-5268
tera	-5269
▁foc	-5270
▁Mich	-5271
▁mais	-5272
▁anche	-5273
▁البرت	-5274
▁production	-5275
▁pubblicato	-5276
can	-5277
ieg	-5278
iera	-5279
onie	-5280
ords	-5281
▁geg	-5282
▁var	-5283
▁jour	-5284
▁patr	-5285
▁zone	-5286
▁Chine	-5287
▁الموج	-5288
▁energía	-5289
▁caracter	-5290
▁resident	-5291
PA	-5292
نت	-5293
itel	-5294
very	-5295
▁akt	-5296
issau	-5297
▁mean	-5298
▁solar	-5299
▁déclar	-5300
▁offizi	-5301
▁raison	-5302
▁official	-5303
ahl	-5304
دمة	-5305
طلق	-5306
ville	-5307
▁والت	-5308
▁haven	-5309
▁اصبحت	-5310
▁success	-5311
17	-5312
めた	-5313
建設	-5314
azz	-5315
hie	-5316
tri	-5317
zös	-5318
سون	-5319
endo	-5320
▁abb	-5321
▁cot	-5322
▁للح	-5323
ossen	-5324
ouver	-5325
قاطعة	-5326
▁song	-5327
▁verl	-5328
▁يحدث	-5329
▁islam	-5330
▁punto	-5331
▁compañía	-5332
utet	-5333
▁DST	-5334
▁río	-5335
laves	-5336
▁cada	-5337
▁agric	-5338
▁built	-5339
▁diese	-5340
▁posit	-5341
ór	-5342
スー	-5343
何を	-5344
نيف	-5345
ache	-5346
▁الري	-5347
▁Nueva	-5348
▁اليوم	-5349
antwort	-5350
▁historia	-5351
▁Australia	-5352
äch	-5353
ئية	-5354
دود	-5355
▁Spe	-5356
▁dés	-5357
▁rey	-5358
▁Grie	-5359
▁اخرى	-5360
Bissau	-5361
▁2005?	-5362
▁Jahre	-5363
▁emper	-5364
▁habit	-5365
▁single	-5366
US	-5367
رو	-5368
erb	-5369
▁يد	-5370
with	-5371
▁cub	-5372
▁osp	-5373
▁توف	-5374
▁attr	-5375
landais	-5376
▁condens	-5377
▁gebracht	-5378
▁released	-5379
hö	-5380
mé	-5381
irk	-5382
يست	-5383
culo	-5384
وسيا	-5385
▁Dis	-5386
▁Jew	-5387
emble	-5388
▁2020	-5389
▁will	-5390
ftware	-5391
▁Datum	-5392
▁frequ	-5393
▁papel	-5394
▁étudi	-5395
▁Gesetz	-5396
▁registr	-5397
▁similar	-5398
▁ejército	-5399
eso	-5400
arts	-5401
▁Cre	-5402
▁نهر	-5403
parte	-5404
▁dieser	-5405
▁elimin	-5406
ルー	-5407
帝国	-5408
eff	-5409
hol	-5410
nom	-5411
uns	-5412
راع	-5413
bros	-5414
were	-5415
zion	-5416
▁Jes	-5417
▁ril	-5418
▁جون	-5419
▁Ingl	-5420
▁russ	-5421
idence	-5422
▁Grund	-5423
▁disposit	-5424
▁Königreich	-5425
تل	-5426
▁تب	-5427
ffen	-5428
vest	-5429
aterra	-5430
▁fourn	-5431
▁تفعله	-5432
▁altern	-5433
▁segundo	-5434
▁AC	-5435
ness	-5436
▁Mod	-5437
▁kon	-5438
▁sov	-5439
▁morte	-5440
▁Philip	-5441
▁Atlantic	-5442
▁premiers	-5443
صة	-5444
dom	-5445
امة	-5446
ورن	-5447
,000	-5448
iani	-5449
roup	-5450
vato	-5451
▁Ann	-5452
▁Sal	-5453
armée	-5454
▁التاريخ	-5455
▁Inglaterra	-5456
شل	-5457
軍が	-5458
ogn	-5459
▁مث	-5460
inea	-5461
▁ans	-5462
▁شعب	-5463
▁Kong	-5464
▁live	-5465
يح	-5466
▁Pun	-5467
▁anc	-5468
▁pun	-5469
▁عمر	-5470
ietnam	-5471
ouleur	-5472
▁legge	-5473
▁murió	-5474
issement	-5475
▁conserv	-5476
21	-5477
اث	-5478
ダム	-5479
zza	-5480
aden	-5481
iapp	-5482
onda	-5483
▁set	-5484
▁tít	-5485
▁تاسيس	-5486
▁فرنسا	-5487
▁Irland	-5488
▁became	-5489
▁اليهود	-5490
▁Feynman	-5491
Te	-5492
を行	-5493
cis	-5494
فاق	-5495
häng	-5496
lior	-5497
▁IBM	-5498
▁dif	-5499
▁old	-5500
▁bede	-5501
▁líne	-5502
▁التص	-5503
▁juego	-5504
▁Church	-5505
▁studio	-5506
▁profession	-5507
aro	-5508
زيل	-5509
مان	-5510
▁PS	-5511
▁og	-5512
▁ve	-5513
orso	-5514
plus	-5515
type	-5516
▁Acc	-5517
▁dipl	-5518
▁dirit	-5519
▁défin	-5520
▁Universal	-5521
▁Weltkrieg	-5522
oca	-5523
orb	-5524
▁sm	-5525
▁USB	-5526
▁jeu	-5527
▁nob	-5528
▁Rome	-5529
▁prix	-5530
▁trav	-5531
▁élev	-5532
▁الاغ	-5533
▁شوبان	-5534
▁construction	-5535
isi	-5536
▁Kr	-5537
ennt	-5538
eria	-5539
omet	-5540
ارية	-5541
▁Seg	-5542
▁death	-5543
يه	-5544
ロッ	-5545
aggi	-5546
fois	-5547
prim	-5548
▁Mess	-5549
▁بشان	-5550
vaient	-5551
▁Islam	-5552
▁based	-5553
▁hecho	-5554
▁centre	-5555
▁change	-5556
▁natural	-5557
▁European	-5558
▁français	-5559
▁utilisée	-5560
▁gestorben	-5561
ローマ	-5562
blig	-5563
itos	-5564
▁درج	-5565
ories	-5566
▁Roma	-5567
▁modo	-5568
▁évén	-5569
▁stand	-5570
▁three	-5571
▁video	-5572
▁اوروبا	-5573
▁describe	-5574
サン	-5575
条約	-5576
راد	-5577
واس	-5578
hung	-5579
ined	-5580
èces	-5581
▁Bir	-5582
▁Dem	-5583
▁ces	-5584
▁sit	-5585
▁عقد	-5586
forma	-5587
encias	-5588
▁armen	-5589
▁water	-5590
▁Person	-5591
▁muerte	-5592
▁permit	-5593
▁formato	-5594
jer	-5595
icip	-5596
▁Mag	-5597
▁sop	-5598
autre	-5599
▁finanz	-5600
▁grupos	-5601
▁الوطني	-5602
▁miembros	-5603
rent	-5604
aster	-5605
▁bien	-5606
▁gens	-5607
ポーランド	-5608
جموعات	-5609
▁manif	-5610
▁attack	-5611
▁Vertrag	-5612
▁believe	-5613
▁founded	-5614
▁partido	-5615
ificación	-5616
غو	-5617
▁マ	-5618
ful	-5619
ogo	-5620
▁صنع	-5621
▁يوم	-5622
ittel	-5623
▁soll	-5624
▁moins	-5625
▁meille	-5626
▁Company	-5627
▁members	-5628
▁cantidad	-5629
uk	-5630
بع	-5631
その	-5632
vah	-5633
▁By	-5634
rich	-5635
▁منها	-5636
icenna	-5637
▁2000?	-5638
▁todos	-5639
▁groups	-5640
▁regard	-5641
▁nouveau	-5642
▁diventato	-5643
▁représent	-5644
né	-5645
当時	-5646
eri	-5647
يار	-5648
earch	-5649
▁Rock	-5650
▁drei	-5651
▁idol	-5652
▁vent	-5653
▁اعلى	-5654
▁بريط	-5655
▁chino	-5656
▁había	-5657
▁calend	-5658
▁famoso	-5659
▁América	-5660
▁cristian	-5661
▁personne	-5662
▁transport	-5663
óg	-5664
ード	-5665
irs	-5666
▁NA	-5667
allo	-5668
asth	-5669
ولوج	-5670
▁ناب	-5671
▁decl	-5672
▁يعمل	-5673
aleigh	-5674
▁Louis	-5675
▁favor	-5676
▁rifer	-5677
▁présent	-5678
تى	-5679
طر	-5680
eno	-5681
ähn	-5682
▁ál	-5683
▁Sun	-5684
▁réc	-5685
Europ	-5686
▁solo	-5687
▁tuber	-5688
▁consum	-5689
▁región	-5690
▁General	-5691
▁Griechen	-5692
▁PC	-5693
▁مج	-5694
icle	-5695
▁dai	-5696
▁gol	-5697
▁kle	-5698
▁2001	-5699
▁Coun	-5700
▁miss	-5701
▁verk	-5702
▁champ	-5703
▁invol	-5704
▁otten	-5705
▁Nintendo	-5706
▁:	-5707
キャ	-5708
何の	-5709
iko	-5710
rès	-5711
vió	-5712
عمل	-5713
لية	-5714
وجد	-5715
▁بن	-5716
▁Plan	-5717
▁phys	-5718
▁adult	-5719
▁concl	-5720
▁given	-5721
britann	-5722
▁Comcast	-5723
▁organism	-5724
eta	-5725
adra	-5726
unde	-5727
بيرة	-5728
▁Pre	-5729
▁spé	-5730
▁حكم	-5731
assen	-5732
icros	-5733
▁Sich	-5734
▁agua	-5735
▁open	-5736
▁Trans	-5737
▁esemp	-5738
▁القدي	-5739
▁نهاية	-5740
origine	-5741
ulation	-5742
▁través	-5743
▁العثور	-5744
▁concern	-5745
gef	-5746
lag	-5747
جوم	-5748
نان	-5749
irst	-5750
▁eng	-5751
▁lum	-5752
スーパー	-5753
▁ense	-5754
▁glob	-5755
ograph	-5756
ologia	-5757
vision	-5758
▁largo	-5759
▁mujer	-5760
▁probl	-5761
▁europé	-5762
pression	-5763
始ま	-5764
ياة	-5765
abil	-5766
flan	-5767
stru	-5768
zone	-5769
aften	-5770
aiser	-5771
▁aper	-5772
▁دولة	-5773
attagl	-5774
▁álbum	-5775
▁convirt	-5776
داء	-5777
あった	-5778
で最も	-5779
aume	-5780
etta	-5781
▁Aug	-5782
▁Kan	-5783
▁own	-5784
▁vic	-5785
っていた	-5786
▁Bowl	-5787
▁bran	-5788
▁coup	-5789
▁الار	-5790
▁يعرف	-5791
▁mostr	-5792
▁direct	-5793
▁portug	-5794
▁commerci	-5795
yd	-5796
اصر	-5797
rach	-5798
▁cerc	-5799
▁altri	-5800
▁campo	-5801
▁paesi	-5802
▁recib	-5803
▁scuola	-5804
▁المعروف	-5805
▁المملكة	-5806
▁المستخدم	-5807
هة	-5808
nah	-5809
を受け	-5810
into	-5811
odox	-5812
▁Bas	-5813
▁Gra	-5814
ables	-5815
alter	-5816
ilien	-5817
produ	-5818
▁Fort	-5819
▁head	-5820
▁المز	-5821
▁Straß	-5822
▁hacen	-5823
▁ihren	-5824
▁padre	-5825
▁beiden	-5826
▁Napoleón	-5827
ids	-5828
▁asi	-5829
▁dog	-5830
▁حتى	-5831
icago	-5832
جلترا	-5833
▁back	-5834
▁chans	-5835
▁rilas	-5836
▁juegos	-5837
▁seconda	-5838
▁Football	-5839
▁البريطانية	-5840
40	-5841
ij	-5842
ルの	-5843
van	-5844
▁No	-5845
glés	-5846
▁Bra	-5847
▁gas	-5848
▁roy	-5849
▁كار	-5850
frica	-5851
▁bene	-5852
▁جنوب	-5853
▁nuovo	-5854
▁الملكة	-5855
▁station	-5856
を受賞	-5857
▁pen	-5858
どの国の	-5859
ibile	-5860
خابات	-5861
▁fare	-5862
ported	-5863
▁Selon	-5864
▁satell	-5865
▁seinen	-5866
▁Gericht	-5867
▁svilupp	-5868
▁Schlacht	-5869
▁trouvent	-5870
ضر	-5871
誰か	-5872
alk	-5873
cas	-5874
èce	-5875
جيل	-5876
يفة	-5877
alen	-5878
يريا	-5879
▁abr	-5880
となった	-5881
onais	-5882
▁Cork	-5883
▁segu	-5884
ournal	-5885
▁passé	-5886
▁Bürger	-5887
▁grandi	-5888
mee	-5889
oft	-5890
ロシア	-5891
lait	-5892
▁Ale	-5893
blico	-5894
coles	-5895
▁sovi	-5896
▁tend	-5897
▁الفر	-5898
▁Produ	-5899
▁north	-5900
▁الارض	-5901
osition	-5902
▁Thomas	-5903
▁inglés	-5904
▁المسيح	-5905
▁Organisation	-5906
út	-5907
ريت	-5908
وست	-5909
ande	-5910
atif	-5911
izia	-5912
▁fle	-5913
どの国か	-5914
térie	-5915
▁Kath	-5916
▁fium	-5917
▁usar	-5918
▁تسبب	-5919
uments	-5920
▁Dutch	-5921
▁série	-5922
▁wrote	-5923
▁الجوية	-5924
▁بوصفها	-5925
▁معاهدة	-5926
▁problema	-5927
aris	-5928
▁Han	-5929
▁Süd	-5930
▁sag	-5931
épend	-5932
▁tener	-5933
▁الكنيسة	-5934
▁نابليون	-5935
▁considéré	-5936
▁الانجليزية	-5937
に出	-5938
合衆	-5939
فيذ	-5940
▁Em	-5941
onne	-5942
▁Ide	-5943
ichen	-5944
قتصاد	-5945
▁Herr	-5946
▁down	-5947
▁الحر	-5948
ilight	-5949
▁haute	-5950
▁lavor	-5951
▁ايدول	-5952
▁concer	-5953
▁المركز	-5954
▁Namibia	-5955
هي	-5956
▁Jo	-5957
krit	-5958
lage	-5959
pear	-5960
▁Dav	-5961
▁حيث	-5962
▁actu	-5963
▁مركز	-5964
でしょうか	-5965
▁Corea	-5966
▁titre	-5967
▁depart	-5968
▁feature	-5969
▁musulman	-5970
Université	-5971
▁estableció	-5972
大会	-5973
sur	-5974
umb	-5975
unid	-5976
سمية	-5977
▁Nob	-5978
▁tot	-5979
isión	-5980
jiang	-5981
▁ogni	-5982
Quanti	-5983
▁questo	-5984
▁conflic	-5985
アン	-5986
ーン	-5987
امي	-5988
▁vu	-5989
▁Geg	-5990
▁ميل	-5991
▁Ende	-5992
▁الثالث	-5993
▁gesehen	-5994
▁different	-5995
▁produziert	-5996
▁Northwestern	-5997
ウィ	-5998
ウェ	-5999
▁Ré	-6000
▁هم	-6001
isis	-6002
ofür	-6003
▁Jul	-6004
▁تعت	-6005
はどこの	-6006
forme	-6007
útbol	-6008
▁1940	-6009
▁homb	-6010
▁joue	-6011
▁luch	-6012
▁القط	-6013
▁الدوري	-6014
▁momento	-6015
▁الاحيان	-6016
▁Napoléon	-6017
▁scientif	-6018
▁rappresent	-6019
▁généralement	-6020
▁第	-6021
bli	-6022
eck	-6023
、19	-6024
atre	-6025
▁Tra	-6026
▁ترك	-6027
eller	-6028
▁بالن	-6029
▁Regel	-6030
▁corte	-6031
ination	-6032
▁Religion	-6033
▁ministro	-6034
▁política	-6035
▁established	-6036
év	-6037
を持	-6038
igo	-6039
▁أي	-6040
erse	-6041
miss	-6042
▁cit	-6043
▁pie	-6044
によって	-6045
▁Bern	-6046
▁dato	-6047
▁them	-6048
▁ersch	-6049
▁estud	-6050
ontinent	-6051
▁Royaume	-6052
ジェ	-6053
عاب	-6054
ركات	-6055
▁2003	-6056
▁body	-6057
▁coll	-6058
▁whom	-6059
▁الثق	-6060
▁critic	-6061
▁fútbol	-6062
▁squadra	-6063
▁versucht	-6064
▁estadounid	-6065
hab	-6066
law	-6067
zas	-6068
جرة	-6069
ينغ	-6070
▁bât	-6071
▁دور	-6072
▁call	-6073
▁State	-6074
▁match	-6075
ificato	-6076
quitect	-6077
▁classe	-6078
▁police	-6079
▁relación	-6080
مز	-6081
ウォ	-6082
ルク	-6083
開発	-6084
علق	-6085
は何人	-6086
icia	-6087
quer	-6088
umen	-6089
ائية	-6090
▁ذلك	-6091
iction	-6092
▁ihrer	-6093
▁الاعل	-6094
▁الخاص	-6095
▁depuis	-6096
ikanische	-6097
▁primeros	-6098
▁utilisés	-6099
▁américaine	-6100
▁britannique	-6101
ops	-6102
arse	-6103
ينيا	-6104
▁rim	-6105
▁vom	-6106
ember	-6107
terra	-6108
System	-6109
atures	-6110
izzato	-6111
taines	-6112
ustrie	-6113
▁beste	-6114
▁الجيش	-6115
▁griech	-6116
▁Vietnam	-6117
▁current	-6118
▁estudio	-6119
▁Hauptstadt	-6120
んな	-6121
日に	-6122
وين	-6123
▁Lee	-6124
▁Lin	-6125
▁bit	-6126
▁röm	-6127
griff	-6128
▁häuf	-6129
▁augment	-6130
▁característ	-6131
▁estudiantes	-6132
Re	-6133
世紀	-6134
大戦	-6135
tem	-6136
ظرية	-6137
▁Cap	-6138
における	-6139
akter	-6140
iller	-6141
▁creó	-6142
▁افضل	-6143
▁light	-6144
▁reina	-6145
vention	-6146
▁animal	-6147
▁species	-6148
▁caractér	-6149
▁centrale	-6150
▁programm	-6151
▁verantwort	-6152
12	-6153
オス	-6154
ivre	-6155
ينات	-6156
culos	-6157
einfl	-6158
empla	-6159
örper	-6160
▁Club	-6161
▁Luft	-6162
▁each	-6163
▁need	-6164
▁tous	-6165
はどちらが	-6166
▁Techn	-6167
▁efect	-6168
▁انشاء	-6169
ization	-6170
▁energy	-6171
▁Everton	-6172
▁battagl	-6173
▁version	-6174
▁الانواع	-6175
30	-6176
▁اط	-6177
punk	-6178
that	-6179
▁360	-6180
واسطة	-6181
▁hold	-6182
▁steht	-6183
▁Standard	-6184
起こ	-6185
éra	-6186
▁Ob	-6187
ために	-6188
enze	-6189
usqu	-6190
▁Cos	-6191
▁jun	-6192
▁rac	-6193
▁اقل	-6194
lagen	-6195
mandu	-6196
▁Gebä	-6197
▁Mary	-6198
▁home	-6199
▁يسمى	-6200
uzione	-6201
▁Henry	-6202
▁Shell	-6203
▁الاسا	-6204
erweise	-6205
▁französ	-6206
誰が	-6207
ilm	-6208
rak	-6209
افين	-6210
▁All	-6211
chest	-6212
▁Camp	-6213
▁Sand	-6214
▁Domin	-6215
アメリカ合衆	-6216
▁format	-6217
▁states	-6218
▁بواسطة	-6219
▁restaur	-6220
▁contrôle	-6221
▁arquitect	-6222
▁organización	-6223
eda	-6224
واج	-6225
ويت	-6226
criv	-6227
iser	-6228
town	-6229
▁Kal	-6230
enses	-6231
video	-6232
▁Song	-6233
Welche	-6234
▁menos	-6235
▁sorti	-6236
▁source	-6237
▁Austral	-6238
▁parties	-6239
▁Festival	-6240
っち	-6241
何か	-6242
opp	-6243
ucle	-6244
▁bio	-6245
▁bud	-6246
▁sho	-6247
▁grad	-6248
▁vict	-6249
iencia	-6250
▁eserc	-6251
▁kanye	-6252
▁somal	-6253
▁trouv	-6254
▁beeinfl	-6255
▁ejemplo	-6256
▁الجديدة	-6257
utilisation	-6258
exp	-6259
▁Dr	-6260
▁if	-6261
▁وس	-6262
▁lég	-6263
▁syn	-6264
Spiel	-6265
ollow	-6266
porto	-6267
ührer	-6268
▁vide	-6269
▁لعبة	-6270
▁esper	-6271
▁fréqu	-6272
▁party	-6273
itución	-6274
のどちらですか	-6275
▁Veranst	-6276
▁allemand	-6277
▁especies	-6278
▁Kathmandu	-6279
▁verantwortlich	-6280
dic	-6281
voy	-6282
ديل	-6283
oney	-6284
ving	-6285
▁bil	-6286
icina	-6287
▁grec	-6288
▁view	-6289
▁Über	-6290
ientos	-6291
▁cambi	-6292
▁islas	-6293
▁visto	-6294
▁الاحت	-6295
▁الفيل	-6296
▁لديهم	-6297
▁cuántas	-6298
▁geschaffen	-6299
íos	-6300
يجة	-6301
▁Ath	-6302
▁rit	-6303
いますか	-6304
▁يعيش	-6305
▁Antar	-6306
▁altra	-6307
▁areas	-6308
▁اعادة	-6309
▁الطائ	-6310
▁pourrait	-6311
▁بريطانيا	-6312
▁administr	-6313
▁utilizado	-6314
▁constitution	-6315
SR	-6316
سخ	-6317
فر	-6318
his	-6319
اسع	-6320
تمع	-6321
▁Au	-6322
acio	-6323
omat	-6324
▁May	-6325
▁byu	-6326
▁jur	-6327
▁kil	-6328
▁Bill	-6329
▁rule	-6330
▁الات	-6331
▁categ	-6332
▁limit	-6333
▁Helena	-6334
▁example	-6335
تمد	-6336
هزة	-6337
otte	-6338
pret	-6339
▁say	-6340
▁tar	-6341
▁ملك	-6342
reten	-6343
▁Wenn	-6344
▁agli	-6345
▁führ	-6346
▁indic	-6347
▁جزيرة	-6348
▁هافين	-6349
férence	-6350
razione	-6351
▁comien	-6352
▁cuerpo	-6353
▁Bermuda	-6354
フェ	-6355
ヴァ	-6356
Bre	-6357
ニュー	-6358
pose	-6359
xico	-6360
▁lic	-6361
petto	-6362
▁Cubs	-6363
▁geme	-6364
▁البي	-6365
▁order	-6366
▁diffic	-6367
anischen	-6368
▁Institute	-6369
Il	-6370
的な	-6371
高い	-6372
abe	-6373
xim	-6374
ليل	-6375
anda	-6376
îles	-6377
▁vit	-6378
▁علم	-6379
▁يحت	-6380
ément	-6381
▁pract	-6382
▁العصر	-6383
▁Proble	-6384
▁caratter	-6385
▁Revolution	-6386
▁wichtigste	-6387
ステ	-6388
erd	-6389
mon	-6390
ueb	-6391
zie	-6392
▁NY	-6393
▁Ze	-6394
تيجة	-6395
▁ogg	-6396
▁موج	-6397
andes	-6398
▁game	-6399
uption	-6400
▁Regno	-6401
▁Wofür	-6402
▁الاسب	-6403
énergie	-6404
▁Africa	-6405
▁Cuando	-6406
▁Museum	-6407
▁università	-6408
Ch	-6409
jab	-6410
と呼ば	-6411
ロッパ	-6412
ived	-6413
ural	-6414
▁Rec	-6415
▁mun	-6416
▁vac	-6417
▁التس	-6418
▁equip	-6419
▁Region	-6420
▁biblio	-6421
▁Gruppen	-6422
▁organization	-6423
ôt	-6424
زو	-6425
何月	-6426
bit	-6427
ron	-6428
ror	-6429
▁Zw	-6430
asso	-6431
fahr	-6432
iker	-6433
ünst	-6434
▁bew	-6435
▁pic	-6436
▁sea	-6437
azine	-6438
▁grow	-6439
ヨーロッパ	-6440
anische	-6441
hejiang	-6442
▁المصطلح	-6443
▁manifest	-6444
▁religios	-6445
▁religión	-6446
bri	-6447
kte	-6448
èle	-6449
وفي	-6450
amen	-6451
eles	-6452
▁vel	-6453
▁لاي	-6454
otion	-6455
▁Haus	-6456
▁anti	-6457
▁apare	-6458
▁alcuni	-6459
▁الجديد	-6460
▁Internet	-6461
اك	-6462
学校	-6463
yth	-6464
▁漱石	-6465
が最も	-6466
back	-6467
fass	-6468
hrop	-6469
ivil	-6470
urre	-6471
▁Dov	-6472
▁Vol	-6473
▁verd	-6474
▁لكرة	-6475
▁Black	-6476
▁Music	-6477
▁peque	-6478
▁Kultur	-6479
▁Virgin	-6480
▁Bretaña	-6481
▁azienda	-6482
11	-6483
かけ	-6484
につ	-6485
uve	-6486
ابل	-6487
▁TV	-6488
▁ol	-6489
▁tí	-6490
adel	-6491
irse	-6492
▁Ele	-6493
▁niv	-6494
rebbe	-6495
▁المط	-6496
isiert	-6497
▁Force	-6498
▁lungo	-6499
▁neuen	-6500
▁oblig	-6501
▁volte	-6502
▁انواع	-6503
▁habitu	-6504
▁spesso	-6505
▁équipe	-6506
icrosoft	-6507
▁canción	-6508
▁bedeutet	-6509
▁territorio	-6510
▁Großbritann	-6511
Is	-6512
ショ	-6513
try	-6514
yen	-6515
صبح	-6516
ينج	-6517
ゲーム	-6518
kten	-6519
uppe	-6520
▁sym	-6521
rogen	-6522
éxico	-6523
▁Verb	-6524
▁célè	-6525
▁mouv	-6526
▁muss	-6527
▁الاع	-6528
▁الله	-6529
itario	-6530
yanmar	-6531
▁potre	-6532
▁letzte	-6533
▁musica	-6534
▁propri	-6535
▁Chinese	-6536
▁Californ	-6537
▁superfic	-6538
▁aj	-6539
の方が	-6540
▁bal	-6541
▁nur	-6542
▁ارت	-6543
anger	-6544
antin	-6545
pollo	-6546
teilt	-6547
▁prat	-6548
▁beyon	-6549
▁fuera	-6550
atiques	-6551
▁Grammy	-6552
▁quante	-6553
▁título	-6554
▁اليونان	-6555
De	-6556
以降	-6557
的に	-6558
Was	-6559
phi	-6560
▁وز	-6561
todo	-6562
راضي	-6563
▁Ser	-6564
iante	-6565
ience	-6566
▁Pflan	-6567
▁Titel	-6568
▁adopt	-6569
▁enreg	-6570
▁front	-6571
▁fédér	-6572
▁Schule	-6573
▁attravers	-6574
人物	-6575
affe	-6576
▁Jan	-6577
▁señ	-6578
ようにな	-6579
viron	-6580
▁repla	-6581
▁manten	-6582
▁rempla	-6583
▁établi	-6584
▁zusammen	-6585
ジア	-6586
vie	-6587
اتل	-6588
▁ار	-6589
atte	-6590
▁Sum	-6591
verse	-6592
ingham	-6593
reiben	-6594
▁droit	-6595
▁الشعب	-6596
▁preced	-6597
▁Chicago	-6598
▁average	-6599
▁students	-6600
後の	-6601
誰の	-6602
▁ip	-6603
▁apro	-6604
▁engl	-6605
▁télé	-6606
abhäng	-6607
▁corre	-6608
▁dichi	-6609
▁dimin	-6610
▁medio	-6611
lamento	-6612
▁escuelas	-6613
▁للولايات	-6614
▁イ	-6615
ーの	-6616
هرب	-6617
▁Mc	-6618
▁يف	-6619
チーム	-6620
cita	-6621
pond	-6622
zept	-6623
اعدة	-6624
▁gal	-6625
▁run	-6626
▁نور	-6627
▁cred	-6628
▁teil	-6629
はどれくら	-6630
▁Burma	-6631
▁Inter	-6632
▁cerve	-6633
▁fiume	-6634
▁membri	-6635
Bretagne	-6636
▁benefic	-6637
▁encuentran	-6638
Gr	-6639
rig	-6640
にある	-6641
from	-6642
irma	-6643
▁rip	-6644
Quels	-6645
änger	-6646
▁nive	-6647
▁stor	-6648
▁سانت	-6649
スーパーボ	-6650
▁Avenue	-6651
▁Guinea	-6652
▁treaty	-6653
▁benutzt	-6654
▁portato	-6655
▁proceso	-6656
وء	-6657
優勝	-6658
omo	-6659
يمة	-6660
▁Sc	-6661
▁عض	-6662
hken	-6663
▁موا	-6664
れている	-6665
histo	-6666
istic	-6667
orias	-6668
▁catt	-6669
れましたか	-6670
iziert	-6671
▁Buddh	-6672
▁former	-6673
▁Avicenna	-6674
▁temperatura	-6675
ám	-6676
idi	-6677
pop	-6678
œuv	-6679
متى	-6680
▁Fa	-6681
▁sw	-6682
▁بط	-6683
akes	-6684
ieux	-6685
▁ارس	-6686
▁عشر	-6687
▁Tour	-6688
▁dice	-6689
▁التش	-6690
omaine	-6691
▁force	-6692
がありますか	-6693
iciones	-6694
▁lorsqu	-6695
▁taille	-6696
▁indigen	-6697
▁geworden	-6698
Angleterre	-6699
▁battaglia	-6700
▁convirtió	-6701
▁movimiento	-6702
▁unterstützt	-6703
IC	-6704
のか	-6705
اتي	-6706
بار	-6707
علم	-6708
▁25	-6709
▁اض	-6710
番目に	-6711
▁Sam	-6712
▁bie	-6713
▁luz	-6714
っている	-6715
ものは何	-6716
aines	-6717
▁rate	-6718
▁reçu	-6719
▁Bezug	-6720
▁legal	-6721
▁tipos	-6722
▁Kinder	-6723
American	-6724
▁Florida	-6725
▁regione	-6726
▁construit	-6727
Pr	-6728
ep	-6729
هو	-6730
▁آ	-6731
nel	-6732
リング	-6733
hire	-6734
izar	-6735
ourd	-6736
uras	-6737
▁Out	-6738
▁baj	-6739
▁يست	-6740
どちらの	-6741
世界大戦	-6742
▁berü	-6743
▁erhö	-6744
▁الصح	-6745
▁بالل	-6746
Europe	-6747
▁retir	-6748
▁México	-6749
▁confer	-6750
azionale	-6751
▁According	-6752
ól	-6753
▁Ö	-6754
ンは	-6755
adh	-6756
ape	-6757
oco	-6758
どっち	-6759
كاني	-6760
▁ABC	-6761
▁Gem	-6762
▁XIX	-6763
▁gle	-6764
vered	-6765
▁gioco	-6766
▁الأول	-6767
▁happened	-6768
▁weiterer	-6769
ئا	-6770
世の	-6771
tan	-6772
راق	-6773
▁FC	-6774
▁تخ	-6775
▁لو	-6776
▁يب	-6777
does	-6778
erve	-6779
gent	-6780
iend	-6781
endre	-6782
prise	-6783
ونسيه	-6784
▁fact	-6785
▁Egypt	-6786
▁nucle	-6787
itation	-6788
▁inspir	-6789
▁parola	-6790
▁Neptune	-6791
▁enfants	-6792
▁direction	-6793
Uni	-6794
abb	-6795
avo	-6796
ettr	-6797
inen	-6798
▁Una	-6799
▁ach	-6800
▁règ	-6801
ereur	-6802
▁erre	-6803
lemagne	-6804
▁legisl	-6805
▁المناطق	-6806
▁américain	-6807
كا	-6808
199	-6809
hne	-6810
pan	-6811
▁Bü	-6812
klär	-6813
uppen	-6814
▁même	-6815
▁todo	-6816
▁معدل	-6817
▁compl	-6818
▁speak	-6819
▁يتعلق	-6820
aziland	-6821
▁Además	-6822
▁décrit	-6823
▁estilo	-6824
▁العامة	-6825
▁schools	-6826
▁المحكمة	-6827
▁computer	-6828
▁contiene	-6829
00?	-6830
gew	-6831
ieß	-6832
esla	-6833
hand	-6834
ومات	-6835
▁Pub	-6836
▁احت	-6837
▁اعط	-6838
otter	-6839
ética	-6840
▁bois	-6841
▁اثناء	-6842
▁descub	-6843
▁wieder	-6844
▁utilizó	-6845
▁البلدان	-6846
▁القديمة	-6847
▁industria	-6848
▁nationale	-6849
Be	-6850
دون	-6851
▁30	-6852
▁Dé	-6853
bero	-6854
unst	-6855
▁pay	-6856
▁جعل	-6857
▁1945	-6858
▁batt	-6859
▁brev	-6860
次世界大戦	-6861
▁repub	-6862
▁معركة	-6863
▁empire	-6864
▁Quiénes	-6865
の名前は何ですか	-6866
影響	-6867
ocke	-6868
▁pes	-6869
▁sug	-6870
troit	-6871
▁From	-6872
▁Hall	-6873
▁Samo	-6874
▁Test	-6875
▁لعام	-6876
▁causó	-6877
▁unido	-6878
▁nasser	-6879
histoire	-6880
▁dichiar	-6881
▁gewählt	-6882
wh	-6883
に入	-6884
dar	-6885
ثلة	-6886
راه	-6887
ورج	-6888
▁ép	-6889
は何年	-6890
side	-6891
▁Lig	-6892
▁bra	-6893
▁اخذ	-6894
▁Arab	-6895
▁Oper	-6896
▁said	-6897
▁verw	-6898
▁العن	-6899
▁بالت	-6900
▁ناصر	-6901
▁Armee	-6902
▁River	-6903
▁cerca	-6904
▁court	-6905
▁using	-6906
▁accord	-6907
▁berühm	-6908
▁النبات	-6909
▁Britain	-6910
▁Myanmar	-6911
▁nachdem	-6912
▁المكسيك	-6913
▁argument	-6914
▁Napoleone	-6915
▁angesehen	-6916
▁published	-6917
سيا	-6918
▁bi	-6919
inst	-6920
▁Anf	-6921
▁Div	-6922
▁Men	-6923
▁Sen	-6924
▁daz	-6925
▁usa	-6926
▁غال	-6927
▁Ziel	-6928
▁اكتش	-6929
▁طريق	-6930
▁Fluss	-6931
▁línea	-6932
▁sotto	-6933
▁المال	-6934
▁Commun	-6935
▁Seconde	-6936
▁austral	-6937
▁usually	-6938
▁populaire	-6939
▁structure	-6940
▁verwenden	-6941
▁Montevideo	-6942
の最	-6943
後に	-6944
asi	-6945
ema	-6946
igu	-6947
亡くな	-6948
erei	-6949
gono	-6950
hält	-6951
▁cho	-6952
▁برن	-6953
▁Cons	-6954
▁Germ	-6955
▁dazu	-6956
ellung	-6957
lossen	-6958
▁Bezie	-6959
▁Schwe	-6960
▁grado	-6961
▁تشكيل	-6962
ésident	-6963
▁Soviet	-6964
▁formed	-6965
▁souten	-6966
▁الموسم	-6967
▁character	-6968
▁développement	-6969
▁Großbritannien	-6970
80	-6971
と言	-6972
ロン	-6973
ワイ	-6974
bet	-6975
éré	-6976
فين	-6977
▁بج	-6978
▁يؤ	-6979
amin	-6980
cono	-6981
rado	-6982
reas	-6983
ستور	-6984
▁site	-6985
▁suoi	-6986
atalan	-6987
öglich	-6988
▁Tesla	-6989
▁confl	-6990
▁invad	-6991
▁عاصمة	-6992
chieden	-6993
ropolit	-6994
▁observ	-6995
▁contrib	-6996
▁Philosop	-6997
AF	-6998
BS	-6999
▁ス	-7000
ップ	-7001
ーズ	-7002
ämp	-7003
omme	-7004
▁ext	-7005
▁كات	-7006
▁Sony	-7007
▁habl	-7008
▁مثال	-7009
ciales	-7010
etwork	-7011
omment	-7012
▁Party	-7013
▁sujet	-7014
▁häufig	-7015
▁Twilight	-7016
レイ	-7017
ogr	-7018
بول	-7019
هاز	-7020
tosh	-7021
▁mic	-7022
entro	-7023
▁inte	-7024
▁late	-7025
▁sugg	-7026
▁woll	-7027
univers	-7028
▁aleman	-7029
▁beginn	-7030
▁muchos	-7031
▁laquelle	-7032
▁Geschichte	-7033
▁adolescent	-7034
Où	-7035
時期	-7036
agli	-7037
year	-7038
يكية	-7039
▁Bei	-7040
▁1950	-7041
▁Flug	-7042
▁magn	-7043
▁باري	-7044
▁ولكن	-7045
▁serve	-7046
▁الصنا	-7047
▁الطبي	-7048
wendung	-7049
▁libros	-7050
▁sexual	-7051
▁öffent	-7052
▁الفيلم	-7053
▁idiomas	-7054
▁الاطفال	-7055
▁également	-7056
ース	-7057
先に	-7058
usé	-7059
yst	-7060
ète	-7061
وبة	-7062
ghil	-7063
itud	-7064
▁179	-7065
▁nec	-7066
Which	-7067
ipend	-7068
▁Bush	-7069
▁Eins	-7070
▁pero	-7071
▁tant	-7072
▁Neben	-7073
▁متوسط	-7074
▁civile	-7075
▁profes	-7076
ghilterra	-7077
▁district	-7078
▁considera	-7079
ms	-7080
レン	-7081
face	-7082
usst	-7083
▁Tor	-7084
▁voy	-7085
▁يتح	-7086
hovah	-7087
istre	-7088
▁1960	-7089
▁auto	-7090
▁méth	-7091
▁المم	-7092
ración	-7093
▁Mexiko	-7094
▁chiama	-7095
▁البرتغ	-7096
▁Raleigh	-7097
▁الافراج	-7098
ii	-7099
رر	-7100
وذ	-7101
cta	-7102
يور	-7103
▁ah	-7104
▁AFL	-7105
▁fal	-7106
▁منح	-7107
ennes	-7108
▁circ	-7109
▁hard	-7110
▁liga	-7111
▁taux	-7112
▁Milit	-7113
▁conte	-7114
▁named	-7115
▁Lutero	-7116
▁colleg	-7117
▁década	-7118
ducation	-7119
istiques	-7120
▁tiempos	-7121
▁studenti	-7122
▁verschieden	-7123
▁principalmente	-7124
6,	-7125
▁バ	-7126
dis	-7127
gem	-7128
لول	-7129
ندي	-7130
▁MP	-7131
fern	-7132
ènes	-7133
▁And	-7134
▁Sie	-7135
▁sue	-7136
▁Hand	-7137
▁esta	-7138
▁rôle	-7139
▁Ägyp	-7140
fangen	-7141
▁broad	-7142
▁claim	-7143
cuencia	-7144
▁fuerza	-7145
▁unidos	-7146
▁algunas	-7147
▁empresa	-7148
▁geführt	-7149
▁building	-7150
▁Microsoft	-7151
▁emperador	-7152
▁troisième	-7153
roy	-7154
ائد	-7155
جاج	-7156
▁24	-7157
omos	-7158
▁way	-7159
▁لان	-7160
▁مقد	-7161
▁وصل	-7162
iddle	-7163
ientí	-7164
ocrat	-7165
porte	-7166
sieme	-7167
tagna	-7168
èrent	-7169
▁Laut	-7170
▁race	-7171
▁svol	-7172
▁vice	-7173
achsen	-7174
▁forte	-7175
▁Apollo	-7176
▁famous	-7177
▁scuole	-7178
▁vielen	-7179
minister	-7180
▁Insieme	-7181
▁comment	-7182
▁langues	-7183
▁servicio	-7184
開催	-7185
الب	-7186
عدة	-7187
cell	-7188
coup	-7189
▁Mat	-7190
▁Tem	-7191
▁iss	-7192
▁يون	-7193
▁eleg	-7194
▁الهدف	-7195
▁island	-7196
▁costitu	-7197
▁célèbre	-7198
▁lorsque	-7199
▁انجلترا	-7200
▁responsible	-7201
عر	-7202
軍の	-7203
Ind	-7204
▁وت	-7205
ateg	-7206
aval	-7207
bens	-7208
▁Emp	-7209
▁amo	-7210
▁Seit	-7211
▁doll	-7212
▁king	-7213
▁tard	-7214
▁شارع	-7215
▁primi	-7216
▁seule	-7217
▁times	-7218
▁البشر	-7219
▁تصنيف	-7220
▁Greece	-7221
▁cientí	-7222
▁destin	-7223
▁recher	-7224
▁anglais	-7225
▁inglese	-7226
ナル	-7227
ief	-7228
ots	-7229
▁شب	-7230
ards	-7231
iken	-7232
unes	-7233
ären	-7234
▁dej	-7235
gramm	-7236
omano	-7237
▁dens	-7238
▁carta	-7239
▁these	-7240
▁title	-7241
▁السنة	-7242
▁employ	-7243
▁Christian	-7244
▁International	-7245
エン	-7246
連合	-7247
ypr	-7248
ساء	-7249
folg	-7250
graf	-7251
لاثة	-7252
▁cad	-7253
▁ill	-7254
▁Guam	-7255
▁caso	-7256
▁مكتب	-7257
ußball	-7258
▁Japon	-7259
▁aussi	-7260
▁great	-7261
▁النها	-7262
は誰でしたか	-7263
▁adopté	-7264
▁europä	-7265
▁necess	-7266
▁transl	-7267
▁économ	-7268
▁الاصلي	-7269
▁Francis	-7270
▁aumento	-7271
▁command	-7272
▁contest	-7273
▁ricevuto	-7274
▁developed	-7275
▁ظ	-7276
開始	-7277
nen	-7278
فقة	-7279
sche	-7280
▁dép	-7281
▁âge	-7282
▁لغة	-7283
ohner	-7284
école	-7285
▁drit	-7286
lauben	-7287
équipe	-7288
▁Ergeb	-7289
▁madre	-7290
▁zweite	-7291
▁esercito	-7292
▁mouvement	-7293
▁événement	-7294
計画	-7295
die	-7296
▁Ib	-7297
▁ca	-7298
▁مم	-7299
enta	-7300
ipto	-7301
▁caz	-7302
▁سان	-7303
▁alli	-7304
▁atte	-7305
▁îles	-7306
izioni	-7307
▁regul	-7308
▁pestic	-7309
▁الفترة	-7310
▁Armenia	-7311
▁gemeins	-7312
▁software	-7313
▁Mitglieder	-7314
▁instrument	-7315
受賞	-7316
ods	-7317
▁جي	-7318
Dans	-7319
ried	-7320
zial	-7321
▁Red	-7322
Where	-7323
▁2004?	-7324
▁Japón	-7325
▁Unito	-7326
▁genet	-7327
▁romano	-7328
▁artista	-7329
▁esempio	-7330
▁municip	-7331
▁certaines	-7332
فن	-7333
bst	-7334
hnt	-7335
▁اه	-7336
▁لج	-7337
▁نق	-7338
afen	-7339
cias	-7340
pers	-7341
uest	-7342
▁Pat	-7343
▁vou	-7344
Union	-7345
assin	-7346
▁يسمح	-7347
Église	-7348
▁Nobel	-7349
▁lingu	-7350
▁selon	-7351
▁عملية	-7352
ception	-7353
▁factor	-7354
▁frühen	-7355
▁maison	-7356
cimiento	-7357
▁اليابان	-7358
▁internet	-7359
▁responsabile	-7360
ki	-7361
前に	-7362
戦い	-7363
発表	-7364
row	-7365
ólo	-7366
ابة	-7367
ارد	-7368
طاق	-7369
▁この	-7370
られる	-7371
インド	-7372
arsi	-7373
unch	-7374
▁تست	-7375
inner	-7376
occup	-7377
▁Sing	-7378
▁erst	-7379
▁init	-7380
▁ofre	-7381
▁ساوث	-7382
▁Santa	-7383
▁hasta	-7384
▁isola	-7385
▁الجام	-7386
▁تعتبر	-7387
▁affect	-7388
▁follow	-7389
▁specie	-7390
▁الرياض	-7391
▁Después	-7392
▁educación	-7393
▁desarrollo	-7394
▁superficie	-7395
▁organisation	-7396
獲得	-7397
ode	-7398
ظيم	-7399
هاور	-7400
▁Ang	-7401
▁Ist	-7402
▁دول	-7403
cteur	-7404
▁Stat	-7405
action	-7406
ildung	-7407
intosh	-7408
▁Sport	-7409
▁monar	-7410
▁supre	-7411
▁امريكا	-7412
lichkeit	-7413
▁Mundial	-7414
▁gedacht	-7415
▁llamado	-7416
▁refiere	-7417
▁Princess	-7418
んで	-7419
rio	-7420
öst	-7421
▁Pul	-7422
▁got	-7423
▁voc	-7424
▁فقط	-7425
▁cong	-7426
▁extr	-7427
▁four	-7428
どのような	-7429
▁Maria	-7430
▁films	-7431
Station	-7432
▁Egipto	-7433
▁attend	-7434
▁author	-7435
▁villes	-7436
▁Gebäude	-7437
▁Schweiz	-7438
▁install	-7439
▁relation	-7440
▁internation	-7441
As	-7442
aï	-7443
▁x	-7444
ラス	-7445
hov	-7446
bell	-7447
idió	-7448
ktiv	-7449
▁Gew	-7450
▁erm	-7451
▁خلق	-7452
▁ドイツ	-7453
boren	-7454
ريقيا	-7455
▁Mart	-7456
▁cres	-7457
▁mark	-7458
▁seit	-7459
▁درجة	-7460
▁Après	-7461
▁Grèce	-7462
▁الروس	-7463
▁الكون	-7464
essione	-7465
▁Kaiser	-7466
▁Londra	-7467
▁includ	-7468
▁theory	-7469
▁Energie	-7470
▁höchste	-7471
▁science	-7472
▁terminó	-7473
▁trovano	-7474
▁Ergebnis	-7475
▁transfer	-7476
▁occidental	-7477
▁„	-7478
リオ	-7479
▁تر	-7480
halb	-7481
kehr	-7482
▁Dig	-7483
▁age	-7484
▁sam	-7485
れたのは	-7486
embre	-7487
▁Cina	-7488
▁bird	-7489
argent	-7490
▁oppos	-7491
▁otras	-7492
▁vient	-7493
prochen	-7494
▁appear	-7495
スーパーボウル	-7496
▁militar	-7497
▁incorpor	-7498
▁nouvelle	-7499
▁languages	-7500
SA	-7501
使用	-7502
يزة	-7503
数が多	-7504
länd	-7505
oire	-7506
▁Bet	-7507
▁Gol	-7508
▁big	-7509
▁cul	-7510
▁dep	-7511
▁sen	-7512
egung	-7513
oslav	-7514
ución	-7515
ساعدة	-7516
▁Konf	-7517
▁Mill	-7518
atives	-7519
ettato	-7520
▁bevor	-7521
▁circu	-7522
▁reine	-7523
▁انتاج	-7524
هامبتون	-7525
▁crisis	-7526
▁électr	-7527
▁college	-7528
▁Brasilia	-7529
▁prodotto	-7530
▁utiliser	-7531
yo	-7532
شب	-7533
bes	-7534
jos	-7535
ونة	-7536
▁Kre	-7537
▁fus	-7538
▁بور	-7539
はいくつ	-7540
ified	-7541
owjet	-7542
▁Qing	-7543
▁ases	-7544
▁infr	-7545
▁vert	-7546
▁الخط	-7547
▁والم	-7548
▁calle	-7549
▁شعبية	-7550
▁teoría	-7551
▁الشركة	-7552
▁الطيور	-7553
▁الانسان	-7554
▁Alemania	-7555
▁gehalten	-7556
▁الامريكي	-7557
▁contribué	-7558
▁occidentale	-7559
uvo	-7560
▁قط	-7561
ordo	-7562
umin	-7563
äfte	-7564
▁Bel	-7565
ansas	-7566
uchen	-7567
▁Mass	-7568
▁Sans	-7569
▁audio	-7570
▁جائزة	-7571
は何でしたか	-7572
orthodox	-7573
▁استخدمت	-7574
▁الجنوبية	-7575
▁interpret	-7576
アカ	-7577
ッツ	-7578
ged	-7579
rot	-7580
راف	-7581
كال	-7582
▁Sm	-7583
▁UK	-7584
arth	-7585
edor	-7586
igur	-7587
ológ	-7588
▁Her	-7589
▁NYC	-7590
▁bur	-7591
▁لاح	-7592
▁cómo	-7593
▁rais	-7594
▁sull	-7595
▁área	-7596
▁القر	-7597
زنهاور	-7598
▁museo	-7599
▁tutti	-7600
▁report	-7601
▁المدارس	-7602
▁الالمانية	-7603
航空	-7604
記録	-7605
viv	-7606
▁KU	-7607
cipe	-7608
ommt	-7609
teca	-7610
▁ata	-7611
▁hor	-7612
▁جبل	-7613
オースト	-7614
ambre	-7615
entre	-7616
▁excl	-7617
▁vale	-7618
forman	-7619
istica	-7620
itäten	-7621
ändert	-7622
▁After	-7623
▁morto	-7624
▁الجزء	-7625
▁مختلف	-7626
▁dentro	-7627
▁femmes	-7628
▁method	-7629
▁Entwick	-7630
▁deutsch	-7631
▁vorgestellt	-7632
IA	-7633
▁Á	-7634
izó	-7635
غات	-7636
▁تف	-7637
▁DNA	-7638
▁dic	-7639
▁rid	-7640
▁tel	-7641
▁سجل	-7642
▁عصر	-7643
▁لتح	-7644
▁1920	-7645
▁leng	-7646
▁text	-7647
ajasth	-7648
années	-7649
iments	-7650
▁feder	-7651
▁niños	-7652
ichtung	-7653
▁inizio	-7654
▁uranio	-7655
▁باللغة	-7656
▁chanson	-7657
▁highest	-7658
▁التعليم	-7659
▁influence	-7660
ذج	-7661
占領	-7662
fra	-7663
▁Leg	-7664
▁mai	-7665
ompon	-7666
scher	-7667
▁Ming	-7668
▁host	-7669
▁nota	-7670
▁sólo	-7671
▁detto	-7672
▁india	-7673
▁ligne	-7674
▁Wasser	-7675
▁action	-7676
▁scoper	-7677
position	-7678
▁canzone	-7679
▁reempla	-7680
▁الوطنية	-7681
▁trattato	-7682
äh	-7683
ブラ	-7684
ria	-7685
▁مه	-7686
からの	-7687
フリカ	-7688
hamm	-7689
ktor	-7690
▁Soc	-7691
gypte	-7692
▁carb	-7693
▁find	-7694
▁rédu	-7695
▁أكثر	-7696
astern	-7697
cement	-7698
▁Zweit	-7699
▁العلم	-7700
▁المسل	-7701
▁cardin	-7702
▁utilise	-7703
▁durchschnitt	-7704
セン	-7705
hui	-7706
sta	-7707
وند	-7708
▁Ju	-7709
▁لي	-7710
chte	-7711
edio	-7712
ensa	-7713
ream	-7714
ying	-7715
لالة	-7716
▁Esp	-7717
ators	-7718
ituto	-7719
▁pron	-7720
▁proy	-7721
▁Barts	-7722
éroport	-7723
▁allowed	-7724
▁perform	-7725
▁dynastie	-7726
▁ministre	-7727
▁President	-7728
▁オ	-7729
ッホ	-7730
pes	-7731
rog	-7732
صار	-7733
▁Ho	-7734
▁cy	-7735
▁ém	-7736
anni	-7737
lang	-7738
reso	-7739
▁won	-7740
techn	-7741
▁Mand	-7742
▁aves	-7743
▁mois	-7744
ancial	-7745
kommen	-7746
▁Macht	-7747
▁llegó	-7748
▁ordin	-7749
▁somet	-7750
▁tempr	-7751
▁debido	-7752
ualmente	-7753
▁théorie	-7754
▁bekommen	-7755
▁commercial	-7756
▁diferentes	-7757
▁southampton	-7758
▁ساوثهامبتون	-7759
▁normalerweise	-7760
bu	-7761
غر	-7762
プロ	-7763
種類	-7764
iede	-7765
rank	-7766
▁Law	-7767
▁Mah	-7768
▁van	-7769
▁you	-7770
ingen	-7771
▁1939	-7772
▁croy	-7773
▁sert	-7774
▁vidé	-7775
▁Farbe	-7776
▁Jehov	-7777
▁Parte	-7778
▁among	-7779
▁établ	-7780
▁Anzahl	-7781
▁Federal	-7782
▁Studenten	-7783
دت	-7784
mus	-7785
oin	-7786
oses	-7787
osse	-7788
▁Cup	-7789
▁God	-7790
▁faç	-7791
▁الإ	-7792
▁للت	-7793
▁مصر	-7794
itter	-7795
uddha	-7796
▁hand	-7797
いつのこと	-7798
ential	-7799
▁manch	-7800
▁tedes	-7801
はどれですか	-7802
▁begann	-7803
▁cambio	-7804
Oklahoma	-7805
▁Western	-7806
▁disting	-7807
▁youtube	-7808
▁Germania	-7809
▁business	-7810
▁الموجودة	-7811
▁Universität	-7812
▁organizzazione	-7813
ウス	-7814
ゴッホ	-7815
atch	-7816
haus	-7817
urai	-7818
▁181	-7819
▁aud	-7820
alité	-7821
culas	-7822
echos	-7823
group	-7824
▁Erit	-7825
▁Miss	-7826
▁يعني	-7827
forder	-7828
économ	-7829
▁الاخت	-7830
なかったのは	-7831
▁appart	-7832
▁cuánto	-7833
▁finale	-7834
▁resist	-7835
▁Archite	-7836
▁ciudades	-7837
▁americano	-7838
▁processus	-7839
قم	-7840
目の	-7841
imp	-7842
بيل	-7843
▁FA	-7844
▁cô	-7845
▁صح	-7846
ールド	-7847
▁sia	-7848
izado	-7849
▁else	-7850
▁nave	-7851
▁محطة	-7852
▁Mater	-7853
▁Pruss	-7854
▁aufge	-7855
▁money	-7856
▁مقدار	-7857
▁Edward	-7858
▁Mittel	-7859
▁comune	-7860
▁écoles	-7861
▁Sichuan	-7862
▁dernier	-7863
▁espèces	-7864
▁الاصلية	-7865
▁erreicht	-7866
▁habituellement	-7867
بط	-7868
現在	-7869
rif	-7870
cons	-7871
وائز	-7872
▁Hit	-7873
▁win	-7874
▁Play	-7875
▁Vars	-7876
▁aber	-7877
どこですか	-7878
▁raggi	-7879
▁sépar	-7880
▁veloc	-7881
▁Provin	-7882
▁attacc	-7883
▁create	-7884
▁formal	-7885
▁reform	-7886
▁titolo	-7887
▁combatt	-7888
▁conduit	-7889
▁geboren	-7890
Os	-7891
イル	-7892
月に	-7893
Ver	-7894
lor	-7895
فات	-7896
Inde	-7897
▁Top	-7898
eland	-7899
هورية	-7900
وفييت	-7901
▁2002	-7902
▁case	-7903
▁tasa	-7904
▁العب	-7905
ولندية	-7906
▁Brown	-7907
▁Supre	-7908
▁asist	-7909
▁llevó	-7910
▁month	-7911
▁rivol	-7912
▁terms	-7913
▁باريس	-7914
▁giorno	-7915
Amérique	-7916
volución	-7917
▁couleur	-7918
▁Pulitzer	-7919
▁research	-7920
▁considerato	-7921
コー	-7922
▁Sir	-7923
▁نقل	-7924
tagon	-7925
▁1930	-7926
▁Geld	-7927
▁forn	-7928
▁life	-7929
▁pubs	-7930
▁rein	-7931
▁spre	-7932
▁المض	-7933
▁extra	-7934
▁leben	-7935
▁still	-7936
▁Indien	-7937
▁chasse	-7938
▁Bereich	-7939
▁déclaré	-7940
▁europea	-7941
▁général	-7942
▁religious	-7943
▁الحيوانات	-7944
▁Wissenschaft	-7945
ثي	-7946
本土	-7947
igi	-7948
لاد	-7949
واء	-7950
▁aé	-7951
アカデ	-7952
▁Eig	-7953
▁erw	-7954
▁سيا	-7955
▁قتل	-7956
angel	-7957
▁Team	-7958
▁Vict	-7959
▁ocup	-7960
▁2014,	-7961
▁luogo	-7962
istique	-7963
▁immigr	-7964
▁Minister	-7965
▁partecip	-7966
▁successo	-7967
▁verlassen	-7968
êt	-7969
▁エ	-7970
たち	-7971
ベル	-7972
原因	-7973
攻撃	-7974
時点	-7975
結婚	-7976
Les	-7977
eté	-7978
tog	-7979
▁21	-7980
▁رب	-7981
ases	-7982
essa	-7983
itet	-7984
ptem	-7985
rael	-7986
tein	-7987
vail	-7988
venu	-7989
▁Den	-7990
▁she	-7991
▁paar	-7992
▁الكم	-7993
ervice	-7994
▁Radio	-7995
▁glaci	-7996
▁ocurr	-7997
▁العثم	-7998
▁applic	-7999
▁impact	-8000
▁market	-8001
▁prefer	-8002
▁tempér	-8003
▁Richard	-8004
▁receive	-8005
▁dinastía	-8006
▁servizio	-8007
▁encontrar	-8008
▁politische	-8009
osc	-8010
رنت	-8011
▁Lu	-8012
最初に	-8013
▁Kol	-8014
▁any	-8015
▁ابن	-8016
aller	-8017
ining	-8018
▁cher	-8019
▁iran	-8020
▁just	-8021
▁nato	-8022
▁بالم	-8023
からですか	-8024
▁Album	-8025
▁prime	-8026
▁المقد	-8027
▁unters	-8028
publique	-8029
▁mission	-8030
▁moderno	-8031
▁conquist	-8032
▁francese	-8033
▁potrebbe	-8034
▁verkauft	-8035
▁resultado	-8036
だと	-8037
位置	-8038
研究	-8039
egu	-8040
enc	-8041
tér	-8042
wan	-8043
zer	-8044
▁hi	-8045
▁fol	-8046
▁ply	-8047
astro	-8048
craft	-8049
stone	-8050
▁debe	-8051
▁elev	-8052
▁grab	-8053
▁موسم	-8054
heiten	-8055
iseaux	-8056
▁David	-8057
▁الوسط	-8058
▁نتيجة	-8059
していますか	-8060
▁ganado	-8061
▁termes	-8062
▁totale	-8063
onnement	-8064
▁Protest	-8065
▁größten	-8066
▁mainten	-8067
▁بالنسبة	-8068
▁constitu	-8069
▁derechos	-8070
▁movement	-8071
▁produced	-8072
▁Inghilterra	-8073
pú	-8074
ár	-8075
ナー	-8076
ーク	-8077
افظ	-8078
سمي	-8079
▁gé	-8080
ったの	-8081
Punk	-8082
istro	-8083
itive	-8084
▁anun	-8085
▁phon	-8086
terior	-8087
▁chrét	-8088
▁level	-8089
▁العسك	-8090
▁August	-8091
▁elettr	-8092
▁einzige	-8093
▁sostitu	-8094
اؤ	-8095
زم	-8096
غط	-8097
チェ	-8098
設立	-8099
edi	-8100
ums	-8101
▁va	-8102
rier	-8103
▁Off	-8104
▁lan	-8105
▁must	-8106
▁النو	-8107
▁فيما	-8108
imonio	-8109
ünstler	-8110
▁Harbor	-8111
▁perros	-8112
▁Schulen	-8113
▁religiö	-8114
▁Position	-8115
▁plymouth	-8116
▁stations	-8117
▁originale	-8118
8,	-8119
DN	-8120
chè	-8121
phe	-8122
ple	-8123
قرا	-8124
いくら	-8125
atin	-8126
gang	-8127
have	-8128
lach	-8129
oute	-8130
▁180	-8131
▁hog	-8132
▁تمت	-8133
▁جزر	-8134
に対して	-8135
▁Jack	-8136
▁vuel	-8137
▁الكل	-8138
ension	-8139
hattan	-8140
▁Prinz	-8141
▁keine	-8142
▁اللعب	-8143
▁letter	-8144
▁negoci	-8145
▁obtenu	-8146
arbeitet	-8147
▁devenue	-8148
▁proyect	-8149
▁services	-8150
共和	-8151
انج	-8152
ونت	-8153
多くの	-8154
nung	-8155
onte	-8156
urer	-8157
ساعد	-8158
▁Gio	-8159
▁Sci	-8160
▁Wen	-8161
▁cel	-8162
contr	-8163
lavos	-8164
▁aura	-8165
▁المق	-8166
グラミー賞	-8167
roffen	-8168
▁Great	-8169
▁Polit	-8170
▁accep	-8171
▁envoy	-8172
▁matér	-8173
▁nommé	-8174
▁ricon	-8175
▁amount	-8176
▁ancien	-8177
▁batter	-8178
▁grands	-8179
▁الاراضي	-8180
▁المدرسة	-8181
▁estándar	-8182
▁posición	-8183
▁Verwendung	-8184
▁experiment	-8185
هب	-8186
コン	-8187
メン	-8188
ote	-8189
▁Dan	-8190
▁apr	-8191
▁inm	-8192
▁برا	-8193
jourd	-8194
▁doit	-8195
▁بدلا	-8196
▁ساعد	-8197
ynasty	-8198
▁Juden	-8199
▁París	-8200
▁Frauen	-8201
▁Robert	-8202
▁madera	-8203
▁الحياة	-8204
▁fondato	-8205
▁trasfer	-8206
▁Pflanzen	-8207
5,	-8208
女性	-8209
州の	-8210
mos	-8211
äus	-8212
ارل	-8213
ريف	-8214
▁GE	-8215
▁Sa	-8216
▁لن	-8217
axim	-8218
igos	-8219
inge	-8220
osso	-8221
اثول	-8222
شرين	-8223
وستن	-8224
onstr	-8225
▁Khan	-8226
▁dont	-8227
▁seul	-8228
▁الدا	-8229
▁يقوم	-8230
▁Kunst	-8231
▁cargo	-8232
▁metal	-8233
▁opera	-8234
▁prior	-8235
▁غالبا	-8236
ération	-8237
▁Nieder	-8238
▁compte	-8239
▁seinem	-8240
▁personal	-8241
▁processo	-8242
▁satellite	-8243
など	-8244
戦闘	-8245
皇帝	-8246
avy	-8247
ربة	-8248
عار	-8249
يدة	-8250
▁PI	-8251
▁سم	-8252
amme	-8253
äter	-8254
▁alm	-8255
▁bem	-8256
▁ähn	-8257
grund	-8258
idung	-8259
iglio	-8260
▁guid	-8261
▁vita	-8262
▁يجعل	-8263
adhafi	-8264
issent	-8265
▁Diale	-8266
▁nació	-8267
▁Cathol	-8268
▁العليا	-8269
▁Zweiten	-8270
▁llamada	-8271
▁private	-8272
▁الغربية	-8273
▁términos	-8274
▁americana	-8275
▁bezeichnet	-8276
▁Veranstaltung	-8277
島の	-8278
第二	-8279
ينت	-8280
▁Po	-8281
スター	-8282
unit	-8283
▁Bay	-8284
▁Gar	-8285
▁حدي	-8286
ないのは	-8287
itori	-8288
بيوتر	-8289
▁dere	-8290
▁sang	-8291
▁tibet	-8292
▁اعضاء	-8293
▁انشاؤ	-8294
▁Körper	-8295
▁electr	-8296
▁should	-8297
ological	-8298
▁Council	-8299
▁Kontrol	-8300
▁appelle	-8301
▁attribu	-8302
▁humanos	-8303
▁thought	-8304
▁Zhejiang	-8305
▁increase	-8306
▁Alexander	-8307
▁Jahrhunderts	-8308
ads	-8309
hin	-8310
äft	-8311
▁Nä	-8312
▁li	-8313
clam	-8314
iali	-8315
prem	-8316
ينية	-8317
▁Fun	-8318
▁Jug	-8319
▁Pak	-8320
▁sui	-8321
▁اصل	-8322
▁جاء	-8323
すること	-8324
▁Städ	-8325
▁aggi	-8326
▁evol	-8327
▁ubic	-8328
▁تعمل	-8329
▁شمال	-8330
▁كلمة	-8331
▁نطاق	-8332
▁ويست	-8333
▁crist	-8334
▁sirve	-8335
▁cathol	-8336
▁chines	-8337
▁concep	-8338
▁niveau	-8339
▁الطلاب	-8340
▁fuerzas	-8341
▁institut	-8342
▁nombreux	-8343
▁objetivo	-8344
クロ	-8345
air	-8346
ulg	-8347
zan	-8348
زاب	-8349
موث	-8350
▁لح	-8351
何年に	-8352
hors	-8353
ured	-8354
ígen	-8355
ابقة	-8356
▁opt	-8357
▁aiut	-8358
▁maje	-8359
ientes	-8360
▁clima	-8361
▁diseñ	-8362
Comment	-8363
térieur	-8364
▁Gegend	-8365
▁droits	-8366
▁permet	-8367
▁bombard	-8368
▁energia	-8369
▁interno	-8370
▁partito	-8371
▁الاجتما	-8372
▁الكاثول	-8373
▁الملكية	-8374
▁addition	-8375
▁programme	-8376
▁beeinflusst	-8377
▁internacional	-8378
3,	-8379
شف	-8380
cto	-8381
▁سل	-8382
play	-8383
teid	-8384
▁182	-8385
▁Ibn	-8386
▁رفض	-8387
▁مدى	-8388
ierto	-8389
isted	-8390
itore	-8391
owers	-8392
رائيل	-8393
▁Post	-8394
▁rejo	-8395
▁trov	-8396
▁Leute	-8397
▁Texas	-8398
▁crede	-8399
▁field	-8400
▁نظرية	-8401
▁Lebens	-8402
▁destru	-8403
▁dispar	-8404
▁storia	-8405
▁Prozess	-8406
istischen	-8407
▁Republic	-8408
▁possible	-8409
▁السوفييت	-8410
▁particular	-8411
áp	-8412
mod	-8413
pal	-8414
صال	-8415
ميم	-8416
▁Mu	-8417
となる	-8418
どこの	-8419
bles	-8420
▁Une	-8421
▁oss	-8422
zentr	-8423
▁Zust	-8424
▁cabo	-8425
▁يوجد	-8426
▁Leben	-8427
▁emple	-8428
pública	-8429
▁chiens	-8430
▁último	-8431
▁هيوستن	-8432
▁Messico	-8433
▁mujeres	-8434
▁ottoman	-8435
▁plantas	-8436
▁الامريك	-8437
▁superior	-8438
▁posizione	-8439
ué	-8440
いる	-8441
Afr	-8442
ael	-8443
ملة	-8444
▁40	-8445
osen	-8446
يران	-8447
▁har	-8448
imate	-8449
▁Inse	-8450
▁both	-8451
▁rema	-8452
▁يشير	-8453
jectif	-8454
▁senza	-8455
▁مدرسة	-8456
▁Russia	-8457
▁Straße	-8458
▁encore	-8459
▁istitu	-8460
▁compagn	-8461
▁Sprachen	-8462
▁architect	-8463
خط	-8464
ورد	-8465
écut	-8466
شرات	-8467
موذج	-8468
賞を受賞	-8469
crito	-8470
ildet	-8471
ليموث	-8472
▁Hong	-8473
▁موقع	-8474
raient	-8475
▁aband	-8476
▁olymp	-8477
▁since	-8478
▁discip	-8479
▁llaman	-8480
▁potere	-8481
▁اعتبار	-8482
▁الحديد	-8483
▁الوسطى	-8484
ckingham	-8485
▁Irlanda	-8486
▁musical	-8487
▁الجزيرة	-8488
▁conocida	-8489
▁militaire	-8490
SC	-8491
بد	-8492
何が	-8493
نطن	-8494
chio	-8495
ickt	-8496
غيرة	-8497
▁Pra	-8498
▁dol	-8499
▁اسب	-8500
▁عنه	-8501
enzen	-8502
icode	-8503
▁Mehr	-8504
▁took	-8505
▁Solar	-8506
▁estar	-8507
▁prest	-8508
▁Canadá	-8509
▁Chiesa	-8510
▁Studie	-8511
▁dismin	-8512
▁Britann	-8513
▁Montini	-8514
▁Republik	-8515
▁division	-8516
▁electric	-8517
▁investigación	-8518
文書	-8519
zug	-8520
cido	-8521
colo	-8522
onas	-8523
éctr	-8524
▁Old	-8525
▁Ost	-8526
▁det	-8527
temps	-8528
▁التا	-8529
▁ثاني	-8530
▁donne	-8531
▁nivel	-8532
▁الحزب	-8533
▁دراسة	-8534
▁Indian	-8535
▁Temper	-8536
▁chiesa	-8537
▁hatten	-8538
▁teoria	-8539
▁within	-8540
▁الكهرب	-8541
▁Prozent	-8542
▁ersetzt	-8543
▁journal	-8544
▁الشرقية	-8545
▁gekommen	-8546
▁generale	-8547
▁programa	-8548
▁verloren	-8549
▁الفرنسية	-8550
▁britische	-8551
▁britischen	-8552
▁Entwicklung	-8553
デル	-8554
勢力	-8555
Reg	-8556
aña	-8557
تمي	-8558
سيم	-8559
▁Sy	-8560
▁بل	-8561
▁نش	-8562
hind	-8563
orto	-8564
▁flu	-8565
▁jam	-8566
▁للق	-8567
アフリカ	-8568
crire	-8569
▁Baum	-8570
▁Bund	-8571
▁crít	-8572
▁fais	-8573
▁ferm	-8574
▁gene	-8575
▁like	-8576
aucoup	-8577
ichtet	-8578
époque	-8579
▁2010,	-8580
▁Arbor	-8581
▁Oscar	-8582
▁acqua	-8583
▁الصوت	-8584
▁تطوير	-8585
ありましたか	-8586
▁insegn	-8587
▁integr	-8588
▁مقاطعة	-8589
▁Königin	-8590
▁Imperial	-8591
▁antibiot	-8592
▁communic	-8593
▁rispetto	-8594
▁الاوروبي	-8595
▁nazionale	-8596
▁ursprünglich	-8597
CM	-8598
ヴェ	-8599
参加	-8600
agé	-8601
raw	-8602
urt	-8603
ßer	-8604
هود	-8605
▁XV	-8606
comp	-8607
▁cur	-8608
▁pan	-8609
タイトル	-8610
adium	-8611
anted	-8612
ctica	-8613
ureau	-8614
لاسيك	-8615
▁bamb	-8616
▁same	-8617
▁بالق	-8618
ention	-8619
▁Autor	-8620
▁asoci	-8621
▁femme	-8622
▁labor	-8623
▁motor	-8624
▁تحديد	-8625
▁Italia	-8626
▁connue	-8627
▁impero	-8628
アメリカ合衆国	-8629
▁consejo	-8630
▁specific	-8631
▁religione	-8632
▁Presidente	-8633
▁conosciuto	-8634
SS	-8635
レオ	-8636
選手	-8637
osi	-8638
ورا	-8639
▁مل	-8640
hoto	-8641
itan	-8642
▁Kor	-8643
▁hyd	-8644
▁بيل	-8645
▁واش	-8646
deckt	-8647
illed	-8648
waffe	-8649
▁جورج	-8650
▁مكان	-8651
hammad	-8652
öffnet	-8653
▁artic	-8654
▁colla	-8655
▁corps	-8656
▁molti	-8657
▁muest	-8658
▁think	-8659
▁تاثير	-8660
▁offici	-8661
▁الفريق	-8662
▁Ägypten	-8663
▁المنظمة	-8664
▁movimento	-8665
El	-8666
lé	-8667
タン	-8668
存在	-8669
早く	-8670
選挙	-8671
aco	-8672
illo	-8673
otel	-8674
▁Gli	-8675
▁dam	-8676
▁انح	-8677
ility	-8678
zeigt	-8679
▁Dopo	-8680
▁tema	-8681
▁want	-8682
tación	-8683
▁2003?	-8684
▁Harry	-8685
▁might	-8686
▁البحر	-8687
▁الساد	-8688
▁acerca	-8689
▁ascens	-8690
▁cities	-8691
▁gehört	-8692
▁introd	-8693
▁modèle	-8694
▁prohib	-8695
ajasthan	-8696
▁Fußball	-8697
▁initial	-8698
▁release	-8699
▁written	-8700
▁children	-8701
▁reemplaz	-8702
▁Manhattan	-8703
▁education	-8704
▁orientale	-8705
uz	-8706
つの	-8707
Que	-8708
nov	-8709
ugu	-8710
via	-8711
▁وح	-8712
ونيا	-8713
▁Ära	-8714
olare	-8715
▁able	-8716
▁الرب	-8717
▁تعرف	-8718
▁حاول	-8719
achine	-8720
vasion	-8721
وتردام	-8722
▁Count	-8723
▁ajout	-8724
▁posto	-8725
▁المفت	-8726
▁around	-8727
▁comput	-8728
▁recent	-8729
▁Kadhafi	-8730
▁Ottoman	-8731
▁accordo	-8732
▁celebra	-8733
▁famille	-8734
▁weniger	-8735
▁clasific	-8736
▁metropolit	-8737
サー	-8738
bew	-8739
▁fi	-8740
は何歳	-8741
日本の	-8742
onic	-8743
äger	-8744
めたのは	-8745
ivent	-8746
▁Mond	-8747
▁Nähe	-8748
▁code	-8749
▁give	-8750
▁يريد	-8751
▁fondé	-8752
▁proto	-8753
▁único	-8754
▁اسمها	-8755
▁Virgil	-8756
▁promin	-8757
▁السلطة	-8758
▁contain	-8759
▁industry	-8760
▁Kontrolle	-8761
4,	-8762
スが	-8763
出身	-8764
生産	-8765
aya	-8766
cla	-8767
ímp	-8768
▁50	-8769
▁Ra	-8770
ieri	-8771
kien	-8772
otos	-8773
otti	-8774
usse	-8775
▁Tro	-8776
▁équ	-8777
▁اهم	-8778
▁بار	-8779
▁يكن	-8780
hemat	-8781
lasse	-8782
▁remo	-8783
▁tomb	-8784
いましたか	-8785
gleich	-8786
iembre	-8787
ionali	-8788
ulture	-8789
▁außer	-8790
▁banda	-8791
▁forze	-8792
▁initi	-8793
▁sehen	-8794
estellt	-8795
▁nécess	-8796
▁projet	-8797
▁الدفاع	-8798
▁finales	-8799
▁consiste	-8800
▁costruito	-8801
▁eisenhower	-8802
の主	-8803
知事	-8804
cal	-8805
hlt	-8806
وفر	-8807
▁Ap	-8808
▁FI	-8809
ggio	-8810
hips	-8811
لندا	-8812
▁Als	-8813
▁età	-8814
▁احد	-8815
cipit	-8816
orcha	-8817
▁Jews	-8818
▁Kind	-8819
▁agre	-8820
▁créd	-8821
▁matr	-8822
▁الول	-8823
▁دوري	-8824
▁ريتش	-8825
▁Durch	-8826
▁Jesus	-8827
▁black	-8828
▁impro	-8829
▁regla	-8830
▁women	-8831
▁اطلاق	-8832
▁center	-8833
▁explor	-8834
▁واشنطن	-8835
▁نوتردام	-8836
▁antorcha	-8837
▁montagne	-8838
▁الانترنت	-8839
▁elecciones	-8840
▁generalmente	-8841
▁中	-8842
サイ	-8843
ダー	-8844
Dou	-8845
FPA	-8846
ائن	-8847
▁Kl	-8848
-200	-8849
ufen	-8850
امية	-8851
ومان	-8852
يبيا	-8853
▁Cub	-8854
▁Mid	-8855
▁ens	-8856
▁usb	-8857
▁vec	-8858
board	-8859
stand	-8860
ático	-8861
▁Dios	-8862
▁ebre	-8863
▁gilt	-8864
▁pied	-8865
▁الحم	-8866
itness	-8867
▁2002?	-8868
▁Osman	-8869
▁ahora	-8870
▁datos	-8871
▁litté	-8872
▁micro	-8873
▁route	-8874
▁torch	-8875
▁varia	-8876
▁asesin	-8877
▁ouvert	-8878
▁Russian	-8879
▁Secondo	-8880
▁diritto	-8881
▁régions	-8882
▁Sanskrit	-8883
▁cultures	-8884
▁dernière	-8885
▁individu	-8886
▁communaut	-8887
▁documento	-8888
▁construcción	-8889
-9	-8890
期間	-8891
adi	-8892
Zeit	-8893
dent	-8894
ستان	-8895
▁him	-8896
▁باي	-8897
▁Conf	-8898
▁Rück	-8899
▁arab	-8900
▁opin	-8901
▁wood	-8902
▁york	-8903
adelph	-8904
▁inaug	-8905
▁maxim	-8906
▁viven	-8907
▁combin	-8908
▁dinero	-8909
▁longue	-8910
▁antigua	-8911
▁carrera	-8912
▁descend	-8913
▁history	-8914
▁indipend	-8915
▁principali	-8916
▁Constitution	-8917
▁Griechenland	-8918
調査	-8919
-19	-8920
dos	-8921
タリア	-8922
-201	-8923
heim	-8924
orts	-8925
ذافي	-8926
▁Tre	-8927
▁mut	-8928
▁ält	-8929
▁خاص	-8930
したこと	-8931
atten	-8932
icans	-8933
▁giud	-8934
▁خارج	-8935
▁كلية	-8936
accord	-8937
ikaner	-8938
▁Laser	-8939
▁angeb	-8940
▁montr	-8941
▁reach	-8942
ospital	-8943
▁ciento	-8944
▁regina	-8945
▁résult	-8946
▁الكلاب	-8947
▁Militär	-8948
▁discuss	-8949
erlandais	-8950
▁economía	-8951
▁militare	-8952
▁politica	-8953
▁popolare	-8954
が出	-8955
どう	-8956
ビア	-8957
zia	-8958
áne	-8959
▁Kn	-8960
▁لف	-8961
ctic	-8962
ruck	-8963
tage	-8964
عمال	-8965
▁Män	-8966
▁now	-8967
bbero	-8968
ianos	-8969
ragen	-8970
وانين	-8971
▁Anth	-8972
▁prot	-8973
ischer	-8974
▁tourn	-8975
▁كبيرة	-8976
américa	-8977
fassung	-8978
▁finden	-8979
▁mensch	-8980
▁partes	-8981
▁última	-8982
▁بليموث	-8983
▁derecho	-8984
▁erlaubt	-8985
▁funzion	-8986
▁lanzado	-8987
▁animales	-8988
▁distribu	-8989
▁frequent	-8990
▁orthodox	-8991
▁Temperatur	-8992
sa	-8993
監督	-8994
oms	-8995
طات	-8996
▁Du	-8997
▁غر	-8998
isée	-8999
▁500	-9000
▁hon	-9001
▁nov	-9002
▁rot	-9003
▁ويل	-9004
りますか	-9005
ahlen	-9006
esten	-9007
fluss	-9008
uscon	-9009
▁appr	-9010
▁rail	-9011
▁الوز	-9012
▁كيري	-9013
autama	-9014
▁rango	-9015
rededor	-9016
truktur	-9017
▁antrop	-9018
▁determ	-9019
▁gouver	-9020
▁reason	-9021
▁الاستق	-9022
économie	-9023
▁moyenne	-9024
▁القذافي	-9025
▁concentr	-9026
▁relacion	-9027
▁الاقتصاد	-9028
architecture	-9029
の一	-9030
ope	-9031
ñas	-9032
وعة	-9033
يال	-9034
conf	-9035
orno	-9036
ونية	-9037
▁tax	-9038
avoir	-9039
étude	-9040
▁Asia	-9041
▁Bank	-9042
▁Berg	-9043
▁Gold	-9044
▁afro	-9045
▁الفن	-9046
▁conta	-9047
▁enfer	-9048
▁expos	-9049
▁provo	-9050
glichen	-9051
ktionen	-9052
▁ancora	-9053
▁corres	-9054
▁التاسع	-9055
▁funcion	-9056
▁الطريقة	-9057
▁Virginia	-9058
▁Università	-9059
▁aeropuerto	-9060
PC	-9061
プト	-9062
公開	-9063
面積	-9064
has	-9065
ocr	-9066
ump	-9067
スティ	-9068
▁Lod	-9069
▁Urs	-9070
▁ادى	-9071
について	-9072
▁Holz	-9073
▁defe	-9074
▁hous	-9075
▁nied	-9076
▁ress	-9077
▁sant	-9078
▁vive	-9079
▁السك	-9080
▁الشي	-9081
▁لاعب	-9082
lament	-9083
▁Gebie	-9084
▁ayudó	-9085
▁mismo	-9086
itaires	-9087
▁league	-9088
▁Theorie	-9089
▁descubr	-9090
▁الحشرات	-9091
▁entdeckt	-9092
▁estación	-9093
▁magazine	-9094
▁ottenuto	-9095
▁británico	-9096
▁développé	-9097
▁rilasciato	-9098
▁university	-9099
ko	-9100
ضة	-9101
▁東	-9102
ミネ	-9103
人々	-9104
発見	-9105
iac	-9106
الو	-9107
زني	-9108
▁ها	-9109
どんな	-9110
年から	-9111
agna	-9112
jekt	-9113
سيطر	-9114
▁Lab	-9115
▁hit	-9116
▁hub	-9117
▁urb	-9118
▁ابل	-9119
▁توس	-9120
▁للب	-9121
▁وقد	-9122
first	-9123
inger	-9124
ultan	-9125
▁Dieu	-9126
▁bell	-9127
▁chez	-9128
▁früh	-9129
▁note	-9130
▁الشر	-9131
ansion	-9132
prises	-9133
▁Giapp	-9134
▁Under	-9135
▁canon	-9136
▁enter	-9137
▁genoc	-9138
▁impos	-9139
▁perdu	-9140
▁troup	-9141
▁الصوم	-9142
▁القيا	-9143
▁المدن	-9144
▁tradic	-9145
▁الحديث	-9146
▁الخارج	-9147
▁السابق	-9148
▁Germany	-9149
▁comport	-9150
▁bâtiment	-9151
▁empresas	-9152
▁político	-9153
▁construyó	-9154
▁découvert	-9155
▁enthalten	-9156
▁大	-9157
رشح	-9158
ريا	-9159
شرة	-9160
▁23	-9161
esen	-9162
iels	-9163
otta	-9164
rano	-9165
لفزي	-9166
▁ble	-9167
▁ciò	-9168
▁ott	-9169
▁œuv	-9170
▁Fred	-9171
▁acto	-9172
▁läng	-9173
▁noto	-9174
▁spaz	-9175
▁Congo	-9176
▁Georg	-9177
▁Whose	-9178
▁award	-9179
▁clase	-9180
▁immun	-9181
▁sería	-9182
▁التبت	-9183
landese	-9184
▁Origin	-9185
▁family	-9186
▁membre	-9187
▁serait	-9188
▁Society	-9189
▁données	-9190
▁estruct	-9191
▁primary	-9192
▁الحرارة	-9193
▁الفرنسي	-9194
▁Swaziland	-9195
▁establish	-9196
▁Philadelph	-9197
▁Deutschland	-9198
TA	-9199
fs	-9200
ël	-9201
رع	-9202
نك	-9203
iev	-9204
vos	-9205
▁ak	-9206
ermo	-9207
onné	-9208
ارنة	-9209
▁ara	-9210
▁aér	-9211
▁pir	-9212
▁With	-9213
▁role	-9214
▁supr	-9215
▁نادي	-9216
immung	-9217
untain	-9218
▁Korea	-9219
▁libre	-9220
▁مسؤول	-9221
▁Nation	-9222
▁arbeit	-9223
▁perten	-9224
▁plants	-9225
▁strada	-9226
▁انتخاب	-9227
▁oficina	-9228
▁الحديثة	-9229
▁المسؤول	-9230
▁travaill	-9231
▁producción	-9232
1,	-9233
wa	-9234
öt	-9235
ätz	-9236
▁80	-9237
▁If	-9238
▁تك	-9239
eras	-9240
▁acr	-9241
▁lle	-9242
▁شرق	-9243
▁عضو	-9244
union	-9245
▁cast	-9246
▁suel	-9247
▁انته	-9248
engono	-9249
wealth	-9250
▁2001?	-9251
▁Green	-9252
▁altre	-9253
▁exemp	-9254
▁ideal	-9255
▁oltre	-9256
▁sound	-9257
▁المشت	-9258
▁سلالة	-9259
adition	-9260
▁attemp	-9261
▁fabric	-9262
▁judíos	-9263
▁livres	-9264
▁proper	-9265
▁África	-9266
▁الخاصة	-9267
▁المنزل	-9268
▁provide	-9269
▁trouver	-9270
formation	-9271
▁probable	-9272
▁الكلاسيك	-9273
▁controllo	-9274
▁المجموعات	-9275
▁wichtigsten	-9276
▁architecture	-9277
New	-9278
فاء	-9279
いつか	-9280
ands	-9281
oncé	-9282
uert	-9283
▁176	-9284
▁178	-9285
▁تاي	-9286
▁وقع	-9287
erior	-9288
field	-9289
indre	-9290
▁Best	-9291
▁Eton	-9292
▁Link	-9293
▁Pers	-9294
▁adul	-9295
▁alte	-9296
▁army	-9297
▁dial	-9298
▁اللا	-9299
アメリカの	-9300
iciale	-9301
▁Rolle	-9302
▁asent	-9303
▁began	-9304
▁libri	-9305
▁notre	-9306
▁preso	-9307
ruzione	-9308
▁Anteil	-9309
▁efecto	-9310
▁helped	-9311
▁europeo	-9312
▁terrest	-9313
▁voulait	-9314
▁Giappone	-9315
▁especial	-9316
▁característica	-9317
ím	-9318
えた	-9319
シェ	-9320
NES	-9321
roc	-9322
ège	-9323
درة	-9324
ملك	-9325
يبد	-9326
▁90	-9327
igan	-9328
ipes	-9329
ربية	-9330
شروع	-9331
ورية	-9332
▁177	-9333
▁fib	-9334
▁rat	-9335
▁طول	-9336
▁ياش	-9337
aking	-9338
plica	-9339
▁bere	-9340
▁cere	-9341
▁diss	-9342
▁tama	-9343
▁بانه	-9344
▁Rusia	-9345
▁jusqu	-9346
▁piano	-9347
▁terra	-9348
idencia	-9349
▁cuatro	-9350
▁launch	-9351
▁permis	-9352
▁الطريق	-9353
▁ياشيبد	-9354
▁Somalia	-9355
▁avrebbe	-9356
▁causato	-9357
▁moderna	-9358
▁publicó	-9359
▁البحرية	-9360
▁imperial	-9361
▁majority	-9362
スは	-9363
王国	-9364
ربع	-9365
▁BC	-9366
▁از	-9367
は何の	-9368
ヨーク	-9369
arto	-9370
ills	-9371
kins	-9372
omes	-9373
ways	-9374
▁Cro	-9375
▁Ort	-9376
▁adv	-9377
▁ehe	-9378
▁típ	-9379
▁web	-9380
▁اقت	-9381
▁ذات	-9382
▁طلب	-9383
ackel	-9384
immen	-9385
▁Wahl	-9386
▁amen	-9387
▁came	-9388
▁cess	-9389
▁dame	-9390
▁hinz	-9391
▁الاز	-9392
▁عنها	-9393
▁Samoa	-9394
▁ebrei	-9395
▁porta	-9396
▁stile	-9397
▁اجهزة	-9398
▁الميل	-9399
人は誰ですか	-9400
▁Russie	-9401
▁aperto	-9402
▁instal	-9403
▁lequel	-9404
▁quatre	-9405
▁tercer	-9406
▁anthrop	-9407
▁antiguo	-9408
▁gaddafi	-9409
▁recibió	-9410
▁détermin	-9411
▁influenz	-9412
▁sistemas	-9413
▁référence	-9414
▁Wirtschaft	-9415
iy	-9416
に関	-9417
時間	-9418
كلة	-9419
لاث	-9420
مين	-9421
▁ba	-9422
▁sl	-9423
immt	-9424
allen	-9425
asons	-9426
nahme	-9427
zogen	-9428
ينيسي	-9429
▁Stre	-9430
▁barr	-9431
▁emer	-9432
▁سويس	-9433
auteur	-9434
ección	-9435
imenti	-9436
import	-9437
▁Corée	-9438
▁Hunde	-9439
▁avere	-9440
▁lanzó	-9441
▁razón	-9442
▁جوائز	-9443
となったのは	-9444
▁battle	-9445
▁belong	-9446
▁charge	-9447
▁because	-9448
▁السياسي	-9449
▁typically	-9450
▁continente	-9451
▁arquitectura	-9452
▁estadounidenses	-9453
gn	-9454
デン	-9455
以上	-9456
同盟	-9457
oce	-9458
ych	-9459
اكم	-9460
سسة	-9461
فاظ	-9462
phen	-9463
▁low	-9464
▁ora	-9465
▁بيت	-9466
ieurs	-9467
örder	-9468
جمالي	-9469
▁chim	-9470
▁gain	-9471
▁gele	-9472
▁reun	-9473
▁sout	-9474
▁stop	-9475
▁vier	-9476
▁الحق	-9477
▁داخل	-9478
▁canal	-9479
▁costa	-9480
▁lanci	-9481
▁التوق	-9482
▁انحاء	-9483
reichen	-9484
▁Ashken	-9485
▁gruppi	-9486
▁street	-9487
▁برنامج	-9488
▁Nations	-9489
▁Mehrheit	-9490
▁promedio	-9491
▁المعروفة	-9492
▁República	-9493
▁propiedad	-9494
▁offizielle	-9495
▁development	-9496
政府	-9497
登場	-9498
emb	-9499
kin	-9500
اند	-9501
هير	-9502
ディズ	-9503
tura	-9504
ught	-9505
uper	-9506
▁Cop	-9507
▁Deb	-9508
▁dov	-9509
▁mix	-9510
▁sla	-9511
arias	-9512
bsite	-9513
onato	-9514
▁جزءا	-9515
enswer	-9516
كنولوج	-9517
▁Champ	-9518
▁attiv	-9519
▁estos	-9520
▁extre	-9521
▁famig	-9522
▁fundó	-9523
▁later	-9524
▁sulle	-9525
▁روسيا	-9526
▁Depuis	-9527
▁played	-9528
▁status	-9529
▁الاقلي	-9530
▁supérie	-9531
▁المانيا	-9532
Allemagne	-9533
ariamente	-9534
▁Japanese	-9535
▁anterior	-9536
▁dinastia	-9537
▁Macintosh	-9538
▁introduced	-9539
▁soviétique	-9540
▁universidades	-9541
RA	-9542
Sh	-9543
アー	-9544
ネル	-9545
明治	-9546
最大	-9547
day	-9548
انا	-9549
سين	-9550
▁حل	-9551
アルバ	-9552
ints	-9553
وائل	-9554
▁blo	-9555
▁حقق	-9556
lande	-9557
nelle	-9558
ètres	-9559
▁Real	-9560
▁Skla	-9561
▁fatt	-9562
▁haut	-9563
▁near	-9564
▁préd	-9565
▁جبال	-9566
antage	-9567
▁Broad	-9568
▁dedic	-9569
▁donde	-9570
▁ihrem	-9571
▁الامم	-9572
▁الفرق	-9573
amerika	-9574
▁Battle	-9575
▁County	-9576
▁dimens	-9577
▁erklär	-9578
formance	-9579
iquement	-9580
▁madaris	-9581
▁respect	-9582
▁travers	-9583
épendance	-9584
▁erstellt	-9585
▁geschickt	-9586
▁premières	-9587
▁publication	-9588
ージ	-9589
主義	-9590
地方	-9591
sin	-9592
urz	-9593
اول	-9594
هرت	-9595
者は誰	-9596
alie	-9597
imal	-9598
ocon	-9599
ögel	-9600
▁rib	-9601
▁see	-9602
▁sor	-9603
▁vio	-9604
▁لدى	-9605
▁منه	-9606
exual	-9607
اريات	-9608
▁Einw	-9609
▁USAF	-9610
▁elek	-9611
▁avail	-9612
▁focus	-9613
▁games	-9614
▁كارول	-9615
▁BeiDou	-9616
▁Kansas	-9617
▁Wessen	-9618
▁ehemal	-9619
▁moment	-9620
▁recens	-9621
▁sollte	-9622
▁teatro	-9623
▁tuvalu	-9624
▁usando	-9625
▁تينيسي	-9626
▁miglior	-9627
▁comercio	-9628
geschlagen	-9629
▁ufficiale	-9630
▁gesprochen	-9631
▁televisión	-9632
▁temperature	-9633
トン	-9634
機関	-9635
iner	-9636
oung	-9637
seln	-9638
werk	-9639
ريبا	-9640
وسطن	-9641
はどこで	-9642
ieden	-9643
orial	-9644
وسكار	-9645
▁less	-9646
▁mant	-9647
▁tipi	-9648
▁تقوم	-9649
Égypte	-9650
▁2008,	-9651
▁Kraft	-9652
▁ausge	-9653
▁jetzt	-9654
▁الحدث	-9655
▁الخشب	-9656
▁الصيف	-9657
▁captur	-9658
▁modelo	-9659
▁dynasty	-9660
▁hombres	-9661
▁profess	-9662
▁الوزراء	-9663
▁individual	-9664
▁sviluppato	-9665
▁PlayStation	-9666
▁amerikanischen	-9667
活動	-9668
Arm	-9669
asc	-9670
mis	-9671
uit	-9672
last	-9673
over	-9674
تجاه	-9675
▁ign	-9676
▁mez	-9677
▁six	-9678
▁اسل	-9679
▁بنا	-9680
▁مقر	-9681
いたのは	-9682
anies	-9683
endet	-9684
ommes	-9685
ongol	-9686
▁Live	-9687
▁Stil	-9688
▁basa	-9689
▁sare	-9690
▁dépla	-9691
▁áreas	-9692
▁كنيسة	-9693
Quelles	-9694
▁durant	-9695
▁Records	-9696
▁consent	-9697
▁regiert	-9698
▁meilleur	-9699
▁produits	-9700
▁américains	-9701
▁produzione	-9702
▁Architektur	-9703
NU	-9704
تن	-9705
يق	-9706
える	-9707
部隊	-9708
領土	-9709
شار	-9710
لهي	-9711
وعا	-9712
▁ár	-9713
人は誰	-9714
aker	-9715
avia	-9716
coun	-9717
isés	-9718
يناء	-9719
▁Dec	-9720
▁bul	-9721
▁دار	-9722
の名前は	-9723
altet	-9724
orfen	-9725
ليدية	-9726
▁giorn	-9727
▁royal	-9728
▁ruolo	-9729
▁تحتوي	-9730
▁Muslim	-9731
▁arrivé	-9732
▁colore	-9733
▁propós	-9734
▁symbol	-9735
▁trouvé	-9736
▁ارتفاع	-9737
▁المحلي	-9738
▁African	-9739
▁aujourd	-9740
▁special	-9741
▁systems	-9742
▁التاثير	-9743
industrie	-9744
▁Birmania	-9745
▁pubblica	-9746
▁باستخدام	-9747
▁attraverso	-9748
▁croissance	-9749
▁représente	-9750
▁considerado	-9751
??	-9752
マイ	-9753
fon	-9754
iny	-9755
▁eg	-9756
halt	-9757
ilie	-9758
itte	-9759
rary	-9760
دونا	-9761
▁Ast	-9762
▁Dio	-9763
▁dav	-9764
▁hoy	-9765
▁nat	-9766
▁رسم	-9767
artet	-9768
byter	-9769
reibt	-9770
▁Bond	-9771
▁Show	-9772
▁erit	-9773
▁meno	-9774
▁السب	-9775
▁كندا	-9776
ensive	-9777
▁haber	-9778
▁nativ	-9779
▁passe	-9780
▁بحلول	-9781
▁Potter	-9782
▁assist	-9783
▁diffus	-9784
▁libert	-9785
▁tamaño	-9786
▁الحالي	-9787
▁familia	-9788
▁include	-9789
▁nations	-9790
▁nazione	-9791
▁network	-9792
▁whitehead	-9793
7,	-9794
ót	-9795
以外	-9796
使わ	-9797
地震	-9798
独立	-9799
電所	-9800
enf	-9801
rel	-9802
اكل	-9803
اما	-9804
جال	-9805
جمع	-9806
خرج	-9807
▁Ag	-9808
▁éx	-9809
▁تؤ	-9810
▁تز	-9811
▁فل	-9812
▁يس	-9813
king	-9814
uble	-9815
urso	-9816
vous	-9817
▁Ben	-9818
▁ple	-9819
▁باع	-9820
▁جيم	-9821
▁كال	-9822
ahmen	-9823
ayana	-9824
ónica	-9825
▁Kamp	-9826
▁dogs	-9827
▁know	-9828
▁عالم	-9829
change	-9830
▁españ	-9831
▁novel	-9832
▁vista	-9833
▁Somali	-9834
▁ayudar	-9835
▁bemerk	-9836
▁marché	-9837
▁tropas	-9838
▁economy	-9839
▁finanzi	-9840
▁gezeigt	-9841
▁افريقيا	-9842
▁الشمسية	-9843
▁Bretagna	-9844
▁Catholic	-9845
▁befinden	-9846
▁cultural	-9847
▁genommen	-9848
▁province	-9849
▁الحديدية	-9850
▁problemas	-9851
▁angefangen	-9852
فه	-9853
▁q	-9854
の著	-9855
カリ	-9856
長い	-9857
obb	-9858
اعة	-9859
は何を	-9860
hode	-9861
ابات	-9862
رحلة	-9863
▁Rod	-9864
▁rin	-9865
▁بيع	-9866
▁عدم	-9867
▁هيل	-9868
▁وصف	-9869
trans	-9870
venir	-9871
zlach	-9872
ترويت	-9873
▁2016	-9874
▁Army	-9875
▁Bede	-9876
▁Lord	-9877
▁cató	-9878
▁clos	-9879
▁fore	-9880
▁foss	-9881
▁sell	-9882
كتيريا	-9883
▁Angel	-9884
▁Court	-9885
▁Suiza	-9886
▁doctr	-9887
enseign	-9888
▁Common	-9889
▁Fackel	-9890
▁acquis	-9891
▁announ	-9892
▁intent	-9893
▁später	-9894
▁السادس	-9895
▁miembro	-9896
AR	-9897
ウム	-9898
動物	-9899
同じ	-9900
Mus	-9901
öße	-9902
سخة	-9903
قال	-9904
هار	-9905
▁UE	-9906
▁لش	-9907
aben	-9908
alto	-9909
itch	-9910
liqu	-9911
olas	-9912
unta	-9913
▁hid	-9914
▁lui	-9915
▁جدا	-9916
utter	-9917
▁Eine	-9918
▁Jose	-9919
▁Meer	-9920
▁ohne	-9921
▁papa	-9922
▁vote	-9923
されていた	-9924
hungen	-9925
ichten	-9926
▁Juifs	-9927
▁alten	-9928
▁estat	-9929
▁inten	-9930
▁rival	-9931
▁أفلام	-9932
▁تشارل	-9933
▁Martin	-9934
▁archit	-9935
▁bietet	-9936
▁fondée	-9937
▁wollte	-9938
▁القيام	-9939
▁Digimon	-9940
▁Eritrea	-9941
▁distrit	-9942
▁environ	-9943
▁parfois	-9944
▁rivière	-9945
▁started	-9946
▁trovava	-9947
▁believed	-9948
▁résident	-9949
▁sociedad	-9950
▁programma	-9951
▁propriété	-9952
▁اليونانية	-9953
▁Präsidenten	-9954
▁vorgeschlagen	-9955
Ge	-9956
يغ	-9957
、「	-9958
それ	-9959
の間	-9960
もっ	-9961
何日	-9962
gio	-9963
اضي	-9964
تبع	-9965
دات	-9966
رار	-9967
anal	-9968
erva	-9969
gers	-9970
ître	-9971
ائلة	-9972
ستون	-9973
مبية	-9974
▁Sub	-9975
▁lit	-9976
▁nie	-9977
▁rul	-9978
▁sil	-9979
▁صنا	-9980
▁فتح	-9981
utung	-9982
États	-9983
ريكان	-9984
زنيجر	-9985
▁Giov	-9986
▁meas	-9987
▁schw	-9988
▁روما	-9989
Cuándo	-9990
▁1990?	-9991
▁annun	-9992
▁comté	-9993
▁miles	-9994
▁trade	-9995
▁élevé	-9996
▁العرق	-9997
chester	-9998
▁corpor	-9999
▁elektr	-10000
▁الكلمة	-10001
▁informa	-10002
▁publica	-10003
▁público	-10004
▁vengono	-10005
▁broadcast	-10006
▁Verfassung	-10007
▁الانتخابات	-10008
xt	-10009
の大	-10010
ジラ	-10011
スク	-10012
ارس	-10013
ستر	-10014
علة	-10015
▁شر	-10016
aken	-10017
idio	-10018
état	-10019
▁cac	-10020
▁vir	-10021
▁اير	-10022
▁ديل	-10023
après	-10024
conóm	-10025
ering	-10026
ested	-10027
graph	-10028
onnes	-10029
quart	-10030
ufact	-10031
▁Dest	-10032
▁Janu	-10033
▁Lage	-10034
▁autom	-10035
▁bezie	-10036
▁ganar	-10037
▁vidéo	-10038
▁Gebiet	-10039
▁Impero	-10040
▁Kanada	-10041
▁affili	-10042
▁romana	-10043
وارزنيجر	-10044
▁acquist	-10045
▁troupes	-10046
何年のことですか	-10047
▁apparten	-10048
▁costruzione	-10049
▁crecimiento	-10050
SO	-10051
Tr	-10052
ao	-10053
モン	-10054
cre	-10055
hir	-10056
aine	-10057
moto	-10058
▁etn	-10059
に対する	-10060
▁Patr	-10061
▁artí	-10062
▁pasa	-10063
▁stim	-10064
▁suff	-10065
▁well	-10066
étaire	-10067
▁Flugh	-10068
▁klass	-10069
▁kommt	-10070
▁today	-10071
▁الزمن	-10072
▁الممت	-10073
olution	-10074
▁Awards	-10075
▁climat	-10076
▁contrô	-10077
▁ejecut	-10078
▁object	-10079
▁tenido	-10080
▁uscito	-10081
▁beyonce	-10082
▁اعتبارا	-10083
▁ديترويت	-10084
▁problème	-10085
▁protagon	-10086
▁التجارية	-10087
▁Barcelone	-10088
▁formation	-10089
▁الكمبيوتر	-10090
▁originally	-10091
▁principios	-10092
ae	-10093
▁ハ	-10094
とき	-10095
エル	-10096
dit	-10097
وتي	-10098
ياس	-10099
▁TB	-10100
ised	-10101
vizz	-10102
▁Are	-10103
▁CBC	-10104
▁Pan	-10105
▁Tom	-10106
▁cli	-10107
▁wid	-10108
ウォルト	-10109
図書館の	-10110
front	-10111
▁food	-10112
▁lign	-10113
▁neur	-10114
amment	-10115
minist	-10116
▁2009,	-10117
▁accus	-10118
▁benef	-10119
▁proté	-10120
▁situé	-10121
▁الماء	-10122
▁بداية	-10123
▁يتحدث	-10124
▁époque	-10125
▁تقريبا	-10126
adamente	-10127
▁Islands	-10128
▁connect	-10129
▁exemple	-10130
▁feynman	-10131
▁monarch	-10132
▁purpose	-10133
▁majorité	-10134
▁marshall	-10135
▁naciones	-10136
▁proyecto	-10137
▁referred	-10138
▁systèmes	-10139
▁الاساسية	-10140
enschaften	-10141
▁according	-10142
▁associated	-10143
▁controvers	-10144
▁frecuencia	-10145
▁originalmente	-10146
9,	-10147
SF	-10148
لى	-10149
キー	-10150
数は	-10151
bas	-10152
انة	-10153
لاك	-10154
هات	-10155
هرج	-10156
▁Op	-10157
▁مر	-10158
uste	-10159
view	-10160
▁Bib	-10161
▁عبر	-10162
▁وين	-10163
イタリア	-10164
生まれた	-10165
achst	-10166
illos	-10167
ograf	-10168
زابيث	-10169
▁1992	-10170
▁Carn	-10171
▁Merc	-10172
▁Mosa	-10173
▁cito	-10174
▁flor	-10175
▁lois	-10176
▁منزل	-10177
られたのは	-10178
▁1970?	-10179
▁Desde	-10180
▁Firma	-10181
▁gradu	-10182
▁movie	-10183
minster	-10184
▁calcio	-10185
▁económ	-10186
▁método	-10187
▁سويسرا	-10188
▁equipos	-10189
▁Beziehung	-10190
▁Unterstüt	-10191
▁recherche	-10192
▁terremoto	-10193
▁biblioteca	-10194
▁institution	-10195
▁principalement	-10196
14	-10197
اذ	-10198
خب	-10199
ダル	-10200
ブル	-10201
首都	-10202
ray	-10203
aged	-10204
ötet	-10205
▁NES	-10206
▁oro	-10207
▁piè	-10208
▁rag	-10209
▁بود	-10210
▁شهر	-10211
atell	-10212
▁Cost	-10213
▁días	-10214
▁face	-10215
▁hunt	-10216
▁vitt	-10217
▁المر	-10218
▁حاكم	-10219
▁مبنى	-10220
▁ينظر	-10221
られている	-10222
▁Child	-10223
▁every	-10224
▁trait	-10225
▁école	-10226
▁البرا	-10227
▁تغيير	-10228
者は誰ですか	-10229
▁Jahres	-10230
▁Punjab	-10231
▁access	-10232
▁aurait	-10233
▁conven	-10234
▁famili	-10235
▁questa	-10236
▁secret	-10237
▁travel	-10238
▁البروت	-10239
▁البيان	-10240
▁Spanish	-10241
▁Truppen	-10242
▁lumière	-10243
▁méthode	-10244
▁director	-10245
▁statunit	-10246
▁utilisent	-10247
▁الاوروبية	-10248
▁البريطاني	-10249
▁importantes	-10250
16	-10251
خذ	-10252
وص	-10253
を務	-10254
世が	-10255
生息	-10256
bec	-10257
edy	-10258
gor	-10259
ohl	-10260
ياه	-10261
▁أص	-10262
▁لأ	-10263
ジョン	-10264
zähl	-10265
▁Nov	-10266
になった	-10267
album	-10268
ueblo	-10269
▁Wass	-10270
▁mamm	-10271
▁poly	-10272
▁المه	-10273
▁جهاز	-10274
iscono	-10275
▁accue	-10276
▁clubs	-10277
▁essay	-10278
▁paper	-10279
▁بطولة	-10280
▁belieb	-10281
されていますか	-10282
ociation	-10283
▁fédéral	-10284
acionales	-10285
▁Bewegung	-10286
▁Material	-10287
▁contient	-10288
▁included	-10289
▁sviluppo	-10290
▁gestartet	-10291
▁identific	-10292
▁sostenuto	-10293
▁California	-10294
▁influenced	-10295
ラム	-10296
鉄道	-10297
ady	-10298
box	-10299
ède	-10300
شاء	-10301
صور	-10302
▁Ak	-10303
ートル	-10304
amas	-10305
cont	-10306
fügt	-10307
osto	-10308
écur	-10309
ائمة	-10310
واية	-10311
▁Kap	-10312
▁coû	-10313
▁ولد	-10314
abord	-10315
appro	-10316
elect	-10317
▁Sina	-10318
▁Trib	-10319
▁fron	-10320
▁sequ	-10321
▁تشير	-10322
▁Menge	-10323
▁ayuda	-10324
▁birds	-10325
▁fuori	-10326
▁small	-10327
▁سياتل	-10328
▁Unione	-10329
▁nieder	-10330
▁selbst	-10331
▁livello	-10332
▁nanjing	-10333
▁premios	-10334
▁Mitglied	-10335
▁Unabhäng	-10336
▁geglaubt	-10337
▁naturale	-10338
▁imperatore	-10339
▁philosophie	-10340
so	-10341
年代	-10342
者の	-10343
rar	-10344
جلة	-10345
رفة	-10346
يكا	-10347
▁دم	-10348
edia	-10349
hold	-10350
iett	-10351
عضاء	-10352
▁rue	-10353
▁للن	-10354
شلونة	-10355
▁Reno	-10356
▁bank	-10357
▁fest	-10358
▁orig	-10359
▁père	-10360
▁والد	-10361
▁Enter	-10362
▁abrió	-10363
▁afect	-10364
▁denen	-10365
▁esist	-10366
▁formó	-10367
▁oeste	-10368
▁salió	-10369
▁بوسطن	-10370
▁زيادة	-10371
▁causes	-10372
▁dehors	-10373
▁garant	-10374
▁terror	-10375
▁troops	-10376
▁الشعلة	-10377
▁Bildung	-10378
▁Ländern	-10379
▁solaire	-10380
▁soutenu	-10381
itzerland	-10382
éducation	-10383
▁Amérique	-10384
▁incandes	-10385
▁rapporto	-10386
▁replaced	-10387
enaissance	-10388
▁aeroporto	-10389
▁available	-10390
▁películas	-10391
▁propósito	-10392
▁provincia	-10393
▁sometimes	-10394
▁الهولندية	-10395
▁contribuito	-10396
▁néerlandais	-10397
▁responsabil	-10398
きた	-10399
なん	-10400
ifi	-10401
ابا	-10402
على	-10403
ペイン	-10404
hang	-10405
ritt	-10406
ugen	-10407
ثناء	-10408
▁Int	-10409
▁دعم	-10410
▁كما	-10411
何ですか	-10412
▁Game	-10413
▁Rang	-10414
▁irán	-10415
▁neut	-10416
▁torn	-10417
▁town	-10418
gliche	-10419
▁Marie	-10420
▁genes	-10421
▁ideas	-10422
▁navig	-10423
▁nuova	-10424
▁البوم	-10425
アカデミー賞	-10426
ientras	-10427
ikistan	-10428
▁Parigi	-10429
▁acción	-10430
▁comand	-10431
▁décenn	-10432
▁beendet	-10433
▁besteht	-10434
▁besucht	-10435
▁changes	-10436
▁erklärt	-10437
▁letzten	-10438
▁bacteria	-10439
▁beaucoup	-10440
▁Bedeutung	-10441
▁dominante	-10442
▁République	-10443
.0	-10444
Es	-10445
いの	-10446
マー	-10447
ラク	-10448
ägt	-10449
écu	-10450
تمر	-10451
▁DC	-10452
▁أن	-10453
▁لد	-10454
▁مز	-10455
の作品	-10456
Amer	-10457
ader	-10458
يديو	-10459
▁Sil	-10460
▁étr	-10461
▁فقد	-10462
▁للط	-10463
مارية	-10464
▁hieß	-10465
▁saga	-10466
▁vinc	-10467
▁القب	-10468
▁مرتب	-10469
の名前は何	-10470
cteurs	-10471
etzung	-10472
▁Power	-10473
▁habla	-10474
▁immer	-10475
▁mosaï	-10476
▁valor	-10477
▁اهوما	-10478
▁شيوعا	-10479
▁Afrika	-10480
▁Buddha	-10481
▁console	-10482
▁digital	-10483
▁entfern	-10484
▁policía	-10485
▁prevent	-10486
▁records	-10487
▁commonly	-10488
▁manchmal	-10489
▁musicale	-10490
▁présenté	-10491
▁required	-10492
▁companies	-10493
▁implement	-10494
▁römischen	-10495
▁étudiants	-10496
▁Unabhängigkeit	-10497
支配	-10498
yse	-10499
▁مد	-10500
で一番	-10501
当時の	-10502
cles	-10503
uran	-10504
راجع	-10505
▁Hal	-10506
しますか	-10507
icien	-10508
icios	-10509
issen	-10510
relig	-10511
▁chaî	-10512
▁kein	-10513
▁nick	-10514
▁حركة	-10515
ership	-10516
علومات	-10517
▁Alter	-10518
▁façon	-10519
▁fosse	-10520
▁nello	-10521
▁photo	-10522
▁press	-10523
▁sitio	-10524
▁staat	-10525
▁unión	-10526
▁wegen	-10527
▁éxito	-10528
▁الالب	-10529
▁قاعدة	-10530
بيونسيه	-10531
▁Middle	-10532
▁allgem	-10533
▁antigu	-10534
▁bactér	-10535
▁jamais	-10536
▁strutt	-10537
▁tenían	-10538
▁الهجرة	-10539
byterian	-10540
ologique	-10541
▁Michael	-10542
▁Montana	-10543
▁happens	-10544
▁permite	-10545
▁Giovanni	-10546
▁britannico	-10547
▁dichiarato	-10548
▁amerikanische	-10549
23	-10550
▁ナ	-10551
年は	-10552
日の	-10553
rav	-10554
yer	-10555
باق	-10556
برغ	-10557
تهي	-10558
ضية	-10559
▁Ce	-10560
どこに	-10561
大きな	-10562
avec	-10563
hnen	-10564
hren	-10565
رشال	-10566
▁Bod	-10567
▁TCM	-10568
▁océ	-10569
▁süd	-10570
eitet	-10571
iados	-10572
olfen	-10573
ouest	-10574
umbia	-10575
äsent	-10576
üssen	-10577
▁Schw	-10578
▁Sovi	-10579
▁fand	-10580
▁parc	-10581
▁size	-10582
▁نانج	-10583
▁works	-10584
▁zones	-10585
▁الديم	-10586
▁السكك	-10587
▁والتي	-10588
ニューヨーク	-10589
Afrique	-10590
anasius	-10591
▁Gouver	-10592
▁erhöht	-10593
▁fuerte	-10594
▁الوحيد	-10595
▁مارشال	-10596
akterien	-10597
▁airport	-10598
▁getötet	-10599
▁برشلونة	-10600
▁enfermed	-10601
▁geholfen	-10602
▁location	-10603
▁ايزنهاور	-10604
▁enregistr	-10605
▁المستخدمة	-10606
▁Buckingham	-10607
▁británicos	-10608
▁disponible	-10609
EC	-10610
▁本	-10611
ノー	-10612
ibe	-10613
قية	-10614
▁má	-10615
ゴジラ	-10616
aton	-10617
izei	-10618
ماري	-10619
▁ráp	-10620
lemán	-10621
onian	-10622
▁Dire	-10623
▁Gott	-10624
▁acus	-10625
▁coin	-10626
▁mati	-10627
▁état	-10628
▁السي	-10629
▁العق	-10630
▁منصب	-10631
▁يزال	-10632
しているの	-10633
どれですか	-10634
ington	-10635
ulière	-10636
▁2012,	-10637
▁Arena	-10638
▁créée	-10639
▁enseñ	-10640
▁subst	-10641
何年のことか	-10642
▁bouddh	-10643
▁inclus	-10644
▁المواد	-10645
▁بجائزة	-10646
براطورية	-10647
▁Amerika	-10648
▁benannt	-10649
▁الجنوبي	-10650
▁الرومان	-10651
▁الهندسة	-10652
ellschaft	-10653
▁Englisch	-10654
▁trouvait	-10655
▁البرتغال	-10656
▁النباتات	-10657
icialmente	-10658
▁comúnmente	-10659
▁politiques	-10660
▁température	-10661
-3	-10662
22	-10663
SP	-10664
xi	-10665
、『	-10666
朝の	-10667
Ist	-10668
pet	-10669
نائ	-10670
يتو	-10671
▁كر	-10672
は誰が	-10673
agen	-10674
avía	-10675
irió	-10676
otor	-10677
uern	-10678
فهوم	-10679
▁Mem	-10680
▁leb	-10681
▁prá	-10682
▁tir	-10683
ished	-10684
tient	-10685
▁Kenn	-10686
▁Liga	-10687
▁Mann	-10688
▁abge	-10689
▁mess	-10690
▁sexu	-10691
▁النح	-10692
▁تقدم	-10693
▁Größe	-10694
▁Human	-10695
▁censo	-10696
▁dalle	-10697
▁perso	-10698
ontroll	-10699
▁fuente	-10700
▁signal	-10701
stellung	-10702
▁defensa	-10703
▁devenir	-10704
▁verific	-10705
したのは誰ですか	-10706
▁utilisées	-10707
▁changement	-10708
の国	-10709
の本	-10710
mit	-10711
rec	-10712
urg	-10713
utz	-10714
ايك	-10715
▁45	-10716
▁IV	-10717
かれた	-10718
してい	-10719
フォル	-10720
adém	-10721
ardo	-10722
chan	-10723
ifié	-10724
ocia	-10725
افية	-10726
امات	-10727
سكان	-10728
▁Ord	-10729
▁Pir	-10730
▁Way	-10731
▁ast	-10732
▁erk	-10733
▁ved	-10734
▁wir	-10735
どちらか	-10736
innen	-10737
onsor	-10738
▁aere	-10739
▁farm	-10740
▁fino	-10741
▁foto	-10742
▁jugó	-10743
▁العم	-10744
okkien	-10745
schung	-10746
▁asiat	-10747
▁delhi	-10748
▁russe	-10749
▁الطرق	-10750
liament	-10751
▁Kompon	-10752
▁Landes	-10753
▁higher	-10754
▁kommen	-10755
▁mascul	-10756
▁pueblo	-10757
▁recogn	-10758
كنولوجيا	-10759
▁Alexand	-10760
▁ricerca	-10761
▁suprême	-10762
▁todavía	-10763
▁aircraft	-10764
▁francesi	-10765
▁maggiore	-10766
▁häufigsten	-10767
▁utilizzati	-10768
غل	-10769
مم	-10770
演じ	-10771
被害	-10772
orf	-10773
ped	-10774
الف	-10775
الن	-10776
تون	-10777
時点で	-10778
aban	-10779
aper	-10780
bury	-10781
eaux	-10782
plor	-10783
énie	-10784
موند	-10785
▁Erw	-10786
▁Kup	-10787
▁lok	-10788
▁reç	-10789
▁حجم	-10790
▁يدع	-10791
erset	-10792
ordin	-10793
udson	-10794
▁sopr	-10795
▁tout	-10796
▁Vögel	-10797
▁conna	-10798
▁decis	-10799
▁moyen	-10800
▁obras	-10801
▁pense	-10802
▁restr	-10803
▁teach	-10804
▁عنوان	-10805
amentos	-10806
bellion	-10807
▁entsch	-10808
▁puerto	-10809
▁return	-10810
▁توفالو	-10811
▁fondata	-10812
▁llamaba	-10813
▁militär	-10814
▁plantes	-10815
▁regular	-10816
▁uranium	-10817
▁نانجينج	-10818
▁Russland	-10819
▁كارولينا	-10820
▁nouvelles	-10821
▁proprietà	-10822
▁الرومانية	-10823
▁considérée	-10824
▁desarrolló	-10825
DS	-10826
وغ	-10827
▁ヒ	-10828
イス	-10829
ビル	-10830
時の	-10831
議員	-10832
egt	-10833
ihe	-10834
jes	-10835
spe	-10836
uez	-10837
وسي	-10838
ولد	-10839
▁Ol	-10840
oyen	-10841
umes	-10842
▁175	-10843
▁Haw	-10844
▁cic	-10845
▁ern	-10846
▁اسس	-10847
itude	-10848
▁Lanc	-10849
▁jeux	-10850
▁oggi	-10851
▁Daten	-10852
▁suite	-10853
▁Übers	-10854
▁منظمة	-10855
▁Design	-10856
▁Städte	-10857
▁halten	-10858
▁valeur	-10859
▁اللعبة	-10860
cription	-10861
empereur	-10862
tainment	-10863
▁dirigió	-10864
▁modello	-10865
▁relativ	-10866
▁sociale	-10867
▁Division	-10868
▁elemento	-10869
▁العسكرية	-10870
▁universal	-10871
▁discovered	-10872
▁الكلاسيكية	-10873
ód	-10874
▁ó	-10875
▁ク	-10876
利用	-10877
abt	-10878
amt	-10879
auv	-10880
ieu	-10881
iód	-10882
raî	-10883
احة	-10884
ارب	-10885
زاء	-10886
طية	-10887
すると	-10888
anes	-10889
hood	-10890
rift	-10891
عادة	-10892
▁Day	-10893
▁flo	-10894
▁ibn	-10895
▁vig	-10896
はどこに	-10897
liest	-10898
سيقية	-10899
▁Sign	-10900
▁Time	-10901
▁astr	-10902
▁entw	-10903
▁lago	-10904
▁luce	-10905
▁rech	-10906
▁sept	-10907
▁تظهر	-10908
▁والا	-10909
Inseln	-10910
Quando	-10911
ettbew	-10912
itaria	-10913
ommand	-10914
▁Zweck	-10915
▁causé	-10916
▁jedes	-10917
▁offre	-10918
▁range	-10919
▁الرئا	-10920
▁السري	-10921
▁الشمس	-10922
erstand	-10923
▁LaserD	-10924
▁Sowjet	-10925
▁expand	-10926
▁growth	-10927
▁rights	-10928
▁مقارنة	-10929
▁Freddie	-10930
▁gekauft	-10931
▁guidato	-10932
▁inaugur	-10933
▁montaña	-10934
▁الاعمال	-10935
▁Künstler	-10936
▁remplacé	-10937
▁philosophy	-10938
▁الامريكيين	-10939
▁Switzerland	-10940
▁dispositivo	-10941
▁populations	-10942
Se	-10943
ül	-10944
時に	-10945
198	-10946
émo	-10947
بيق	-10948
خفض	-10949
▁60	-10950
▁Kü	-10951
▁én	-10952
イング	-10953
etro	-10954
hmen	-10955
odes	-10956
ogue	-10957
▁Bed	-10958
▁Did	-10959
▁Ham	-10960
▁She	-10961
▁Wal	-10962
▁jem	-10963
▁mid	-10964
▁mob	-10965
▁neu	-10966
▁oct	-10967
▁للا	-10968
ワールド	-10969
icana	-10970
élior	-10971
▁Bomb	-10972
▁Jeff	-10973
▁allo	-10974
▁born	-10975
▁conj	-10976
▁iniz	-10977
▁meet	-10978
▁الوا	-10979
▁بناؤ	-10980
▁والع	-10981
pieler	-10982
▁2011,	-10983
▁apoyo	-10984
▁citiz	-10985
▁guard	-10986
▁lleva	-10987
▁medic	-10988
▁reduz	-10989
▁الجما	-10990
▁مستوى	-10991
▁Schiff	-10992
▁histór	-10993
▁nación	-10994
▁periód	-10995
▁quitté	-10996
▁romain	-10997
▁الحدود	-10998
▁الحكوم	-10999
▁المحيط	-11000
getreten	-11001
▁Airport	-11002
▁histori	-11003
▁podrían	-11004
▁الاشارة	-11005
▁الصينية	-11006
▁المجتمع	-11007
▁Computer	-11008
▁millones	-11009
▁previous	-11010
▁Rajasthan	-11011
▁bacterias	-11012
▁dirección	-11013
▁financial	-11014
▁principaux	-11015
Bo	-11016
TO	-11017
äß	-11018
完成	-11019
aga	-11020
فاض	-11021
izza	-11022
nell	-11023
unds	-11024
vant	-11025
yens	-11026
بورن	-11027
طلسي	-11028
وائي	-11029
يطرة	-11030
▁Bal	-11031
▁Has	-11032
▁tab	-11033
▁منت	-11034
Stadt	-11035
habit	-11036
redit	-11037
▁FIFA	-11038
▁Star	-11039
▁envi	-11040
▁fail	-11041
▁fast	-11042
▁jähr	-11043
▁lamp	-11044
▁liqu	-11045
▁سوبر	-11046
▁heute	-11047
▁jours	-11048
▁legno	-11049
▁until	-11050
▁بورما	-11051
▁كانون	-11052
Cuántas	-11053
imately	-11054
▁Egitto	-11055
▁export	-11056
▁infant	-11057
▁killed	-11058
▁nature	-11059
igration	-11060
▁ancient	-11061
▁animals	-11062
▁ferrovi	-11063
▁mondial	-11064
▁ocurrió	-11065
▁التغيير	-11066
▁السيطرة	-11067
▁العملية	-11068
▁estudios	-11069
▁stazione	-11070
▁tribunal	-11071
▁migration	-11072
▁disponibles	-11073
At	-11074
DP	-11075
Sp	-11076
制作	-11077
問題	-11078
第一	-11079
考え	-11080
Mar	-11081
رعة	-11082
يوخ	-11083
▁Zy	-11084
のため	-11085
iest	-11086
▁Boy	-11087
▁Kop	-11088
▁erf	-11089
▁صوت	-11090
▁غزو	-11091
▁Alli	-11092
▁Inde	-11093
▁Tier	-11094
▁died	-11095
▁pont	-11096
▁انهم	-11097
▁فريد	-11098
▁وجود	-11099
cticut	-11100
indung	-11101
▁María	-11102
▁allen	-11103
▁cross	-11104
▁issue	-11105
▁malad	-11106
▁third	-11107
▁write	-11108
▁ايران	-11109
geführt	-11110
zlachta	-11111
étiques	-11112
▁Partei	-11113
▁alcune	-11114
▁ethnic	-11115
▁اكتشاف	-11116
▁Besides	-11117
▁Problem	-11118
▁Service	-11119
▁celebró	-11120
▁croyait	-11121
▁extranj	-11122
▁francés	-11123
▁mercado	-11124
▁oiseaux	-11125
▁امريكان	-11126
entemente	-11127
▁election	-11128
▁involved	-11129
▁filosofía	-11130
▁شوارزنيجر	-11131
▁finalmente	-11132
▁gearbeitet	-11133
▁utilizzata	-11134
▁الكاثوليكية	-11135
-0	-11136
حو	-11137
める	-11138
シー	-11139
作戦	-11140
初の	-11141
首相	-11142
ayy	-11143
زين	-11144
صلة	-11145
できる	-11146
vole	-11147
واعد	-11148
▁PIB	-11149
▁err	-11150
▁دفع	-11151
▁فون	-11152
▁متح	-11153
によると	-11154
bourg	-11155
étudi	-11156
طولات	-11157
▁1943	-11158
▁atom	-11159
▁cual	-11160
▁اقدم	-11161
▁المغ	-11162
ディズニー	-11163
puesta	-11164
église	-11165
▁cobre	-11166
▁hacia	-11167
▁infer	-11168
▁inner	-11169
▁minim	-11170
▁molto	-11171
▁parmi	-11172
▁sconf	-11173
▁الحكم	-11174
▁السبب	-11175
▁حكومة	-11176
ictions	-11177
écurité	-11178
▁changé	-11179
▁früher	-11180
▁réseau	-11181
objectif	-11182
▁Austria	-11183
▁abgesch	-11184
▁brought	-11185
▁convers	-11186
▁subject	-11187
▁السنوات	-11188
▁Insekten	-11189
▁Pakistan	-11190
▁Struktur	-11191
▁japonais	-11192
▁quartier	-11193
▁scoperto	-11194
▁alrededor	-11195
▁hyderabad	-11196
▁العثمانية	-11197
▁المعمارية	-11198
▁proporciona	-11199
▁recensement	-11200
▁Britanniques	-11201
▁relationship	-11202
場所	-11203
布告	-11204
hör	-11205
▁Ac	-11206
ußen	-11207
über	-11208
دمات	-11209
لايا	-11210
هوري	-11211
يامي	-11212
▁Mor	-11213
▁Sky	-11214
▁Tai	-11215
▁dat	-11216
▁ليس	-11217
を受けた	-11218
anner	-11219
ients	-11220
ingia	-11221
iving	-11222
onien	-11223
وريدا	-11224
▁Cypr	-11225
▁Pass	-11226
▁abit	-11227
▁dado	-11228
▁east	-11229
▁krit	-11230
▁تحدث	-11231
▁تحمل	-11232
▁Volks	-11233
▁aérea	-11234
▁corpo	-11235
▁hogar	-11236
▁اغنية	-11237
▁حديقة	-11238
▁كوريا	-11239
ecutive	-11240
ionales	-11241
▁deport	-11242
▁eléctr	-11243
▁gehabt	-11244
▁risult	-11245
▁الشيوخ	-11246
ものは何ですか	-11247
aéroport	-11248
▁Gautama	-11249
▁chinois	-11250
▁könnten	-11251
▁الالعاب	-11252
▁Caroline	-11253
▁kontroll	-11254
▁untersch	-11255
▁Bakterien	-11256
▁conditions	-11257
▁tecnología	-11258
▁commerciale	-11259
▁bemerkenswer	-11260
),	-11261
مد	-11262
وض	-11263
ジン	-11264
唯一	-11265
宮崎	-11266
構成	-11267
記念	-11268
を獲得	-11269
mont	-11270
ulas	-11271
▁CBS	-11272
▁Ven	-11273
▁Wem	-11274
▁Zel	-11275
▁fün	-11276
はいくら	-11277
アルバム	-11278
ading	-11279
appel	-11280
ciale	-11281
istán	-11282
manie	-11283
oline	-11284
porta	-11285
▁atac	-11286
▁bein	-11287
▁bron	-11288
▁casi	-11289
▁clás	-11290
▁free	-11291
system	-11292
▁Conne	-11293
▁honor	-11294
▁merid	-11295
▁unico	-11296
▁اسلوب	-11297
▁علاقة	-11298
ugefügt	-11299
▁Spiele	-11300
▁Suisse	-11301
▁alemán	-11302
▁office	-11303
▁proven	-11304
ivamente	-11305
▁concorr	-11306
▁consist	-11307
▁konzentr	-11308
▁presente	-11309
▁republic	-11310
▁Luftwaffe	-11311
▁calendario	-11312
▁parlamento	-11313
▁hinzugefügt	-11314
DA	-11315
Ir	-11316
gu	-11317
kn	-11318
ît	-11319
قر	-11320
で何	-11321
の作	-11322
hav	-11323
éné	-11324
اته	-11325
بيض	-11326
راص	-11327
نال	-11328
▁وم	-11329
ジプト	-11330
fait	-11331
most	-11332
tour	-11333
▁alf	-11334
▁gut	-11335
▁شيء	-11336
であるか	-11337
aufen	-11338
avant	-11339
▁Blan	-11340
▁HDTV	-11341
▁deve	-11342
▁mese	-11343
▁roya	-11344
▁wann	-11345
▁الطب	-11346
▁برون	-11347
▁يملك	-11348
のタイトル	-11349
▁Instr	-11350
▁Monat	-11351
▁Sound	-11352
▁along	-11353
▁charg	-11354
▁congr	-11355
▁discr	-11356
▁extin	-11357
▁kerry	-11358
▁makes	-11359
▁según	-11360
▁signé	-11361
▁verde	-11362
▁تعيين	-11363
▁Prince	-11364
▁ataque	-11365
▁famosa	-11366
▁oldest	-11367
▁Angriff	-11368
▁atteint	-11369
▁التحقيق	-11370
▁الدولية	-11371
▁augmenté	-11372
▁insectos	-11373
▁السياسية	-11374
▁ريتشموند	-11375
▁getroffen	-11376
▁problèmes	-11377
▁Presbyterian	-11378
▁internationale	-11379
25	-11380
スコ	-11381
世は	-11382
宣戦	-11383
年と	-11384
挙げ	-11385
統治	-11386
関係	-11387
lar	-11388
كين	-11389
▁Of	-11390
cker	-11391
iegt	-11392
usal	-11393
راءة	-11394
▁Kle	-11395
▁Kub	-11396
▁One	-11397
宣戦布告	-11398
comme	-11399
erait	-11400
ficos	-11401
▁Grün	-11402
▁pian	-11403
▁rete	-11404
▁seen	-11405
▁الشع	-11406
▁حالة	-11407
フォルニア	-11408
▁Entre	-11409
▁fight	-11410
▁golpe	-11411
▁isole	-11412
▁المحت	-11413
▁cinese	-11414
▁holand	-11415
▁mesure	-11416
▁quello	-11417
▁siendo	-11418
▁sortie	-11419
▁داروين	-11420
▁Katmand	-11421
▁Station	-11422
▁italien	-11423
▁related	-11424
▁strateg	-11425
▁Veränder	-11426
▁permitió	-11427
▁Vergleich	-11428
▁Westminster	-11429
▁información	-11430
▁independencia	-11431
15	-11432
45	-11433
ép	-11434
さん	-11435
委員	-11436
Mac	-11437
rän	-11438
éch	-11439
لات	-11440
▁Ta	-11441
▁نج	-11442
ことを	-11443
発電所	-11444
hirn	-11445
icon	-11446
لمان	-11447
نائس	-11448
▁org	-11449
▁paz	-11450
▁جلب	-11451
atory	-11452
burgo	-11453
▁1998	-11454
▁Ausw	-11455
▁Band	-11456
▁Fall	-11457
▁Frau	-11458
▁Glas	-11459
▁chem	-11460
▁lado	-11461
▁list	-11462
▁park	-11463
▁segn	-11464
▁فران	-11465
▁ماري	-11466
atorio	-11467
cional	-11468
ezioni	-11469
ändern	-11470
▁deber	-11471
▁forza	-11472
▁olímp	-11473
▁tanto	-11474
▁villa	-11475
▁übern	-11476
▁Bundes	-11477
▁affirm	-11478
▁conect	-11479
▁eingef	-11480
▁father	-11481
▁quería	-11482
▁toutes	-11483
▁بالقرب	-11484
finition	-11485
▁Krieges	-11486
▁Youtube	-11487
▁bambini	-11488
▁diritti	-11489
▁ranking	-11490
▁without	-11491
▁المالية	-11492
▁الوحيدة	-11493
▁Anführer	-11494
▁Einfluss	-11495
▁Muhammad	-11496
▁question	-11497
したのはいつですか	-11498
▁الاتحادية	-11499
öffentlichung	-11500
نج	-11501
▁フ	-11502
カル	-11503
ブリ	-11504
ヘル	-11505
取り	-11506
組織	-11507
ymn	-11508
ائر	-11509
ادر	-11510
▁لق	-11511
gend	-11512
iane	-11513
mark	-11514
toff	-11515
جميع	-11516
ساحة	-11517
▁Jay	-11518
Austr	-11519
ctric	-11520
▁gave	-11521
▁pain	-11522
▁uses	-11523
▁تشكل	-11524
▁イギリス	-11525
ilding	-11526
▁About	-11527
▁Corte	-11528
▁Spitz	-11529
▁dagli	-11530
▁linea	-11531
▁segur	-11532
▁zonas	-11533
▁البوذ	-11534
とは何ですか	-11535
▁dirigé	-11536
▁ciencia	-11537
▁colonie	-11538
▁foreign	-11539
▁humains	-11540
▁nombres	-11541
▁ميلبورن	-11542
▁Michigan	-11543
▁Nationen	-11544
▁chiamata	-11545
▁sexuelle	-11546
▁revolución	-11547
▁territoire	-11548
GB	-11549
cí	-11550
ائق	-11551
ريب	-11552
ومة	-11553
ノミネ	-11554
Pour	-11555
anad	-11556
bird	-11557
▁Völ	-11558
▁eta	-11559
▁fur	-11560
▁قرن	-11561
avano	-11562
aylor	-11563
ieben	-11564
ombra	-11565
▁Juan	-11566
▁prus	-11567
▁الحض	-11568
ノミネート	-11569
フランスの	-11570
ashire	-11571
ctique	-11572
▁UNFPA	-11573
▁aprob	-11574
▁cover	-11575
▁terzo	-11576
▁tutto	-11577
▁اعمال	-11578
▁الغذا	-11579
オーストリア	-11580
▁statut	-11581
▁Supreme	-11582
▁Wassers	-11583
▁animaux	-11584
▁älteste	-11585
▁الاطلسي	-11586
▁الروسية	-11587
▁ejemplos	-11588
▁elezioni	-11589
▁iniziata	-11590
▁comercial	-11591
▁definiert	-11592
▁militares	-11593
▁gouverneur	-11594
▁université	-11595
▁السوفييتية	-11596
▁information	-11597
oo	-11598
▁サ	-11599
を出	-11600
設置	-11601
loc	-11602
íes	-11603
غيل	-11604
atas	-11605
erto	-11606
icom	-11607
igli	-11608
inte	-11609
lers	-11610
ésil	-11611
صدار	-11612
▁Dok	-11613
▁Sin	-11614
▁emb	-11615
▁phr	-11616
▁rép	-11617
▁بما	-11618
▁قسم	-11619
▁قوة	-11620
▁كون	-11621
オスマン	-11622
biter	-11623
ibili	-11624
phalt	-11625
جيريا	-11626
▁2021	-11627
▁hoch	-11628
▁ipod	-11629
▁wahr	-11630
ionato	-11631
lemand	-11632
▁1980?	-11633
▁Franz	-11634
▁ignor	-11635
▁lived	-11636
▁parts	-11637
▁البدا	-11638
illeurs	-11639
▁Freima	-11640
▁appare	-11641
▁besond	-11642
▁decade	-11643
▁define	-11644
▁depend	-11645
▁especí	-11646
▁fusion	-11647
▁ultima	-11648
▁Central	-11649
▁Verteid	-11650
▁cerveza	-11651
▁conseil	-11652
▁versión	-11653
▁الدينية	-11654
▁الرسمية	-11655
uminación	-11656
▁designed	-11657
▁décennie	-11658
▁utilizza	-11659
▁convertido	-11660
▁maintenant	-11661
▁traditional	-11662
▁Commonwealth	-11663
▁öffentlichen	-11664
▁Premierminister	-11665
AC	-11666
ズの	-11667
東京	-11668
死亡	-11669
物語	-11670
部の	-11671
acy	-11672
agd	-11673
cro	-11674
urb	-11675
ush	-11676
فول	-11677
هاء	-11678
▁DV	-11679
▁ox	-11680
▁تغ	-11681
embl	-11682
ifer	-11683
öder	-11684
فساء	-11685
▁Def	-11686
▁Rog	-11687
▁anf	-11688
▁éch	-11689
▁élu	-11690
▁افت	-11691
itare	-11692
stoff	-11693
▁Jeux	-11694
▁Prim	-11695
▁Sain	-11696
▁décl	-11697
▁flam	-11698
ものですか	-11699
▁Licht	-11700
▁bande	-11701
▁earth	-11702
▁empie	-11703
▁namib	-11704
▁santa	-11705
▁studi	-11706
▁übers	-11707
▁تسجيل	-11708
▁طريقة	-11709
▁علماء	-11710
▁Aparte	-11711
▁Govern	-11712
▁Kommun	-11713
▁genere	-11714
▁ارسنال	-11715
▁الفيدر	-11716
▁بروسيا	-11717
▁مادونا	-11718
▁Thuring	-11719
▁elected	-11720
▁enseign	-11721
▁origine	-11722
▁romanos	-11723
▁sarebbe	-11724
▁الممتاز	-11725
▁Mondiale	-11726
▁cantante	-11727
▁economic	-11728
▁Billboard	-11729
▁Champions	-11730
▁capacidad	-11731
▁européenne	-11732
▁iluminación	-11733
▁internazionale	-11734
Ab	-11735
けた	-11736
ソン	-11737
Ger	-11738
anv	-11739
eto	-11740
صائ	-11741
ليب	-11742
▁fá	-11743
とする	-11744
Iran	-11745
Ital	-11746
dete	-11747
earl	-11748
etts	-11749
schl	-11750
اراة	-11751
ربعة	-11752
قيقة	-11753
كلفة	-11754
لبية	-11755
▁Ans	-11756
▁Apr	-11757
homme	-11758
ورنيا	-11759
▁Irak	-11760
▁Long	-11761
▁alco	-11762
▁capo	-11763
▁capp	-11764
▁care	-11765
▁nept	-11766
▁نقطة	-11767
▁يحمل	-11768
▁يلعب	-11769
derick	-11770
▁2000,	-11771
▁2007,	-11772
▁Moyen	-11773
▁Natur	-11774
▁Order	-11775
▁Outre	-11776
▁added	-11777
▁ampli	-11778
▁giapp	-11779
▁leyes	-11780
▁march	-11781
▁marzo	-11782
▁siège	-11783
▁tarde	-11784
▁القطب	-11785
▁النظر	-11786
▁تشارك	-11787
▁تعداد	-11788
▁تقديم	-11789
▁غرامي	-11790
ulaires	-11791
▁Campus	-11792
▁Kupfer	-11793
▁bezahl	-11794
▁cattol	-11795
▁cittad	-11796
▁existe	-11797
▁exécut	-11798
▁musulm	-11799
▁nuevos	-11800
▁tribus	-11801
▁vivent	-11802
▁يعيشون	-11803
erschaft	-11804
lication	-11805
▁Détroit	-11806
▁Konzept	-11807
▁matière	-11808
▁rejoint	-11809
▁religie	-11810
▁Untersch	-11811
▁attività	-11812
▁البرازيل	-11813
▁religiosa	-11814
▁corruption	-11815
▁industrial	-11816
▁officielle	-11817
▁Connecticut	-11818
▁beschreiben	-11819
▁changements	-11820
▁scientifique	-11821
قى	-11822
が高	-11823
アイ	-11824
オブ	-11825
カン	-11826
成立	-11827
197	-11828
füg	-11829
ipp	-11830
ادل	-11831
▁26	-11832
▁Ke	-11833
utto	-11834
émin	-11835
رجمة	-11836
ناصر	-11837
ويات	-11838
▁Sco	-11839
▁jüd	-11840
▁nac	-11841
▁duré	-11842
▁laws	-11843
▁loss	-11844
▁move	-11845
▁rigu	-11846
▁turn	-11847
▁فرقة	-11848
▁Besch	-11849
▁Prima	-11850
▁centr	-11851
▁hayek	-11852
▁précé	-11853
▁salud	-11854
▁spect	-11855
▁stamp	-11856
▁الترك	-11857
▁الفائ	-11858
▁ثلاثة	-11859
agement	-11860
quelles	-11861
uranium	-11862
zählung	-11863
▁creado	-11864
▁espect	-11865
▁popper	-11866
▁المزيد	-11867
第二次世界大戦	-11868
ähigkeit	-11869
▁grecque	-11870
▁japones	-11871
▁suprema	-11872
▁zweiten	-11873
▁اسرائيل	-11874
▁العالمي	-11875
▁الهوائي	-11876
▁فلوريدا	-11877
▁Richtung	-11878
▁ancienne	-11879
▁assassin	-11880
▁collabor	-11881
▁commerce	-11882
▁examples	-11883
▁exemples	-11884
▁modernen	-11885
▁correspond	-11886
▁representa	-11887
▁utilizados	-11888
شة	-11889
طح	-11890
に何	-11891
の何	-11892
事業	-11893
子の	-11894
小説	-11895
建築	-11896
ekt	-11897
▁ri	-11898
ション	-11899
abel	-11900
iPod	-11901
indu	-11902
onen	-11903
raum	-11904
لسفة	-11905
لعاب	-11906
▁Beg	-11907
▁kam	-11908
▁ذكر	-11909
ieval	-11910
influ	-11911
orien	-11912
stead	-11913
▁1984	-11914
▁1996	-11915
▁infe	-11916
▁jefe	-11917
▁mole	-11918
▁weiß	-11919
▁المخ	-11920
▁فالن	-11921
▁يطلق	-11922
phique	-11923
سيفساء	-11924
▁Peter	-11925
▁magas	-11926
▁natür	-11927
▁árbol	-11928
gesetzt	-11929
يفورنيا	-11930
▁Jahrze	-11931
▁además	-11932
▁combat	-11933
▁cuivre	-11934
▁encour	-11935
▁global	-11936
▁montag	-11937
▁patent	-11938
▁الحصول	-11939
▁الغربي	-11940
istische	-11941
▁Jackson	-11942
▁Polizei	-11943
▁Prussia	-11944
▁Während	-11945
▁betrach	-11946
▁demandé	-11947
▁trovato	-11948
▁الصغيرة	-11949
▁فالنسيا	-11950
▁Beispiele	-11951
▁Président	-11952
▁concernant	-11953
▁europäischen	-11954
▁französische	-11955
2,	-11956
ギリ	-11957
ゼル	-11958
多い	-11959
War	-11960
ogg	-11961
برى	-11962
▁RI	-11963
▁رس	-11964
には何	-11965
誰なの	-11966
SFSR	-11967
iage	-11968
ilen	-11969
ittà	-11970
less	-11971
seil	-11972
well	-11973
▁Cru	-11974
▁Don	-11975
▁Lis	-11976
▁tal	-11977
▁سبب	-11978
▁للش	-11979
▁وسط	-11980
const	-11981
idenz	-11982
ifier	-11983
which	-11984
▁Uran	-11985
▁hält	-11986
▁past	-11987
▁près	-11988
▁النم	-11989
▁تيتو	-11990
▁ظهرت	-11991
▁يسبب	-11992
volucr	-11993
▁conçu	-11994
▁decre	-11995
▁diplô	-11996
▁entst	-11997
▁führt	-11998
▁llamó	-11999
▁purch	-12000
▁revis	-12001
▁space	-12002
▁teams	-12003
▁المعد	-12004
▁ميامي	-12005
したのはいつ	-12006
crivere	-12007
presión	-12008
▁german	-12009
▁interc	-12010
▁motore	-12011
▁obiett	-12012
▁script	-12013
▁strong	-12014
▁traduc	-12015
▁vicino	-12016
Dynastie	-12017
▁cambios	-12018
▁denomin	-12019
▁section	-12020
▁earliest	-12021
▁involucr	-12022
▁manufact	-12023
▁mientras	-12024
▁pubblico	-12025
▁versione	-12026
▁الطائرات	-12027
▁الموافقة	-12028
▁LaserDisc	-12029
▁comunidad	-12030
▁plusieurs	-12031
▁entstanden	-12032
▁télévision	-12033
▁performance	-12034
▁tradicional	-12035
▁occidentales	-12036
意味	-12037
決定	-12038
pez	-12039
ram	-12040
örd	-12041
افر	-12042
ضوع	-12043
▁70	-12044
2000	-12045
2020	-12046
ieme	-12047
érer	-12048
وجين	-12049
メンバー	-12050
発生した	-12051
etzen	-12052
ibiot	-12053
▁Bapt	-12054
▁Erde	-12055
▁Sind	-12056
▁fans	-12057
▁fase	-12058
▁noms	-12059
▁prév	-12060
▁استر	-12061
▁الاث	-12062
▁تطور	-12063
▁جيمس	-12064
ettura	-12065
▁actor	-12066
▁label	-12067
▁nennt	-12068
▁porte	-12069
▁stock	-12070
▁اتفاق	-12071
▁الصيد	-12072
▁تقسيم	-12073
▁شخصية	-12074
▁يحتوي	-12075
はいつですか	-12076
▁Septem	-12077
▁fiesta	-12078
▁humans	-12079
▁medios	-12080
▁ultimo	-12081
▁الكبرى	-12082
▁امريكي	-12083
▁Destiny	-12084
▁Politik	-12085
▁animali	-12086
▁condado	-12087
▁mosaico	-12088
▁pública	-12089
▁alemanes	-12090
▁politico	-12091
ificazione	-12092
▁Consiglio	-12093
▁participé	-12094
▁sostituito	-12095
▁wirtschaft	-12096
▁économique	-12097
▁différentes	-12098
▁griechischen	-12099
▁ミ	-12100
を指	-12101
者は	-12102
輸送	-12103
Hat	-12104
elf	-12105
gun	-12106
itr	-12107
oix	-12108
ovi	-12109
ßen	-12110
روس	-12111
▁Sü	-12112
▁sk	-12113
▁وك	-12114
に位置	-12115
Team	-12116
eror	-12117
ning	-12118
rief	-12119
ulos	-12120
ئوية	-12121
جلات	-12122
وقات	-12123
▁fen	-12124
▁mel	-12125
▁sic	-12126
▁sow	-12127
▁دون	-12128
▁دين	-12129
▁وما	-12130
▁يهو	-12131
どちらが	-12132
esser	-12133
retto	-12134
unter	-12135
▁Penn	-12136
▁drug	-12137
▁estr	-12138
▁lect	-12139
▁sele	-12140
▁subs	-12141
▁النف	-12142
▁توقف	-12143
▁خدمة	-12144
▁مونت	-12145
entrum	-12146
▁Linie	-12147
▁Vater	-12148
▁Video	-12149
▁creen	-12150
▁facil	-12151
▁homos	-12152
▁indem	-12153
▁river	-12154
▁règne	-12155
▁البيت	-12156
▁السلة	-12157
▁اللون	-12158
▁نموذج	-12159
exemple	-12160
▁Brasil	-12161
▁Inform	-12162
▁désign	-12163
▁effica	-12164
▁erfolg	-12165
▁Kingdom	-12166
▁categor	-12167
▁manager	-12168
▁project	-12169
▁termini	-12170
▁استونيا	-12171
▁aufgrund	-12172
▁capacité	-12173
▁interest	-12174
▁presiden	-12175
▁regional	-12176
▁September	-12177
▁organismo	-12178
▁relaciones	-12179
▁Philosophie	-12180
▁griechische	-12181
▁Constitución	-12182
▁Universitäten	-12183
▁schwarzenegger	-12184
خي	-12185
رد	-12186
を結	-12187
可能	-12188
大陸	-12189
数が	-12190
革命	-12191
Ges	-12192
acu	-12193
cée	-12194
lad	-12195
ريج	-12196
طلب	-12197
▁om	-12198
▁pá	-12199
の名称	-12200
は何か	-12201
carr	-12202
kord	-12203
pass	-12204
vard	-12205
هلية	-12206
▁cód	-12207
▁إلى	-12208
▁حزب	-12209
arily	-12210
chter	-12211
هرجان	-12212
▁1991	-12213
▁Fahr	-12214
▁SNES	-12215
▁join	-12216
▁mère	-12217
▁アメリカ	-12218
ailles	-12219
cheurs	-12220
▁green	-12221
▁monta	-12222
▁rouge	-12223
▁santé	-12224
▁schia	-12225
▁zerst	-12226
▁المئة	-12227
▁المرا	-12228
▁معروف	-12229
▁Neptun	-12230
▁Palace	-12231
▁Termin	-12232
▁besoin	-12233
▁copper	-12234
▁nutzen	-12235
▁planta	-12236
▁spécif	-12237
▁étrang	-12238
ierungen	-12239
élection	-12240
▁Catalan	-12241
▁concurs	-12242
▁enthält	-12243
▁firmato	-12244
▁neptuno	-12245
▁soprann	-12246
▁uccelli	-12247
▁التنفيذ	-12248
▁الشركات	-12249
▁erforder	-12250
▁esclavos	-12251
▁الديمقرا	-12252
population	-12253
▁dirigeant	-12254
▁superiore	-12255
غم	-12256
ッチ	-12257
テン	-12258
人が	-12259
初代	-12260
評価	-12261
key	-12262
ktr	-12263
ota	-12264
ría	-12265
sey	-12266
يغو	-12267
Film	-12268
abor	-12269
char	-12270
coli	-12271
long	-12272
ايير	-12273
▁fum	-12274
aries	-12275
ellig	-12276
entum	-12277
▁اباد	-12278
▁باست	-12279
▁جديد	-12280
▁كثير	-12281
cieron	-12282
phabet	-12283
ührung	-12284
▁crear	-12285
▁crise	-12286
▁rejet	-12287
▁انظمة	-12288
culosis	-12289
▁Joseph	-12290
▁Schaus	-12291
▁appara	-12292
▁artist	-12293
▁herman	-12294
▁locale	-12295
▁partis	-12296
▁rechaz	-12297
▁slaves	-12298
▁surnom	-12299
▁unique	-12300
▁colonia	-12301
▁comcast	-12302
▁diversi	-12303
▁elegido	-12304
▁giocato	-12305
▁längste	-12306
▁reconoc	-12307
▁reprodu	-12308
▁require	-12309
▁romaine	-12310
▁spielen	-12311
▁surface	-12312
▁venduto	-12313
▁الدستور	-12314
▁definito	-12315
▁distinct	-12316
▁olandese	-12317
▁progetto	-12318
▁quantità	-12319
▁supervis	-12320
▁community	-12321
▁territory	-12322
ximadamente	-12323
に分	-12324
勝利	-12325
年度	-12326
bus	-12327
lab	-12328
rad	-12329
thè	-12330
upe	-12331
▁8?	-12332
Inst	-12333
alin	-12334
eget	-12335
haup	-12336
thur	-12337
änge	-12338
▁Bon	-12339
▁Mer	-12340
▁atr	-12341
▁كول	-12342
iende	-12343
letzt	-12344
▁Idee	-12345
▁Slav	-12346
▁côté	-12347
▁half	-12348
▁komp	-12349
▁supp	-12350
▁vacc	-12351
▁اطلق	-12352
▁البط	-12353
▁الحد	-12354
▁النص	-12355
Orient	-12356
glises	-12357
izzare	-12358
vement	-12359
▁Arist	-12360
▁Liter	-12361
▁Serie	-12362
▁apodo	-12363
▁lista	-12364
▁señal	-12365
▁store	-12366
▁todas	-12367
▁ادارة	-12368
cellona	-12369
▁Berlin	-12370
▁Taylor	-12371
▁basket	-12372
▁formas	-12373
▁member	-12374
▁parque	-12375
▁الكائن	-12376
▁beliebt	-12377
▁الكنائس	-12378
▁testigos	-12379
▁Victorias	-12380
▁entworfen	-12381
▁personaje	-12382
▁estaciones	-12383
▁comunicación	-12384
CO	-12385
gé	-12386
جز	-12387
しい	-12388
ジュ	-12389
国際	-12390
結果	-12391
hma	-12392
ify	-12393
áns	-12394
تين	-12395
راث	-12396
ريم	-12397
ليم	-12398
▁Hö	-12399
arie	-12400
cios	-12401
guer	-12402
ktis	-12403
ocra	-12404
ográ	-12405
pool	-12406
املة	-12407
▁19?	-12408
▁Lag	-12409
▁Nuo	-12410
▁mex	-12411
Krieg	-12412
agnol	-12413
cente	-12414
ockey	-12415
äuser	-12416
▁Hung	-12417
▁Sied	-12418
▁Verl	-12419
▁dejó	-12420
▁emit	-12421
▁mang	-12422
▁nörd	-12423
▁side	-12424
▁tito	-12425
▁حقوق	-12426
▁ويند	-12427
origin	-12428
▁Anten	-12429
▁April	-12430
▁campe	-12431
▁deriv	-12432
▁fanno	-12433
▁train	-12434
▁value	-12435
っていますか	-12436
istenza	-12437
▁Rennen	-12438
▁behaup	-12439
▁hombre	-12440
▁signed	-12441
▁truppe	-12442
▁würden	-12443
▁اختراع	-12444
imientos	-12445
itnesses	-12446
▁Einsatz	-12447
▁Palermo	-12448
▁Unicode	-12449
▁coinvol	-12450
▁complex	-12451
▁الميلاد	-12452
▁crescita	-12453
▁encontró	-12454
▁nouveaux	-12455
▁oriental	-12456
▁Community	-12457
▁bactéries	-12458
▁describir	-12459
▁productos	-12460
▁Barcellona	-12461
▁introdotto	-12462
▁übernommen	-12463
▁universities	-12464
▁Unterstützung	-12465
وش	-12466
abs	-12467
äge	-12468
تال	-12469
عيم	-12470
▁Ok	-12471
スタン	-12472
ッシュ	-12473
リスト	-12474
ajes	-12475
▁Ali	-12476
▁Mas	-12477
▁Tel	-12478
▁dip	-12479
▁lik	-12480
▁اعت	-12481
▁بير	-12482
▁دائ	-12483
ittle	-12484
plant	-12485
▁dura	-12486
▁spos	-12487
▁weib	-12488
▁بوتر	-12489
▁حيدر	-12490
fahren	-12491
▁First	-12492
▁Freem	-12493
▁rapid	-12494
▁الدرا	-12495
▁دييغو	-12496
▁يونيو	-12497
▁Biblio	-12498
▁Gemein	-12499
▁Histor	-12500
▁Hudson	-12501
▁Inseln	-12502
▁Mutter	-12503
▁envoyé	-12504
▁griega	-12505
▁griego	-12506
▁infrar	-12507
▁manera	-12508
▁muchas	-12509
▁réalis	-12510
▁sports	-12511
▁verbre	-12512
▁الاحمر	-12513
▁اللغات	-12514
▁Mercury	-12515
▁besiegt	-12516
▁borough	-12517
▁consomm	-12518
▁diverse	-12519
▁insieme	-12520
▁partire	-12521
ようになったのは	-12522
▁Birmanie	-12523
▁Business	-12524
▁distance	-12525
▁franceses	-12526
▁quartiere	-12527
▁regarding	-12528
▁ubicación	-12529
▁catholique	-12530
▁gobernador	-12531
▁entschieden	-12532
▁normalmente	-12533
▁Philadelphia	-12534
cks	-12535
fac	-12536
▁CE	-12537
▁sí	-12538
assi	-12539
eten	-12540
igér	-12541
pern	-12542
zech	-12543
سابق	-12544
▁Erd	-12545
▁Squ	-12546
▁ero	-12547
▁لكل	-12548
▁محا	-12549
エジプト	-12550
apore	-12551
cence	-12552
ption	-12553
▁aire	-12554
▁left	-12555
▁الهي	-12556
▁فازت	-12557
atique	-12558
▁Thema	-12559
▁abbre	-12560
▁achie	-12561
▁lower	-12562
▁lucha	-12563
▁newsp	-12564
▁prend	-12565
▁sever	-12566
▁suele	-12567
▁Hitler	-12568
▁Jewish	-12569
▁Modell	-12570
▁acheté	-12571
▁cotton	-12572
▁deriva	-12573
▁invers	-12574
▁terres	-12575
▁النحاس	-12576
▁Sklaven	-12577
▁informe	-12578
▁problem	-12579
▁Williams	-12580
▁cappella	-12581
▁división	-12582
▁domestic	-12583
▁gebildet	-12584
▁positive	-12585
▁المقاطعة	-12586
▁bestanden	-12587
▁seguridad	-12588
▁progettato	-12589
indépendance	-12590
▁Renaissance	-12591
▁verschiedene	-12592
俳優	-12593
iro	-12594
ryt	-12595
برص	-12596
سام	-12597
يتي	-12598
▁Sk	-12599
▁ul	-12600
▁ثق	-12601
▁لب	-12602
coln	-12603
ecta	-12604
igne	-12605
ikel	-12606
iqué	-12607
lava	-12608
oder	-12609
oken	-12610
sign	-12611
ände	-12612
▁abg	-12613
▁ماك	-12614
ierre	-12615
ivité	-12616
licht	-12617
phone	-12618
polit	-12619
posed	-12620
uguay	-12621
راءات	-12622
▁Nank	-12623
▁Wars	-12624
▁acco	-12625
▁carn	-12626
▁حايك	-12627
▁Città	-12628
▁Latin	-12629
▁Todes	-12630
▁autob	-12631
▁diego	-12632
▁eigen	-12633
▁sonst	-12634
▁trasm	-12635
▁الكات	-12636
▁رئيسي	-12637
はどのような	-12638
oslavia	-12639
▁Academ	-12640
▁Gehirn	-12641
▁branch	-12642
▁derrot	-12643
▁exclus	-12644
▁health	-12645
▁ingres	-12646
▁müssen	-12647
▁الحركة	-12648
▁الدولي	-12649
▁ويندوز	-12650
▁Estland	-12651
▁Ireland	-12652
▁article	-12653
▁conflit	-12654
▁memoria	-12655
▁norfolk	-12656
▁western	-12657
▁الكبيرة	-12658
▁نيجيريا	-12659
▁canadien	-12660
▁concepto	-12661
▁Flughafen	-12662
▁Tradition	-12663
▁principio	-12664
▁Gouverneur	-12665
▁Repubblica	-12666
▁personnage	-12667
▁significant	-12668
▁departamento	-12669
▁wissenschaft	-12670
Er	-12671
IP	-12672
tv	-12673
حن	-12674
を書	-12675
ガー	-12676
ダイ	-12677
家の	-12678
市立	-12679
ckt	-12680
opt	-12681
árt	-12682
▁cd	-12683
からか	-12684
年以降	-12685
aide	-12686
odón	-12687
فولك	-12688
▁Lie	-12689
▁Son	-12690
▁bot	-12691
▁put	-12692
▁sar	-12693
▁ترت	-12694
▁سام	-12695
▁معا	-12696
のことか	-12697
autor	-12698
cerca	-12699
ersey	-12700
hique	-12701
▁Does	-12702
▁añad	-12703
▁cart	-12704
▁goal	-12705
▁hijo	-12706
▁surv	-12707
▁trip	-12708
▁سيتم	-12709
▁قائد	-12710
▁مطار	-12711
した人は誰	-12712
ondens	-12713
émoins	-12714
▁2016?	-12715
▁Chief	-12716
▁Libia	-12717
▁bière	-12718
▁lancé	-12719
▁matem	-12720
▁refle	-12721
▁spagn	-12722
▁الضوء	-12723
▁مشروع	-12724
▁نبتون	-12725
▁Finanz	-12726
▁Klasse	-12727
▁cultiv	-12728
▁gelebt	-12729
▁lingue	-12730
▁sector	-12731
▁specif	-12732
▁المقدس	-12733
▁Italien	-12734
▁algodón	-12735
▁défense	-12736
▁escrito	-12737
▁البوذية	-12738
▁المبكرة	-12739
▁نورفولك	-12740
▁conflict	-12741
▁création	-12742
▁produire	-12743
▁agreement	-12744
▁transform	-12745
▁residentes	-12746
enseignement	-12747
▁Olympischen	-12748
▁originariamente	-12749
nd	-12750
ál	-12751
به	-12752
▁ル	-12753
ハー	-12754
事故	-12755
小さ	-12756
Bew	-12757
Sta	-12758
bey	-12759
dre	-12760
hel	-12761
sup	-12762
écn	-12763
داث	-12764
ماغ	-12765
▁ll	-12766
ともに	-12767
ambr	-12768
udas	-12769
âtre	-12770
▁dra	-12771
▁غرب	-12772
であった	-12773
abile	-12774
ienst	-12775
ienza	-12776
ämpft	-12777
écrit	-12778
▁Code	-12779
▁VIII	-12780
▁atra	-12781
▁done	-12782
▁gama	-12783
▁proc	-12784
▁sehr	-12785
▁très	-12786
▁welt	-12787
▁اسيا	-12788
なんですか	-12789
esseur	-12790
lywood	-12791
riften	-12792
selves	-12793
▁Koran	-12794
▁Pearl	-12795
▁Platz	-12796
▁armas	-12797
▁diagn	-12798
▁getan	-12799
▁jurid	-12800
▁motiv	-12801
▁urban	-12802
▁اشكال	-12803
uchtung	-12804
étaient	-12805
▁diseño	-12806
▁figura	-12807
▁figure	-12808
▁fleuve	-12809
▁législ	-12810
▁mother	-12811
▁spazio	-12812
▁zeigen	-12813
▁الاسكا	-12814
▁النووي	-12815
▁Theater	-12816
▁bezieht	-12817
▁destroy	-12818
▁domaine	-12819
▁genutzt	-12820
▁griegos	-12821
▁الاخيرة	-12822
▁البشرية	-12823
▁الولاية	-12824
étudiants	-12825
▁Flugzeug	-12826
▁utilizar	-12827
▁erreichen	-12828
▁increased	-12829
▁الاستقلال	-12830
▁estructura	-12831
▁influencia	-12832
▁durchgeführt	-12833
▁französischen	-12834
▁estadounidense	-12835
ny	-12836
およ	-12837
をも	-12838
機の	-12839
正式	-12840
軍は	-12841
لاء	-12842
ناة	-12843
▁Pf	-12844
▁أغ	-12845
どこで	-12846
anze	-12847
cken	-12848
dern	-12849
lace	-12850
ocup	-12851
ésus	-12852
▁NBC	-12853
▁You	-12854
▁漱石が	-12855
isent	-12856
ática	-12857
▁Jean	-12858
▁Viel	-12859
▁beer	-12860
▁berm	-12861
▁empê	-12862
▁erle	-12863
▁offr	-12864
▁spir	-12865
▁trop	-12866
▁المث	-12867
▁المل	-12868
▁بدون	-12869
▁يمثل	-12870
amenti	-12871
aments	-12872
castle	-12873
entral	-12874
treten	-12875
éhovah	-12876
▁Sumer	-12877
▁adott	-12878
▁epoca	-12879
▁names	-12880
▁القوة	-12881
▁انتقل	-12882
したのは何年	-12883
griffen	-12884
istiche	-12885
▁Nombra	-12886
▁Verbre	-12887
▁absorb	-12888
▁dritte	-12889
▁membro	-12890
▁parten	-12891
▁stesso	-12892
▁الرسمي	-12893
▁المكتب	-12894
▁Methode	-12895
▁otomano	-12896
▁publish	-12897
▁seguito	-12898
▁الاتفاق	-12899
▁Canadian	-12900
▁citizens	-12901
▁colonies	-12902
▁dialecto	-12903
▁geograph	-12904
▁hospital	-12905
▁indépend	-12906
▁اليزابيث	-12907
wirtschaft	-12908
▁británica	-12909
▁candidato	-12910
▁difficile	-12911
▁technique	-12912
▁définition	-12913
▁erschienen	-12914
▁كاليفورنيا	-12915
▁Institution	-12916
▁classification	-12917
MS	-12918
جن	-12919
كي	-12920
▁ト	-12921
なく	-12922
に就	-12923
バル	-12924
政権	-12925
比較	-12926
Ant	-12927
hou	-12928
maç	-12929
ضمن	-12930
ضيف	-12931
وال	-12932
ことが	-12933
させた	-12934
ヴィル	-12935
agan	-12936
aste	-12937
eggi	-12938
▁20?	-12939
▁Bau	-12940
▁Cer	-12941
▁NFL	-12942
▁Nic	-12943
▁fís	-12944
▁ارم	-12945
▁فصل	-12946
▁للع	-12947
allas	-12948
corso	-12949
▁Glob	-12950
▁célé	-12951
▁deal	-12952
▁lanc	-12953
▁sole	-12954
▁week	-12955
▁تاتي	-12956
▁شهود	-12957
▁هاري	-12958
ennung	-12959
espace	-12960
▁Papst	-12961
▁Punkt	-12962
▁RSFSR	-12963
▁Staff	-12964
▁arena	-12965
▁capaz	-12966
▁coton	-12967
▁emplo	-12968
▁forms	-12969
▁niger	-12970
▁pouss	-12971
▁resol	-12972
▁while	-12973
▁التسع	-12974
▁المرج	-12975
▁اهمية	-12976
▁ميناء	-12977
izieren	-12978
vizzera	-12979
▁kathol	-12980
▁online	-12981
▁reconn	-12982
▁البناء	-12983
▁الكثير	-12984
▁موسيقى	-12985
issances	-12986
▁Liberia	-12987
▁Science	-12988
▁Segunda	-12989
▁amélior	-12990
▁annoncé	-12991
▁climate	-12992
▁espacio	-12993
▁obtenir	-12994
▁palacio	-12995
▁sources	-12996
▁aktuelle	-12997
▁gegangen	-12998
▁interpre	-12999
▁nickname	-13000
▁sécurité	-13001
▁الأمريكي	-13002
▁الجمهوري	-13003
▁Newcastle	-13004
▁conflicto	-13005
▁diventata	-13006
▁gobernante	-13007
▁politischen	-13008
ヘン	-13009
付け	-13010
爆撃	-13011
理由	-13012
hre	-13013
hér	-13014
ued	-13015
ñor	-13016
باط	-13017
وام	-13018
واي	-13019
▁sn	-13020
arde	-13021
ered	-13022
mann	-13023
orme	-13024
ueba	-13025
▁000	-13026
▁Ehe	-13027
▁muy	-13028
▁للك	-13029
▁ينا	-13030
attro	-13031
icato	-13032
icket	-13033
light	-13034
▁1999	-13035
▁Bier	-13036
▁Temp	-13037
▁aree	-13038
▁days	-13039
▁disp	-13040
▁fert	-13041
▁pena	-13042
▁sust	-13043
▁técn	-13044
▁ارسل	-13045
▁القص	-13046
▁حدود	-13047
▁يهوه	-13048
isches	-13049
oclass	-13050
▁1960?	-13051
▁1997?	-13052
▁Klima	-13053
▁Obers	-13054
▁Quran	-13055
▁digit	-13056
▁larga	-13057
▁liegt	-13058
▁phase	-13059
▁poste	-13060
▁rebel	-13061
▁share	-13062
▁therm	-13063
▁zeigt	-13064
▁العلا	-13065
▁القضا	-13066
▁انتهى	-13067
▁ستكون	-13068
achstum	-13069
adstone	-13070
▁Marine	-13071
▁course	-13072
▁extend	-13073
▁helfen	-13074
▁intens	-13075
▁passed	-13076
▁policy	-13077
▁poursu	-13078
▁terren	-13079
▁visité	-13080
▁أمريكا	-13081
▁للحصول	-13082
していましたか	-13083
▁Jehovah	-13084
▁arsenal	-13085
▁attempt	-13086
▁descrit	-13087
▁décrire	-13088
▁glauben	-13089
▁verwand	-13090
▁البداية	-13091
▁فريدريك	-13092
▁Confeder	-13093
▁apareció	-13094
▁distingu	-13095
▁entfernt	-13096
▁البيانات	-13097
▁Soviética	-13098
▁reconstru	-13099
▁untersche	-13100
▁الموسيقية	-13101
▁technology	-13102
▁meridionale	-13103
▁technologie	-13104
▁Eigenschaften	-13105
zy	-13106
部分	-13107
震災	-13108
obs	-13109
olt	-13110
افي	-13111
▁Ev	-13112
▁عق	-13113
かけて	-13114
で優勝	-13115
に対し	-13116
ーター	-13117
area	-13118
ency	-13119
gles	-13120
here	-13121
omer	-13122
pays	-13123
vale	-13124
weig	-13125
ابيح	-13126
لكها	-13127
▁Dal	-13128
▁Fox	-13129
▁Hat	-13130
▁öst	-13131
▁فشل	-13132
arono	-13133
▁1995	-13134
▁Hano	-13135
▁Hill	-13136
▁Roll	-13137
▁adqu	-13138
▁cani	-13139
▁dati	-13140
▁faut	-13141
▁impr	-13142
▁الرق	-13143
▁الور	-13144
▁منتج	-13145
によること	-13146
▁Aktiv	-13147
▁Krank	-13148
▁Unión	-13149
▁costo	-13150
▁créer	-13151
▁frase	-13152
▁logic	-13153
▁regno	-13154
▁speed	-13155
▁those	-13156
▁white	-13157
▁إصدار	-13158
▁توسان	-13159
▁نفسها	-13160
istrict	-13161
▁Jehová	-13162
▁Monica	-13163
▁asocia	-13164
▁código	-13165
▁extens	-13166
▁género	-13167
▁pasado	-13168
▁الممثل	-13169
▁النسبة	-13170
▁برونكس	-13171
▁Familie	-13172
▁Floride	-13173
▁appelés	-13174
▁cerebro	-13175
▁declaró	-13176
▁disminu	-13177
▁preocup	-13178
▁recuper	-13179
▁sponsor	-13180
▁squadre	-13181
▁student	-13182
▁المحلية	-13183
ländische	-13184
▁frontera	-13185
▁geöffnet	-13186
▁ingresos	-13187
▁zurückge	-13188
▁Forschung	-13189
▁americani	-13190
▁buildings	-13191
▁generally	-13192
▁montagnes	-13193
▁municipal	-13194
vironnement	-13195
▁finalement	-13196
▁permanente	-13197
▁successful	-13198
▁beschrieben	-13199
▁verursachen	-13200
▁Schauspieler	-13201
TC	-13202
pf	-13203
にも	-13204
asy	-13205
für	-13206
rid	-13207
uum	-13208
▁ut	-13209
なのか	-13210
ものは	-13211
ブルク	-13212
acte	-13213
arte	-13214
enzi	-13215
etic	-13216
unft	-13217
ندوق	-13218
▁Pas	-13219
▁Vin	-13220
▁jul	-13221
▁reb	-13222
▁باك	-13223
▁جين	-13224
class	-13225
inois	-13226
puest	-13227
steme	-13228
thers	-13229
▁1997	-13230
▁Kons	-13231
▁Lied	-13232
▁Mali	-13233
▁Zink	-13234
▁cole	-13235
▁file	-13236
▁fire	-13237
▁marc	-13238
▁semp	-13239
▁targ	-13240
metros	-13241
orient	-13242
▁brain	-13243
▁catég	-13244
▁negra	-13245
▁short	-13246
▁vendu	-13247
▁wrest	-13248
viation	-13249
▁Männer	-13250
▁Orient	-13251
▁Steven	-13252
▁agosto	-13253
▁dirett	-13254
▁editor	-13255
▁entren	-13256
▁israel	-13257
▁secund	-13258
ialmente	-13259
▁Emperor	-13260
▁Israele	-13261
▁appelée	-13262
▁avaient	-13263
▁kingdom	-13264
▁ähnlich	-13265
▁compared	-13266
▁economia	-13267
▁lasciato	-13268
université	-13269
▁publicado	-13270
▁Athanasius	-13271
▁acquistato	-13272
▁ciudadanos	-13273
▁enregistre	-13274
▁matrimonio	-13275
▁revolution	-13276
▁westlichen	-13277
-4	-13278
ذي	-13279
نز	-13280
の父	-13281
ボー	-13282
担当	-13283
空襲	-13284
者が	-13285
Pre	-13286
imi	-13287
irl	-13288
tok	-13289
جار	-13290
▁27	-13291
▁رؤ	-13292
▁فا	-13293
したが	-13294
dafi	-13295
essi	-13296
größ	-13297
ilib	-13298
irat	-13299
stra	-13300
ören	-13301
ماية	-13302
▁Eff	-13303
▁alp	-13304
▁cib	-13305
alisé	-13306
olars	-13307
ouvel	-13308
▁Clin	-13309
▁Frie	-13310
▁Ghed	-13311
▁Stan	-13312
▁bill	-13313
▁emot	-13314
▁look	-13315
▁sacr	-13316
▁send	-13317
erdisc	-13318
icanos	-13319
igment	-13320
issuto	-13321
nehmer	-13322
▁Award	-13323
▁casas	-13324
▁détru	-13325
▁kanad	-13326
▁métro	-13327
▁rendu	-13328
▁whose	-13329
▁chinos	-13330
▁cuándo	-13331
▁décidé	-13332
▁giochi	-13333
▁likely	-13334
▁living	-13335
▁things	-13336
▁versch	-13337
▁الثورة	-13338
▁الرابع	-13339
▁المياه	-13340
▁الوصول	-13341
▁مختلفة	-13342
▁Eastern	-13343
▁Princip	-13344
▁bestimm	-13345
した人は誰ですか	-13346
▁Gheddafi	-13347
▁Varsavia	-13348
▁function	-13349
▁lavorato	-13350
▁nazional	-13351
▁primeras	-13352
▁trasmiss	-13353
はどれくらいですか	-13354
▁Americans	-13355
▁Australien	-13356
▁comparación	-13357
▁instruments	-13358
▁tuberculosis	-13359
▁scientifiques	-13360
HS	-13361
▁ブ	-13362
lit	-13363
ova	-13364
vey	-13365
اجة	-13366
اطق	-13367
راح	-13368
سيط	-13369
فية	-13370
قاء	-13371
▁31	-13372
▁حر	-13373
アジア	-13374
ファー	-13375
生まれ	-13376
Wann	-13377
fert	-13378
idée	-13379
ikal	-13380
itas	-13381
otes	-13382
rieb	-13383
ties	-13384
ugby	-13385
uted	-13386
اعات	-13387
افات	-13388
▁fix	-13389
▁ray	-13390
▁زوج	-13391
▁عاد	-13392
▁فري	-13393
▁لون	-13394
ucion	-13395
▁1000	-13396
▁Amér	-13397
▁Büro	-13398
▁allí	-13399
▁feel	-13400
▁grat	-13401
▁grav	-13402
▁soit	-13403
lungen	-13404
ujours	-13405
úsculo	-13406
▁1950?	-13407
▁Feuer	-13408
▁Museo	-13409
▁Vorte	-13410
▁tenté	-13411
▁صناعة	-13412
▁مناطق	-13413
ikation	-13414
quement	-13415
▁Acerca	-13416
▁Planck	-13417
▁besten	-13418
▁conoce	-13419
▁cuenta	-13420
▁interr	-13421
▁parall	-13422
▁perdió	-13423
▁proced	-13424
▁regist	-13425
▁البابا	-13426
▁موجودة	-13427
カリフォルニア	-13428
▁Anthrop	-13429
▁Islamic	-13430
▁Mission	-13431
▁Polonia	-13432
▁basiert	-13433
▁courant	-13434
▁digimon	-13435
▁fundada	-13436
▁tedesco	-13437
▁Funktion	-13438
▁Probleme	-13439
▁erfunden	-13440
▁mantener	-13441
▁precipit	-13442
▁quantité	-13443
▁Vereinbar	-13444
▁englische	-13445
▁influencé	-13446
▁introdujo	-13447
されたのはいつですか	-13448
▁erschaffen	-13449
▁olympiques	-13450
▁Informationen	-13451
▁verschiedenen	-13452
MA	-13453
fa	-13454
ui	-13455
▁ベ	-13456
国が	-13457
採用	-13458
民主	-13459
cor	-13460
oga	-13461
ابع	-13462
ارن	-13463
بلغ	-13464
جات	-13465
▁22	-13466
▁NP	-13467
▁hd	-13468
▁tw	-13469
を演じ	-13470
anch	-13471
opol	-13472
ücke	-13473
▁Hil	-13474
▁PCB	-13475
▁Tür	-13476
▁آخر	-13477
▁هان	-13478
achus	-13479
tages	-13480
يلبرغ	-13481
▁1900	-13482
▁Cont	-13483
▁away	-13484
▁core	-13485
▁hora	-13486
▁lost	-13487
▁quot	-13488
▁rama	-13489
▁unif	-13490
▁التد	-13491
▁اولا	-13492
▁مجال	-13493
▁وقعت	-13494
▁1991?	-13495
▁stamm	-13496
▁الثان	-13497
▁الجسم	-13498
▁الجنس	-13499
▁تصميم	-13500
Estonie	-13501
▁Brésil	-13502
▁Minder	-13503
▁approv	-13504
▁autore	-13505
▁chaîne	-13506
▁christ	-13507
▁dessin	-13508
▁sowohl	-13509
▁العصور	-13510
▁Dialekt	-13511
▁eventos	-13512
▁revista	-13513
▁samurai	-13514
▁verhind	-13515
▁ارمينيا	-13516
▁العلماء	-13517
▁minister	-13518
▁modernes	-13519
▁palabras	-13520
▁permesso	-13521
▁prodotti	-13522
▁البروتست	-13523
▁المسيحية	-13524
▁Antarktis	-13525
▁descubrió	-13526
▁edificios	-13527
▁البكتيريا	-13528
▁eingeführt	-13529
▁scientific	-13530
▁riferimento	-13531
▁öffentliche	-13532
▁institutions	-13533
cm	-13534
تا	-13535
ラッ	-13536
川の	-13537
年間	-13538
方法	-13539
aps	-13540
jar	-13541
étr	-13542
ühl	-13543
اتج	-13544
فيد	-13545
▁78	-13546
▁ya	-13547
▁يخ	-13548
iero	-13549
izin	-13550
ريات	-13551
▁Jer	-13552
▁Tim	-13553
▁asf	-13554
▁اوا	-13555
▁روب	-13556
▁نام	-13557
house	-13558
iegen	-13559
illet	-13560
inesi	-13561
rythr	-13562
ummer	-13563
▁Mark	-13564
▁RIBA	-13565
▁nego	-13566
▁pint	-13567
▁poco	-13568
▁بالك	-13569
▁قيمة	-13570
▁يحصل	-13571
gether	-13572
▁Terra	-13573
▁almac	-13574
▁cerem	-13575
▁cosas	-13576
▁médic	-13577
▁اقترح	-13578
▁المدر	-13579
▁تعريف	-13580
のことですか	-13581
púsculo	-13582
▁ancest	-13583
▁budget	-13584
▁classé	-13585
▁debate	-13586
▁denaro	-13587
▁fourni	-13588
▁glaubt	-13589
▁irgend	-13590
▁peuple	-13591
▁produc	-13592
▁tradiz	-13593
▁études	-13594
▁التحكم	-13595
▁المنتج	-13596
▁alcohol	-13597
▁ambient	-13598
▁attuale	-13599
▁cercato	-13600
▁collect	-13601
▁distrib	-13602
▁comunità	-13603
▁concerne	-13604
▁insectes	-13605
▁lanciato	-13606
▁ottenere	-13607
▁primaria	-13608
▁received	-13609
▁weltweit	-13610
▁الجامعات	-13611
▁الروماني	-13612
▁bâtiments	-13613
▁religioso	-13614
▁Californie	-13615
▁definition	-13616
▁gemeinsame	-13617
▁themselves	-13618
▁الكهربائية	-13619
▁universités	-13620
▁البروتستانت	-13621
▁architettura	-13622
▁metropolitana	-13623
او	-13624
ルタ	-13625
国で	-13626
Mit	-13627
ahn	-13628
ims	-13629
lám	-13630
oti	-13631
uck	-13632
ذهب	-13633
سيد	-13634
قلة	-13635
▁CO	-13636
▁CP	-13637
ラリア	-13638
chev	-13639
unkt	-13640
évén	-13641
خفاض	-13642
▁osc	-13643
▁ted	-13644
国はどこ	-13645
Tunes	-13646
anned	-13647
ellow	-13648
ettes	-13649
icher	-13650
mobil	-13651
yeron	-13652
ético	-13653
▁1919	-13654
▁Heil	-13655
▁Ober	-13656
▁UEFA	-13657
▁exec	-13658
▁lett	-13659
▁retr	-13660
▁vain	-13661
▁wäre	-13662
▁البل	-13663
▁الرس	-13664
▁شارك	-13665
▁شبكة	-13666
▁يظهر	-13667
きましたか	-13668
nahmen	-13669
▁Group	-13670
▁Jones	-13671
▁Jésus	-13672
▁decor	-13673
▁nutzt	-13674
▁traff	-13675
▁única	-13676
▁البار	-13677
▁المكث	-13678
▁المها	-13679
▁سيكون	-13680
▁Europä	-13681
▁Premio	-13682
▁Tuscon	-13683
▁bilden	-13684
▁calcul	-13685
▁cambió	-13686
▁compét	-13687
▁conced	-13688
▁devait	-13689
▁führte	-13690
▁hommes	-13691
▁solito	-13692
▁volvió	-13693
▁البيرة	-13694
▁Kirchen	-13695
▁Wettbew	-13696
▁Zentrum	-13697
▁catalan	-13698
▁certain	-13699
▁cerveau	-13700
▁credeva	-13701
▁devrait	-13702
▁namibia	-13703
▁studies	-13704
▁العاصمة	-13705
▁Bewohner	-13706
▁Columbia	-13707
▁deutsche	-13708
▁millions	-13709
▁principe	-13710
▁Millionen	-13711
▁conocidos	-13712
▁described	-13713
▁religiöse	-13714
▁servicios	-13715
▁supported	-13716
▁travaillé	-13717
▁Parlamento	-13718
▁commission	-13719
▁componente	-13720
▁protestant	-13721
▁révolution	-13722
▁Nordamerika	-13723
▁statunitense	-13724
ころ	-13725
イト	-13726
オン	-13727
カナ	-13728
クス	-13729
上げ	-13730
距離	-13731
194	-13732
Con	-13733
emm	-13734
mem	-13735
êts	-13736
▁28	-13737
▁Gi	-13738
Asie	-13739
chts	-13740
esis	-13741
uebl	-13742
wide	-13743
ängt	-13744
لمات	-13745
واتم	-13746
▁Riv	-13747
▁bed	-13748
▁lac	-13749
▁oce	-13750
▁ضمن	-13751
▁مان	-13752
onica	-13753
▁Hard	-13754
▁Yuan	-13755
▁clor	-13756
▁pros	-13757
▁ries	-13758
▁rifi	-13759
▁sper	-13760
▁vole	-13761
▁اعلن	-13762
▁توجد	-13763
▁この文書	-13764
onique	-13765
▁Avant	-13766
▁Coran	-13767
▁White	-13768
▁alter	-13769
▁atmos	-13770
▁dolor	-13771
▁laure	-13772
▁veget	-13773
▁votes	-13774
▁اواخر	-13775
▁Portog	-13776
▁Sainte	-13777
▁events	-13778
▁malatt	-13779
▁multip	-13780
▁nobles	-13781
▁reserv	-13782
▁accepté	-13783
▁antenna	-13784
▁materia	-13785
▁الثقافة	-13786
▁القاعدة	-13787
▁المئوية	-13788
▁controll	-13789
▁nominato	-13790
▁novembre	-13791
▁fondament	-13792
▁religieux	-13793
▁religions	-13794
▁pourraient	-13795
▁Entertainment	-13796
13	-13797
27	-13798
cn	-13799
不可	-13800
含ま	-13801
平均	-13802
美術	-13803
how	-13804
jas	-13805
كور	-13806
▁"?	-13807
▁قص	-13808
▁وظ	-13809
は誰の	-13810
Form	-13811
auen	-13812
book	-13813
iben	-13814
uche	-13815
▁Pok	-13816
▁mog	-13817
adora	-13818
igned	-13819
urity	-13820
▁1979	-13821
▁Braz	-13822
▁Geng	-13823
▁News	-13824
▁Text	-13825
▁cort	-13826
▁lose	-13827
▁mots	-13828
▁القن	-13829
▁النش	-13830
▁كاني	-13831
が行われた	-13832
始めたのは	-13833
inaire	-13834
utions	-13835
▁Civil	-13836
▁Class	-13837
▁aller	-13838
▁crime	-13839
▁formé	-13840
▁regol	-13841
▁répon	-13842
▁table	-13843
▁unità	-13844
▁الخام	-13845
▁الرغم	-13846
▁النهر	-13847
▁يتكون	-13848
issione	-13849
▁Nennen	-13850
▁Rekord	-13851
▁antica	-13852
▁bureau	-13853
▁causar	-13854
▁dovuto	-13855
▁figlio	-13856
▁fornis	-13857
▁giorni	-13858
▁incend	-13859
▁públic	-13860
▁soviet	-13861
▁الناتج	-13862
▁النجوم	-13863
▁بيونسي	-13864
▁Kennedy	-13865
▁Philipp	-13866
▁beyoncé	-13867
▁hauteur	-13868
▁locales	-13869
▁maisons	-13870
▁mercato	-13871
▁التلفزي	-13872
▁انشاؤها	-13873
▁Broadway	-13874
▁citoyens	-13875
▁comporte	-13876
▁dialecte	-13877
▁provided	-13878
▁studiert	-13879
▁vivaient	-13880
▁اليهودية	-13881
▁Ashkenazi	-13882
▁classific	-13883
▁fonctionn	-13884
▁terrestre	-13885
▁الاولمبية	-13886
▁التسعينات	-13887
▁Herrschaft	-13888
▁Portogallo	-13889
▁différents	-13890
▁Association	-13891
▁entreprises	-13892
▁contemporáne	-13893
▁unterstützen	-13894
▁communication	-13895
▁completamente	-13896
-6	-13897
äm	-13898
が何	-13899
何軍	-13900
漫画	-13901
Gen	-13902
het	-13903
rir	-13904
ائع	-13905
ارض	-13906
までに	-13907
fuer	-13908
gabe	-13909
imil	-13910
imos	-13911
pris	-13912
usto	-13913
welt	-13914
بيرك	-13915
وافق	-13916
▁CIA	-13917
▁Inn	-13918
▁Ron	-13919
▁Tam	-13920
▁mej	-13921
▁sos	-13922
▁جيش	-13923
どの国が	-13924
のどちら	-13925
aisse	-13926
arnia	-13927
exist	-13928
omini	-13929
ommer	-13930
todox	-13931
▁Abst	-13932
▁Aspe	-13933
▁Grad	-13934
▁full	-13935
▁konn	-13936
▁niño	-13937
▁rojo	-13938
▁semi	-13939
▁such	-13940
▁اللي	-13941
▁زعيم	-13942
▁كمية	-13943
▁يدير	-13944
▁ウォルト	-13945
culose	-13946
licher	-13947
▁Bible	-13948
▁famil	-13949
▁leave	-13950
▁puebl	-13951
▁satél	-13952
▁viagg	-13953
▁الحية	-13954
▁الزنك	-13955
▁القطن	-13956
▁اللات	-13957
▁جديدة	-13958
▁وسائل	-13959
れていますか	-13960
etzwerk	-13961
▁Corpor	-13962
▁Jugend	-13963
▁abgele	-13964
▁academ	-13965
▁chemin	-13966
▁conver	-13967
▁findet	-13968
▁humano	-13969
▁suelen	-13970
▁voyage	-13971
▁الجانب	-13972
▁الدماغ	-13973
▁Conseil	-13974
▁Jéhovah	-13975
▁Russell	-13976
▁concess	-13977
▁decline	-13978
▁hunting	-13979
▁nuclear	-13980
▁possède	-13981
▁studios	-13982
▁vitesse	-13983
▁الحيوية	-13984
velopment	-13985
▁Première	-13986
▁Programm	-13987
▁beschäft	-13988
▁murieron	-13989
▁publique	-13990
▁respecto	-13991
▁résultat	-13992
ondensator	-13993
▁comienzan	-13994
▁residents	-13995
▁résidents	-13996
▁conception	-13997
▁construido	-13998
▁definición	-13999
▁nécessaire	-14000
▁adolescents	-14001
▁independence	-14002
Ex	-14003
bc	-14004
زا	-14005
▁$	-14006
▁新	-14007
キア	-14008
力を	-14009
火山	-14010
acr	-14011
روض	-14012
كام	-14013
▁mp	-14014
▁ví	-14015
▁مغ	-14016
▁وي	-14017
の戦い	-14018
もっと	-14019
院議員	-14020
idet	-14021
shof	-14022
vahi	-14023
لابس	-14024
▁Bis	-14025
▁Hot	-14026
▁Jos	-14027
▁Weg	-14028
▁bon	-14029
▁hip	-14030
▁hot	-14031
▁lut	-14032
▁pav	-14033
▁عاش	-14034
▁مما	-14035
とともに	-14036
ziale	-14037
▁1941	-14038
▁Fire	-14039
▁baja	-14040
▁colp	-14041
▁cruz	-14042
▁fils	-14043
▁nata	-14044
▁poll	-14045
▁reag	-14046
▁تسمح	-14047
▁لعمل	-14048
oplast	-14049
upción	-14050
▁Markt	-14051
▁comin	-14052
▁fémin	-14053
▁learn	-14054
▁lejos	-14055
▁spend	-14056
▁texto	-14057
▁umani	-14058
▁تايمز	-14059
▁تراجع	-14060
▁biolog	-14061
▁discut	-14062
▁prepar	-14063
▁stammt	-14064
▁tenuto	-14065
▁المادة	-14066
▁الموقع	-14067
▁نيومان	-14068
iverpool	-14069
utiliser	-14070
▁alfabet	-14071
▁asfalto	-14072
▁million	-14073
▁muestra	-14074
▁outside	-14075
▁pensava	-14076
▁pueblos	-14077
▁quattro	-14078
▁realizó	-14079
▁spectre	-14080
▁Kaliforn	-14081
▁católica	-14082
▁continue	-14083
▁fréquent	-14084
▁استراليا	-14085
▁الخارجية	-14086
▁Fähigkeit	-14087
▁Witnesses	-14088
▁abgelehnt	-14089
▁beginning	-14090
▁ferrocarr	-14091
▁innerhalb	-14092
▁philosoph	-14093
▁appartient	-14094
▁entreprise	-14095
▁américaines	-14096
▁convertirse	-14097
▁environment	-14098
▁características	-14099
قف	-14100
ドル	-14101
hyd	-14102
mir	-14103
omi	-14104
raq	-14105
ris	-14106
ycl	-14107
Âge	-14108
اهد	-14109
▁Ku	-14110
になる	-14111
bank	-14112
ests	-14113
etze	-14114
ften	-14115
life	-14116
tect	-14117
äche	-14118
▁Att	-14119
▁Dra	-14120
▁fis	-14121
▁بيس	-14122
▁رقم	-14123
があるか	-14124
れていた	-14125
を何と呼	-14126
gence	-14127
▁Krit	-14128
▁Nett	-14129
▁Prof	-14130
▁Ther	-14131
▁adap	-14132
▁béné	-14133
▁elle	-14134
▁once	-14135
▁ritu	-14136
▁uomo	-14137
▁انضم	-14138
▁للمن	-14139
▁مصدر	-14140
▁نورث	-14141
しなかった	-14142
▁Czech	-14143
▁Sonne	-14144
▁Terre	-14145
▁Tower	-14146
▁decir	-14147
▁glass	-14148
▁stark	-14149
▁الاير	-14150
▁البعض	-14151
▁الجوي	-14152
▁الحمض	-14153
▁مليون	-14154
名は何ですか	-14155
▁accomp	-14156
▁active	-14157
▁actuel	-14158
▁antena	-14159
▁erster	-14160
▁native	-14161
▁parado	-14162
▁spoken	-14163
▁succès	-14164
▁الفضاء	-14165
▁الكلية	-14166
irkungen	-14167
▁Gebiete	-14168
▁anunció	-14169
▁combust	-14170
▁contact	-14171
▁contrat	-14172
▁indígen	-14173
▁inventé	-14174
▁manière	-14175
▁settore	-14176
▁الفيديو	-14177
▁بيونسيه	-14178
▁ناميبيا	-14179
▁Bermudes	-14180
▁Kongress	-14181
▁Northern	-14182
▁arbeiten	-14183
▁berühmte	-14184
▁distrito	-14185
▁medieval	-14186
▁reported	-14187
▁separate	-14188
▁toujours	-14189
▁viennent	-14190
▁القوانين	-14191
▁Jahrzehnt	-14192
▁frontière	-14193
▁genocidio	-14194
▁organisme	-14195
▁periódico	-14196
geschrieben	-14197
▁Amerikaner	-14198
▁Constantin	-14199
▁beschreibt	-14200
▁communauté	-14201
▁historique	-14202
▁nombreuses	-14203
▁transporte	-14204
ministration	-14205
▁angegriffen	-14206
▁chinesische	-14207
Ne	-14208
UE	-14209
ox	-14210
äg	-14211
وه	-14212
▁ム	-14213
メル	-14214
中に	-14215
地球	-14216
新聞	-14217
Aus	-14218
Kon	-14219
جون	-14220
▁It	-14221
▁Jr	-14222
▁Up	-14223
▁Än	-14224
▁قر	-14225
.000	-14226
Stud	-14227
dess	-14228
imen	-14229
likt	-14230
ossa	-14231
ادات	-14232
▁Bef	-14233
▁Rob	-14234
▁gam	-14235
▁nun	-14236
izona	-14237
ledge	-14238
ollar	-14239
omans	-14240
oming	-14241
ختلفة	-14242
▁1989	-14243
▁Book	-14244
▁Cast	-14245
▁Elis	-14246
▁hubo	-14247
▁sagt	-14248
ources	-14249
▁Medio	-14250
▁Stras	-14251
▁birra	-14252
▁fabri	-14253
▁firmó	-14254
▁gehen	-14255
▁musée	-14256
▁queen	-14257
▁taken	-14258
▁رسميا	-14259
はどれくらい	-14260
istance	-14261
oconfer	-14262
▁Grenze	-14263
▁Nankin	-14264
▁Satell	-14265
▁afferm	-14266
▁phrase	-14267
▁ranked	-14268
▁située	-14269
▁الكبير	-14270
▁المناخ	-14271
▁Clinton	-14272
▁Katalan	-14273
▁Valence	-14274
▁eritrea	-14275
▁faisait	-14276
▁irgendw	-14277
▁polizia	-14278
▁الاعلان	-14279
▁الشخصية	-14280
sterreich	-14281
▁November	-14282
▁critique	-14283
▁famiglia	-14284
▁ehemalige	-14285
▁française	-14286
▁presbiter	-14287
▁Definition	-14288
▁Lancashire	-14289
▁department	-14290
▁diferencia	-14291
ee	-14292
ظا	-14293
▁三	-14294
レク	-14295
一般	-14296
月の	-14297
発売	-14298
西暦	-14299
降伏	-14300
際に	-14301
DNA	-14302
RSS	-14303
apa	-14304
not	-14305
uri	-14306
xis	-14307
ددة	-14308
ريس	-14309
▁تل	-14310
が始ま	-14311
の種類	-14312
州知事	-14313
死んだ	-14314
grad	-14315
legt	-14316
onds	-14317
orge	-14318
tico	-14319
upta	-14320
vere	-14321
راعة	-14322
فينة	-14323
نائي	-14324
▁Alf	-14325
▁Wol	-14326
▁ايف	-14327
▁فوق	-14328
した人物	-14329
ocide	-14330
place	-14331
éraux	-14332
▁1994	-14333
▁Bewe	-14334
▁Norm	-14335
▁Town	-14336
▁Yong	-14337
▁giur	-14338
▁intr	-14339
▁mong	-14340
▁rise	-14341
▁weil	-14342
▁يؤثر	-14343
シリーズの	-14344
ativen	-14345
encial	-14346
ighbor	-14347
▁1939?	-14348
▁Locke	-14349
▁afirm	-14350
▁embar	-14351
▁ended	-14352
▁envió	-14353
▁frühe	-14354
▁jouer	-14355
▁monte	-14356
▁neben	-14357
▁überw	-14358
▁الجزر	-14359
▁الشكل	-14360
になったのは	-14361
ducción	-14362
iamenti	-14363
▁España	-14364
▁Newton	-14365
▁Papier	-14366
▁Zeugen	-14367
▁Zypern	-14368
▁führen	-14369
▁limite	-14370
▁origen	-14371
▁respon	-14372
▁solare	-14373
▁المرتب	-14374
lisabeth	-14375
▁Artikel	-14376
▁Element	-14377
▁Italian	-14378
▁Jehovas	-14379
▁Olympic	-14380
▁society	-14381
▁الخلايا	-14382
▁ايرلندا	-14383
achusetts	-14384
▁ambiente	-14385
▁demonstr	-14386
▁iglesias	-14387
▁problemi	-14388
▁szlachta	-14389
▁الاجمالي	-14390
▁Jefferson	-14391
▁Liverpool	-14392
▁behauptet	-14393
▁classique	-14394
▁angenommen	-14395
▁construite	-14396
▁englischen	-14397
▁pesticides	-14398
▁television	-14399
▁Gerichtshof	-14400
▁Volkszählung	-14401
▁actuellement	-14402
..	-14403
Fl	-14404
SI	-14405
マネ	-14406
史上	-14407
社会	-14408
連邦	-14409
Aut	-14410
Imp	-14411
aja	-14412
aye	-14413
cés	-14414
mäß	-14415
ogl	-14416
بيع	-14417
تاح	-14418
داف	-14419
共和党	-14420
時代に	-14421
aign	-14422
azar	-14423
deux	-14424
gere	-14425
lett	-14426
oner	-14427
▁160	-14428
▁bib	-14429
▁cum	-14430
▁pil	-14431
▁sun	-14432
▁تتح	-14433
Unter	-14434
aught	-14435
known	-14436
lines	-14437
quier	-14438
uegos	-14439
▁1988	-14440
▁Blue	-14441
▁Tele	-14442
▁abol	-14443
▁einf	-14444
▁fals	-14445
▁isol	-14446
▁lack	-14447
▁link	-14448
▁self	-14449
▁sito	-14450
▁tens	-14451
▁upon	-14452
▁very	-14453
▁سينا	-14454
▁يقول	-14455
▁Corán	-14456
▁Feder	-14457
▁Seite	-14458
▁XXIII	-14459
▁birth	-14460
▁block	-14461
▁deben	-14462
▁giust	-14463
▁opere	-14464
▁règle	-14465
▁stade	-14466
▁النقل	-14467
almente	-14468
▁Cyprus	-14469
▁Kandid	-14470
▁ajouté	-14471
▁ascend	-14472
▁county	-14473
▁joueur	-14474
▁lignes	-14475
▁numéro	-14476
▁points	-14477
▁repris	-14478
▁récord	-14479
▁œuvres	-14480
▁انخفاض	-14481
▁ويليام	-14482
isierung	-14483
▁Congrès	-14484
▁aiutato	-14485
▁automat	-14486
▁catalán	-14487
▁congreg	-14488
▁express	-14489
▁florida	-14490
▁monarca	-14491
▁produjo	-14492
▁proport	-14493
▁Ministro	-14494
▁artículo	-14495
▁campagne	-14496
▁القياسية	-14497
▁المختلفة	-14498
ländischen	-14499
▁angeboten	-14500
▁Produktion	-14501
▁soprannome	-14502
▁امبراطورية	-14503
▁Katalanisch	-14504
▁aufgetreten	-14505
▁comunemente	-14506
▁menschlichen	-14507
Cl	-14508
أس	-14509
ンダ	-14510
即位	-14511
導入	-14512
次に	-14513
観測	-14514
-10	-14515
300	-14516
cré	-14517
لين	-14518
▁gh	-14519
▁بق	-14520
などの	-14521
フィン	-14522
Alas	-14523
Brit	-14524
SCII	-14525
amos	-14526
asto	-14527
ccan	-14528
leur	-14529
mage	-14530
roat	-14531
ätze	-14532
عمرة	-14533
لزال	-14534
▁Cab	-14535
▁Mur	-14536
▁Tar	-14537
▁hér	-14538
▁pul	-14539
▁rep	-14540
▁فرع	-14541
▁فرق	-14542
▁وفي	-14543
いくつの	-14544
を行った	-14545
Oscar	-14546
aches	-14547
enreg	-14548
iesen	-14549
othic	-14550
trodu	-14551
usión	-14552
بيعات	-14553
وتيوب	-14554
▁Tage	-14555
▁Wahr	-14556
▁dann	-14557
▁orto	-14558
▁snes	-14559
▁تحصل	-14560
▁فكرة	-14561
▁قبرص	-14562
の中で最も	-14563
rature	-14564
tragen	-14565
▁Baumw	-14566
▁Teile	-14567
▁femen	-14568
▁plane	-14569
▁suppl	-14570
▁tomar	-14571
▁toute	-14572
▁tutte	-14573
▁verso	-14574
▁viejo	-14575
▁اعلنت	-14576
▁تحتاج	-14577
▁يساعد	-14578
tazione	-14579
▁Aktion	-14580
▁having	-14581
▁matchs	-14582
▁pronun	-14583
▁prueba	-14584
▁simple	-14585
▁sozial	-14586
▁späten	-14587
▁اقتصاد	-14588
▁مباراة	-14589
▁Johnson	-14590
▁gestion	-14591
▁pensait	-14592
▁qualité	-14593
▁royaume	-14594
▁vissuto	-14595
▁الثلاثة	-14596
▁مستعمرة	-14597
président	-14598
▁Armenien	-14599
▁featured	-14600
▁practice	-14601
▁sociétés	-14602
▁Brasilien	-14603
▁Herrscher	-14604
▁Spitzname	-14605
▁portugais	-14606
▁puissance	-14607
▁stabilito	-14608
▁اللاتينية	-14609
▁Protestant	-14610
▁abgehalten	-14611
.5	-14612
▁0	-14613
でも	-14614
また	-14615
グレ	-14616
dam	-14617
div	-14618
zio	-14619
▁Kh	-14620
不可侵	-14621
atic	-14622
geno	-14623
inée	-14624
time	-14625
ثافة	-14626
مودا	-14627
والي	-14628
▁Got	-14629
▁XXe	-14630
▁Zug	-14631
▁feu	-14632
▁rem	-14633
▁بعي	-14634
▁مبا	-14635
atica	-14636
aving	-14637
ensus	-14638
ianza	-14639
issip	-14640
their	-14641
الوني	-14642
▁Auss	-14643
▁Fest	-14644
▁Four	-14645
▁Verk	-14646
▁guad	-14647
▁riun	-14648
▁thre	-14649
▁التر	-14650
▁قوات	-14651
▁مبكر	-14652
▁والح	-14653
▁وصلت	-14654
▁يفوز	-14655
不可侵条約	-14656
ciendo	-14657
heirat	-14658
inning	-14659
naires	-14660
▁Lodge	-14661
▁debut	-14662
▁descr	-14663
▁empez	-14664
▁psych	-14665
▁revol	-14666
▁tasso	-14667
▁الكتب	-14668
▁اوائل	-14669
▁يعتمد	-14670
していたのは	-14671
Arménie	-14672
espèces	-14673
ultural	-14674
untains	-14675
▁Edison	-14676
▁Luther	-14677
▁beteil	-14678
▁iTunes	-14679
▁medida	-14680
▁profit	-14681
▁revenu	-14682
▁الارمن	-14683
▁المراه	-14684
▁Namibie	-14685
▁assunto	-14686
▁collège	-14687
▁einigen	-14688
▁empieza	-14689
▁estadio	-14690
▁instead	-14691
▁posible	-14692
▁primäre	-14693
▁protect	-14694
▁équipes	-14695
▁الجنسية	-14696
▁السابقة	-14697
▁Mahayana	-14698
▁chiamati	-14699
▁francesa	-14700
▁gleichen	-14701
▁nombrado	-14702
▁producto	-14703
▁property	-14704
▁rencontr	-14705
▁together	-14706
▁zerstört	-14707
Eisenhower	-14708
▁Katmandou	-14709
▁direzione	-14710
▁influenza	-14711
▁instituto	-14712
▁introduit	-14713
▁newspaper	-14714
▁الفيدرالي	-14715
NE	-14716
▁南	-14717
パイ	-14718
代表	-14719
国王	-14720
運動	-14721
App	-14722
hrt	-14723
iew	-14724
lée	-14725
typ	-14726
œur	-14727
اجر	-14728
حية	-14729
▁36	-14730
▁ku	-14731
▁ta	-14732
▁ذا	-14733
▁مض	-14734
▁アル	-14735
と同じ	-14736
現在の	-14737
cera	-14738
orse	-14739
rage	-14740
rang	-14741
ueve	-14742
uren	-14743
èles	-14744
ésie	-14745
▁Bil	-14746
▁Cas	-14747
▁boy	-14748
▁inn	-14749
▁usu	-14750
▁vér	-14751
▁ذهب	-14752
▁محل	-14753
▁يول	-14754
はどんな	-14755
スペイン	-14756
ahara	-14757
arter	-14758
illas	-14759
uebas	-14760
▁caza	-14761
▁cert	-14762
▁chil	-14763
▁cogn	-14764
▁giov	-14765
▁gymn	-14766
▁metà	-14767
▁reço	-14768
▁vête	-14769
▁أصغر	-14770
▁ممثل	-14771
Alaska	-14772
größte	-14773
ighten	-14774
ultura	-14775
▁1989?	-14776
▁Antes	-14777
▁Brief	-14778
▁Zivil	-14779
▁burke	-14780
▁coast	-14781
▁cuadr	-14782
▁niedr	-14783
▁pruss	-14784
▁relay	-14785
▁sumer	-14786
▁torre	-14787
▁treat	-14788
▁usare	-14789
▁words	-14790
▁الامر	-14791
▁السفن	-14792
▁تنتمي	-14793
ammlung	-14794
iedades	-14795
▁Argent	-14796
▁Handel	-14797
▁Varsov	-14798
▁eletto	-14799
▁envahi	-14800
▁esfuer	-14801
▁palais	-14802
▁petrol	-14803
▁schwar	-14804
▁الشرطة	-14805
▁القديم	-14806
▁الكونغ	-14807
▁Nettuno	-14808
▁abandon	-14809
▁actions	-14810
▁apporté	-14811
▁fornito	-14812
▁jugador	-14813
▁reconna	-14814
▁trovare	-14815
▁الجامعة	-14816
▁مجموعات	-14817
▁Familien	-14818
▁frédéric	-14819
▁geändert	-14820
▁southern	-14821
▁unabhäng	-14822
▁الأوسكار	-14823
▁besonders	-14824
▁spielberg	-14825
▁britannica	-14826
▁experience	-14827
▁Kalifornien	-14828
▁europäische	-14829
▁videoconfer	-14830
فظ	-14831
であ	-14832
りの	-14833
運河	-14834
cop	-14835
uré	-14836
ائب	-14837
يلة	-14838
ينة	-14839
▁EU	-14840
▁SA	-14841
▁Vi	-14842
▁بك	-14843
および	-14844
の映画	-14845
ックス	-14846
ナルド	-14847
戦争は	-14848
最後の	-14849
alty	-14850
arta	-14851
ielo	-14852
lier	-14853
tail	-14854
ypre	-14855
لاحظ	-14856
▁Cam	-14857
▁End	-14858
▁Ern	-14859
▁Imm	-14860
▁exc	-14861
▁راس	-14862
▁مشت	-14863
▁يفز	-14864
elehr	-14865
lying	-14866
ombre	-14867
onese	-14868
quenz	-14869
ánica	-14870
لافات	-14871
▁Sher	-14872
▁bras	-14873
▁chap	-14874
▁epis	-14875
▁nour	-14876
▁pant	-14877
▁prín	-14878
▁بعمل	-14879
▁تشمل	-14880
▁توفر	-14881
▁لمدة	-14882
▁وجدت	-14883
gramme	-14884
hedral	-14885
porter	-14886
▁1998?	-14887
▁Jesús	-14888
▁Pacif	-14889
▁Smith	-14890
▁Tiere	-14891
▁apart	-14892
▁avanz	-14893
▁ayant	-14894
▁cessé	-14895
▁divid	-14896
▁espos	-14897
▁fonte	-14898
▁greco	-14899
▁könig	-14900
▁means	-14901
▁porto	-14902
▁resid	-14903
▁retra	-14904
▁victo	-14905
▁Änder	-14906
▁البحث	-14907
▁تحقيق	-14908
▁تسيطر	-14909
▁رواية	-14910
▁موجود	-14911
cession	-14912
entlich	-14913
▁Antárt	-14914
▁Secret	-14915
▁Zeiten	-14916
▁border	-14917
▁camino	-14918
▁célébr	-14919
▁dépend	-14920
▁entità	-14921
▁genoma	-14922
▁mammif	-14923
▁réussi	-14924
▁spielt	-14925
▁unidad	-14926
▁uomini	-14927
▁verano	-14928
▁الأولى	-14929
▁الهيدر	-14930
されたのはいつ	-14931
ximately	-14932
▁Harvard	-14933
▁aviones	-14934
▁détient	-14935
▁inviato	-14936
▁segment	-14937
▁المحافظ	-14938
▁comunica	-14939
▁höchsten	-14940
▁pratique	-14941
▁recorded	-14942
▁sociales	-14943
▁temprano	-14944
▁verboten	-14945
▁Erwachsen	-14946
▁chrétiens	-14947
▁compagnie	-14948
▁constante	-14949
▁jugadores	-14950
▁élections	-14951
▁Convention	-14952
▁Instrument	-14953
▁électrique	-14954
▁partecipato	-14955
▁publicación	-14956
▁indipendenza	-14957
نغ	-14958
▁北	-14959
なる	-14960
所属	-14961
Ass	-14962
Esp	-14963
gén	-14964
kha	-14965
nos	-14966
rey	-14967
ève	-14968
éma	-14969
ورت	-14970
▁ير	-14971
はどう	-14972
ールの	-14973
aner	-14974
iget	-14975
mers	-14976
teor	-14977
كسية	-14978
▁168	-14979
▁ADN	-14980
▁Abd	-14981
▁Cla	-14982
▁DVD	-14983
▁NBA	-14984
▁bás	-14985
▁cay	-14986
▁lím	-14987
▁nas	-14988
▁née	-14989
▁sco	-14990
▁امر	-14991
▁ترش	-14992
▁دخل	-14993
▁زاد	-14994
▁فان	-14995
ciare	-14996
eschi	-14997
omagn	-14998
recht	-14999
▁1944	-15000
▁Iraq	-15001
▁Stad	-15002
▁dict	-15003
▁nomm	-15004
▁بالح	-15005
▁معها	-15006
▁يحدد	-15007
ground	-15008
schein	-15009
thèque	-15010
ördert	-15011
▁1995?	-15012
▁close	-15013
▁indig	-15014
▁migli	-15015
▁moved	-15016
▁rusos	-15017
▁ارسال	-15018
▁Führer	-15019
▁Mongol	-15020
▁Romans	-15021
▁bekann	-15022
▁bereit	-15023
▁estuvo	-15024
▁female	-15025
▁humain	-15026
▁lettre	-15027
▁osserv	-15028
▁settim	-15029
▁tienda	-15030
▁البلاد	-15031
▁الحفاظ	-15032
▁الفنان	-15033
isations	-15034
▁Hokkien	-15035
▁beinhal	-15036
▁conduct	-15037
▁defined	-15038
▁globale	-15039
▁modific	-15040
▁ortodox	-15041
▁pruebas	-15042
▁الاسلحة	-15043
▁التجارة	-15044
▁الخواتم	-15045
▁churches	-15046
▁commence	-15047
▁creación	-15048
▁proviene	-15049
▁البرلمان	-15050
▁الكائنات	-15051
▁المركزية	-15052
▁انتخابات	-15053
▁divisione	-15054
▁bouddhisme	-15055
▁cristianos	-15056
▁transistor	-15057
▁influenzato	-15058
▁britanniques	-15059
▁Massachusetts	-15060
kh	-15061
عى	-15062
▁コ	-15063
キシ	-15064
ニコ	-15065
ヒト	-15066
古代	-15067
対象	-15068
工事	-15069
登録	-15070
LED	-15071
bon	-15072
uff	-15073
zos	-15074
يلي	-15075
▁pc	-15076
▁sf	-15077
▁وب	-15078
キング	-15079
Tube	-15080
West	-15081
ania	-15082
azia	-15083
cars	-15084
cond	-15085
ició	-15086
togh	-15087
umer	-15088
▁Bab	-15089
▁Cir	-15090
▁Kom	-15091
▁Syn	-15092
▁emo	-15093
▁ras	-15094
▁try	-15095
▁قطع	-15096
▁يصف	-15097
どの地域	-15098
athéd	-15099
primé	-15100
ticos	-15101
▁Jagd	-15102
▁Just	-15103
▁Kore	-15104
▁Wert	-15105
▁bord	-15106
▁copa	-15107
▁rame	-15108
▁salv	-15109
▁vivo	-15110
▁الذه	-15111
▁فعلت	-15112
▁لوصف	-15113
▁ينتج	-15114
と呼ばれる	-15115
Gruppe	-15116
atoire	-15117
emment	-15118
ouveau	-15119
▁Field	-15120
▁Obama	-15121
▁Paese	-15122
▁Primo	-15123
▁Según	-15124
▁bomba	-15125
▁coleg	-15126
▁leggi	-15127
▁médec	-15128
▁parlé	-15129
▁polac	-15130
▁reign	-15131
▁russo	-15132
▁texte	-15133
▁touch	-15134
▁تعتمد	-15135
anthrop	-15136
ibilità	-15137
▁Briten	-15138
▁Disney	-15139
▁latino	-15140
▁اختبار	-15141
▁لتحديد	-15142
▁يوتيوب	-15143
schaften	-15144
▁Antenne	-15145
▁Portugu	-15146
▁Stephen	-15147
▁Zustand	-15148
▁biggest	-15149
▁doivent	-15150
▁portogh	-15151
▁proclam	-15152
▁reinado	-15153
▁windows	-15154
▁working	-15155
▁الاساسي	-15156
▁الافلام	-15157
▁سبيلبرغ	-15158
issements	-15159
▁Dokument	-15160
▁ferrovia	-15161
▁hydrogen	-15162
▁interior	-15163
▁sprechen	-15164
ulièrement	-15165
▁Francisco	-15166
▁portugies	-15167
▁التحقيقات	-15168
▁enfermedad	-15169
▁financière	-15170
▁immigrants	-15171
▁istruzione	-15172
▁settlement	-15173
▁utilizzare	-15174
▁Bürgerkrieg	-15175
▁alternative	-15176
▁erfolgreich	-15177
▁produzieren	-15178
▁tuberculose	-15179
▁konzentriert	-15180
CC	-15181
yc	-15182
ロバ	-15183
江戸	-15184
要な	-15185
Die	-15186
Mod	-15187
cce	-15188
cut	-15189
iod	-15190
pie	-15191
rég	-15192
شور	-15193
قين	-15194
▁Ep	-15195
▁Sä	-15196
▁pé	-15197
▁أو	-15198
▁عب	-15199
▁لر	-15200
とした	-15201
までの	-15202
リッツ	-15203
名は何	-15204
帝国の	-15205
2008	-15206
atha	-15207
ilog	-15208
inal	-15209
ivas	-15210
بوبر	-15211
درات	-15212
يرات	-15213
▁Jac	-15214
▁Ken	-15215
▁McC	-15216
▁Sic	-15217
▁Tol	-15218
▁Vat	-15219
▁cav	-15220
▁gez	-15221
▁méc	-15222
▁saw	-15223
▁اثر	-15224
が初めて	-15225
エンジン	-15226
achal	-15227
ativi	-15228
based	-15229
effet	-15230
zeuge	-15231
مارسة	-15232
▁Ages	-15233
▁Auto	-15234
▁Gand	-15235
▁Love	-15236
▁Navy	-15237
▁Orth	-15238
▁getr	-15239
▁puer	-15240
▁samo	-15241
▁secr	-15242
▁ship	-15243
▁toda	-15244
▁yale	-15245
▁البث	-15246
▁قضية	-15247
▁متحف	-15248
▁نشات	-15249
anvier	-15250
iteurs	-15251
▁2013,	-15252
▁Board	-15253
▁Dinge	-15254
▁Hindu	-15255
▁Other	-15256
▁aider	-15257
▁bring	-15258
▁dafür	-15259
▁deten	-15260
▁eston	-15261
▁jeune	-15262
▁lengu	-15263
▁metro	-15264
▁procé	-15265
▁right	-15266
▁اعطاء	-15267
▁تنفيذ	-15268
▁حاليا	-15269
▁مدارس	-15270
▁مفهوم	-15271
augment	-15272
omètres	-15273
publica	-15274
schulen	-15275
▁Golden	-15276
▁Report	-15277
▁bieten	-15278
▁carbon	-15279
▁circad	-15280
▁digest	-15281
▁faible	-15282
▁formes	-15283
▁mosaic	-15284
▁piante	-15285
▁reduce	-15286
▁series	-15287
▁اختيار	-15288
▁القدرة	-15289
▁النمسا	-15290
▁الهجوم	-15291
▁برمودا	-15292
▁Academy	-15293
▁Command	-15294
▁anciens	-15295
▁branche	-15296
▁lugares	-15297
▁riguard	-15298
▁الاعلام	-15299
Präsident	-15300
▁Konflikt	-15301
▁Mathemat	-15302
▁Svizzera	-15303
▁confront	-15304
▁europeos	-15305
▁mandolin	-15306
▁producir	-15307
▁الكونغرس	-15308
▁Frederick	-15309
▁beteiligt	-15310
▁currently	-15311
▁documents	-15312
▁الجمهورية	-15313
▁presentato	-15314
▁actualmente	-15315
AL	-15316
رز	-15317
が長	-15318
ゴン	-15319
デー	-15320
バス	-15321
上陸	-15322
前の	-15323
間で	-15324
فلت	-15325
وجه	-15326
ويا	-15327
▁AD	-15328
▁äl	-15329
▁بأ	-15330
フェル	-15331
委員会	-15332
amps	-15333
aren	-15334
assa	-15335
cola	-15336
conn	-15337
icus	-15338
iges	-15339
onde	-15340
éens	-15341
بدال	-15342
ريمة	-15343
▁120	-15344
▁Fle	-15345
▁Gel	-15346
▁Sem	-15347
▁bin	-15348
▁cóm	-15349
▁dst	-15350
▁ere	-15351
▁ألب	-15352
▁ارض	-15353
▁اسا	-15354
▁سيد	-15355
▁هول	-15356
Produ	-15357
chine	-15358
embly	-15359
estre	-15360
isées	-15361
richt	-15362
urato	-15363
▁1993	-15364
▁Conc	-15365
▁Home	-15366
▁Kiev	-15367
▁cach	-15368
▁mitt	-15369
▁path	-15370
▁tomó	-15371
▁vino	-15372
▁voit	-15373
▁ثلاث	-15374
bliche	-15375
gangen	-15376
intern	-15377
people	-15378
قتصادي	-15379
▁2004,	-15380
▁Alpes	-15381
▁Gener	-15382
▁Turqu	-15383
▁acept	-15384
▁carre	-15385
▁conci	-15386
▁davon	-15387
▁doing	-15388
▁lider	-15389
▁ligue	-15390
▁الارث	-15391
▁المطل	-15392
▁بعيدا	-15393
▁محكمة	-15394
イングランド	-15395
atrième	-15396
combien	-15397
issippi	-15398
iterran	-15399
▁Madrid	-15400
▁Puerto	-15401
▁Sicher	-15402
▁amenaz	-15403
▁arrest	-15404
▁census	-15405
▁cinesi	-15406
▁compró	-15407
▁double	-15408
▁größer	-15409
▁impres	-15410
▁kultur	-15411
▁länger	-15412
▁nuevas	-15413
▁quiere	-15414
▁simile	-15415
▁العنصر	-15416
▁المجلس	-15417
▁تشارلز	-15418
heiratet	-15419
▁Machine	-15420
▁Mexique	-15421
▁Seconda	-15422
▁artific	-15423
▁artiste	-15424
▁cellule	-15425
▁dimostr	-15426
▁equival	-15427
▁incluso	-15428
▁partner	-15429
ouverture	-15430
▁Français	-15431
▁dominant	-15432
▁exterior	-15433
▁negocios	-15434
▁Kontinent	-15435
▁obiettivo	-15436
▁permanent	-15437
▁struttura	-15438
▁المعلومات	-15439
▁Commission	-15440
▁Portuguese	-15441
▁comenzaron	-15442
▁personajes	-15443
▁Sowjetunion	-15444
",	-15445
▁メ	-15446
カイ	-15447
主張	-15448
候補	-15449
引き	-15450
指定	-15451
自由	-15452
表現	-15453
電力	-15454
Hay	-15455
gré	-15456
ibn	-15457
log	-15458
ائج	-15459
رال	-15460
عال	-15461
▁EE	-15462
▁Ko	-15463
▁dû	-15464
ファン	-15465
少ない	-15466
abol	-15467
alte	-15468
edom	-15469
hyth	-15470
idal	-15471
nels	-15472
ادية	-15473
رتبط	-15474
سيقي	-15475
▁Hub	-15476
▁Mär	-15477
▁Rap	-15478
▁bic	-15479
▁réf	-15480
▁Âge	-15481
▁ايط	-15482
▁طبي	-15483
avait	-15484
uáles	-15485
ماندو	-15486
▁Höhe	-15487
▁Völk	-15488
▁bian	-15489
▁mené	-15490
▁vécu	-15491
▁étud	-15492
▁تعني	-15493
▁تغير	-15494
▁سباق	-15495
▁مهمة	-15496
ancien	-15497
egnato	-15498
ktoren	-15499
ranken	-15500
ritten	-15501
usalem	-15502
وذكسية	-15503
▁Ident	-15504
▁Manch	-15505
▁adapt	-15506
▁carol	-15507
▁cinco	-15508
▁circa	-15509
▁illeg	-15510
▁promo	-15511
▁الايط	-15512
ivement	-15513
▁Beginn	-15514
▁Warner	-15515
▁autour	-15516
▁bitume	-15517
▁darwin	-15518
▁device	-15519
▁inició	-15520
▁metodo	-15521
▁milieu	-15522
▁papier	-15523
▁sonido	-15524
▁souver	-15525
▁الاساس	-15526
▁الحقوق	-15527
▁انشاؤه	-15528
▁بطولات	-15529
アメリカ大統領	-15530
国はどこですか	-15531
▁Angeles	-15532
▁Version	-15533
▁Website	-15534
▁institu	-15535
▁intorno	-15536
▁المعركة	-15537
influence	-15538
partement	-15539
▁completo	-15540
▁invasion	-15541
▁italiano	-15542
▁mountain	-15543
▁richmond	-15544
▁الاقليات	-15545
▁الرئاسية	-15546
▁Parlement	-15547
▁außerhalb	-15548
▁offiziell	-15549
▁reemplazó	-15550
▁Crepúsculo	-15551
▁Zustimmung	-15552
▁conosciuta	-15553
▁historical	-15554
▁indigenous	-15555
▁musulmanes	-15556
▁precedente	-15557
▁الارثوذكسية	-15558
▁Verteidigung	-15559
▁ursprüngliche	-15560
sk	-15561
سط	-15562
▁ピ	-15563
ウン	-15564
ザン	-15565
バン	-15566
内に	-15567
出版	-15568
勃発	-15569
国に	-15570
太平	-15571
種の	-15572
終わ	-15573
ذكر	-15574
هدف	-15575
يفن	-15576
ディー	-15577
トラン	-15578
atég	-15579
enso	-15580
irsi	-15581
lies	-15582
uego	-15583
unge	-15584
▁Bol	-15585
▁Eth	-15586
▁asp	-15587
▁cup	-15588
▁saf	-15589
▁spr	-15590
▁vid	-15591
▁لله	-15592
に関する	-15593
のことを	-15594
ciata	-15595
found	-15596
icani	-15597
itors	-15598
ulted	-15599
انيين	-15600
▁1976	-15601
▁Herz	-15602
▁LEDs	-15603
▁Wind	-15604
▁fant	-15605
▁frat	-15606
▁qued	-15607
▁tchè	-15608
▁اطول	-15609
▁الوظ	-15610
▁تصبح	-15611
と何ですか	-15612
▁March	-15613
▁Trade	-15614
▁Wrest	-15615
▁alcal	-15616
▁annex	-15617
▁behav	-15618
▁divin	-15619
▁divor	-15620
▁explo	-15621
▁islám	-15622
▁renov	-15623
▁renun	-15624
▁sales	-15625
▁stava	-15626
▁verte	-15627
▁اجزاء	-15628
▁تسمية	-15629
▁تكلفة	-15630
teilung	-15631
▁Chypre	-15632
▁Israël	-15633
▁Margar	-15634
▁Medien	-15635
▁Narnia	-15636
▁chante	-15637
▁deciso	-15638
▁domest	-15639
▁engine	-15640
▁esiste	-15641
▁millas	-15642
▁propag	-15643
▁vivono	-15644
▁الحاكم	-15645
ánscrito	-15646
▁Lincoln	-15647
▁Species	-15648
▁Stanley	-15649
▁avevano	-15650
▁benefit	-15651
▁besides	-15652
▁calidad	-15653
▁comunes	-15654
▁singolo	-15655
▁الاغنية	-15656
▁التسجيل	-15657
▁العربية	-15658
▁candidat	-15659
▁comprend	-15660
▁differen	-15661
▁ensemble	-15662
▁Grundlage	-15663
▁autrefois	-15664
▁comprende	-15665
▁materiale	-15666
▁oficiales	-15667
▁prominent	-15668
▁Manchester	-15669
▁collection	-15670
▁comandante	-15671
▁dirigeants	-15672
▁financiera	-15673
▁الاجتماعية	-15674
▁Kondensator	-15675
▁littérature	-15676
▁típicamente	-15677
EA	-15678
トリ	-15679
人は	-15680
内で	-15681
反対	-15682
確認	-15683
For	-15684
ago	-15685
two	-15686
راس	-15687
زام	-15688
وجب	-15689
▁Ga	-15690
に参加	-15691
ように	-15692
太平洋	-15693
番目の	-15694
alla	-15695
come	-15696
comm	-15697
prés	-15698
رتون	-15699
ريست	-15700
▁MTV	-15701
▁Pur	-15702
▁Wel	-15703
▁afl	-15704
▁avo	-15705
▁pén	-15706
▁sab	-15707
▁حفل	-15708
▁شبه	-15709
▁ييل	-15710
endum	-15711
ienti	-15712
riers	-15713
uesto	-15714
زيارة	-15715
▁Down	-15716
▁June	-15717
▁ader	-15718
▁aktu	-15719
▁ebra	-15720
▁erud	-15721
▁sais	-15722
▁اساس	-15723
▁لوحة	-15724
▁مارس	-15725
▁ملعب	-15726
brauch	-15727
rógeno	-15728
▁Boden	-15729
▁Kampf	-15730
▁Route	-15731
▁Somal	-15732
▁coron	-15733
▁droga	-15734
▁esegu	-15735
▁geben	-15736
▁ruled	-15737
▁score	-15738
▁servi	-15739
▁sites	-15740
▁sumin	-15741
▁اتحاد	-15742
▁اكتشف	-15743
▁الشفق	-15744
▁بموجب	-15745
▁رئيسا	-15746
ardinal	-15747
lighten	-15748
ouvelle	-15749
▁Chipre	-15750
▁Jersey	-15751
▁Sommer	-15752
▁académ	-15753
▁analog	-15754
▁comida	-15755
▁contea	-15756
▁expuls	-15757
▁hinter	-15758
▁indire	-15759
▁montré	-15760
▁tragen	-15761
▁voluto	-15762
▁الاكبر	-15763
▁الخدمة	-15764
▁السريع	-15765
▁المؤلف	-15766
▁يملكها	-15767
Institut	-15768
missions	-15769
partment	-15770
▁Gesetze	-15771
▁Monarch	-15772
▁Staates	-15773
▁associé	-15774
▁budismo	-15775
▁compare	-15776
▁effetto	-15777
▁estatal	-15778
▁guadagn	-15779
▁janvier	-15780
▁madonna	-15781
▁produtt	-15782
▁tercera	-15783
▁التنمية	-15784
▁المشترك	-15785
▁المفترض	-15786
▁artistas	-15787
▁gewinnen	-15788
▁neighbor	-15789
▁probabil	-15790
▁provoqué	-15791
▁velocità	-15792
▁versions	-15793
▁الانتهاء	-15794
▁الثانوية	-15795
▁approvato	-15796
▁beneficio	-15797
▁raggiunto	-15798
▁sánscrito	-15799
されたのは何年ですか	-15800
▁betrachtet	-15801
▁descrivere	-15802
▁religiösen	-15803
▁verificato	-15804
▁übertragen	-15805
▁declaración	-15806
▁personaggio	-15807
90	-15808
jà	-15809
بق	-15810
を見	-15811
ワシ	-15812
名称	-15813
clé	-15814
iar	-15815
kee	-15816
vic	-15817
êté	-15818
ürz	-15819
وسع	-15820
▁35	-15821
▁حس	-15822
のある	-15823
ロンド	-15824
agno	-15825
aves	-15826
chia	-15827
peut	-15828
pons	-15829
wert	-15830
älle	-15831
ظيمة	-15832
وحيد	-15833
▁Bio	-15834
▁Hum	-15835
▁Mos	-15836
▁ONU	-15837
▁Rel	-15838
▁Sol	-15839
▁Spr	-15840
▁dan	-15841
▁jün	-15842
▁الظ	-15843
▁شهد	-15844
▁للج	-15845
▁مار	-15846
after	-15847
etter	-15848
gende	-15849
icain	-15850
itage	-15851
major	-15852
oster	-15853
usätz	-15854
▁Hund	-15855
▁asma	-15856
▁bapt	-15857
▁gram	-15858
▁pape	-15859
▁sufr	-15860
▁يؤدي	-15861
Chopin	-15862
istico	-15863
izzata	-15864
▁Beruf	-15865
▁Brook	-15866
▁Hanno	-15867
▁Hause	-15868
▁Jusqu	-15869
▁cated	-15870
▁falta	-15871
▁fuoco	-15872
▁junto	-15873
▁menor	-15874
▁peint	-15875
▁premi	-15876
▁sette	-15877
▁slave	-15878
▁souff	-15879
▁tribu	-15880
▁المنت	-15881
▁بوصفه	-15882
▁تحويل	-15883
どっちの方が	-15884
enfants	-15885
▁Prusse	-15886
▁caract	-15887
▁choses	-15888
▁connus	-15889
▁crimin	-15890
▁destac	-15891
▁kleine	-15892
▁moteur	-15893
▁parole	-15894
▁powers	-15895
▁relais	-15896
▁torcia	-15897
▁vendió	-15898
▁الرجال	-15899
▁القائد	-15900
▁Einheit	-15901
▁Genghis	-15902
▁Samurai	-15903
▁display	-15904
▁douleur	-15905
▁الاعضاء	-15906
▁التوقيت	-15907
ugoslavia	-15908
▁capacità	-15909
▁contract	-15910
▁federale	-15911
▁interdit	-15912
▁stazioni	-15913
▁Antártida	-15914
▁candidats	-15915
▁cittadini	-15916
▁deutschen	-15917
▁dialectes	-15918
▁discrimin	-15919
▁Antarctica	-15920
▁beinhaltet	-15921
▁nationalen	-15922
▁orientales	-15923
▁Beziehungen	-15924
▁competition	-15925
▁independent	-15926
-5	-15927
Co	-15928
UN	-15929
ju	-15930
[...]
