{
   "<PAD>": 0,
   "<unk>": 1,
   "[ent_info]": 2,
   "->": 3,
   "<es>": 4,
   "\u2581De": 5,
   "\u2581qu\u00e9": 6,
   "\u2581pa\u00eds": 7,
   "\u2581fue": 8,
   "\u2581import": 9,
   "ado": 10,
   "\u2581el": 11,
   "[MASK]": 12,
   "?": 13,
   "\u2581": 14,
   "</s>": 15,
   "\u2581Se": 16,
   "\u2581pens\u00f3": 17,
   "\u2581que": 18,
   "z": 19,
   "uli": 20,
   "\u2581era": 21,
   "\u2581m\u00e1s": 22,
   "\u2581v": 23,
   "ali": 24,
   "oso": 25,
   "\u2581metal": 26,
   "\u2581pre": 27,
   "ci": 28,
   "\u2581Cu\u00e1l": 29,
   "\u2581cast": 30,
   "igo": 31,
   "\u2581por": 32,
   "\u2581la": 33,
   "\u2581p\u00e9rdida": 34,
   "\u2581de": 35,
   "idad": 36,
   "\u2581vest": 37,
   "\u2581Qu\u00e9": 38,
   "\u2581se": 39,
   "\u2581esperaba": 40,
   "\u2581a": 41,
   "\u2581sus": 42,
   "\u2581deber": 43,
   "es": 44,
   "\u2581papel": 45,
   "\u00f3r": 46,
   "te": 47,
   "x": 48,
   "\u2581whe": 49,
   "\u2581refiere": 50,
   "\u2581En": 51,
   "\u2581los": 52,
   "\u2581estudios": 53,
   "\u2581una": 54,
   "\u2581entre": 55,
   "\u2581dorm": 56,
   "ir": 57,
   "\u2581y": 58,
   "\u2581apr": 59,
   "ender": 60,
   "\u2581es": 61,
   "\u2581del": 62,
   "\u2581famoso": 63,
   "\u2581en": 64,
   "\u2581California": 65,
   "\u2581or": 66,
   "eg": 67,
   "\u2581Cu\u00e1les": 68,
   "\u2581las": 69,
   "\u2581bajas": 70,
   "\u2581gam": 71,
   "as": 72,
   "\u2581otro": 73,
   "\u2581ejemplo": 74,
   "\u2581un": 75,
   "\u2581formato": 76,
   "\u2581sin": 77,
   "\u2581sea": 78,
   "\u2581Apple": 79,
   "\u2581p\u00e9rd": 80,
   "idas": 81,
   "\u2581Para": 82,
   "\u2581est\u00e1": 83,
   "\u2581parado": 84,
   "\u2581fla": 85,
   "c": 86,
   "\u2581ciudad": 87,
   "\u2581origin\u00f3": 88,
   "\u2581m\u00fasica": 89,
   "\u2581no": 90,
   "\u2581hab\u00eda": 91,
   "\u2581comerciantes": 92,
   "\u2581pal": 93,
   "agi": 94,
   "\u2581tuvalu": 95,
   "\u2581t\u00e9rmino": 96,
   "\u2581para": 97,
   "\u2581gerente": 98,
   "\u2581carga": 99,
   "\u2581barco": 100,
   "gar": 101,
   "\u2581ro": 102,
   "bert": 103,
   "\u2581hizo": 104,
   "\u2581gobierno": 105,
   "\u2581det": 106,
   "uvo": 107,
   "\u2581reform": 108,
   "\u2581fueron": 109,
   "\u2581reci": 110,
   "entes": 111,
   "\u2581disturb": 112,
   "ios": 113,
   "\u2581tibet": 114,
   "anos": 115,
   "\u2581han": 116,
   "\u2581sido": 117,
   "\u2581critic": 118,
   "ados": 119,
   "\u2581Beijing": 120,
   "\u2581invent": 121,
   "\u2581dinast\u00eda": 122,
   "\u2581primeros": 123,
   "\u2581peque\u00f1a": 124,
   "\u2581foc": 125,
   "a": 126,
   "\u2581utilizaron": 127,
   "\u2581m\u00faltiples": 128,
   "\u2581gu": 129,
   "iones": 130,
   "\u2581durante": 131,
   "\u2581per\u00edodo": 132,
   "\u2581uno": 133,
   "\u2581p": 134,
   "iso": 135,
   "\u2581ab": 136,
   "ren": 137,
   "\u2581puert": 138,
   "\u2581camino": 139,
   "\u2581hacia": 140,
   "ajo": 141,
   "\u2581nombre": 142,
   "cci\u00f3n": 143,
   "\u2581ascensor": 144,
   "\u2581parques": 145,
   "\u2581mundiales": 146,
   "\u2581dis": 147,
   "\u2581Mach": 148,
   "\u2581argument\u00f3": 149,
   "\u2581impuls": 150,
   "o": 151,
   "\u2581objeto": 152,
   "\u2581existe": 153,
   "\u2581como": 154,
   "\u2581resultado": 155,
   "\u2581sum": 156,
   "\u2581efectos": 157,
   "\u2581L": 158,
   "\u2581Einstein": 159,
   "\u2581propuso": 160,
   "\u2581leyes": 161,
   "\u2581f\u00edsica": 162,
   "P": 163,
   "\u02ed": 164,
   "\u2581S": 165,
   "]": 166,
   "\u2581Y": 167,
   "Ph": 168,
   "\u2581h": 169,
   "\u2581sh": 170,
   "\u2581est\u00e1n": 171,
   "\u2581separ": 172,
   "\u2581C\u00f3mo": 173,
   "\u2581disting": 174,
   "uen": 175,
   "\u2581conson": 176,
   "\u2581l": 177,
   "en": 178,
   "is": 179,
   "\u2581fort": 180,
   "\u2581tipo": 181,
   "\u2581animal": 182,
   "\u2581utiliza": 183,
   "\u2581com\u00fanmente": 184,
   "\u2581estudiar": 185,
   "\u2581da": 186,
   "\u00f1o": 187,
   "b": 188,
   "ral": 189,
   "\u2581La": 190,
   "\u2581Neur": 191,
   "oci": 192,
   "encia": 193,
   "\u2581Comput": 194,
   "acional": 195,
   "\u2581preocup": 196,
   "ada": 197,
   "\u2581con": 198,
   "\u2581dos": 199,
   "\u2581parte": 200,
   "\u2581poblaci\u00f3n": 201,
   "\u2581identifica": 202,
   "\u2581mayor\u00eda": 203,
   "\u2581religiosa": 204,
   "\u2581conform": 205,
   "\u2581Son": 206,
   "\u2581estos": 207,
   "\u2581porcent": 208,
   "ajes": 209,
   "\u2581estim": 210,
   "aci\u00f3n": 211,
   "\u2581ex": 212,
   "ac": 213,
   "ta": 214,
   "\u2581grupos": 215,
   "\u2581religiosos": 216,
   "\u2581incon": 217,
   "\u2581general": 218,
   "\u2581apoy\u00f3": 219,
   "\u2581convers": 220,
   "i\u00f3n": 221,
   "\u2581arsenal": 222,
   "\u2581ee": 223,
   ".": 224,
   "\u2581Porter": 225,
   "\u2581Military": 226,
   "\u2581Academy": 227,
   "\u2581Sold": 228,
   "\u2581ch": 229,
   "icos": 230,
   "\u2581ayud": 231,
   "\u2581academia": 232,
   "\u2581militar": 233,
   "\u2581porter": 234,
   "\u2581afect": 235,
   "\u2581El": 236,
   "\u2581unfpa": 237,
   "\u2581acusado": 238,
   "\u2581apoyar": 239,
   "orto": 240,
   "\u2581hecho": 241,
   "\u2581estas": 242,
   "\u2581acus": 243,
   "aciones": 244,
   "\u2581contra": 245,
   "\u2581pol\u00e9m": 246,
   "\u2581respecto": 247,
   "\u2581Qui\u00e9n": 248,
   ",": 249,
   "\u2581sobre": 250,
   "\u2581re": 251,
   "im": 252,
   "presi\u00f3n": 253,
   "\u2581menudo": 254,
   "\u2581a\u00f1ad": 255,
   "\u2581fe": 256,
   "chas": 257,
   "\u2581tratado": 258,
   "\u2581rat": 259,
   "ificado": 260,
   "\u2581vig": 261,
   "or": 262,
   "\u2581C": 263,
   "\u2581fiesta": 264,
   "\u2581debe": 265,
   "\u2581haber": 266,
   "\u2581disciplina": 267,
   "\u2581estud": 268,
   "ia": 269,
   "\u2581emoc": 270,
   "\u2581mecan": 271,
   "ismos": 272,
   "\u2581neur": 273,
   "on": 274,
   "ales": 275,
   "\u2581campos": 276,
   "\u2581tratamiento": 277,
   "\u2581com\u00fan": 278,
   "\u2581le": 279,
   "\u2581habitantes": 280,
   "\u2581sem": 281,
   "itas": 282,
   "\u2581Mes": 283,
   "opotam": 284,
   "kk": 285,
   "ad": 286,
   "ians": 287,
   "\u2581ref": 288,
   "ieren": 289,
   "\u2581sumerios": 290,
   "\u2581D\u00f3nde": 291,
   "\u2581relevo": 292,
   "\u2581antorcha": 293,
   "\u2581Par\u00eds": 294,
   "\u2581Sobre": 295,
   "\u2581cantidad": 296,
   "\u2581polic": 297,
   "\u00edas": 298,
   "\u2581di": 299,
   "jeron": 300,
   "\u2581proteg": 301,
   "ido": 302,
   "\u2581Francia": 303,
   "\u2581reuni\u00f3n": 304,
   "\u2581dijo": 305,
   "\u2581tr": 306,
   "\u2581eisenhower": 307,
   "\u2581iba": 308,
   "\u2581ayudar": 309,
   "\u2581correr": 310,
   "\u2581presidente": 311,
   "\u2581estado": 312,
   "\u2581estaban": 313,
   "\u2581consider": 314,
   "ando": 315,
   "\u25811948?": 316,
   "\u2581Durante": 317,
   "\u2581guerra": 318,
   "\u2581Irak": 319,
   "\u2581color": 320,
   "\u2581activ": 321,
   "istas": 322,
   "\u2581anti": 323,
   "-": 324,
   "G": 325,
   "uer": 326,
   "an": 327,
   "\u2581\"": 328,
   "\"?": 329,
   "\u2581interv": 330,
   "ino": 331,
   "\"": 332,
   "\u2581Cu\u00e1ntas": 333,
   "\u2581veces": 334,
   "\u2581cambi\u00f3": 335,
   "\u2581\u00f3r": 336,
   "den": 337,
   "\u2581arm": 338,
   "ar": 339,
   "\u2581su": 340,
   "\u2581avi\u00f3n": 341,
   "\u2581Cu\u00e1ntos": 342,
   "\u2581transport": 343,
   "\u2581tuvo": 344,
   "\u2581n": 345,
   "ag": 346,
   "um": 347,
   "\u2581batalla": 348,
   "\u2581mid": 349,
   "way": 350,
   "\u2581Junto": 351,
   "\u2581Estonia": 352,
   "onia": 353,
   "\u2581Fin": 354,
   "land": 355,
   "itu": 356,
   "ania": 357,
   "\u2581recon": 358,
   "oci\u00f3": 359,
   "\u2581rs": 360,
   "\u25811920?": 361,
   "\u2581Uni\u00f3n": 362,
   "\u2581Sovi\u00e9tica": 363,
   "\u2581prop\u00f3sito": 364,
   "\u2581principal": 365,
   "\u2581b": 366,
   "ue": 367,
   "yes": 368,
   "\u2581plantas": 369,
   "\u2581tambi\u00e9n": 370,
   "\u2581cultiv": 371,
   "adas": 372,
   "\u2581adem\u00e1s": 373,
   "\u2581jard\u00edn": 374,
   "\u2581ingred": 375,
   "iente": 376,
   "\u2581clave": 377,
   "\u2581son": 378,
   "\u2581des": 379,
   "vi": 380,
   "\u2581agua": 381,
   "\u2581r\u00edos": 382,
   "\u2581cl\u00e1s": 383,
   "ico": 384,
   "\u2581lo": 385,
   "\u2581suc": 386,
   "\u2581cuando": 387,
   "\u2581zona": 388,
   "\u2581temp": 389,
   "l": 390,
   "\u2581altitud": 391,
   "\u2581kil": 392,
   "ogr": 393,
   "amos": 394,
   "\u2581uranio": 395,
   "\u2581pueden": 396,
   "\u2581estar": 397,
   "\u2581conten": 398,
   "idos": 399,
   "\u2581oc\u00e9": 400,
   "\u2581Por": 401,
   "\u2581tan": 402,
   "\u2581alto": 403,
   "\u2581concent": 404,
   "rado": 405,
   "\u2581tierras": 406,
   "\u2581cultivo": 407,
   "\u2581naturaleza": 408,
   "\u2581probable": 409,
   "\u2581ha": 410,
   "ga": 411,
   "\u2581cosas": 412,
   "\u2581verd": 413,
   "\u2581usan": 414,
   "\u2581algunos": 415,
   "\u2581animales": 416,
   "\u2581verde": 417,
   "\u2581palabra": 418,
   "\u2581ingl\u00e9s": 419,
   "\u2581diferencias": 420,
   "\u2581bos": 421,
   "n": 422,
   "\u2581cro": 423,
   "atas": 424,
   "\u2581serb": 425,
   "\u2581Il": 426,
   "?\"": 427,
   "\u2581Despu\u00e9s": 428,
   "\u2581a\u00f1o": 429,
   "\u2581ruise\u00f1or": 430,
   "\u2581sali\u00f3": 431,
   "\u2581idiomas": 432,
   "\u2581impres": 433,
   "\u2581Hasta": 434,
   "\u2581hoy": 435,
   "\u2581tiene": 436,
   "\u2581forma": 437,
   "\u2581precis": 438,
   "\u2581estructura": 439,
   "\u2581tempor": 440,
   "al": 441,
   "\u2581ayuda": 442,
   "\u2581c\u00f3digo": 443,
   "\u2581pitch": 444,
   "\u2581niveles": 445,
   "\u2581superior": 446,
   "\u2581basa": 447,
   "\u2581Es": 448,
   "\u2581necesario": 449,
   "\u2581retr": 450,
   "aso": 451,
   "\u2581base": 452,
   "\u2581unidad": 453,
   "\u2581simp": 454,
   "\u2581Los": 455,
   "\u2581grandes": 456,
   "\u2581blancos": 457,
   "\u2581apare": 458,
   "ciendo": 459,
   "\u2581tarde": 460,
   "\u2581hora": 461,
   "yas": 462,
   "\u2581obras": 463,
   "\u2581secci\u00f3n": 464,
   "\u2581establece": 465,
   "\u2581espec\u00edficamente": 466,
   "\u2581recib": 467,
   "os": 468,
   "\u2581p\u00fablico": 469,
   "\u2581deben": 470,
   "\u2581ser": 471,
   "\u2581public": 472,
   "\u2581moneda": 473,
   "de": 474,
   "clar": 475,
   "\u2581tratando": 476,
   "\u2581atra": 477,
   "er": 478,
   "\u2581energ\u00eda": 479,
   "\u2581hid": 480,
   "ro": 481,
   "el": 482,
   "\u00e9ctr": 483,
   "ica": 484,
   "\u2581tayikist\u00e1n": 485,
   "\u2581algo": 486,
   "\u2581bu": 487,
   "\u2581aumento": 488,
   "\u2581china": 489,
   "\u2581vio": 490,
   "\u2581r\u00e1pido": 491,
   "\u2581revoluci\u00f3n": 492,
   "\u2581Cu\u00e1ndo": 493,
   "\u2581inici\u00f3": 494,
   "\u2581sudeste": 495,
   "\u2581asi\u00e1tico": 496,
   "\u2581Alrededor": 497,
   "\u25811200": 498,
   "\u2581AC": 499,
   "\u2581c\u00f3mo": 500,
   "\u2581llamaba": 501,
   "\u2581ca\u00edda": 502,
   "\u2581civiliz": 503,
   "\u2581region": 504,
   "\u2581llamado": 505,
   "\u2581desde": 506,
   "\u2581puede": 507,
   "\u2581encontrar": 508,
   "\u2581escritura": 509,
   "\u2581Antes": 510,
   "\u25812014": 511,
   "\u2581cu\u00e1ndo": 512,
   "\u2581gran": 513,
   "\u2581venta": 514,
   "\u2581reciente": 515,
   "\u2581discos": 516,
   "\u2581Bros": 517,
   "\u2581F": 518,
   "otos": 519,
   "\u2581antes": 520,
   "\u2581biblioteca": 521,
   "\u2581entreten": 522,
   "\u2581tur": 523,
   "\u2581relaci\u00f3n": 524,
   "\u2581tama\u00f1o": 525,
   "\u2581econom\u00eda": 526,
   "\u2581colaps": 527,
   "\u2581banc": 528,
   "ario": 529,
   "\u2581grande": 530,
   "\u2581experiment": 531,
   "\u2581cualquier": 532,
   "\u2581historia": 533,
   "\u2581econ\u00f3mica": 534,
   "\u2581russo": 535,
   "Tur": 536,
   "\u2581Guerra": 537,
   "\u2581Russ": 538,
   "\u2581lugar": 539,
   "\u2581culmin": 540,
   "\u2581reun": 541,
   "i\u00f3": 542,
   "\u2581cap": 543,
   "\u00edt": 544,
   "ulo": 545,
   "\u2581form\u00f3": 546,
   "\u2581s\u00f3": 547,
   "t": 548,
   "ano": 549,
   "itor": 550,
   "io": 551,
   "\u2581mon": 552,
   "jes": 553,
   "\u2581cita": 554,
   "\u2581cal": 555,
   "ent": 556,
   "adores": 557,
   "\u2581solar": 558,
   "cidos": 559,
   "\u2581d\u00e9cada": 560,
   "\u25811890": 561,
   "\u2581vieron": 562,
   "\u2581crecimiento": 563,
   "\u2581hasta": 564,
   "\u2581tiempo": 565,
   "\u2581Desde": 566,
   "\u25811999": 567,
   "\u2581tasa": 568,
   "\u2581pa\u00edses": 569,
   "\u2581rus": 570,
   "\u2581Kiev": 571,
   "\u2581idioma": 572,
   "\u2581k": 573,
   "iev": 574,
   "\u2581adop": 575,
   "\u2581cristianismo": 576,
   "\u2581cr\u00edtico": 577,
   "\u2581consider\u00f3": 578,
   "\u2581cd": 579,
   "\u2581mejor": 580,
   "\u2581generaci\u00f3n": 581,
   "og": 582,
   "\u2581juego": 583,
   "\u2581mis": 584,
   "\u2581muy": 585,
   "\u2581larg": 586,
   "\u2581mes": 587,
   "per": 588,
   "ons": 589,
   "\u2581decidi\u00f3": 590,
   "\u2581R": 591,
   "oper": 592,
   "\u2581cu\u00e1ntos": 593,
   "\u2581jueces": 594,
   "\u2581corte": 595,
   "\u2581suprema": 596,
   "\u00edan": 597,
   "\u2581tomar": 598,
   "\u2581trono": 599,
   "\u2581Hung": 600,
   "r\u00eda": 601,
   "\u2581d\u00f3nde": 602,
   "\u2581estableci\u00f3": 603,
   "\u2581seg": 604,
   "ism": 605,
   "undo": 606,
   "\u2581neg": 607,
   "ativa": 608,
   "\u2581noble": 609,
   "za": 610,
   "\u00fan": 611,
   "g": 612,
   "ara": 613,
   "\u2581rango": 614,
   "\u2581redes": 615,
   "\u2581televisi\u00f3n": 616,
   "\u2581Oklahoma": 617,
   "\u2581cities": 618,
   "iel": 619,
   "sen": 620,
   "\u2581cond": 621,
   "\u2581cubre": 622,
   "\u2581personas": 623,
   "\u2581les": 624,
   "\u2581proceso": 625,
   "\u2581utilizado": 626,
   "\u2581c\u00e9lulas": 627,
   "\u2581eucario": 628,
   "tas": 629,
   "\u2581absor": 630,
   "ber": 631,
   "\u2581extern": 632,
   "ula": 633,
   "\u2581bacterias": 634,
   "\u2581dif": 635,
   "usi\u00f3n": 636,
   "\u2581c\u00e9l": 637,
   "\u2581via": 638,
   "\u2581tub": 639,
   "\u2581pol": 640,
   "\u2581mientras": 641,
   "\u2581cre": 642,
   "\u2581libera": 643,
   "\u2581esper": 644,
   "m": 645,
   "ato": 646,
   "zo": 647,
   "\u2581utilizan": 648,
   "\u2581cr": 649,
   "omat": 650,
   "\u00f3": 651,
   "for": 652,
   "\u2581compone": 653,
   "\u2581cel": 654,
   "ular": 655,
   "\u2581material": 656,
   "\u2581par": 657,
   "ed": 658,
   "\u2581siendo": 659,
   "\u2581car": 660,
   "\u2581benefic": 661,
   "i": 662,
   "osa": 663,
   "\u2581eton": 664,
   "\u2581servicio": 665,
   "\u2581proporciona": 666,
   "\u2581comunidad": 667,
   "\u2581local": 668,
   "\u2581libre": 669,
   "\u2581cargo": 670,
   "\u2581precio": 671,
   "\u2581completo": 672,
   "\u2581barcos": 673,
   "\u2581hicieron": 674,
   "\u2581testigos": 675,
   "\u2581involucr": 676,
   "\u2581ataque": 677,
   "we": 678,
   "\u2581grupo": 679,
   "\u2581somal\u00ed": 680,
   "\u2581afili": 681,
   "\u2581al": 682,
   "Qa": 683,
   "eda": 684,
   "\u2581A": 685,
   "\u2581qui\u00e9n": 686,
   "\u2581considera": 687,
   "\u2581sol": 688,
   "\u2581partido": 689,
   "\u2581labor": 690,
   "ista": 691,
   "\u2581reemplaz\u00f3": 692,
   "almente": 693,
   "\u2581lar": 694,
   "ry": 695,
   "mb": 696,
   "\u2581pol\u00edtico": 697,
   "\u2581s": 698,
   "hr": 699,
   "ims": 700,
   "\u2581copias": 701,
   "\u2581vend": 702,
   "ieron": 703,
   "\u2581'": 704,
   "\u2581day": 705,
   "\u2581primera": 706,
   "\u2581semana": 707,
   "\u2581lanzamiento": 708,
   "\u2581colabor": 709,
   "\u2581beyonc\u00e9": 710,
   "\u2581single": 711,
   "\u2581vu": 712,
   "\u2581rel": 713,
   "\u2581mag": 714,
   "all": 715,
   "anes": 716,
   "\u2581cada": 717,
   "\u2581viaje": 718,
   "\u2581trav\u00e9s": 719,
   "\u2581mundo": 720,
   "\u2581m\u00e9todo": 721,
   "los": 722,
   "\u2581e": 723,
   "\u2581iglesias": 724,
   "\u2581m": 725,
   "\u2581expres": 726,
   "\u2581sens": 727,
   "ibilidad": 728,
   "\u2581principio": 729,
   "\u2581sistema": 730,
   "\u2581din": 731,
   "\u2581cay\u00f3": 732,
   "mbolo": 733,
   "\u2581grado": 734,
   "\u2581uso": 735,
   "\u2581\u00e1rea": 736,
   "\u2581Tennessee": 737,
   "\u2581resist": 738,
   "ente": 739,
   "ces": 740,
   "\u2581porcentaje": 741,
   "\u2581votantes": 742,
   "\u2581vot": 743,
   "aron": 744,
   "\u2581refer": 745,
   "\u00e9n": 746,
   "d": 747,
   "\u2581febrero": 748,
   "\u2581PA": 749,
   "N": 750,
   "S": 751,
   "\u2581compromet": 752,
   "\u00eda": 753,
   "\u2581empez": 754,
   "\u2581usar": 755,
   "lo": 756,
   "\u2581ide": 757,
   "olog\u00eda": 758,
   "\u2581just": 759,
   "ifica": 760,
   "\u2581conqu": 761,
   "\u2581territor": 762,
   "\u2581Imperio": 763,
   "\u2581luch": 764,
   "\u2581estad": 765,
   "\u2581puerto": 766,
   "\u2581rico": 767,
   "\u2581pol\u00edticos": 768,
   "\u2581voz": 769,
   "\u2581post": 770,
   "\u2581casa": 771,
   "\u2581blanca": 772,
   "\u2581nacionalidad": 773,
   "\u2581minor": 774,
   "itaria": 775,
   "\u2581minoritario": 776,
   "\u2581nanjing": 777,
   "\u2581ascendencia": 778,
   "\u2581manch": 779,
   "\u00fa": 780,
   "\u2581viven": 781,
   "\u2581hace": 782,
   "\u2581gimn": 783,
   "asta": 784,
   "\u258110": 785,
   "\u2581m\u00e1x": 786,
   "\u2581sc": 787,
   "roe": 788,
   "\u2581rut": 789,
   "inas": 790,
   "\u2581ganar": 791,
   "\u2581puntos": 792,
   "\u2581adic": 793,
   "\u2581encuentran": 794,
   "\u2581mart": 795,
   "k": 796,
   "che": 797,
   "\u2581antigua": 798,
   "\u2581sala": 799,
   "\u2581deportes": 800,
   "\u2581ahora": 801,
   "\u2581empieza": 802,
   "\u2581mil": 803,
   "la": 804,
   "cul": 805,
   "\u2581nuevos": 806,
   "\u2581dem": 807,
   "\u2581j": 808,
   "ersey": 809,
   "\u2581rang": 810,
   "ers": 811,
   "\u2581York": 812,
   "\u2581fran": 813,
   "qu": 814,
   "icia": 815,
   "hl": 816,
   "\u2581captur": 817,
   "\u2581tropas": 818,
   "cas": 819,
   "\u2581primero": 820,
   "\u2581fecha": 821,
   "\u2581segunda": 822,
   "\u2581invasi\u00f3n": 823,
   "ca": 824,
   "\u2581lugares": 825,
   "\u2581in": 826,
   "\u2581lider": 827,
   "\u2581primer": 828,
   "\u25811966?": 829,
   "\u2581ministro": 830,
   "\u2581premier": 831,
   "\u2581depend": 832,
   "\u2581rig": 833,
   "ide": 834,
   "\u2581fuerza": 835,
   "\u00e1st": 836,
   "\u2581def": 837,
   "ect": 838,
   "\u2581direcci\u00f3n": 839,
   "\u2581compresi\u00f3n": 840,
   "\u2581grano": 841,
   "\u2581deb": 842,
   "il": 843,
   "\u2581l\u00edder": 844,
   "\u2581equipo": 845,
   "\u2581jefe": 846,
   "\u2581nombrado": 847,
   "\u2581organizaci\u00f3n": 848,
   "\u2581escribi\u00f3": 849,
   "\u2581imp": 850,
   "ug": 851,
   "\u2581emple": 852,
   "\u2581debate": 853,
   "\u2581asociaci\u00f3n": 854,
   "\u2581brit\u00e1nica": 855,
   "\u2581av": 856,
   "ance": 857,
   "\u2581ciencia": 858,
   "\u25811860?": 859,
   "\u2581Darwin": 860,
   "\u2581public\u00f3": 861,
   "\u2581propia": 862,
   "\u2581expl": 863,
   "icaci\u00f3n": 864,
   "\u2581cuesti\u00f3n": 865,
   "\u2581condensadores": 866,
   "\u2581varia": 867,
   "bles": 868,
   "\u2581bar": 869,
   "atos": 870,
   "\u2581var": 871,
   "\u2581separaci\u00f3n": 872,
   "\u2581pl": 873,
   "umin": 874,
   "odos": 875,
   "\u2581compuestos": 876,
   "\u2581prote": 877,
   "\u00ed": 878,
   "\u2581cobre": 879,
   "\u2581quel": 880,
   "\u2581llama": 881,
   "\u2581bil": 882,
   "\u2581apar": 883,
   "\u2581Dell": 884,
   "\u2581qued\u00f3": 885,
   "\u2581detr\u00e1s": 886,
   "\u2581he": 887,
   "w": 888,
   "lett": 889,
   "\u2581pack": 890,
   "ard": 891,
   "acle": 892,
   "\u2581campa\u00f1a": 893,
   "\u2581bra": 894,
   "hm": 895,
   "s": 896,
   "\u2581o": 897,
   "\u2581festival": 898,
   "\u2581acad\u00e9m": 899,
   "\u2581estaba": 900,
   "\u2581influenci": 901,
   "\u2581Maur": 902,
   "ice": 903,
   "avel": 904,
   "\u2581dio": 905,
   "\u2581fr\u00e9d\u00e9ric": 906,
   "\u2581actuaci\u00f3n": 907,
   "\u2581salle": 908,
   "ley": 909,
   "\u2581dice": 910,
   "\u2581ob": 911,
   "st": 912,
   "\u00e1culo": 913,
   "\u2581capacidad": 914,
   "\u2581actu": 915,
   "\u2581tradici\u00f3n": 916,
   "\u2581sutras": 917,
   "\u2581podr\u00edan": 918,
   "\u2581ven": 919,
   "\u2581otros": 920,
   "\u2581bud": 921,
   "\u2581bod": 922,
   "hisatt": 923,
   "vas": 924,
   "\u2581mah": 925,
   "ayana": 926,
   "\u2581tienen": 927,
   "\u2581surviv": 928,
   "ied": 929,
   "\u2581s\u00e1nscrito": 930,
   "cciones": 931,
   "\u2581significa": 932,
   "ccion": 933,
   "\u2581ox": 934,
   "ford": 935,
   "\u2581conc": 936,
   "\u2581nombres": 937,
   "\u2581mundial": 938,
   "\u2581hyderabad": 939,
   "\u2581Hyderabad": 940,
   "\u2581alguien": 941,
   "\u2581asocia": 942,
   "\u2581southampton": 943,
   "\u2581pos": 944,
   "\u2581marca": 945,
   "\u2581west": 946,
   "ay": 947,
   "\u2581finales": 948,
   "\u25812016,": 949,
   "\u2581cu\u00e1ntas": 950,
   "\u2581proy": 951,
   "ecta": 952,
   "\u2581trabaj": 953,
   "\u2581c": 954,
   "aja": 955,
   "\u2581hacer": 956,
   "\u2581pruebas": 957,
   "\u2581ver": 958,
   "\u2581mal": 959,
   "t\u00e9s": 960,
   "\u2581encuentra": 961,
   "\u2581vas": 962,
   "co": 963,
   "\u2581practic": 964,
   "\u2581sur": 965,
   "\u2581Europa": 966,
   "\u2581carta": 967,
   "\u2581frase": 968,
   "\u2581capital": 969,
   "izaci\u00f3n": 970,
   "\u2581indic": 971,
   "\u2581poes": 972,
   "\u2581independiente": 973,
   "\u2581caracter\u00edstica": 974,
   "\u2581canci\u00f3n": 975,
   "\u2581tem": 976,
   "\u00e1tica": 977,
   "\u2581pel\u00edcula": 978,
   "\u2581James": 979,
   "\u2581Bond": 980,
   "\u2581spectre": 981,
   "\u2581vac": 982,
   "\u2581plane": 983,
   "\u2581ins": 984,
   "urg": 985,
   "\u2581bomba": 986,
   "\u2581a\u00f1os": 987,
   "\u2581lapso": 988,
   "\u2581revolucion": 989,
   "aria": 990,
   "\u2581americana": 991,
   "\u2581creado": 992,
   "\u2581ej\u00e9rcito": 993,
   "\u2581uu": 994,
   "\u2581u": 995,
   "\u2581reempla": 996,
   "\u2581distrito": 997,
   "\u2581tel": 998,
   "esc": 999,
   "op": 1000,
   "\u2581hemis": 1001,
   "\u2581estr": 1002,
   "ellas": 1003,
   "\u2581quiere": 1004,
   "\u2581Ed": 1005,
   "mond": 1006,
   "\u2581Hal": 1007,
   "\u2581calificaci\u00f3n": 1008,
   "\u2581\u00edndice": 1009,
   "\u2581exposici\u00f3n": 1010,
   "\u00e1": 1011,
   "\u2581fotos": 1012,
   "\u2581digit": 1013,
   "\u2581llamadas": 1014,
   "\u2581tipos": 1015,
   "\u2581realiz\u00f3": 1016,
   "\u2581acto": 1017,
   "\u2581Hamb": 1018,
   "ur": 1019,
   "go": 1020,
   "\u2581provincia": 1021,
   "\u2581prus": 1022,
   "iana": 1023,
   "\u2581convertido": 1024,
   "\u00fc": 1025,
   "be": 1026,
   "ck": 1027,
   "\u2581Cu\u00e1nto": 1028,
   "uter": 1029,
   "ost": 1030,
   "omes": 1031,
   "\u2581prot": 1032,
   "\u2581an": 1033,
   "us": 1034,
   "\u2581art\u00edculo": 1035,
   "\u2581cu": 1036,
   "\u2581constituci\u00f3n": 1037,
   "\u2581Michigan": 1038,
   "\u2581pro": 1039,
   "h": 1040,
   "\u2581permit": 1041,
   "\u2581Bajo": 1042,
   "\u2581estat": 1043,
   "uto": 1044,
   "itos": 1045,
   "ig": 1046,
   "\u2581produce": 1047,
   "ov": 1048,
   "at": 1049,
   "ora": 1050,
   "\u2581electricidad": 1051,
   "\u25811.": 1052,
   "\u2581lib": 1053,
   "ras": 1054,
   "\u2581emisi\u00f3n": 1055,
   "\u2581co": 1056,
   "\u25812?": 1057,
   "\u2581Un": 1058,
   "\u2581LED": 1059,
   "\u2581DE": 1060,
   "\u25816": 1061,
   "ati": 1062,
   "\u2581inicio": 1063,
   "\u2581temporada": 1064,
   "\u2581Premier": 1065,
   "\u2581League": 1066,
   "\u2581club": 1067,
   "\u2581juega": 1068,
   "\u2581remo": 1069,
   "jo": 1070,
   "\u2581sp": 1071,
   "and": 1072,
   "ex": 1073,
   "\u2581prend": 1074,
   "\u2581ap": 1075,
   "rop": 1076,
   "\u2581deporte": 1077,
   "\u2581Irlanda": 1078,
   "\u25811914?": 1079,
   "cent": 1080,
   "\u2581reino": 1081,
   "\u2581unido": 1082,
   "\u2581anun": 1083,
   "cian": 1084,
   "\u2581archivos": 1085,
   "\u2581mayo": 1086,
   "\u2581sitio": 1087,
   "\u2581web": 1088,
   "\u2581gene": 1089,
   "\u2581beneficios": 1090,
   "\u2581anuncio": 1091,
   "\u25812008": 1092,
   "ede": 1093,
   "\u2581despu\u00e9s": 1094,
   "\u2581Tribunal": 1095,
   "\u2581Ming": 1096,
   "\u2581envi\u00f3": 1097,
   "\u2581solic": 1098,
   "itud": 1099,
   "ong": 1100,
   "kh": 1101,
   "apa": 1102,
   "\u2581piedra": 1103,
   "\u2581griega": 1104,
   "\u2581destru": 1105,
   "\u2581Dios": 1106,
   "illas": 1107,
   "\u2581rent": 1108,
   "able": 1109,
   "bus": 1110,
   "to": 1111,
   "\u2581algunas": 1112,
   "j": 1113,
   "ec": 1114,
   "\u2581incandescente": 1115,
   "\u2581Las": 1116,
   "\u2581empresas": 1117,
   "\u2581esfuerzo": 1118,
   "ud": 1119,
   "\u2581nintendo": 1120,
   "\u2581pas\u00f3": 1121,
   "\u2581congreso": 1122,
   "\u2581Senado": 1123,
   "\u2581derecho": 1124,
   "\u2581apro": 1125,
   "bar": 1126,
   "\u2581desp": 1127,
   "\u2581funcion": 1128,
   "ete": 1129,
   "et": 1130,
   "\u2581muri\u00f3": 1131,
   "osten": 1132,
   "\u2581van": 1133,
   "\u2581lod": 1134,
   "ij": 1135,
   "nell": 1136,
   "\u2581disminu": 1137,
   "\u2581n\u00famero": 1138,
   "\u2581cazadores": 1139,
   "-200": 1140,
   "6": 1141,
   "6?": 1142,
   "\u2581estadounidenses": 1143,
   "\u2581apoy": 1144,
   "\u2581caza": 1145,
   "\u2581legal": 1146,
   "\u2581alta": 1147,
   "\u2581temperatura": 1148,
   "\u2581grados": 1149,
   "elsius": 1150,
   "gl": 1151,
   "\u2581principales": 1152,
   "\u2581razones": 1153,
   "\u2581pil": 1154,
   "ient": 1155,
   "\u2581lado": 1156,
   "iz": 1157,
   "quier": 1158,
   "do": 1159,
   "\u2581tres": 1160,
   "\u2581temporadas": 1161,
   "\u2581him": 1162,
   "achal": 1163,
   "\u2581dura": 1164,
   "\u2581verano": 1165,
   "\u2581invierno": 1166,
   "\u2581consiste": 1167,
   "\u2581legisl": 1168,
   "atura": 1169,
   "\u2581Seg\u00fan": 1170,
   "\u2581pir": 1171,
   "ie": 1172,
   "\u2581conserv": 1173,
   "\u2581s\u00f3lo": 1174,
   "\u2581od": 1175,
   "ian": 1176,
   "\u2581ve": 1177,
   "\u2581oblig": 1178,
   "\u2581Pir": 1179,
   "\u2581cree": 1180,
   "\u2581hayek": 1181,
   "ador": 1182,
   "\u2581fin": 1183,
   "eses": 1184,
   "\u2581habla": 1185,
   "\u2581rusa": 1186,
   "\u2581descend": 1187,
   "ientes": 1188,
   "\u2581inmigrantes": 1189,
   "ran": 1190,
   "\u2581hablan": 1191,
   "\u2581nativa": 1192,
   "\u2581partir": 1193,
   "\u2581Fue": 1194,
   "\u25811900?": 1195,
   "\u2581religioso": 1196,
   "\u2581prusia": 1197,
   "\u2581Debido": 1198,
   "\u2581german": 1199,
   "\u2581gira": 1200,
   "\u2581gir": 1201,
   "lie": 1202,
   "\u2581show": 1203,
   "ist": 1204,
   "\u2581madonna": 1205,
   "\u2581tour": 1206,
   "ob": 1207,
   "\u2581bandera": 1208,
   "\u2581sitios": 1209,
   "\u2581director": 1210,
   "\u2581abierto": 1211,
   "\u2581todav\u00eda": 1212,
   "\u2581salv": 1213,
   "\u2581pero": 1214,
   "\u2581ser\u00eda": 1215,
   "\u2581lanzado": 1216,
   "\u2581archivo": 1217,
   "inde": 1218,
   "\u2581territorios": 1219,
   "\u2581ir\u00e1n": 1220,
   "uc": 1221,
   "\u2581siglo": 1222,
   "\u258119?": 1223,
   "\u2581llev\u00f3": 1224,
   "\u2581Rep\u00fablica": 1225,
   "\u2581isl\u00e1mica": 1226,
   "\u2581principios": 1227,
   "\u2581cuest": 1228,
   "\u2581quer": 1229,
   "\u2581ev": 1230,
   "ang": 1231,
   "lic": 1232,
   "\u2581manten": 1233,
   "erse": 1234,
   "\u2581rey": 1235,
   "\u2581brit\u00e1nico": 1236,
   "\u2581hanover": 1237,
   "\u2581buena": 1238,
   "una": 1239,
   "\u2581Rusia": 1240,
   "\u2581ayud\u00f3": 1241,
   "\u2581fre": 1242,
   "derick": 1243,
   "\u2581real": 1244,
   "\u2581mud": 1245,
   "anza": 1246,
   "\u2581transmis": 1247,
   "\u2581sat\u00e9lite": 1248,
   "\u2581dinero": 1249,
   "\u2581movimiento": 1250,
   "\u2581prohib": 1251,
   "ici\u00f3n": 1252,
   "\u2581comer": 1253,
   "\u2581leg": 1254,
   "umb": 1255,
   "res": 1256,
   "\u2581Pas": 1257,
   "\u2581texto": 1258,
   "\u2581ashkenazi": 1259,
   "\u2581kit": 1260,
   "\u2581sirve": 1261,
   "\u2581poder": 1262,
   "\u2581emit": 1263,
   "\u2581perd": 1264,
   "\u00f3n": 1265,
   "\u2581resp": 1266,
   "iro": 1267,
   "\u2581finita": 1268,
   "\u2581q": 1269,
   "\u2581mod": 1270,
   "\u2581ley": 1271,
   "\u2581can": 1272,
   "ul": 1273,
   "omb": 1274,
   "\u2581vac\u00edo": 1275,
   "\u2581pasado": 1276,
   "\u2581Ot": 1277,
   "omano": 1278,
   "\u2581rem": 1279,
   "edio": 1280,
   "\u2581desarrollar": 1281,
   "\u2581imperio": 1282,
   "\u2581aus": 1283,
   "tro": 1284,
   "H": 1285,
   "\u2581tom\u00f3": 1286,
   "\u2581control": 1287,
   "\u2581territorio": 1288,
   "nd": 1289,
   "alo": 1290,
   "\u258148": 1291,
   "8?": 1292,
   "od": 1293,
   "\u2581diferente": 1294,
   "\u2581god": 1295,
   "\u2581germ": 1296,
   "\u00e1nica": 1297,
   "\u2581i": 1298,
   "in": 1299,
   "e": 1300,
   "\u2581r": 1301,
   "\u2581hay": 1302,
   "\u2581sector": 1303,
   "\u2581ter": 1304,
   "\u2581all\u00ed": 1305,
   "\u25812008?": 1306,
   "\u2581puestos": 1307,
   "\u2581trabajo": 1308,
   "\u2581primario": 1309,
   "\u2581eran": 1310,
   "\u2581agr": 1311,
   "\u2581t\u00e9rminos": 1312,
   "\u2581ense\u00f1": 1313,
   "\u2581cu\u00e1l": 1314,
   "\u2581importante": 1315,
   "\u2581social": 1316,
   "\u2581university": 1317,
   "\u2581college": 1318,
   "\u2581lond": 1319,
   "\u2581UC": 1320,
   "L": 1321,
   "\u2581Mal": 1322,
   "y": 1323,
   "arch": 1324,
   "\u2581encontr\u00f3": 1325,
   "ina": 1326,
   "\u2581che": 1327,
   "cos": 1328,
   "\u2581componente": 1329,
   "\u2581mongolo": 1330,
   "\u2581gente": 1331,
   "\u2581Melbourne": 1332,
   "\u2581hu": 1333,
   "\u2581carbono": 1334,
   "\u2581peque\u00f1as": 1335,
   "\u2581responsable": 1336,
   "\u2581regular": 1337,
   "\u2581cont": 1338,
   "am": 1339,
   "inaci\u00f3n": 1340,
   "\u2581famosa": 1341,
   "\u2581canadiense": 1342,
   "\u2581conocido": 1343,
   "\u2581Alemania": 1344,
   "\u2581universidad": 1345,
   "\u2581Manchester": 1346,
   "\u2581supervis": 1347,
   "\u2581edificio": 1348,
   "\u2581usando": 1349,
   "\u2581transist": 1350,
   "ores": 1351,
   "v": 1352,
   "ulas": 1353,
   "\u2581transistor": 1354,
   "izada": 1355,
   "\u2581operativo": 1356,
   "\u2581is": 1357,
   "\u00f3t": 1358,
   "opo": 1359,
   "\u2581deriva": 1360,
   "\u2581plut": 1361,
   "-23": 1362,
   "9?": 1363,
   "rit": 1364,
   "\u2581experien": 1365,
   "cias": 1366,
   "\u2581fusi\u00f3n": 1367,
   "\u2581nuclear": 1368,
   "\u2581f": 1369,
   "\u2581gaddafi": 1370,
   "fic": 1371,
   "ultad": 1372,
   "\u2581se\u00f1al": 1373,
   "tr": 1374,
   "\u2581soldados": 1375,
   "\u2581cre\u00f3": 1376,
   "\u2581colegio": 1377,
   "\u2581artes": 1378,
   "\u2581letras": 1379,
   "\u2581dame": 1380,
   "\u2581vendi\u00f3": 1381,
   "\u2581\u00e1lbum": 1382,
   "\u2581todo": 1383,
   "\u2581beso": 1384,
   "tv": 1385,
   "\u2581video": 1386,
   "\u2581music": 1387,
   "\u2581awards": 1388,
   "\u2581invit": 1389,
   "\u2581otras": 1390,
   "\u2581estaciones": 1391,
   "\u2581noticias": 1392,
   "\u2581locales": 1393,
   "\u2581cbc": 1394,
   "\u2581aire": 1395,
   "\u2581comenz\u00f3": 1396,
   "ic": 1397,
   "\u2581transmit": 1398,
   "\u25812011": 1399,
   "\u2581fans": 1400,
   "\u2581Arsenal": 1401,
   "\u2581ranking": 1402,
   "\u2581medios": 1403,
   "\u2581sociales": 1404,
   "\u25812015": 1405,
   "-1": 1406,
   "\u2581budismo": 1407,
   "\u2581ther": 1408,
   "avada": 1409,
   "hi": 1410,
   "\u2581mismo": 1411,
   "\u2581significado": 1412,
   "irvana": 1413,
   "\u2581alcanz": 1414,
   "\u2581ar": 1415,
   "ant": 1416,
   "\u2581empresa": 1417,
   "\u2581cambiado": 1418,
   "\u2581ind": 1419,
   "ias": 1420,
   "\u2581orientales": 1421,
   "\u2581Londres": 1422,
   "loy": 1423,
   "\u2581comercio": 1424,
   "\u2581out": 1425,
   "rig": 1426,
   "ger": 1427,
   "\u2581reclam": 1428,
   "\u2581guam": 1429,
   "\u2581Espa\u00f1a": 1430,
   "parte": 1431,
   "\u2581early": 1432,
   "wood": 1433,
   "\u2581cient\u00edficos": 1434,
   "\u2581tratan": 1435,
   "\u2581explic": 1436,
   "\u2581formaci\u00f3n": 1437,
   "\u2581Si": 1438,
   "\u2581bien": 1439,
   "\u2581alguna": 1440,
   "ce": 1441,
   "\u2581\u00e1rbol": 1442,
   "\u2581rama": 1443,
   "\u2581podr\u00eda": 1444,
   "\u2581cos": 1445,
   "mo": 1446,
   "vis": 1447,
   "\u2581similar": 1448,
   "\u2581du": 1449,
   "ismo": 1450,
   "\u2581plat": 1451,
   "\u00f3nico": 1452,
   "\u2581fil\u00f3sofo": 1453,
   "\u2581plot": 1454,
   "\u2581acuerdo": 1455,
   "\u2581vista": 1456,
   "\u2581cord": 1457,
   "ero": 1458,
   "\u2581espe": 1459,
   "\u2581mur": 1460,
   "\u2581calidad": 1461,
   "\u2581peri\u00f3dico": 1462,
   "\u2581cub": 1463,
   "\u2581beidou": 1464,
   "\u2581frecuencia": 1465,
   "\u2581magg": 1466,
   "\u2581comercial": 1467,
   "\u2581paso": 1468,
   "owers": 1469,
   "\u2581edici\u00f3n": 1470,
   "\u2581solo": 1471,
   "\u2581versiones": 1472,
   "\u2581Algunos": 1473,
   "\u2581esc": 1474,
   "eres": 1475,
   "ol": 1476,
   "que": 1477,
   "\u2581led": 1478,
   "\u2581Med": 1479,
   "iante": 1480,
   "\u2581leds": 1481,
   "\u2581vende": 1482,
   "\u25811987": 1483,
   "\u2581t\u00edtulo": 1484,
   "\u2581wh": 1485,
   "ites": 1486,
   "ake": 1487,
   "\u2581reg": 1488,
   "reso": 1489,
   "\u2581aer": 1490,
   "mith": 1491,
   "\u25811987?": 1492,
   "\u2581vida": 1493,
   "\u2581sil": 1494,
   "vest": 1495,
   "re": 1496,
   "\u2581sobreviv": 1497,
   "\u2581dur": 1498,
   "\u2581condiciones": 1499,
   "\u2581Alpes": 1500,
   "\u2581Algun": 1501,
   "\u2581Part": 1502,
   "\u2581gen": 1503,
   "omas": 1504,
   "\u2581org": 1505,
   "\u00e1n": 1506,
   "\u2581termin": 1507,
   "\u2581n\u00fa": 1508,
   "cle": 1509,
   "\u2581transferencia": 1510,
   "\u2581puntuaci\u00f3n": 1511,
   "net": 1512,
   "3": 1513,
   "\u2581diez": 1514,
   "\u2581playstation": 1515,
   "\u25813": 1516,
   "\u2581revista": 1517,
   "\u2581home": 1518,
   "\u2581theater": 1519,
   "icas": 1520,
   "\u2581Nigeria": 1521,
   "\u2581casas": 1522,
   "\u2581elegido": 1523,
   "iano": 1524,
   "\u2581perros": 1525,
   "\u2581voc": 1526,
   "\u2581misma": 1527,
   "\u2581humanos": 1528,
   "\u2581capaces": 1529,
   "\u2581reconoc": 1530,
   "\u2581secular": 1531,
   "ell": 1532,
   "\u2581Cra": 1533,
   "\u2581Polonia": 1534,
   "\u2581ac": 1535,
   "ulaci\u00f3n": 1536,
   "\u2581dirigi\u00f3": 1537,
   "\u2581proces": 1538,
   "\u2581funer": 1539,
   "\u2581Mozart": 1540,
   "\u2581cant": 1541,
   "\u2581funeral": 1542,
   "\u2581organ": 1543,
   "\u2581concursante": 1544,
   "ven": 1545,
   "\u2581american": 1546,
   "\u2581actor": 1547,
   "\u2581mol": 1548,
   "\u2581pia": 1549,
   "\u2581t": 1550,
   "osc": 1551,
   "\u2581elimin": 1552,
   "\u2581opuso": 1553,
   "\u2581fuertemente": 1554,
   "\u2581ne": 1555,
   "lat": 1556,
   "\u2581idealismo": 1557,
   "\u2581est": 1558,
   "\u00e1s": 1559,
   "bel": 1560,
   "iving": 1561,
   "\u2581\u00e9poca": 1562,
   "\u2581tard": 1563,
   "\u2581tendencia": 1564,
   "\u2581clima": 1565,
   "\u2581ocurri\u00f3": 1566,
   "\u2581per\u00ed": 1567,
   "\u2581estudio": 1568,
   "\u2581atmos": 1569,
   "f\u00e9r": 1570,
   "\u25811970?": 1571,
   "\u2581descubr": 1572,
   "\u2581ag": 1573,
   "uj": 1574,
   "\u2581oz": 1575,
   "ono": 1576,
   "\u2581\u00faltimo": 1577,
   "\u2581corre": 1578,
   "\u2581electr": 1579,
   "\u2581gr": 1580,
   "imm": 1581,
   "\u2581imperial": 1582,
   "\u2581anunci\u00f3": 1583,
   "\u2581segundo": 1584,
   "\u2581suced": 1585,
   "\u2581significativo": 1586,
   "\u2581considerado": 1587,
   "\u2581innov": 1588,
   "\u2581distribuci\u00f3n": 1589,
   "\u2581operaciones": 1590,
   "\u2581universal": 1591,
   "ida": 1592,
   "emmle": 1593,
   "\u2581J": 1594,
   "R": 1595,
   "\u2581ban": 1596,
   "car": 1597,
   "\u2581demostr": 1598,
   "\u2581ic": 1599,
   "\u2581fun": 1600,
   "cional": 1601,
   "by": 1602,
   "\u2581I": 1603,
   "\u2581med": 1604,
   "itaci\u00f3n": 1605,
   "\u2581popular": 1606,
   "\u2581ocho": 1607,
   "\u2581documento": 1608,
   "\u2581est\u00e1ndar": 1609,
   "\u2581ISO": 1610,
   "\u2581/": 1611,
   "\u2581producci\u00f3n": 1612,
   "\u2581desc": 1613,
   "om": 1614,
   "prim": 1615,
   "\u2581mp": 1616,
   "\u2581determin": 1617,
   "\u2581ser\u00e1": 1618,
   "\u2581dentro": 1619,
   "\u25811908": 1620,
   "\u25811925": 1621,
   "\u2581quer\u00eda": 1622,
   "cel": 1623,
   "ona": 1624,
   "\u2581adqu": 1625,
   "\u2581estadio": 1626,
   "\u2581propio": 1627,
   "\u2581evidencia": 1628,
   "\u2581cru": 1629,
   "cifix": 1630,
   "cific": 1631,
   "\u2581descubierto": 1632,
   "\u2581hal": 1633,
   "ol\u00f3gico": 1634,
   "\u2581pr\u00f3x": 1635,
   "imo": 1636,
   "\u2581kanye": 1637,
   "\u2581renomb": 1638,
   "\u2581nuevo": 1639,
   "\u2581Con": 1640,
   "\u2581tw": 1641,
   "\u25812016?": 1642,
   "\u2581inc": 1643,
   "un": 1644,
   "ables": 1645,
   "\u2581abri\u00f3": 1646,
   "rasburgo": 1647,
   "\u2581opera": 1648,
   "\u258180": 1649,
   "\u258190": 1650,
   "\u2581conv": 1651,
   "ierte": 1652,
   "\u2581encontrado": 1653,
   "uerto": 1654,
   "\u2581autopista": 1655,
   "\u2581w": 1656,
   "app": 1657,
   "ing": 1658,
   "\u2581cerca": 1659,
   "\u2581puente": 1660,
   "\u2581torre": 1661,
   "\u2581P": 1662,
   "are": 1663,
   "\u2581nut": 1664,
   "ri": 1665,
   "\u2581regres": 1666,
   "\u2581Ant\u00e1rtida": 1667,
   "\u2581lat": 1668,
   "\u2581define": 1669,
   "\u2581frontera": 1670,
   "\u2581firm": 1671,
   "\u2581protecci\u00f3n": 1672,
   "\u2581declar": 1673,
   "const": 1674,
   "\u2581pr\u00e1ctica": 1675,
   "\u2581perf": 1676,
   "\u2581racial": 1677,
   "\u2581violaci\u00f3n": 1678,
   "\u2581derechos": 1679,
   "\u2581civiles": 1680,
   "\u2581Estados": 1681,
   "\u2581termin\u00f3": 1682,
   "\u2581julio": 1683,
   "\u2581C\u00e9sar": 1684,
   "\u2581oficina": 1685,
   "\u2581pol\u00edtica": 1686,
   "\u2581inform": 1687,
   "\u2581XIX": 1688,
   "\u2581corres": 1689,
   "p": 1690,
   "onde": 1691,
   "\u2581medallas": 1692,
   "ade": 1693,
   "cimiento": 1694,
   "\u2581acu\u00f1": 1695,
   "\u2581idol": 1696,
   "\u2581gan\u00f3": 1697,
   "\u2581os": 1698,
   "\u2581d": 1699,
   "ream": 1700,
   "girls": 1701,
   "ra": 1702,
   "\u2581by": 1703,
   "\u2581industria": 1704,
   "\u2581mult": 1705,
   "\u25817": 1706,
   "\u2581entrada": 1707,
   "\u2581hon": 1708,
   "rar": 1709,
   "\u2581memoria": 1710,
   "\u2581compa\u00f1\u00eda": 1711,
   "\u2581compr\u00f3": 1712,
   "\u2581cachorros": 1713,
   "\u2581promedio": 1714,
   "\u2581familia": 1715,
   "\u2581atlantic": 1716,
   "\u2581city": 1717,
   "\u2581ten\u00eda": 1718,
   "\u2581menos": 1719,
   "\u258118": 1720,
   "\u258165": 1721,
   "\u2581funcionarios": 1722,
   "\u2581eritrea": 1723,
   "\u2581num": 1724,
   "eros": 1725,
   "\u2581representantes": 1726,
   "\u2581ON": 1727,
   "\u2581prohibi\u00f3": 1728,
   "\u25812007?": 1729,
   "\u2581debido": 1730,
   "\u2581pres": 1731,
   "\u2581nu": 1732,
   "estro": 1733,
   "\u2581cor": 1734,
   "pus": 1735,
   "\u2581llam": 1736,
   "ar\u00eda": 1737,
   "\u2581magistr": 1738,
   "\u2581poderes": 1739,
   "\u2581imper": 1740,
   "\u2581supremo": 1741,
   "\u2581este": 1742,
   "\u2581pudo": 1743,
   "\u2581sal": 1744,
   "\u2581campus": 1745,
   "\u2581byu": 1746,
   "\u2581iglesia": 1747,
   "\u2581sud": 1748,
   "\u2581l\u00edmites": 1749,
   "\u2581coloc": 1750,
   "\u2581ple": 1751,
   "bey": 1752,
   "id": 1753,
   "\u2581asociado": 1754,
   "\u2581tucson": 1755,
   "\u2581ofre": 1756,
   "\u2581financiaci\u00f3n": 1757,
   "\u2581p\u00fablica": 1758,
   "\u2581candid": 1759,
   "\u2581Ay": 1760,
   "\u2581l\u00edmite": 1761,
   "\u2581gas": 1762,
   "\u2581obtener": 1763,
   "\u2581mad": 1764,
   "eras": 1765,
   "\u2581fr": 1766,
   "ond": 1767,
   "\u2581anillo": 1768,
   "\u2581cl": 1769,
   "\u2581propiedades": 1770,
   "\u2581factor": 1771,
   "\u2581dif\u00edcil": 1772,
   "\u2581pes": 1773,
   "\u2581brit\u00e1nicos": 1774,
   "\u2581infantil": 1775,
   "\u2581escuelas": 1776,
   "\u2581ni\u00f1os": 1777,
   "\u2581trabajadores": 1778,
   "enc": 1779,
   "aden": 1780,
   "ira": 1781,
   "\u2581asesinado": 1782,
   "\u2581elecciones": 1783,
   "\u25812009,": 1784,
   "\u2581we": 1785,
   "ith": 1786,
   "aco": 1787,
   "ks": 1788,
   "\u2581E": 1789,
   "\u2581szlachta": 1790,
   "\u2581osc": 1791,
   "\u2581teor\u00eda": 1792,
   "\u2581volvi\u00f3": 1793,
   "\u2581comple": 1794,
   "ja": 1795,
   "\u2581especie": 1796,
   "\u2581darwin": 1797,
   "\u2581dispers": 1798,
   "\u2581comunes": 1799,
   "ueb": 1800,
   "les": 1801,
   "\u2581objet": 1802,
   "\u2581hechos": 1803,
   "\u2581onda": 1804,
   "\u2581luz": 1805,
   "\u2581humano": 1806,
   "\u2581distin": 1807,
   "\u2581literatura": 1808,
   "\u2581auto": 1809,
   "\u2581ofrece": 1810,
   "\u2581vis": 1811,
   "\u2581mostr": 1812,
   "\u2581r\u00edo": 1813,
   "\u2581largo": 1814,
   "\u2581zonas": 1815,
   "\u2581monta\u00f1a": 1816,
   "\u2581islas": 1817,
   "\u2581brit\u00e1nicas": 1818,
   "\u2581punto": 1819,
   "\u2581hacen": 1820,
   "\u2581dispositivos": 1821,
   "\u2581noctur": 1822,
   "na": 1823,
   "\u2581convertir": 1824,
   "ones": 1825,
   "\u2581ambiente": 1826,
   "\u2581qu\u00edm": 1827,
   "\u2581tema": 1828,
   "\u2581nunca": 1829,
   "\u2581libro": 1830,
   "\u2581\u00e9l": 1831,
   "\u2581har": 1832,
   "ura": 1833,
   "\u2581tierra": 1834,
   "\u2581City": 1835,
   "\u2581temprano": 1836,
   "\u2581entr\u00f3": 1837,
   "klahoma": 1838,
   "vit": 1839,
   "\u2581deuda": 1840,
   "\u2581Israel": 1841,
   "\u2581diciembre": 1842,
   "\u2581d\u00edas": 1843,
   "\u2581vier": 1844,
   "nes": 1845,
   "\u2581computadoras": 1846,
   "\u2581dict": 1847,
   "\u2581don": 1848,
   "key": 1849,
   "\u2581compara": 1850,
   "\u2581juegos": 1851,
   "\u2581lleva": 1852,
   "\u2581oficial": 1853,
   "\u2581usaf": 1854,
   "ign": 1855,
   "\u2581usado": 1856,
   "\u2581miembros": 1857,
   "\u2581asign": 1858,
   "\u2581to": 1859,
   "cho": 1860,
   "\u2581regi\u00f3n": 1861,
   "\u2581reconoce": 1862,
   "\u2581common": 1863,
   "wealth": 1864,
   "\u2581consum": 1865,
   "\u2581cercano": 1866,
   "\u2581oriente": 1867,
   "\u2581lejos": 1868,
   "\u2581mar": 1869,
   "\u2581rojo": 1870,
   "\u2581Cu\u00e1nta": 1871,
   "\u2581nieve": 1872,
   "\u2581recibe": 1873,
   "\u2581aeropuerto": 1874,
   "\u2581charleston": 1875,
   "\u25811989": 1876,
   "\u25812": 1877,
   "3?": 1878,
   "\u2581caliente": 1879,
   "\u2581grab": 1880,
   "\u2581gobierna": 1881,
   "\u25812015?": 1882,
   "\u2581actual": 1883,
   "\u2581administr": 1884,
   "\u25811979": 1885,
   "\u2581conflict": 1886,
   "\u25811500": 1887,
   "\u2581mediados": 1888,
   "\u258120?": 1889,
   "\u2581pa": 1890,
   "\u2581britannica": 1891,
   "\u25811996": 1892,
   "\u2581privado": 1893,
   "\u2581dispar": 1894,
   "a\u00f1": 1895,
   "\u2581utiliz\u00f3": 1896,
   "\u2581crea": 1897,
   "\u258178": 1898,
   "26": 1899,
   "PM": 1900,
   "\u2581elig": 1901,
   "\u2581rpm": 1902,
   "\u2581corr": 1903,
   "\u2581abreviatura": 1904,
   "\u2581recientemente": 1905,
   "\u2581cambiar": 1906,
   "\u2581M\u00e9xico": 1907,
   "\u258120": 1908,
   "\u2581ferry": 1909,
   "no": 1910,
   "\u2581tren": 1911,
   "\u2581conex": 1912,
   "\u2581directamente": 1913,
   "\u2581conect": 1914,
   "itario": 1915,
   "\u2581Beyonc\u00e9": 1916,
   "\u2581premio": 1917,
   "\u2581Grammy": 1918,
   "tol": 1919,
   "omeo": 1920,
   "\u2581mayor": 1921,
   "eter": 1922,
   "\u2581Cuya": 1923,
   "\u2581Egipto": 1924,
   "f": 1925,
   "iles": 1926,
   "\u2581tall": 1927,
   "\u2581religiosas": 1928,
   "\u2581edad": 1929,
   "\u2581media": 1930,
   "\u2581temprana": 1931,
   "\u2581cruz": 1932,
   "\u2581notable": 1933,
   "\u2581hecha": 1934,
   "\u2581esta": 1935,
   "\u2581consideran": 1936,
   "\u2581etiqu": 1937,
   "\u2581sello": 1938,
   "51": 1939,
   "\u2581er": 1940,
   "fe": 1941,
   "\u2581ult": 1942,
   "rav": 1943,
   "leta": 1944,
   "\u2581paul": 1945,
   "hren": 1946,
   "est": 1947,
   "\u2581dell": 1948,
   "\u25812012?": 1949,
   "\u2581mane": 1950,
   "\u2581asamblea": 1951,
   "\u2581pc": 1952,
   "\u2581respecta": 1953,
   "C": 1954,
   "arden": 1955,
   "\u2581ciudades": 1956,
   "\u2581aparte": 1957,
   "\u2581Roma": 1958,
   "ipp": 1959,
   "\u2581iii": 1960,
   "\u2581decir": 1961,
   "\u2581pi": 1962,
   "eta": 1963,
   "\u2581represent": 1964,
   "\u2581Mar\u00eda": 1965,
   "\u2581llamada": 1966,
   "\u2581egip": 1967,
   "cia": 1968,
   "\u2581atribu": 1969,
   "yen": 1970,
   "\u2581simil": 1971,
   "itudes": 1972,
   "\u2581objetivos": 1973,
   "\u2581cerveza": 1974,
   "\u2581am": 1975,
   "arg": 1976,
   "\u2581cerve": 1977,
   "zas": 1978,
   "\u2581nueva": 1979,
   "\u2581york": 1980,
   "\u25812014?": 1981,
   "alia": 1982,
   "ompe": 1983,
   "yo": 1984,
   "\u2581estados": 1985,
   "\u2581helen": 1986,
   "\u2581asia": 1987,
   "\u2581regla": 1988,
   "\u2581pred": 1989,
   "\u2581aumenta": 1990,
   "\u2581cambia": 1991,
   "\u2581Eisenhower": 1992,
   "\u2581ases": 1993,
   "\u2581militares": 1994,
   "\u25811954?": 1995,
   "\u2581baut": 1996,
   "iri\u00f3": 1997,
   "\u2581s\u00ed": 1998,
   "\u2581mismos": 1999,
   "\u2581cristianos": 2000,
   "unque": 2001,
   "\u2581fals": 2002,
   "amente": 2003,
   "\u2581llamados": 2004,
   "apt": 2005,
   "bury": 2006,
   "\u2581metro": 2007,
   "\u2581Boston": 2008,
   "\u2581portugu\u00e9s": 2009,
   "\u2581Entre": 2010,
   "\u2581Portugal": 2011,
   "\u2581colonial": 2012,
   "\u2581contin": 2013,
   "\u2581nativo": 2014,
   "\u2581fra": 2015,
   "\u2581vive": 2016,
   "uro": 2017,
   "\u2581asi": 2018,
   "\u2581residentes": 2019,
   "\u2581Is": 2020,
   "\u2581Marshall": 2021,
   "\u2581final": 2022,
   "ness": 2023,
   "ess": 2024,
   "\u2581oeste": 2025,
   "ib": 2026,
   "\u2581res": 2027,
   "orts": 2028,
   "\u2581tuscon": 2029,
   "\u2581enc": 2030,
   "imer": 2031,
   "ge": 2032,
   "\u2581barr": 2033,
   "gin": 2034,
   "\u2581gama": 2035,
   "+": 2036,
   "00": 2037,
   "D": 2038,
   "ff": 2039,
   "\u2581conocida": 2040,
   "\u2581lanz\u00f3": 2041,
   "\u2581Jap\u00f3n": 2042,
   "\u2581desarroll\u00f3": 2043,
   "pu": 2044,
   "\u2581v\u00eddeo": 2045,
   "\u2581ram": 2046,
   "\u2581toda": 2047,
   "\u2581propag": 2048,
   "anda": 2049,
   "\u2581present\u00f3": 2050,
   "ianos": 2051,
   "\u2581quieren": 2052,
   "\u2581poblaciones": 2053,
   "\u2581aleman": 2054,
   "\u2581oriental": 2055,
   "\u2581acept": 2056,
   "\u2581evoluci\u00f3n": 2057,
   "\u25811870": 2058,
   "\u2581selecci\u00f3n": 2059,
   "\u2581natural": 2060,
   "\u2581menor": 2061,
   "\u2581ella": 2062,
   "\u2581Or": 2063,
   "inar": 2064,
   "\u2581identific": 2065,
   "\u2581namibia": 2066,
   "\u2581d\u00eda": 2067,
   "\u2581human": 2068,
   "\u2581trabaj\u00f3": 2069,
   "\u25812013": 2070,
   "ime": 2071,
   "\u2581for": 2072,
   "\u2581change": 2073,
   "antes": 2074,
   "\u2581No": 2075,
   "\u2581ip": 2076,
   "\u2581dup": 2077,
   "\u2581larga": 2078,
   "ve": 2079,
   "\u2581utilizada": 2080,
   "\u2581a\u00e9": 2081,
   "\u2581escala": 2082,
   "\u2581completa": 2083,
   "\u2581aviones": 2084,
   "-4": 2085,
   "\u2581reemplaz": 2086,
   "\u2581millas": 2087,
   "\u2581cuadradas": 2088,
   "\u2581nacional": 2089,
   "\u2581desierto": 2090,
   "\u2581f\u00f3s": 2091,
   "\u2581\u00e1": 2092,
   "\u00e9s": 2093,
   "\u2581ent": 2094,
   "\u2581bajo": 2095,
   "\u2581lenguaje": 2096,
   "c\u00ed": 2097,
   "fico": 2098,
   "\u2581herramient": 2099,
   "\u2581Thomas": 2100,
   "\u2581young": 2101,
   "\u2581usa": 2102,
   "erg": 2103,
   "\u2581viva": 2104,
   "\u2581descubri\u00f3": 2105,
   "\u00edn": 2106,
   "\u2581requ": 2107,
   "er\u00eda": 2108,
   "\u2581retir": 2109,
   "\u2581vi": 2110,
   "\u2581exig": 2111,
   "\u2581posterior": 2112,
   "mente": 2113,
   "\u2581cardenales": 2114,
   "\u2581gener": 2115,
   "\u2581mir": 2116,
   "\u2581alem\u00e1n": 2117,
   "\u2581Qui\u00e9nes": 2118,
   "\u2581alemana": 2119,
   "\u2581central": 2120,
   "\u2581concepto": 2121,
   "se": 2122,
   "par": 2123,
   "\u2581religi\u00f3n": 2124,
   "cita": 2125,
   "cios": 2126,
   "\u2581dor": 2127,
   "\u2581trabajan": 2128,
   "\u2581palacio": 2129,
   "\u2581buckingham": 2130,
   "\u2581resto": 2131,
   "bo": 2132,
   "\u2581\u00fanico": 2133,
   "\u2581objetivo": 2134,
   "\u2581muchos": 2135,
   "\u2581jur": 2136,
   "\u00e1sico": 2137,
   "\u2581dom": 2138,
   "ine": 2139,
   "\u2581tanto": 2140,
   "\u2581carn": 2141,
   "\u2581her": 2142,
   "\u2581educaci\u00f3n": 2143,
   "\u2581conoce": 2144,
   "\u2581col": 2145,
   "ialmente": 2146,
   "\u2581especial": 2147,
   "\u2581san": 2148,
   "\u2581ingresos": 2149,
   "\u2581obten": 2150,
   "\u2581transporte": 2151,
   "\u2581ferroviario": 2152,
   "vent": 2153,
   "ificaci\u00f3n": 2154,
   "\u2581ferroviaria": 2155,
   "\u2581ency": 2156,
   "clop": 2157,
   "edie": 2158,
   "\u2581circul": 2159,
   "\u2581francesa": 2160,
   "\u2581sociedad": 2161,
   "\u2581Inglaterra": 2162,
   "\u2581jug\u00f3": 2163,
   "\u2581hogares": 2164,
   "hu": 2165,
   "\u2581propor": 2166,
   "ci\u00f3n": 2167,
   "\u2581pas": 2168,
   "\u2581escenario": 2169,
   "ito": 2170,
   "\u2581organismo": 2171,
   "\u2581bio": 2172,
   "ph": 2173,
   "\u2581llaman": 2174,
   "\u2581hielo": 2175,
   "man": 2176,
   "\u2581ant": 2177,
   "\u00e1rt": 2178,
   "\u2581interfer": 2179,
   "Y": 2180,
   "\u2581\u00fat": 2181,
   "\u2581diagn": 2182,
   "\u2581desarrollo": 2183,
   "\u2581adv": 2184,
   "irt": 2185,
   "ass": 2186,
   "icholas": 2187,
   "\u2581tale": 2188,
   "\u2581crisis": 2189,
   "\u2581financiera": 2190,
   "\u2581Nicholas": 2191,
   "\u2581Tale": 2192,
   "\u2581utilizados": 2193,
   "\u2581aplicaciones": 2194,
   "\u2581computadora": 2195,
   "\u2581establecido": 2196,
   "\u2581sam": 2197,
   "uel": 2198,
   "\u2581ho": 2199,
   "\u2581193": 2200,
   "\u2581secretario": 2201,
   "\u2581mediev": 2202,
   "\u2581establecieron": 2203,
   "\u2581describe": 2204,
   "\u2581adolesc": 2205,
   "\u2581etapa": 2206,
   "\u2581pens": 2207,
   "\u2581comienzan": 2208,
   "\u2581abstra": 2209,
   "cta": 2210,
   "\u2581us\u00f3": 2211,
   "\u2581c\u00f3mics": 2212,
   "\u2581cogn": 2213,
   "itiva": 2214,
   "iende": 2215,
   "\u2581port": 2216,
   "\u00f3vil": 2217,
   "\u2581convirti\u00f3": 2218,
   "\u2581patrocin": 2219,
   "\u2581Cuando": 2220,
   "oca": 2221,
   "ola": 2222,
   "\u2581dej\u00f3": 2223,
   "\u2581ul": 2224,
   "rob": 2225,
   "acter": 2226,
   "\u2581suele": 2227,
   "\u2581coc": 2228,
   "\u2581suelen": 2229,
   "\u2581negoci": 2230,
   "\u2581hell": 2231,
   "ate": 2232,
   "ific": 2233,
   "\u2581donde": 2234,
   "\u2581todas": 2235,
   "\u2581extrem": 2236,
   "idades": 2237,
   "\u2581incap": 2238,
   "it": 2239,
   "ated": 2240,
   "\u2581mostrar": 2241,
   "\u2581present": 2242,
   "puesta": 2243,
   "\u2581V": 2244,
   "\u2581ventaja": 2245,
   "\u2581estrat": 2246,
   "\u00e9g": 2247,
   "\u2581ubicaci\u00f3n": 2248,
   "\u2581Bronx": 2249,
   "\u2581construido": 2250,
   "bridge": 2251,
   "\u2581afr": 2252,
   "ika": 2253,
   "ans": 2254,
   "ll": 2255,
   "uv": 2256,
   "\u2581f\u00e1cil": 2257,
   "\u2581estudiantes": 2258,
   "\u2581Sud\u00e1frica": 2259,
   "\u2581holand\u00e9s": 2260,
   "\u2581Aproximadamente": 2261,
   "\u2581alianza": 2262,
   "\u2581zw": 2263,
   "li": 2264,
   "\u2581lut": 2265,
   "her": 2266,
   "\u2581pr\u00edncipe": 2267,
   "burg": 2268,
   "\u2581software": 2269,
   "\u2581causar": 2270,
   "\u2581problemas": 2271,
   "\u2581problema": 2272,
   "\u2581running": 2273,
   "\u2581err": 2274,
   "\u2581Stewart": 2275,
   "M": 2276,
   "\u2581ninguna": 2277,
   "\u2581caso": 2278,
   "pp": 2279,
   "erson": 2280,
   "\u2581fuerzas": 2281,
   "\u2581unidos": 2282,
   "\u2581ciento": 2283,
   "\u2581japones": 2284,
   "\u2581murieron": 2285,
   "omp": 2286,
   "\u2581pie": 2287,
   "\u2581escuch": 2288,
   "\u2581tamb": 2289,
   "\u2581primeras": 2290,
   "\u2581grabaciones": 2291,
   "\u2581jazz": 2292,
   "\u2581cocina": 2293,
   "\u2581per": 2294,
   "\u2581ot": 2295,
   "omana": 2296,
   "\u2581Pre": 2297,
   "\u2581comida": 2298,
   "\u0131": 2299,
   "has": 2300,
   "\u2581Song": 2301,
   "hai": 2302,
   "\u2581tu": 2303,
   "\u2581ambos": 2304,
   "jan": 2305,
   "\u2581cuatro": 2306,
   "\u2581salud": 2307,
   "\u2581versi\u00f3n": 2308,
   "\u2581a\u00e9rea": 2309,
   "\u2581190": 2310,
   "7?": 2311,
   "\u2581separa": 2312,
   "\u2581departamento": 2313,
   "\u2581man": 2314,
   "bra": 2315,
   "\u2581especies": 2316,
   "iar": 2317,
   "ch": 2318,
   "ior": 2319,
   "nis": 2320,
   "ux": 2321,
   "\u2581x": 2322,
   "ot": 2323,
   "ingia": 2324,
   "zh": 2325,
   "eng": 2326,
   "gos": 2327,
   "\u2581individuo": 2328,
   "\u2581servicios": 2329,
   "\u2581discr": 2330,
   "iminaci\u00f3n": 2331,
   "idi\u00f3": 2332,
   "\u2581dolor": 2333,
   "\u2581r\u00e1pidamente": 2334,
   "\u2581museo": 2335,
   "\u2581avia": 2336,
   "ion": 2337,
   "ante": 2338,
   "\u2581presupuesto": 2339,
   "ity": 2340,
   "\u2581inv": 2341,
   "Pr": 2342,
   "\u2581fundado": 2343,
   "\u2581regiones": 2344,
   "\u2581exclu": 2345,
   "\u2581ll": 2346,
   "\u2581monta\u00f1as": 2347,
   "\u2581tro": 2348,
   "dos": 2349,
   "rena": 2350,
   "oria": 2351,
   "\u2581diverso": 2352,
   "je": 2353,
   "\u2581aves": 2354,
   "\u2581evolucion": 2355,
   "\u2581construcci\u00f3n": 2356,
   "ues": 2357,
   "\u2581productos": 2358,
   "\u2581algod\u00f3n": 2359,
   "\u2581mandato": 2360,
   "\u2581india": 2361,
   "\u2581permiti\u00f3": 2362,
   "\u2581vender": 2363,
   "\u2581te": 2364,
   "\u2581pen": 2365,
   "alt": 2366,
   "\u2581conocidos": 2367,
   "\u2581g": 2368,
   "\u2581cuent": 2369,
   "\u2581inter\u00e9s": 2370,
   "\u2581influencia": 2371,
   "\u2581yale": 2372,
   "\u2581bowl": 2373,
   "\u2581indo": 2374,
   "\u2581cobert": 2375,
   "\u2581Virginia": 2376,
   "\u2581Occ": 2377,
   "ident": 2378,
   "\u2581Supremo": 2379,
   "\u2581cuerpo": 2380,
   "\u2581conduce": 2381,
   "\u2581disminuci\u00f3n": 2382,
   "\u2581compr": 2383,
   "\u2581ventas": 2384,
   "\u2581depart": 2385,
   "amentos": 2386,
   "\u2581golpe": 2387,
   "\u2581participar": 2388,
   "\u2581conflicto": 2389,
   "\u2581direct": 2390,
   "\u2581Unidos": 2391,
   "\u2581Corea": 2392,
   "\u2581contr": 2393,
   "\u2581mig": 2394,
   "\u2581visto": 2395,
   "\u2581Ste": 2396,
   "fan": 2397,
   "\u2581Grimm": 2398,
   "\u2581l\u00ednea": 2399,
   "\u2581celebraron": 2400,
   "\u2581\u00falt": 2401,
   "imas": 2402,
   "iciones": 2403,
   "\u2581consejo": 2404,
   "\u2581ejecut": 2405,
   "ivo": 2406,
   "\u2581com": 2407,
   "\u2581st": 2408,
   "\u2581Bar": 2409,
   "bs": 2410,
   "\u2581toma": 2411,
   "\u2581efecto": 2412,
   "\u2581gol": 2413,
   "\u2581mess": 2414,
   "\u2581copa": 2415,
   "\u2581empuj": 2416,
   "\u2581Barcelona": 2417,
   "\u2581liga": 2418,
   "\u2581campe": 2419,
   "\u2581banco": 2420,
   "\u25812007,": 2421,
   "\u2581aproximadamente": 2422,
   "\u2581ten\u00edan": 2423,
   "out": 2424,
   "\u2581be": 2425,
   "itter": 2426,
   "mas": 2427,
   "\u2581inten": 2428,
   "\u2581registro": 2429,
   "\u2581infra": 2430,
   "abe": 2431,
   "\u2581light": 2432,
   "\u2581ble": 2433,
   "acher": 2434,
   "\u2581chicago": 2435,
   "\u2581cubs": 2436,
   "\u2581forman": 2437,
   "\u2581recibi\u00f3": 2438,
   "\u2581federal": 2439,
   "\u2581orden": 2440,
   "iva": 2441,
   "\u2581vez": 2442,
   "acci\u00f3n": 2443,
   "\u2581americano": 2444,
   "\u2581aband": 2445,
   "cio": 2446,
   "imiento": 2447,
   "\u2581G": 2448,
   "ierno": 2449,
   "\u2581Myanmar": 2450,
   "\u2581esfuerzos": 2451,
   "\u2581internacionales": 2452,
   "\u2581asistencia": 2453,
   "\u25812012": 2454,
   "u": 2455,
   "\u2581cent": 2456,
   "\u2581aut": 2457,
   "\u2581crear": 2458,
   "ique": 2459,
   "\u00f1os": 2460,
   "\u2581Af": 2461,
   "gan": 2462,
   "ist\u00e1n": 2463,
   "\u2581ra\u00ed": 2464,
   "\u2581conced": 2465,
   "\u2581evento": 2466,
   "\u2581organiz": 2467,
   "\u2581asuntos": 2468,
   "\u2581culturales": 2469,
   "\u2581Chicago": 2470,
   "\u2581celeb": 2471,
   "\u2581Desert": 2472,
   "\u2581Records": 2473,
   "anguard": 2474,
   "\u2581an\u00e1lisis": 2475,
   "\u2581ries": 2476,
   "\u2581ej\u00e9rcitos": 2477,
   "\u2581invad": 2478,
   "\u25811956?": 2479,
   "\u2581sovi\u00e9ticos": 2480,
   "\u2581lanz": 2481,
   "\u2581artificial": 2482,
   "\u2581proporcion": 2483,
   "\u2581informaci\u00f3n": 2484,
   "\u2581ropa": 2485,
   "\u2581h\u00e1": 2486,
   "\u2581espec\u00edfico": 2487,
   "\u2581pio": 2488,
   "\u2581corpor": 2489,
   "\u2581t\u00e9cnica": 2490,
   "on\u00eda": 2491,
   "\u2581mejores": 2492,
   "\u2581trabajar": 2493,
   "\u2581llegar": 2494,
   "\u2581dado": 2495,
   "\u2581calle": 2496,
   "\u2581122": 2497,
   "\u2581tax": 2498,
   "\u2581condu": 2499,
   "\u2581indica": 2500,
   "\u2581negra": 2501,
   "\u2581barrio": 2502,
   "\u2581rode": 2503,
   "red": 2504,
   "\u2581arr": 2505,
   "iba": 2506,
   "lover": 2507,
   "\u2581Har": 2508,
   "r": 2509,
   "ison": 2510,
   "\u2581estudi": 2511,
   "\u2581ku": 2512,
   "\u2581cambio": 2513,
   "\u2581clim": 2514,
   "\u00e1tico": 2515,
   "\u2581instituto": 2516,
   "\u2581investigaci\u00f3n": 2517,
   "\u2581need": 2518,
   "ham": 2519,
   "\u2581Franklin": 2520,
   "\u2581Roosevelt": 2521,
   "\u2581autoridad": 2522,
   "\u2581Richard": 2523,
   "\u2581N": 2524,
   "ixon": 2525,
   "\u2581val": 2526,
   "\u2581expansi\u00f3n": 2527,
   "\u2581exhib": 2528,
   "\u2581XX": 2529,
   "\u2581national": 2530,
   "\u2581arts": 2531,
   "\u2581asiatiques": 2532,
   "\u2581vivienda": 2533,
   "\u2581red": 2534,
   "uses": 2535,
   "\u2581total": 2536,
   "\u2581espera": 2537,
   "\u2581ciencias": 2538,
   "\u2581hic": 2539,
   "iera": 2540,
   "\u2581enmienda": 2541,
   "\u2581ke": 2542,
   "au": 2543,
   "ver": 2544,
   "arr": 2545,
   "\u2581independencia": 2546,
   "\u2581mex": 2547,
   "icana": 2548,
   "\u2581incurs": 2549,
   "\u2581noche": 2550,
   "\u2581lu": 2551,
   "ft": 2552,
   "fl": 2553,
   "otte": 2554,
   "\u2581haciendo": 2555,
   "\u2581fl": 2556,
   "kor": 2557,
   "ps": 2558,
   "\u2581Ab": 2559,
   "ril": 2560,
   "\u25811941": 2561,
   "\u2581Connecticut": 2562,
   "\u2581condado": 2563,
   "\u2581haven": 2564,
   "\u2581new": 2565,
   "\u25812010?": 2566,
   "\u2581purit": 2567,
   "\u2581Lo": 2568,
   "\u2581caus\u00f3": 2569,
   "\u2581neo": 2570,
   "arck": 2571,
   "\u2581intent\u00f3": 2572,
   "por": 2573,
   "\u2581actividad": 2574,
   "\u2581encu": 2575,
   "\u2581apoyo": 2576,
   "\u2581tener": 2577,
   "\u2581poco": 2578,
   "\u2581192": 2579,
   "bit": 2580,
   "\u2581permite": 2581,
   "\u2581tar": 2582,
   "if": 2583,
   "\u2581aprob\u00f3": 2584,
   "\u2581tig": 2585,
   "he": 2586,
   "ten": 2587,
   "\u2581aplica": 2588,
   "\u2581correct": 2589,
   "vin": 2590,
   "\u2581tant": 2591,
   "\u2581presidenciales": 2592,
   "\u2581Yale": 2593,
   "\u2581rich": 2594,
   "head": 2595,
   "\u2581kerry": 2596,
   "\u2581r\u00e1p": 2597,
   "-3": 2598,
   "\u25811968?": 2599,
   "\u2581trip": 2600,
   "\u2581im": 2601,
   "\u2581burke": 2602,
   "\u2581demasi": 2603,
   "\u2581bur": 2604,
   "\u2581efect": 2605,
   "\u2581Cu": 2606,
   "yos": 2607,
   "itar": 2608,
   "\u2581palabras": 2609,
   "emen": 2610,
   "\u2581nasser": 2611,
   "\u2581Jes\u00fas": 2612,
   "oles": 2613,
   "\u2581act": 2614,
   "\u2581representa": 2615,
   "\u2581evangel": 2616,
   "\u2581luc": 2617,
   "\u2581prom": 2618,
   "ueve": 2619,
   "\u2581H": 2620,
   "\u2581Westminster": 2621,
   "\u2581motivo": 2622,
   "\u2581acep": 2623,
   "table": 2624,
   "\u2581divor": 2625,
   "\u2581test": 2626,
   "\u2581Jehov\u00e1": 2627,
   "\u2581raz\u00f3n": 2628,
   "\u2581adul": 2629,
   "ter": 2630,
   "menes": 2631,
   "\u2581FBI": 2632,
   "\u2581ses": 2633,
   "\u2581orientaci\u00f3n": 2634,
   "\u2581sexual": 2635,
   "\u2581igual": 2636,
   "dad": 2637,
   "hn": 2638,
   "\u2581efic": 2639,
   "\u2581viento": 2640,
   "\u2581sop": 2641,
   "lando": 2642,
   "\u2581Suiza": 2643,
   "\u2581medio": 2644,
   "\u2581seg\u00fan": 2645,
   "\u2581rendimiento": 2646,
   "\u2581ambient": 2647,
   "\u2581exper": 2648,
   "imento": 2649,
   "\u2581dieta": 2650,
   "\u2581complet": 2651,
   "\u2581acerca": 2652,
   "\u2581vit": 2653,
   "amina": 2654,
   "\u2581descub": 2655,
   "\u2581complet\u00f3": 2656,
   "vo": 2657,
   "\u2581vie": 2658,
   "\u2581z": 2659,
   "eland": 2660,
   "\u2581B": 2661,
   "\u00e9l": 2662,
   "\u2581mayores": 2663,
   "\u2581flam": 2664,
   "enco": 2665,
   "\u2581naciones": 2666,
   "\u2581unidas": 2667,
   "\u2581naci\u00f3n": 2668,
   "\u2581Car": 2669,
   "ibe": 2670,
   "\u2581protest": 2671,
   "\u2581exclus": 2672,
   "\u2581informe": 2673,
   "\u2581Cuba": 2674,
   "\u2581abord": 2675,
   "\u2581situaci\u00f3n": 2676,
   "\u2581datos": 2677,
   "\u2581distinci\u00f3n": 2678,
   "udo": 2679,
   "\u2581arbit": 2680,
   "\u2581estudiante": 2681,
   "\u2581Stanley": 2682,
   "\u2581Sch": 2683,
   "ach": 2684,
   "\u2581reac": 2685,
   "ciones": 2686,
   "\u2581intest": 2687,
   "\u2581prin": 2688,
   "\u2581piensa": 2689,
   "\u2581escuela": 2690,
   "\u2581mim": 2691,
   "ams": 2692,
   "\u2581destin": 2693,
   "\u2581describir": 2694,
   "\u2581sup": 2695,
   "\u2581ampli": 2696,
   "\u2581espacio": 2697,
   "\u2581Kant": 2698,
   "\u2581fundamental": 2699,
   "ods": 2700,
   "\u2581Liber": 2701,
   "\u2581dist": 2702,
   "ors": 2703,
   "\u2581configur": 2704,
   "q": 2705,
   "\u2581sab": 2706,
   "\u2581prof": 2707,
   "\u00e9tico": 2708,
   "\u2581conse": 2709,
   "cu": 2710,
   "encias": 2711,
   "\u2581pensaba": 2712,
   "cis": 2713,
   "ificaciones": 2714,
   "\u2581Constituci\u00f3n": 2715,
   "\u2581Filipinas": 2716,
   "\u2581gl": 2717,
   "\u2581mac": 2718,
   "ap": 2719,
   "\u2581aumentar": 2720,
   "ivamente": 2721,
   "\u2581rend": 2722,
   "imientos": 2723,
   "\u2581cult": 2724,
   "\u2581gan": 2725,
   "ancia": 2726,
   "\u2581contribu": 2727,
   "\u2581aplicaci\u00f3n": 2728,
   "\u2581latino": 2729,
   "\u2581domestic": 2730,
   "aris": 2731,
   "iado": 2732,
   "\u2581perro": 2733,
   "\u2581tito": 2734,
   "\u2581traslad": 2735,
   "ibles": 2736,
   "\u2581sos": 2737,
   "pe": 2738,
   "\u2581estilo": 2739,
   "\u2581nave": 2740,
   "\u2581alter": 2741,
   "\u2581Saint": 2742,
   "\u2581Denis": 2743,
   "umn": 2744,
   "\u2581abb": 2745,
   "ott": 2746,
   "\u2581persona": 2747,
   "\u2581kon": 2748,
   "ka": 2749,
   "enz": 2750,
   "\u2581mut": 2751,
   "ak": 2752,
   "\u25811994?": 2753,
   "\u2581D": 2754,
   "entro": 2755,
   "\u2581cl\u00e1sica": 2756,
   "\u2581cover": 2757,
   "\u2581blue": 2758,
   "\u2581debut": 2759,
   "\u2581ste": 2760,
   "ppen": 2761,
   "olf": 2762,
   "\u2581apareci\u00f3": 2763,
   "\u2581ese": 2764,
   "\u2581arma": 2765,
   "\u2581utilizar": 2766,
   "\u2581helic": 2767,
   "\u00f3p": 2768,
   "\u2581revol": 2769,
   "ote": 2770,
   "\u2581sold": 2771,
   "ape": 2772,
   "\u2581extens": 2773,
   "\u2581romana": 2774,
   "ige": 2775,
   "\u2581renacimiento": 2776,
   "\u2581trad": 2777,
   "\u2581grie": 2778,
   "gas": 2779,
   "\u2581aspectos": 2780,
   "laves": 2781,
   "cot": 2782,
   "\u00f3m": 2783,
   "\u2581utiliz": 2784,
   "\u2581ident": 2785,
   "lam": 2786,
   "iento": 2787,
   "\u2581victoria": 2788,
   "onse": 2789,
   "j\u00f3": 2790,
   "\u2581vic": 2791,
   "ria": 2792,
   "\u2581comenz": 2793,
   "\u2581app": 2794,
   "ering": 2795,
   "\u2581adquir": 2796,
   "\u2581aprend": 2797,
   "\u2581dom\u00e9st": 2798,
   "\u2581abd": 2799,
   "\u2581nue": 2800,
   "omen": 2801,
   "aje": 2802,
   "\u2581Shell": 2803,
   "\u2581ejecuci\u00f3n": 2804,
   "\u2581trib": 2805,
   "\u2581niger": 2806,
   "\u2581shell": 2807,
   "\u2581resolver": 2808,
   "\u2581demand": 2809,
   "estas": 2810,
   "urt": 2811,
   "\u2581probablemente": 2812,
   "\u2581llevaron": 2813,
   "\u2581vuelta": 2814,
   "\u2581of": 2815,
   "erta": 2816,
   "old": 2817,
   "avia": 2818,
   "\u2581deriv": 2819,
   "\u2581personajes": 2820,
   "\u2581chinos": 2821,
   "\u2581dialecto": 2822,
   "\u2581chino": 2823,
   "\u2581mand": 2824,
   "on\u00e9s": 2825,
   "\u2581hokkien": 2826,
   "\u2581Acerca": 2827,
   "\u2581bombardeo": 2828,
   "\u2581octubre": 2829,
   "\u2581ed": 2830,
   "ward": 2831,
   "\u2581construir": 2832,
   "edes": 2833,
   "\u2581tor": 2834,
   "\u2581originales": 2835,
   "\u2581siguen": 2836,
   "mar": 2837,
   "\u2581Br": 2838,
   "sk": 2839,
   "\u2581feder": 2840,
   "\u2581alrededor": 2841,
   "\u2581isla": 2842,
   "\u2581norfolk": 2843,
   "\u2581cost": 2844,
   "\u2581Indiana": 2845,
   "\u2581Jones": 2846,
   "\u2581ciudadanos": 2847,
   "\u2581estaci\u00f3n": 2848,
   "\u2581set": 2849,
   "\u2581se\u00f1": 2850,
   "\u2581env": 2851,
   "\u2581t\u00e1": 2852,
   "\u2581cerebro": 2853,
   "c\u00e9": 2854,
   "\u258130": 2855,
   "\u2581afl": 2856,
   "one": 2857,
   "\u2581exp": 2858,
   "ande": 2859,
   "upt": 2860,
   "\u2581Houston": 2861,
   "\u2581pies": 2862,
   "\u2581cuadr": 2863,
   "\u2581protestas": 2864,
   "\u2581occupy": 2865,
   "\u2581wall": 2866,
   "\u2581street": 2867,
   "\u2581tuvieron": 2868,
   "\u2581parque": 2869,
   "\u2581zu": 2870,
   "cc": 2871,
   "otti": 2872,
   "\u2581coment": 2873,
   "\u2581Cor\u00e1n": 2874,
   "\u2581publicado": 2875,
   "\u2581musulmana": 2876,
   "iy": 2877,
   "ya": 2878,
   "\u2581anteriores": 2879,
   "\u2581camb": 2880,
   "\u2581opini\u00f3n": 2881,
   "\u2581bre": 2882,
   "cha": 2883,
   "\u2581seres": 2884,
   "\u2581ext": 2885,
   "int": 2886,
   "\u2581Am\u00e9rica": 2887,
   "oslav": 2888,
   "\u2581padre": 2889,
   "ble": 2890,
   "-10": 2891,
   "\u2581%": 2892,
   "\u2581volumen": 2893,
   "\u2581fib": 2894,
   "\u2581latewood": 2895,
   "\u2581atac": 2896,
   "col": 2897,
   "\u2581as": 2898,
   "alto": 2899,
   "\u2581restaur": 2900,
   "\u2581Nueva": 2901,
   "\u2581clases": 2902,
   "\u2581baile": 2903,
   "\u2581br": 2904,
   "\u2581may": 2905,
   "\u2581vivo": 2906,
   "\u2581queen": 2907,
   "\u2581doble": 2908,
   "\u2581gal": 2909,
   "0?": 2910,
   "\u2581conoc": 2911,
   "edor": 2912,
   "oy": 2913,
   "\u2581Juan": 2914,
   "ab": 2915,
   "\u2581hub": 2916,
   "ert": 2917,
   "\u2581Walter": 2918,
   "\u2581piens": 2919,
   "\u2581eruditos": 2920,
   "Punk": 2921,
   "\u2581realmente": 2922,
   "\u2581divers": 2923,
   "\u25811988?": 2924,
   "\u2581hit": 2925,
   "ms": 2926,
   "\u2581elect": 2927,
   "rol": 2928,
   "isc": 2929,
   "\u2581calor": 2930,
   "\u2581produjo": 2931,
   "\u2581azul": 2932,
   "\u2581dispositivo": 2933,
   "\u2581usb": 2934,
   "\u2581toler": 2935,
   "ancias": 2936,
   "\u2581especif": 2937,
   "\u2581Times": 2938,
   "\u2581cuenta": 2939,
   "\u2581mitad": 2940,
   "\u2581comienza": 2941,
   "cepci\u00f3n": 2942,
   "\u2581riesgo": 2943,
   "\u2581econom": 2944,
   "\u2581emoci\u00f3n": 2945,
   "\u2581muchas": 2946,
   "\u2581culturas": 2947,
   "\u2581mujeres": 2948,
   "\u2581decor": 2949,
   "uan": 2950,
   "\u2581long": 2951,
   "\u2581miembro": 2952,
   "\u25815": 2953,
   "\u2581junio": 2954,
   "\u25812005?": 2955,
   "\u2581inn": 2956,
   "ua": 2957,
   "\u2581libertad": 2958,
   "\u2581bost": 2959,
   "\u2581nor": 2960,
   "este": 2961,
   "track": 2962,
   "\u2581viol": 2963,
   "ento": 2964,
   "\u2581ruta": 2965,
   "\u2581rele": 2966,
   "vos": 2967,
   "taci\u00f3n": 2968,
   "\u2581at": 2969,
   "rap": 2970,
   "\u2581celebr\u00f3": 2971,
   "\u2581representan": 2972,
   "\u2581sell": 2973,
   "\u2581peligro": 2974,
   "\u2581extinci\u00f3n": 2975,
   "\u2581bus": 2976,
   "can": 2977,
   "\u2581alimentos": 2978,
   "\u2581refug": 2979,
   "\u2581\u00e1reas": 2980,
   "\u2581fondos": 2981,
   "\u2581pato": 2982,
   "\u2581manip": 2983,
   "\u2581personal": 2984,
   "\u2581past": 2985,
   "iche": 2986,
   "\u2581vincul": 2987,
   "\u2581surg": 2988,
   "\u2581cultura": 2989,
   "\u2581tienda": 2990,
   "icano": 2991,
   "\u2581normalmente": 2992,
   "\u2581100": 2993,
   "\u2581tiendas": 2994,
   "\u2581ved": 2995,
   "\u2581Ag": 2996,
   "ust": 2997,
   "enta": 2998,
   "\u258111": 2999,
   "\u2581autob": 3000,
   "\u2581visit": 3001,
   "\u2581terminal": 3002,
   "yor": 3003,
   "\u2581mont": 3004,
   "\u00fas": 3005,
   "\u2581diario": 3006,
   "\u2581mejorar": 3007,
   "\u2581rin": 3008,
   "\u00e9r": 3009,
   "\u2581pron": 3010,
   "\u2581previsto": 3011,
   "\u2581terremoto": 3012,
   "\u2581establecer": 3013,
   "\u2581terre": 3014,
   "\u2581neg\u00f3": 3015,
   "\u2581materia": 3016,
   "\u2581blo": 3017,
   "ques": 3018,
   "\u2581disc": 3019,
   "ret": 3020,
   "\u2581coleg": 3021,
   "\u2581griego": 3022,
   "aten": 3023,
   "\u2581naci\u00f3": 3024,
   "\u2581men": 3025,
   "\u2581poet": 3026,
   "\u00edstico": 3027,
   "\u2581traduc": 3028,
   "\u2581occidental": 3029,
   "\u2581Beyonce": 3030,
   "\u2581not": 3031,
   "ama": 3032,
   "ella": 3033,
   "uest": 3034,
   "redit": 3035,
   "\u2581Madonna": 3036,
   "\u2581junta": 3037,
   "leg": 3038,
   "\u2581pet": 3039,
   "\u2581monarca": 3040,
   "era": 3041,
   "\u2581\u00c1frica": 3042,
   "\u2581Gran": 3043,
   "\u2581Breta\u00f1a": 3044,
   "\u2581disco": 3045,
   "\u2581fon": 3046,
   "ogr\u00e1": 3047,
   "fica": 3048,
   "ese": 3049,
   "\u2581nfl": 3050,
   "\u2581reina": 3051,
   "\u2581186": 3052,
   "y\u00f3": 3053,
   "\u2581renov": 3054,
   "\u25812009?": 3055,
   "\u2581global": 3056,
   "yeron": 3057,
   "\u2581react": 3058,
   "\u2581rompi\u00f3": 3059,
   "\u2581int": 3060,
   "\u2581asesin": 3061,
   "ima": 3062,
   "\u2581gust": 3063,
   "\u2581XXIII": 3064,
   "\u2581canon": 3065,
   "izado": 3066,
   "\u2581abandon": 3067,
   "\u25811940?": 3068,
   "enses": 3069,
   "ecci\u00f3n": 3070,
   "\u2581lista": 3071,
   "\u2581vertebr": 3072,
   "\u2581concurso": 3073,
   "\u2581Olympia": 3074,
   "\u2581joven": 3075,
   "\u2581schwarzenegger": 3076,
   "ike": 3077,
   "\u2581lee": 3078,
   "\u2581program": 3079,
   "\u2581tcm": 3080,
   "\u2581producen": 3081,
   "\u2581Oscar": 3082,
   "\u2581cabo": 3083,
   "\u2581or\u00edgenes": 3084,
   "\u2581fund\u00f3": 3085,
   "\u2581describi\u00f3": 3086,
   "\u2581cu\u00e1nto": 3087,
   "\u2581gast": 3088,
   "\u2581proyect": 3089,
   "ben": 3090,
   "\u2581Stephen": 3091,
   "\u2581Lawrence": 3092,
   "\u2581premios": 3093,
   "\u2581rib": 3094,
   "enden": 3095,
   "\u2581radio": 3096,
   "\u2581due\u00f1o": 3097,
   "ht": 3098,
   "\u2581hermano": 3099,
   "\u2581hijo": 3100,
   "\u2581me": 3101,
   "inh": 3102,
   "\u2581muerte": 3103,
   "usta": 3104,
   "\u2581viv": 3105,
   "\u2581Italia": 3106,
   "\u2581arquitectura": 3107,
   "ari": 3108,
   "iv": 3109,
   "\u2581vocabul": 3110,
   "\u2581ir": 3111,
   "\u2581coche": 3112,
   "orea": 3113,
   "crito": 3114,
   "A": 3115,
   "\u2581Re": 3116,
   "\u2581Alice": 3117,
   "\u2581cinco": 3118,
   "\u2581cantante": 3119,
   "\u2581moderna": 3120,
   "\u2581phr": 3121,
   "\u2581virg": 3122,
   "ueven": 3123,
   "\u2581salir": 3124,
   "\u2581terren": 3125,
   "ilson": 3126,
   "\u2581Al": 3127,
   "\u2581em": 3128,
   "\u2581liberaci\u00f3n": 3129,
   "\u2581send": 3130,
   "pert": 3131,
   "\u2581verdad": 3132,
   "\u2581fuente": 3133,
   "ct": 3134,
   "\u2581electricity": 3135,
   ">": 3136,
   "\u2581estima": 3137,
   "\u2581potencial": 3138,
   "\u2581anual": 3139,
   "\u25812000?": 3140,
   "\u2581antiguos": 3141,
   "\u2581proc": 3142,
   "\u2581realidad": 3143,
   "\u25812011-12": 3144,
   "\u2581-": 3145,
   "\u2581big": 3146,
   "\u25811994": 3147,
   "-9": 3148,
   "5?": 3149,
   "\u2581clubes": 3150,
   "\u2581isl\u00e1m": 3151,
   "\u2581funci\u00f3n": 3152,
   "edia": 3153,
   "\u2581div": 3154,
   "\u2581ibn": 3155,
   "\u2581Sina": 3156,
   "\u2581nominado": 3157,
   "venci\u00f3n": 3158,
   "\u2581Nacional": 3159,
   "\u2581democr": 3160,
   "\u25811964?": 3161,
   "\u2581gobernador": 3162,
   "\u2581pesar": 3163,
   "\u2581cambios": 3164,
   "\u2581publicaci\u00f3n": 3165,
   "\u2581M": 3166,
   "agg": 3167,
   "\u2581ador": 3168,
   "\u2581inaugur": 3169,
   "\u2581mez": 3170,
   "ita": 3171,
   "\u2581aspir": 3172,
   "\u2581mencion": 3173,
   "aspir": 3174,
   "\u2581[": 3175,
   "\u2581HT": 3176,
   "K": 3177,
   "\u2581As": 3178,
   "ocia": 3179,
   "\u2581&": 3180,
   "\u2581galer\u00eda": 3181,
   "\u2581otra": 3182,
   "\u2581manera": 3183,
   "\u2581bacteria": 3184,
   "\u2581observ": 3185,
   "\u2581brut": 3186,
   "icial": 3187,
   "\u2581todos": 3188,
   "\u2581proced": 3189,
   "\u2581judicial": 3190,
   "\u2581priv": 3191,
   "iment": 3192,
   "ally": 3193,
   "racial": 3194,
   "\u2581censo": 3195,
   "\u2581cultural": 3196,
   "\u2581rival": 3197,
   "\u2581juicio": 3198,
   "\u2581empleados": 3199,
   "\u2581rec": 3200,
   "urso": 3201,
   "\u2581energ": 3202,
   "\u2581qu": 3203,
   "ema": 3204,
   "\u2581Des": 3205,
   "arrol": 3206,
   "\u2581consumo": 3207,
   "\u2581produc": 3208,
   "\u2581precios": 3209,
   "\u2581bajos": 3210,
   "ional": 3211,
   "\u2581superficie": 3212,
   "\u2581Galicia": 3213,
   "\u2581km": 3214,
   "\u2581sept": 3215,
   "\u2581austral": 3216,
   "anta": 3217,
   "\u2581concept": 3218,
   "\u2581metaf": 3219,
   "\u00eds": 3220,
   "\u2581inclu": 3221,
   "\u2581meat": 3222,
   "ack": 3223,
   "\u2581Manhattan": 3224,
   "\u258127": 3225,
   "\u2581Inst": 3226,
   "ituto": 3227,
   "\u2581moda": 3228,
   "\u2581tecnolog\u00eda": 3229,
   "\u2581esqu": 3230,
   "\u2581Rod": 3231,
   "\u2581cer": 3232,
   "\u2581pu": 3233,
   "\u2581cine": 3234,
   "ast": 3235,
   "\u2581sim": 3236,
   "\u2581lluvia": 3237,
   "idores": 3238,
   "iendo": 3239,
   "\u2581apple": 3240,
   "\u25811990": 3241,
   "\u2581combat": 3242,
   "\u2581competencia": 3243,
   "\u2581tel\u00e9": 3244,
   "fon": 3245,
   "\u2581intelig": 3246,
   "\u2581romains": 3247,
   "\u2581centro": 3248,
   "\u2581arg": 3249,
   "atum": 3250,
   "\u2581situ": 3251,
   "\u2581dest": 3252,
   "\u2581decis": 3253,
   "\u2581ning": 3254,
   "\u2581tribunal": 3255,
   "\u2581inferior": 3256,
   "arm": 3257,
   "\u2581fabric": 3258,
   "1": 3259,
   "13": 3260,
   "book": 3261,
   "\u2581jurisdic": 3262,
   "\u2581supre": 3263,
   "\u2581franceses": 3264,
   "quesne": 3265,
   "\u2581franc\u00e9s": 3266,
   "\u2581George": 3267,
   "\u2581Washington": 3268,
   "\u2581elev": 3269,
   "\u2581Glas": 3270,
   "ow": 3271,
   "\u2581aliment": 3272,
   "\u2581prop": 3273,
   "uls": 3274,
   "\u2581Nepal": 3275,
   "\u2581ren": 3276,
   "ova": 3277,
   "\u2581das": 3278,
   "ath": 3279,
   "\u25812004,": 3280,
   "\u2581kil\u00f3metros": 3281,
   "\u2581carretera": 3282,
   "\u2581exist": 3283,
   "\u2581defensa": 3284,
   "ale": 3285,
   "\u2581lou": 3286,
   "bourg": 3287,
   "\u2581aseg": 3288,
   "uran": 3289,
   "\u00e9rica": 3290,
   "\u2581horm": 3291,
   "abor": 3292,
   "\u2581sola": 3293,
   "\u2581mach": 3294,
   "urop": 3295,
   "\u2581Georgia": 3296,
   "\u2581estadounidense": 3297,
   "\u2581adulto": 3298,
   "ker": 3299,
   "\u2581fall": 3300,
   "icidad": 3301,
   "\u2581antiguo": 3302,
   "\u2581podr": 3303,
   "\u2581comp": 3304,
   "\u2581migraci\u00f3n": 3305,
   "\u2581peque\u00f1os": 3306,
   "\u2581ass": 3307,
   "eden": 3308,
   "\u2581investigadores": 3309,
   "\u2581ni\u00f1o": 3310,
   "\u2581j\u00f3venes": 3311,
   "\u2581bois": 3312,
   "\u2581bo": 3313,
   "ne": 3314,
   "\u2581vinc": 3315,
   "ennes": 3316,
   "\u2581afecta": 3317,
   "\u2581clas": 3318,
   "\u2581vent": 3319,
   "anas": 3320,
   "\u2581estructuras": 3321,
   "\u2581g\u00f3t": 3322,
   "\u2581punt": 3323,
   "\u2581carrera": 3324,
   "\u2581Beau": 3325,
   "voir": 3326,
   "\u2581Brasilia": 3327,
   "\u2581Fuer": 3328,
   "\u00e9": 3329,
   "rea": 3330,
   "-11": 3331,
   "stone": 3332,
   "\u2581rock": 3333,
   "\u2581family": 3334,
   "\u2581prob": 3335,
   "\u2581At": 3336,
   "las": 3337,
   "\u2581glass": 3338,
   "work": 3339,
   "\u2581fine": 3340,
   "\u2581art": 3341,
   "\u2581vidrio": 3342,
   "\u2581artistas": 3343,
   "\u2581arte": 3344,
   "\u2581nouveau": 3345,
   "\u2581mas": 3346,
   "\u2581redujo": 3347,
   "\u2581extranjero": 3348,
   "\u2581comand": 3349,
   "\u2581europea": 3350,
   "\u2581fotograf": 3351,
   "\u2581Ind": 3352,
   "\u2581boy": 3353,
   "\u2581sco": 3354,
   "uts": 3355,
   "\u2581muestra": 3356,
   "\u2581personaje": 3357,
   "\u2581spielberg": 3358,
   "\u2581adap": 3359,
   "\u2581flu": 3360,
   "\u2581nutrit": 3361,
   "lu": 3362,
   "elos": 3363,
   "le": 3364,
   "\u2581estrechamente": 3365,
   "\u2581relacionada": 3366,
   "\u2581Samuel": 3367,
   "\u2581discut": 3368,
   "\u2581m\u00e9d": 3369,
   "\u2581medicina": 3370,
   "\u2581ense": 3371,
   "\u00f1a": 3372,
   "\u2581tib": 3373,
   "bi": 3374,
   "ol\u00f3g": 3375,
   "ha": 3376,
   "fr": 3377,
   "onta": 3378,
   "\u2581presencia": 3379,
   "cer": 3380,
   "\u2581enfermedades": 3381,
   "\u2581coraz\u00f3n": 3382,
   "\u2581diferentes": 3383,
   "occ": 3384,
   "\u258150?": 3385,
   "\u2581histori": 3386,
   "\u258116": 3387,
   "\u2581guerras": 3388,
   "\u2581jugadores": 3389,
   "\u2581ingleses": 3390,
   "ern": 3391,
   "oma": 3392,
   "\u2581Terminator": 3393,
   "\u2581start": 3394,
   "\u2581cod": 3395,
   "\u2581trans": 3396,
   "Ar": 3397,
   "\u2581f\u00fatbol": 3398,
   "\u2581arena": 3399,
   "\u2581Kurt": 3400,
   "\u2581fuera": 3401,
   "\u2581prominente": 3402,
   "\u2581jud": 3403,
   "\u00edo": 3404,
   "\u2581busc": 3405,
   "\u2581causa": 3406,
   "\u2581disol": 3407,
   "uci\u00f3n": 3408,
   "\u2581sac": 3409,
   "\u2581proyecto": 3410,
   "\u2581aprob": 3411,
   "\u2581intento": 3412,
   "\u2581lim": 3413,
   "\u2581prevenir": 3414,
   "\u2581inm": 3415,
   "raci\u00f3n": 3416,
   "\u00e1ticos": 3417,
   "\u2581clasificado": 3418,
   "inos": 3419,
   "\u2581iss": 3420,
   "\u2581sob": 3421,
   "uda": 3422,
   "\u2581king": 3423,
   "\u2581cas": 3424,
   "\u2581gui\u00f3n": 3425,
   "\u2581tibetano": 3426,
   "\u2581emigran": 3427,
   "ung": 3428,
   "amiento": 3429,
   "\u2581Fun": 3430,
   "cion": 3431,
   "\u2581planta": 3432,
   "\u2581mend": 3433,
   "\u2581impact": 3434,
   "\u2581pistas": 3435,
   "reas": 3436,
   "\u2581finan": 3437,
   "\u2581prest": 3438,
   "\u2581St": 3439,
   "\u2581celebra": 3440,
   "\u2581fol": 3441,
   "cl": 3442,
   "\u2581Tucson": 3443,
   "amo": 3444,
   "af": 3445,
   "\u2581emp": 3446,
   "obre": 3447,
   "Es": 3448,
   "crit": 3449,
   "\u2581liter": 3450,
   "\u2581oficinas": 3451,
   "\u2581editor": 3452,
   "iales": 3453,
   "\u2581times": 3454,
   "imet": 3455,
   "iere": 3456,
   "oc": 3457,
   "\u2581cat": 3458,
   "\u2581Richmond": 3459,
   "\u25812000": 3460,
   "\u2581Pac\u00edfico": 3461,
   "\u2581richmond": 3462,
   "\u25812000,": 3463,
   "\u2581sag": 3464,
   "unta": 3465,
   "etas": 3466,
   "\u2581construy\u00f3": 3467,
   "\u2581equipos": 3468,
   "iten": 3469,
   "\u2581inter": 3470,
   "univers": 3471,
   "\u2581trofeo": 3472,
   "\u2581va": 3473,
   "\u2581deportivo": 3474,
   ".3": 3475,
   "\u2581millones": 3476,
   "oj": 3477,
   "\u2581neces": 3478,
   "arios": 3479,
   "\u2581asegur": 3480,
   "\u2581gradu": 3481,
   "\u2581exit": 3482,
   "\u2581cir": 3483,
   "\u2581vari": 3484,
   "Cro": 3485,
   "\u2581conclu": 3486,
   "ata": 3487,
   "\u2581Dar": 3488,
   "\u2581depred": 3489,
   "iza": 3490,
   "\u2581mit": 3491,
   "igar": 3492,
   "\u2581pier": 3493,
   "-2": 3494,
   "9,": 3495,
   "\u2581dise\u00f1ado": 3496,
   "ho": 3497,
   "ek": 3498,
   "\u2581Av": 3499,
   "ani": 3500,
   "\u2581Hot": 3501,
   "els": 3502,
   "\u2581and": 3503,
   "ort": 3504,
   "ibr": 3505,
   "\u2581reco": 3506,
   "ma": 3507,
   "emos": 3508,
   "enas": 3509,
   "\u2581dise\u00f1\u00f3": 3510,
   "\u2581marketing": 3511,
   "\u2581ge": 3512,
   "\u2581cu\u00e1nt": 3513,
   "\u2581campo": 3514,
   "\u2581sugiere": 3515,
   "\u2581sustancia": 3516,
   "\u2581modelo": 3517,
   "\u2581universo": 3518,
   "\u2581avanz": 3519,
   "\u2581civil": 3520,
   "F": 3521,
   "\u2581contrato": 3522,
   "\u2581asentamiento": 3523,
   "\u2581anglo": 3524,
   "aj": 3525,
   "wic": 3526,
   "\u2581ataques": 3527,
   "ik": 3528,
   "gen": 3529,
   "\u2581Espanyol": 3530,
   "\u2581Adem\u00e1s": 3531,
   "\u2581Madrid": 3532,
   "\u2581divisi\u00f3n": 3533,
   "ands": 3534,
   "aban": 3535,
   "\u2581convierten": 3536,
   "\u2581elementos": 3537,
   "\u2581b\u00e1s": 3538,
   "\u2581whitehead": 3539,
   "\u2581prog": 3540,
   "\u2581plata": 3541,
   "\u2581ang": 3542,
   "\u2581den": 3543,
   "\u2581dog": 3544,
   "\u00e1t": 3545,
   "icamente": 3546,
   "\u2581defin": 3547,
   "\u2581cat\u00f3lica": 3548,
   "\u2581pap": 3549,
   "\u2581influy\u00f3": 3550,
   "\u2581viejo": 3551,
   "fi": 3552,
   "\u2581propiedad": 3553,
   "\u2581madera": 3554,
   "\u2581reducir": 3555,
   "err": 3556,
   "\u2581muestran": 3557,
   "\u2581oposici\u00f3n": 3558,
   "\u2581lob": 3559,
   "\u2581n\u00fameros": 3560,
   "\u2581considerados": 3561,
   "\u2581pob": 3562,
   "lar": 3563,
   "\u2581exterior": 3564,
   "\u2581estonia": 3565,
   "\u2581prior": 3566,
   "\u2581importantes": 3567,
   "\u2581acomp": 3568,
   "\u2581acci\u00f3n": 3569,
   "\u2581afirmativa": 3570,
   "\u2581adm": 3571,
   "\u2581prefer": 3572,
   "encial": 3573,
   "forma": 3574,
   "ares": 3575,
   "\u2581formar": 3576,
   "\u2581conjunto": 3577,
   "\u2581eleg": 3578,
   "ible": 3579,
   "\u2581particular": 3580,
   "\u2581tribus": 3581,
   "\u2581casi": 3582,
   "iqu": 3583,
   "ens": 3584,
   "\u2581generales": 3585,
   "\u2581romanos": 3586,
   "vers": 3587,
   "\u2581alb": 3588,
   "\u2581anillos": 3589,
   "\u2581si": 3590,
   "\u2581estre": 3591,
   "\u2581pris": 3592,
   "ioneros": 3593,
   "\u2581estuvo": 3594,
   "\u2581manifest": 3595,
   "\u2581renunci\u00f3": 3596,
   "\u2581septiembre": 3597,
   "\u2581instrument": 3598,
   "\u2581legislaci\u00f3n": 3599,
   "\u2581suelo": 3600,
   "\u2581l\u00edderes": 3601,
   "itarios": 3602,
   "\u2581cu\u00e1": 3603,
   "\u2581organismos": 3604,
   "\u2581prim": 3605,
   "idor": 3606,
   "\u2581secund": 3607,
   "\u2581eng": 3608,
   "end": 3609,
   "\u2581vulner": 3610,
   "abil": 3611,
   "\u2581cross": 3612,
   "ruct": 3613,
   "\u2581cricket": 3614,
   "\u2581santa": 3615,
   "\u2581hel": 3616,
   "ena": 3617,
   "\u2581internacional": 3618,
   "\u2581apodo": 3619,
   "iami": 3620,
   "\u2581hisp": 3621,
   "ana": 3622,
   "ee": 3623,
   "\u2581\u00fan": 3624,
   "tos": 3625,
   "\u2581Henry": 3626,
   "\u2581Nelson": 3627,
   "\u2581wie": 3628,
   "\u2581result": 3629,
   "\u2581casos": 3630,
   "rote": 3631,
   "\u2581wal": 3632,
   "\u25812010": 3633,
   "\u2581report": 3634,
   "\u2581impacto": 3635,
   "ly": 3636,
   "\u2581cit": 3637,
   "\u2581fuer": 3638,
   "bula": 3639,
   "ord": 3640,
   "iant": 3641,
   "\u2581argumento": 3642,
   "ots": 3643,
   "\u2581Arch": 3644,
   "\u2581adopt\u00f3": 3645,
   "\u25811924?": 3646,
   "\u2581hubo": 3647,
   "ambr": 3648,
   "\u2581guard": 3649,
   "esp": 3650,
   "ald": 3651,
   "\u2581femen": 3652,
   "yn": 3653,
   "\u2581kol": 3654,
   "ny": 3655,
   "\u2581oct": 3656,
   "oro": 3657,
   "ele": 3658,
   "\u2581autor": 3659,
   "iz\u00f3": 3660,
   "\u2581creaci\u00f3n": 3661,
   "\u2581ahor": 3662,
   "\u2581K": 3663,
   ".?": 3664,
   "\u00faa": 3665,
   "\u25812006?": 3666,
   "\u2581Su": 3667,
   "\u2581id": 3668,
   "\u2581modelos": 3669,
   "\u2581occidentales": 3670,
   "\u2581cr\u00edticos": 3671,
   "\u2581operaci\u00f3n": 3672,
   "\u2581Bill": 3673,
   "\u2581Clinton": 3674,
   "\u2581repres": 3675,
   "\u2581emb": 3676,
   "\u25811998?": 3677,
   "\u2581medicamentos": 3678,
   "\u2581Pro": 3679,
   "\u2581met": 3680,
   "\u2581analog": 3681,
   "\u00f3g": 3682,
   "\u2581aparici\u00f3n": 3683,
   "\u2581pensamiento": 3684,
   "\u2581famili": 3685,
   "edi": 3686,
   "\u2581ocup": 3687,
   "\u2581agencia": 3688,
   "aus": 3689,
   "\u2581comit\u00e9": 3690,
   "\u2581programa": 3691,
   "\u2581domin": 3692,
   "\u2581+": 3693,
   "\u2581Adam": 3694,
   "\u2581Lam": 3695,
   "\u2581tr\u00e1fico": 3696,
   "uso": 3697,
   "\u2581convenci\u00f3n": 3698,
   "\u2581pena": 3699,
   "\u2581aqu": 3700,
   "\u2581Islam": 3701,
   "adr": 3702,
   "Bo": 3703,
   "\u2581basada": 3704,
   "SC": 3705,
   "U": 3706,
   "\u00d3": 3707,
   "BM": 3708,
   "\u2581definici\u00f3n": 3709,
   "\u2581sugiri\u00f3": 3710,
   "\u2581existencia": 3711,
   "\u2581unidades": 3712,
   "kin": 3713,
   "\u2581visit\u00f3": 3714,
   "\u2581Alaska": 3715,
   "\u2581trajo": 3716,
   "\u2581miles": 3717,
   "\u25811910?": 3718,
   "\u2581secre": 3719,
   "\u2581permane": 3720,
   "\u2581neutral": 3721,
   "\u2581hombre": 3722,
   "\u258118?": 3723,
   "\u2581paz": 3724,
   "igu": 3725,
   "lova": 3726,
   "chan": 3727,
   "\u2581naz": 3728,
   "\u2581creen": 3729,
   "\u2581comb": 3730,
   "\u2581japoneses": 3731,
   "\u2581gobern": 3732,
   "\u2581t\u00edpicamente": 3733,
   "aman": 3734,
   "\u2581dec": 3735,
   "pia": 3736,
   "\u2581Una": 3737,
   "uerta": 3738,
   "raf": 3739,
   "tes": 3740,
   "\u2581exteriores": 3741,
   "\u2581bah": 3742,
   "\u2581nomb": 3743,
   "\u2581comparten": 3744,
   "agram": 3745,
   "\u2581l\u00edneas": 3746,
   "I": 3747,
   "ME": 3748,
   "SI": 3749,
   "O": 3750,
   "NA": 3751,
   "\u2581feynman": 3752,
   "\u2581cr\u00edt": 3753,
   "\u2581contrad": 3754,
   "ict": 3755,
   "orias": 3756,
   "\u258113": 3757,
   "\u2581encontraron": 3758,
   "\u2581Aparte": 3759,
   "ala": 3760,
   "\u2581escrito": 3761,
   "\u2581contiene": 3762,
   "\u2581conven": 3763,
   "\u2581alfabeto": 3764,
   "\u2581ibm": 3765,
   "\u2581micro": 3766,
   "\u00f3nica": 3767,
   "\u2581convirtieron": 3768,
   "\u2581compens": 3769,
   "ater\u00eda": 3770,
   "\u2581digital": 3771,
   "\u2581bot": 3772,
   "\u2581profesi\u00f3n": 3773,
   "\u2581ata": 3774,
   "\u2581enm": 3775,
   "\u2581porci\u00f3n": 3776,
   "\u2581modific": 3777,
   "\u2581promov": 3778,
   "ric": 3779,
   "\u2581Tom": 3780,
   "\u2581profesor": 3781,
   "inario": 3782,
   "\u2581tom": 3783,
   "\u2581ru": 3784,
   "\u2581perman": 3785,
   "\u2581p\u00fa": 3786,
   "\u2581funciones": 3787,
   "\u2581digimon": 3788,
   "\u2581series": 3789,
   "\u25812011?": 3790,
   "\u2581serie": 3791,
   "\u2581enfermedad": 3792,
   "\u2581beb": 3793,
   "\u2581ur": 3794,
   "\u2581interpret": 3795,
   "tt": 3796,
   "\u2581Todos": 3797,
   "\u2581po": 3798,
   "\u2581tai": 3799,
   "wan": 3800,
   "\u2581escrit": 3801,
   "\u2581quien": 3802,
   "\u2581mentor": 3803,
   "ivos": 3804,
   "\u2581cicl": 3805,
   "\u2581invers": 3806,
   "\u2581gest": 3807,
   "\u2581activos": 3808,
   "\u2581cr\u00e9dito": 3809,
   "ensa": 3810,
   "\u2581basado": 3811,
   "asa": 3812,
   "\u2581recl": 3813,
   "uta": 3814,
   "\u2581Seg": 3815,
   "fect": 3816,
   "osos": 3817,
   "\u2581sec": 3818,
   "\u2581nie": 3819,
   "\u2581ONU": 3820,
   "\u2581pidi\u00f3": 3821,
   "\u2581plan": 3822,
   "\u2581estrategia": 3823,
   "\u2581colonias": 3824,
   "\u2581antiguas": 3825,
   "\u2581pobl": 3826,
   "\u2581th": 3827,
   "iste": 3828,
   "\u2581asoci": 3829,
   "\u2581moderno": 3830,
   "\u2581segu": 3831,
   "\u2581explos": 3832,
   "\u2581iron": 3833,
   "\u2581pig": 3834,
   "\u2581hierro": 3835,
   "\u2581l\u00ed": 3836,
   "\u2581modernos": 3837,
   "\u2581comport": 3838,
   "amientos": 3839,
   "jos": 3840,
   "\u2581cosa": 3841,
   "pl": 3842,
   "\u2581ADN": 3843,
   "isi\u00f3n": 3844,
   "\u2581bin": 3845,
   "\u2581sat": 3846,
   "rico": 3847,
   "\u2581israel": 3848,
   "\u00c1": 3849,
   "rabe": 3850,
   "\u2581novela": 3851,
   "\u2581sa": 3852,
   "opt": 3853,
   "\u2581videoconfer": 3854,
   "\u2581d\u00e9b": 3855,
   "\u2581trasm": 3856,
   "issions": 3857,
   "\u2581electro": 3858,
   "agn": 3859,
   "\u00e9ticos": 3860,
   "\u2581hardware": 3861,
   "\u2581ubicado": 3862,
   "\u2581cobertura": 3863,
   "\u2581cad": 3864,
   "\u2581recibir": 3865,
   "\u2581recursos": 3866,
   "\u2581nacionales": 3867,
   "\u2581Europea": 3868,
   "\u2581compet": 3869,
   "\u2581nuevas": 3870,
   "\u2581tasas": 3871,
   "reo": 3872,
   "\u2581alc": 3873,
   "\u2581capaz": 3874,
   "\u2581incluir": 3875,
   "\u2581bat": 3876,
   "allas": 3877,
   "\u2581comandante": 3878,
   "\u2581uni\u00f3n": 3879,
   "2?": 3880,
   "\u2581enf": 3881,
   "\u2581asma": 3882,
   "\u2581bron": 3883,
   "ocon": 3884,
   "\u2581t\u00edp": 3885,
   "\u2581cint": 3886,
   "\u2581presi\u00f3n": 3887,
   "\u2581trop": 3888,
   "ical": 3889,
   "\u2581corta": 3890,
   "\u2581posible": 3891,
   "pas": 3892,
   "\u00f1": 3893,
   "azo": 3894,
   "\u2581contrat": 3895,
   "ientos": 3896,
   "\u2581neptuno": 3897,
   "\u2581relev": 3898,
   "\u2581original": 3899,
   "\u2581instrumento": 3900,
   "\u2581musical": 3901,
   "\u2581royal": 3902,
   "\u2581Albert": 3903,
   "\u2581presentes": 3904,
   "\u2581valle": 3905,
   "\u2581katmand\u00fa": 3906,
   "gu": 3907,
   "\u2581mang": 3908,
   "\u2581\u00e9tn": 3909,
   "\u2581enero": 3910,
   "\u2581raciales": 3911,
   "\u2581universidades": 3912,
   "\u2581expect": 3913,
   "ativas": 3914,
   "\u2581formas": 3915,
   "\u00e9t": 3916,
   "\u2581mos": 3917,
   "emato": 3918,
   "\u2581kal": 3919,
   "\u2581Rey": 3920,
   "\u2581dan": 3921,
   "\u2581ba": 3922,
   "\u2581sang": 3923,
   "\u2581Est": 3924,
   "ocol": 3925,
   "\u2581particip": 3926,
   "\u2581beyonce": 3927,
   "ait": 3928,
   ":": 3929,
   "\u2581beneficio": 3930,
   "met": 3931,
   "\u2581encuesta": 3932,
   "\u2581mer": 3933,
   "\u2581relativ": 3934,
   "\u2581agricultura": 3935,
   "\u2581pul": 3936,
   "try": 3937,
   "opol": 3938,
   "\u2581artiller": 3939,
   "\u258175": 3940,
   "\u2581optim": 3941,
   "\u2581Ev": 3942,
   "\u2581dise": 3943,
   "\u2581generalmente": 3944,
   "\u2581pacto": 3945,
   "\u2581mic": 3946,
   "\u2581Mar": 3947,
   "\u2581acog": 3948,
   "\u25814": 3949,
   "00?": 3950,
   "\u2581desaf": 3951,
   "\u2581deber\u00eda": 3952,
   "\u2581cons": 3953,
   "ciente": 3954,
   "\u2581trata": 3955,
   "\u2581tab": 3956,
   "ler": 3957,
   "ican": 3958,
   "\u2581Canad\u00e1": 3959,
   "\u2581inici": 3960,
   "vern": 3961,
   "amin": 3962,
   "ose": 3963,
   "\u2581cop": 3964,
   "\u25811938": 3965,
   "\u2581enfrent": 3966,
   "\u2581precurs": 3967,
   "lement": 3968,
   "\u2581Pic": 3969,
   "colo": 3970,
   "rab": 3971,
   "asso": 3972,
   "\u2581Liverpool": 3973,
   "\u2581grat": 3974,
   "\u2581fut": 3975,
   "\u2581ut": 3976,
   "recht": 3977,
   "Esp": 3978,
   "\u2581t\u00e9cn": 3979,
   "cido": 3980,
   ";": 3981,
   "\u2581europeo": 3982,
   "\u2581181": 3983,
   "\u2581Como": 3984,
   "\u2581Pr": 3985,
   "\u2581trat\u00f3": 3986,
   "lad": 3987,
   "imir": 3988,
   "\u2581Len": 3989,
   "\u2581caus": 3990,
   "\u2581petro": 3991,
   "grado": 3992,
   "esta": 3993,
   "porta": 3994,
   "\u2581pag": 3995,
   "\u2581recuper": 3996,
   "\u2581municipios": 3997,
   "omer": 3998,
   "\u2581Berna": 3999,
   "erna": 4000,
   "\u2581municip": 4001,
   "ities": 4002,
   "\u2581matar": 4003,
   "\u2581alg\u00fan": 4004,
   "\u2581Mat": 4005,
   "\u2581ileg": 4006,
   "\u2581persegu": 4007,
   "\u2581pasa": 4008,
   "\u2581blanco": 4009,
   "\u2581naveg": 4010,
   "lave": 4011,
   "\u2581recog": 4012,
   "it\u00e9s": 4013,
   "\u2581Freddie": 4014,
   "\u2581asist": 4015,
   "\u2581banda": 4016,
   "ubern": 4017,
   "ament": 4018,
   "\u2581fu": 4019,
   "ji": 4020,
   "wara": 4021,
   "\u2581pat": 4022,
   "\u2581unicode": 4023,
   "\u25818": 4024,
   ".0": 4025,
   "\u2581abbey": 4026,
   "ere": 4027,
   "ip": 4028,
   "ativos": 4029,
   "\u2581entend": 4030,
   "\u2581hombres": 4031,
   "\u2581gay": 4032,
   "\u2581inf": 4033,
   "\u2581rusos": 4034,
   "\u2581escap": 4035,
   "\u25811855?": 4036,
   "\u2581Pet": 4037,
   "av": 4038,
   "lov": 4039,
   "illo": 4040,
   "\u2581polic\u00eda": 4041,
   "\u2581administraci\u00f3n": 4042,
   "\u2581controla": 4043,
   "har": 4044,
   "istan": 4045,
   "under": 4046,
   "\u2581pose": 4047,
   "ision": 4048,
   "\u2581insectos": 4049,
   "\u2581vuel": 4050,
   "\u00f3x": 4051,
   "\u2581insecto": 4052,
   "\u2581fabr": 4053,
   "\u2581depredadores": 4054,
   "\u2581conf": 4055,
   "odo": 4056,
   "pt": 4057,
   "ines": 4058,
   "\u2581ocurr": 4059,
   "\u2581memor": 4060,
   "\u2581declar\u00f3": 4061,
   "\u2581circ": 4062,
   "unst": 4063,
   "\u2581encima": 4064,
   "\u258138": 4065,
   "\u2581paral": 4066,
   "elo": 4067,
   "\u2581controlaba": 4068,
   "\u2581alf": 4069,
   "ificar": 4070,
   "ax": 4071,
   "\u2581reinado": 4072,
   "\u2581Alfred": 4073,
   "\u2581the": 4074,
   "\u2581great": 4075,
   "\u2581uni\u00f3": 4076,
   "\u2581reinos": 4077,
   "\u2581flot": 4078,
   "\u2581llegado": 4079,
   "\u2581Ident": 4080,
   "\u2581\u00e9xito": 4081,
   "\u2581austria": 4082,
   "\u2581migr": 4083,
   "ienen": 4084,
   "introdu": 4085,
   "\u2581oro": 4086,
   "\u2581nev": 4087,
   "\u2581significativa": 4088,
   "\u2581torment": 4089,
   "\u2581lago": 4090,
   "\u2581marcha": 4091,
   "\u2581ca\u00ed": 4092,
   "\u2581prepar": 4093,
   "\u2581alm": 4094,
   "\u2581pur": 4095,
   "\u2581elabor": 4096,
   "\u2581altura": 4097,
   "\u2581dividi\u00f3": 4098,
   "\u2581ganaron": 4099,
   "\u2581liber": 4100,
   "\u2581redu": 4101,
   "\u2581record": 4102,
   "\u2581Bob": 4103,
   "aba": 4104,
   "\u2581enviar": 4105,
   "\u2581madre": 4106,
   "\u2581tecn": 4107,
   "olog": 4108,
   "\u2581estable": 4109,
   "cen": 4110,
   "\u2581continu": 4111,
   "\u2581hermanos": 4112,
   "\u2581tenido": 4113,
   "\u2581entrenamiento": 4114,
   "\u2581m\u00fas": 4115,
   "\u2581pop": 4116,
   "\u2581calendario": 4117,
   "\u2581ortodox": 4118,
   "\u2581elemento": 4119,
   "\u2581Libia": 4120,
   "\u25811974?": 4121,
   "\u2581albert": 4122,
   "\u2581Johnson": 4123,
   "\u2581mala": 4124,
   "\u25811917?": 4125,
   "\u2581posici\u00f3n": 4126,
   "ii": 4127,
   "\u2581esquema": 4128,
   "\u2581princess": 4129,
   "az": 4130,
   "\u2581biograf": 4131,
   "\u2581William": 4132,
   "\u2581Ger": 4133,
   "\u2581Hamilton": 4134,
   "\u2581agencias": 4135,
   "\u2581fuerte": 4136,
   "\u2581mam\u00edferos": 4137,
   "\u2581bro": 4138,
   "ok": 4139,
   "ings": 4140,
   "\u2581trimestre": 4141,
   "\u2581pe": 4142,
   "psi": 4143,
   "\u25812002?": 4144,
   "\u2581\u00e1rabe": 4145,
   "\u2581cancel": 4146,
   "\u2581falta": 4147,
   "\u2581circad": 4148,
   "ierto": 4149,
   "dr": 4150,
   "illos": 4151,
   "ota": 4152,
   "ise": 4153,
   "\u2581partidarios": 4154,
   "crip": 4155,
   "\u2581garant": 4156,
   "izar": 4157,
   "em": 4158,
   "bol": 4159,
   "so": 4160,
   "\u2581bancos": 4161,
   "umen": 4162,
   "\u2581conserva": 4163,
   "\u2581pag\u00f3": 4164,
   "\u2581apart": 4165,
   "\u2581cadena": 4166,
   "\u2581Schwarzenegger": 4167,
   "\u2581retir\u00f3": 4168,
   "\u2581far": 4169,
   "\u2581el\u00e9ctrica": 4170,
   "\u2581mec": 4171,
   "\u2581sirvi\u00f3": 4172,
   "\u2581originalmente": 4173,
   "\u2581motores": 4174,
   "\u2581filosof\u00eda": 4175,
   "\u2581ideas": 4176,
   "\u2581cat\u00f3lic": 4177,
   "cles": 4178,
   "\u2581dedic": 4179,
   "\u2581terreno": 4180,
   "iger": 4181,
   "\u2581Spectre": 4182,
   "\u2581lleg\u00f3": 4183,
   "\u2581apertura": 4184,
   "quer": 4185,
   "\u2581Yugoslavia": 4186,
   "\u2581Presidente": 4187,
   "\u2581visita": 4188,
   "\u2581sigue": 4189,
   "\u2581corto": 4190,
   "\u2581intra": 4191,
   "ame": 4192,
   "ium": 4193,
   "\u2581tet": 4194,
   "\u2581producto": 4195,
   "\u2581cho": 4196,
   "izaje": 4197,
   "\u2581ca": 4198,
   "\u2581parag": 4199,
   "uas": 4200,
   "etro": 4201,
   "\u2581Vat": 4202,
   "\u2581cardenal": 4203,
   "\u2581text": 4204,
   "ual": 4205,
   "\u2581comenzaron": 4206,
   "\u2581dire": 4207,
   "ctr": 4208,
   "\u2581cr\u00edtica": 4209,
   "\u2581Ir": 4210,
   "\u2581perdi\u00f3": 4211,
   "\u25811800?": 4212,
   "fera": 4213,
   "\u2581au": 4214,
   "\u2581hist\u00f3rica": 4215,
   "\u2581aument\u00f3": 4216,
   "\u2581autonom": 4217,
   "\u2581bill": 4218,
   "\u2581log": 4219,
   "\u2581montana": 4220,
   "idente": 4221,
   "\u2581desap": 4222,
   "\u2581plante": 4223,
   "\u2581pregunt": 4224,
   "Or": 4225,
   "\u2581187": 4226,
   "\u2581cr\u00e9d": 4227,
   "6,": 4228,
   "77": 4229,
   "7": 4230,
   "\u25811981?": 4231,
   "\u2581Ronald": 4232,
   "\u2581Reagan": 4233,
   "\u2581aument": 4234,
   "der": 4235,
   "\u2581frat": 4236,
   "\u2581sufr": 4237,
   "\u2581Uruguay": 4238,
   "\u2581bell": 4239,
   "ests": 4240,
   "\u2581seguidores": 4241,
   "atur": 4242,
   "\u2581presente": 4243,
   "B": 4244,
   "ut": 4245,
   "\u2581musulmanes": 4246,
   "\u2581so": 4247,
   "ci\u00f3": 4248,
   "\u2581t\u00edbet": 4249,
   "\u2581importa": 4250,
   "\u2581padres": 4251,
   "\u2581proporcionar": 4252,
   "\u2581mix": 4253,
   "\u2581requiere": 4254,
   "\u2581exact": 4255,
   "athan": 4256,
   "\u2581ejemplos": 4257,
   "\u2581lig": 4258,
   "\u2581partidos": 4259,
   "\u2581all": 4260,
   "iend": 4261,
   "'": 4262,
   "\u2581tend": 4263,
   "\u2581cambi": 4264,
   "\u2581min": 4265,
   "\u2581fil\u00f3sof": 4266,
   "\u2581griegos": 4267,
   "\u2581compon": 4268,
   "\u2581soc": 4269,
   "\u2581Pek": 4270,
   "\u2581viene": 4271,
   "\u258122": 4272,
   "\u2581ilumin": 4273,
   "\u2581Nue": 4274,
   "\u2581tuberculosis": 4275,
   "enso": 4276,
   "\u2581inglesa": 4277,
   "ns": 4278,
   "iller": 4279,
   "aches": 4280,
   "\u2581\u00e1r": 4281,
   "\u2581lle": 4282,
   "\u2581distingue": 4283,
   "\u2581ep": 4284,
   "\u2581esto": 4285,
   "\u2581determina": 4286,
   "\u2581gesti\u00f3n": 4287,
   "\u2581programas": 4288,
   "\u2581fundaci\u00f3n": 4289,
   "\u2581prove": 4290,
   "use": 4291,
   "urs": 4292,
   "\u2581lucha": 4293,
   "ier": 4294,
   "Aut": 4295,
   "\u2581dios": 4296,
   "\u2581trat": 4297,
   "\u2581af": 4298,
   "cida": 4299,
   "\u2581llam\u00f3": 4300,
   "\u2581resistencia": 4301,
   "\u2581grave": 4302,
   "\u2581amenaza": 4303,
   "\u2581introdu": 4304,
   "\u25811948": 4305,
   "\u2581genocidio": 4306,
   "\u2581ju": 4307,
   "\u2581when": 4308,
   "pres": 4309,
   "byter": 4310,
   "\u2581(": 4311,
   ")": 4312,
   "\u2581campeonato": 4313,
   "\u2581europeos": 4314,
   "\u2581reconstru": 4315,
   "com": 4316,
   "onies": 4317,
   "\u2581196": 4318,
   "5,": 4319,
   "DA": 4320,
   "atal": 4321,
   "\u2581conecta": 4322,
   "\u2581ham": 4323,
   "\u2581autom": 4324,
   "\u2581basan": 4325,
   "zos": 4326,
   "\u2581ancest": 4327,
   "rales": 4328,
   "\u2581adolescentes": 4329,
   "estos": 4330,
   "\u2581comunicaci\u00f3n": 4331,
   "\u2581horas": 4332,
   "\u2581plant": 4333,
   "\u2581GM": 4334,
   "\u2581adultos": 4335,
   "\u2581Anne": 4336,
   "\u2581Mur": 4337,
   "ray": 4338,
   "\u2581stre": 4339,
   "cn": 4340,
   "\u2581norm": 4341,
   "\u2581qued": 4342,
   "\u2581184": 4343,
   "\u2581infant": 4344,
   "\u2581romano": 4345,
   "\u2581nivel": 4346,
   "\u2581bomb": 4347,
   "illa": 4348,
   "\u2581bul": 4349,
   "abt": 4350,
   "\u2581secuencia": 4351,
   "\u2581meses": 4352,
   "\u2581fase": 4353,
   "\u2581bases": 4354,
   "\u2581continente": 4355,
   "\u2581Memorial": 4356,
   "\u2581sub": 4357,
   "ewall": 4358,
   "\u2581duro": 4359,
   "\u2581agrup": 4360,
   "\u2581m\u00e9dico": 4361,
   "\u2581momento": 4362,
   "\u2581islam": 4363,
   "ized": 4364,
   "\u2581invas": 4365,
   "\u2581\u00e1rabes": 4366,
   "aro": 4367,
   "\u2581distint": 4368,
   "\u2581super": 4369,
   "posici\u00f3n": 4370,
   "\u2581gen\u00e9tica": 4371,
   "\u25812013?": 4372,
   "\u2581codificaci\u00f3n": 4373,
   "\u2581audio": 4374,
   "\u2581bits": 4375,
   "\u2581pol\u00edt": 4376,
   "\u2581ig": 4377,
   "uales": 4378,
   "\u2581rebel": 4379,
   "ocup": 4380,
   "itan": 4381,
   "\u2581aterr": 4382,
   "\u2581exitoso": 4383,
   "\u2581individu": 4384,
   "ases": 4385,
   "igos": 4386,
   "astre": 4387,
   "\u25811971": 4388,
   "\u2581contribuy\u00f3": 4389,
   "\u2581negocio": 4390,
   "\u2581tradicional": 4391,
   "atar": 4392,
   "\u2581pigmento": 4393,
   "\u2581medieval": 4394,
   "rero": 4395,
   "\u2581Tal": 4396,
   "\u2581ger": 4397,
   "mania": 4398,
   "\u2581Ashkenaz": 4399,
   "anz": 4400,
   "\u2581chi": 4401,
   "ai": 4402,
   "ianas": 4403,
   "apor": 4404,
   "\u2581Sing": 4405,
   "apur": 4406,
   "\u2581vivieron": 4407,
   "\u2581negocios": 4408,
   "\u2581mercado": 4409,
   "\u2581gar": 4410,
   "\u2581gobiernos": 4411,
   "\u2581estatales": 4412,
   "\u2581federales": 4413,
   "\u2581npo": 4414,
   "\u2581impu": 4415,
   "\u2581iran": 4416,
   "\u00edes": 4417,
   "\u2581discrimin": 4418,
   "\u2581convert": 4419,
   "\u2581non": 4420,
   "con": 4421,
   "vert": 4422,
   "\u2581pagar": 4423,
   "\u2581norte": 4424,
   "cuel": 4425,
   "\u2581genes": 4426,
   "\u2581revel": 4427,
   "\u2581prev": 4428,
   "\u2581escal": 4429,
   "\u2581marzo": 4430,
   "\u2581tiempos": 4431,
   "ius": 4432,
   "\u2581hospital": 4433,
   "\u2581camp": 4434,
   "amento": 4435,
   "\u2581pasajeros": 4436,
   "\u2581vienen": 4437,
   "\u2581Ad": 4438,
   "fo": 4439,
   "ope": 4440,
   "\u2581max": 4441,
   "ivi": 4442,
   "\u2581deten": 4443,
   "\u2581interr": 4444,
   "up": 4445,
   "\u2581protesta": 4446,
   "Ed": 4447,
   "\u2581capella": 4448,
   "\u2581dark": 4449,
   "bc": 4450,
   "aca": 4451,
   "das": 4452,
   "\u2581ma": 4453,
   "ult": 4454,
   "ades": 4455,
   "\u25812003,": 4456,
   "\u2581coron": 4457,
   "\u2581logo": 4458,
   "\u2581estrella": 4459,
   "its": 4460,
   "cripci\u00f3n": 4461,
   "\u2581servir": 4462,
   "ionero": 4463,
   "orm": 4464,
   "\u2581rupt": 4465,
   "\u2581susceptible": 4466,
   "pend": 4467,
   "\u2581estruct": 4468,
   "ural": 4469,
   "\u2581canciones": 4470,
   "\u2581centra": 4471,
   "\u2581dst": 4472,
   "ros": 4473,
   "\u2581jun": 4474,
   "\u2581Hay": 4475,
   "\u2581adapt": 4476,
   "\u2581sw": 4477,
   "ingle": 4478,
   "\u00e1r": 4479,
   "\u2581crimen": 4480,
   "\u2581impr": 4481,
   "\u2581att": 4482,
   "\u2581japon\u00e9s": 4483,
   "\u2581ola": 4484,
   "\u2581absorb": 4485,
   "\u2581BBC": 4486,
   "\u2581explor": 4487,
   "\u2581streaming": 4488,
   "\u2581\u00f3": 4489,
   "\u2581Tod": 4490,
   "onen": 4491,
   "\u2581vol": 4492,
   "\u2581mat": 4493,
   "\u2581hy": 4494,
   "inth": 4495,
   "olo": 4496,
   "ill": 4497,
   "\u2581maz": 4498,
   "\u2581comprens": 4499,
   "\u2581traducci\u00f3n": 4500,
   "\u2581pr": 4501,
   "\u2581roman": 4502,
   "rica": 4503,
   "\u2581libert": 4504,
   "\u2581origen": 4505,
   "ili": 4506,
   "arse": 4507,
   "\u25811979?": 4508,
   "\u2581candidato": 4509,
   "\u2581dem\u00f3cr": 4510,
   "\u25811960?": 4511,
   "\u2581presidencia": 4512,
   "ierta": 4513,
   "\u2581sal\u00f3n": 4514,
   "\u2581Gu": 4515,
   "\u2581ii": 4516,
   "ume": 4517,
   "\u2581filtr": 4518,
   "ument": 4519,
   "\u25812009": 4520,
   "\u2581denun": 4521,
   "esse": 4522,
   "cil": 4523,
   "\u2581brand": 4524,
   "arak": 4525,
   "\u2581us": 4526,
   "\u2581pac": 4527,
   "\u00edfico": 4528,
   "\u2581extranjeros": 4529,
   "\u2581centros": 4530,
   "\u2581rechaz": 4531,
   "ment": 4532,
   "\u2581Sand": 4533,
   "\u2581lect": 4534,
   "\u2581baja": 4535,
   "\u2581compra": 4536,
   "ads": 4537,
   "\u2581youtube": 4538,
   "\u2581vivi\u00f3": 4539,
   "\u00edm": 4540,
   "ulos": 4541,
   "\u2581kad": 4542,
   "amba": 4543,
   "\u2581gobernante": 4544,
   "\u2581gobern\u00f3": 4545,
   "\u2581pico": 4546,
   "\u2581kam": 4547,
   "\u2581\u00faltimos": 4548,
   "\u2581mov": 4549,
   "\u2581instrumentos": 4550,
   "\u2581juegan": 4551,
   "\u2581orqu": 4552,
   "olin": 4553,
   "\u2581colecci\u00f3n": 4554,
   "\u2581matem\u00e1ticas": 4555,
   "ped": 4556,
   "\u2581ordenador": 4557,
   "\u2581firm\u00f3": 4558,
   "\u2581ced": 4559,
   "\u2581extend": 4560,
   "\u2581cam": 4561,
   "\u2581comparaci\u00f3n": 4562,
   "\u2581Massachusetts": 4563,
   "\u2581colonos": 4564,
   "bor": 4565,
   "\u2581traduce": 4566,
   "du": 4567,
   "eder": 4568,
   "lands": 4569,
   "\u2581ad": 4570,
   "min": 4571,
   "\u2581O": 4572,
   "\u2581tribunales": 4573,
   "\u2581mor": 4574,
   "\u2581sujet": 4575,
   "\u2581fundada": 4576,
   "\u2581reb": 4577,
   "eld": 4578,
   "\u2581nota": 4579,
   "\u2581evitar": 4580,
   "\u2581masa": 4581,
   "\u2581m\u00e1xima": 4582,
   "edas": 4583,
   "\u2581reserva": 4584,
   "\u2581dep": 4585,
   "\u00f3s": 4586,
   "\u2581instituciones": 4587,
   "pos": 4588,
   "ory": 4589,
   "\u2581valor": 4590,
   "\u2581misi\u00f3n": 4591,
   "\u2581bac": 4592,
   "adre": 4593,
   "\u2581Fund": 4594,
   "\u2581Arizona": 4595,
   "\u2581conver": 4596,
   "\u2581prueba": 4597,
   "\u2581declaraci\u00f3n": 4598,
   "\u2581partes": 4599,
   "\u2581semi": 4600,
   "Ad": 4601,
   "\u2581necesitan": 4602,
   "\u2581monta": 4603,
   "\u258117?": 4604,
   "puesto": 4605,
   "adoras": 4606,
   "\u2581march": 4607,
   "huah": 4608,
   "\u2581respuesta": 4609,
   "ye": 4610,
   "\u2581sichuan": 4611,
   "\u2581bas\u00f3": 4612,
   "ins": 4613,
   "\u258128": 4614,
   "\u25813000": 4615,
   "\u2581l\u00e1mp": 4616,
   "\u2581producir": 4617,
   "orr": 4618,
   "\u2581octa": 4619,
   "va": 4620,
   "\u2581inher": 4621,
   "\u2581controvers": 4622,
   "\u2581surgi\u00f3": 4623,
   "\u2581cart": 4624,
   "\u2581alexander": 4625,
   "\u2581chopin": 4626,
   "ombre": 4627,
   "\u2581instru": 4628,
   "\u2581instituci\u00f3n": 4629,
   "\u2581conser": 4630,
   "??": 4631,
   "\u2581Dow": 4632,
   "\u258117": 4633,
   "\u2581eic": 4634,
   "\u2581disponible": 4635,
   "\u25811815": 4636,
   "\u25811830?": 4637,
   "\u2581paqu": 4638,
   "ole": 4639,
   "ministr": 4640,
   "\u2581pub": 4641,
   "\u2581rural": 4642,
   "\u2581habit": 4643,
   "\u2581importancia": 4644,
   "\u2581llevan": 4645,
   "etes": 4646,
   "\u2581gla": 4647,
   "kl": 4648,
   "\u2581retro": 4649,
   "uf": 4650,
   "\u2581fund": 4651,
   "\u2581Louis": 4652,
   "\u2581ej": 4653,
   "\u2581coord": 4654,
   "\u2581celebrado": 4655,
   "\u2581armenios": 4656,
   "\u2581Armenia": 4657,
   "\u2581brill": 4658,
   "\u2581incend": 4659,
   "\u2581f\u00e1": 4660,
   "brica": 4661,
   "\u2581iluminaci\u00f3n": 4662,
   "\u2581radical": 4663,
   "\u2581democra": 4664,
   "\u2581individual": 4665,
   "atsby": 4666,
   "\u2581dise\u00f1": 4667,
   "\u2581usuario": 4668,
   "\u2581acceso": 4669,
   "\u2581f\u00eds": 4670,
   "\u2581registr": 4671,
   "\u2581puso": 4672,
   "\u2581Tribun": 4673,
   "utos": 4674,
   "\u2581pers": 4675,
   "\u2581exista": 4676,
   "\u2581completamente": 4677,
   "\u2581moment": 4678,
   "\u2581contact": 4679,
   "\u2581conci": 4680,
   "\u2581as\u00ed": 4681,
   "ain": 4682,
   "\u2581beg": 4683,
   "aza": 4684,
   "abad": 4685,
   "\u2581dispos": 4686,
   "anzas": 4687,
   "\u2581oficiales": 4688,
   "ielo": 4689,
   "anal": 4690,
   "\u2581negativo": 4691,
   "\u2581Gold": 4692,
   "\u2581sean": 4693,
   "\u2581absol": 4694,
   "\u2581droga": 4695,
   "inf": 4696,
   "atoria": 4697,
   "\u2581culto": 4698,
   "yth": 4699,
   "\u2581tum": 4700,
   "ba": 4701,
   "\u2581Alexander": 4702,
   "\u2581combin": 4703,
   "\u2581sent": 4704,
   "\u2581transit": 4705,
   "\u2581DC": 4706,
   "\u2581Hub": 4707,
   "\u2581proclam": 4708,
   "\u2581sult": 4709,
   "\u2581otomano": 4710,
   "\u2581formal": 4711,
   "\u2581aplic": 4712,
   "\u2581neoc": 4713,
   "\u2581dise\u00f1o": 4714,
   "vec": 4715,
   "\u2581corona": 4716,
   "\u2581reti": 4717,
   "\u2581eventos": 4718,
   "\u2581sm": 4719,
   "amp": 4720,
   "\u2581permitir": 4721,
   "\u2581turingia": 4722,
   "\u2581v\u00edctimas": 4723,
   "\u2581muertes": 4724,
   "\u2581radiaci\u00f3n": 4725,
   "omagn": 4726,
   "\u00e9tica": 4727,
   "\u2581equivalente": 4728,
   "\u2581otomanos": 4729,
   "\u2581Guns": 4730,
   "oses": 4731,
   "\u2581\u00e1lbumes": 4732,
   "\u2581il": 4733,
   "\u2581tit": 4734,
   "\u2581your": 4735,
   "\u2581money": 4736,
   "aker": 4737,
   "\u2581inqu": 4738,
   "\u2581hog": 4739,
   "\u2581cas\u00f3": 4740,
   "\u2581gem": 4741,
   "\u2581cu\u00e1les": 4742,
   "\u2581probabil": 4743,
   "\u2581ten": 4744,
   "\u2581asoci\u00f3": 4745,
   "\u2581limit": 4746,
   "\u2581Carter": 4747,
   "\u2581lanzada": 4748,
   "\u2581anglic": 4749,
   "gado": 4750,
   "\u2581Sto": 4751,
   "igr": 4752,
   "\u2581Pearl": 4753,
   "\u2581Harbor": 4754,
   "\u2581\u00f3pera": 4755,
   "\u2581Tele": 4756,
   "\u25811985?": 4757,
   "enci": 4758,
   "\u2581pel\u00edculas": 4759,
   "\u2581peque\u00f1o": 4760,
   "\u2581fines": 4761,
   "ts": 4762,
   "\u2581vino": 4763,
   "\u2581\u00e0": 4764,
   "\u2581mezcla": 4765,
   "ammy": 4766,
   "EA": 4767,
   "V": 4768,
   "EN": 4769,
   "ago": 4770,
   "eme": 4771,
   "\u2581jud\u00edos": 4772,
   "sh": 4773,
   "ken": 4774,
   "azi": 4775,
   "\u2581Am\u00e9ricas": 4776,
   "\u2581mo": 4777,
   "\u2581teatro": 4778,
   "\u2581preg": 4779,
   "\u2581Pakist\u00e1n": 4780,
   "\u2581popularidad": 4781,
   "\u2581antic": 4782,
   "\u00e4hr": 4783,
   "inger": 4784,
   "\u2581plymouth": 4785,
   "38": 4786,
   "\u2581Qu": 4787,
   "ien": 4788,
   "\u2581catedral": 4789,
   "\u2581ale": 4790,
   "\u2581fil": 4791,
   "aret": 4792,
   "inda": 4793,
   "\u2581occ": 4794,
   "\u2581fron": 4795,
   "teras": 4796,
   "\u2581hist\u00f3rico": 4797,
   "\u2581frente": 4798,
   "\u2581East": 4799,
   "entral": 4800,
   "\u2581hogar": 4801,
   "\u2581pieza": 4802,
   "atorio": 4803,
   "\u2581char": 4804,
   "\u2581precipitaci\u00f3n": 4805,
   "onte": 4806,
   "\u2581patrimonio": 4807,
   "\u2581catal": 4808,
   "\u258115?": 4809,
   "\u2581bras": 4810,
   "ile": 4811,
   "\u2581comunidades": 4812,
   "\u00f1as": 4813,
   "\u2581183": 4814,
   "1?": 4815,
   "\u2581Sam": 4816,
   "\u2581conquist\u00f3": 4817,
   "\u2581Jud": 4818,
   "\u2581industrias": 4819,
   "\u2581PIB": 4820,
   "\u2581patente": 4821,
   "\u2581genoma": 4822,
   "\u2581llev": 4823,
   "\u2581et": 4824,
   "\u2581Ex": 4825,
   "\u2581relaciones": 4826,
   "\u2581Tr": 4827,
   "\u2581tal": 4828,
   "\u2581comprar": 4829,
   "\u2581puesto": 4830,
   "\u2581dej": 4831,
   "\u2581ipod": 4832,
   "\u2581comput": 4833,
   "\u25812004": 4834,
   "-0": 4835,
   "5": 4836,
   "\u2581salida": 4837,
   "\u2581enviados": 4838,
   "\u2581hip": 4839,
   "osis": 4840,
   "\u2581efica": 4841,
   "\u2581sanat": 4842,
   "\u2581mu": 4843,
   "\u2581diferencia": 4844,
   "\u2581colonia": 4845,
   "\u2581determinar": 4846,
   "\u2581ran": 4847,
   "uras": 4848,
   "\u2581macintosh": 4849,
   "\u2581abril": 4850,
   "\u2581Mac": 4851,
   "\u2581costo": 4852,
   "\u2581invent\u00f3": 4853,
   "\u2581grabaci\u00f3n": 4854,
   "\u2581In": 4855,
   "\u2581concursantes": 4856,
   "\u2581da\u00f1": 4857,
   "\u2581principalmente": 4858,
   "\u2581arquitect": 4859,
   "\u2581aud": 4860,
   "\u2581inicial": 4861,
   "\u2581\u00fanica": 4862,
   "\u2581prel": 4863,
   "imin": 4864,
   "\u2581league": 4865,
   "\u25812003": 4866,
   "4": 4867,
   "\u2581incluso": 4868,
   "\u2581reglas": 4869,
   "adio": 4870,
   "\u2581promin": 4871,
   "\u2581teor\u00edas": 4872,
   "\u2581John": 4873,
   "\u2581afirm": 4874,
   "\u2581hab": 4875,
   "\u2581cient\u00edfico": 4876,
   "\u2581popper": 4877,
   "\u2581fantas": 4878,
   "\u2581parlament": 4879,
   "\u2581Kim": 4880,
   "ash": 4881,
   "\u2581San": 4882,
   "\u2581estudiant": 4883,
   "asi": 4884,
   "\u2581expuls": 4885,
   "\u25811975?": 4886,
   "\u2581victorias": 4887,
   "esia": 4888,
   "\u2581nacimiento": 4889,
   "olds": 4890,
   "\u2581introdujo": 4891,
   "\u2581secundaria": 4892,
   "\u2581sistemas": 4893,
   "\u2581escol": 4894,
   "\u25813.": 4895,
   "ware": 4896,
   "\u2581sony": 4897,
   "\u2581other": 4898,
   "\u2581almac": 4899,
   "\u2581scr": 4900,
   "age": 4901,
   "\u2581defens": 4902,
   "\u2581vinilo": 4903,
   "\u2581puedes": 4904,
   "\u2581200": 4905,
   "10": 4906,
   "\u2581mm": 4907,
   "\u2581invol": 4908,
   "\u2581oficialmente": 4909,
   "20": 4910,
   "60": 4911,
   "\u2581poner": 4912,
   "\u2581will": 4913,
   "gers": 4914,
   "\u00e1ns": 4915,
   "\u2581comando": 4916,
   "\u2581conj": 4917,
   "unt": 4918,
   "\u2581apoya": 4919,
   "\u2581je": 4920,
   "\u2581adj": 4921,
   "unto": 4922,
   "\u2581hist": 4923,
   "\u2581golpe\u00f3": 4924,
   "\u2581guns": 4925,
   "\u2581simb": 4926,
   "vor": 4927,
   "\u2581bermudas": 4928,
   "\u2581financi": 4929,
   "\u2581crist": 4930,
   "omo": 4931,
   "\u2581torn": 4932,
   "\u2581huel": 4933,
   "usu": 4934,
   "izz": 4935,
   "\u2581g\u00e9nero": 4936,
   "\u2581episodio": 4937,
   "\u2581Steven": 4938,
   "\u2581Spielberg": 4939,
   "\u2581idea": 4940,
   "zi": 4941,
   "\u2581inmigr": 4942,
   "\u258110?": 4943,
   "cito": 4944,
   "\u2581hot": 4945,
   "\u2581incre": 4946,
   "\u2581mano": 4947,
   "\u2581elizabeth": 4948,
   "\u2581ante": 4949,
   "\u2581ya": 4950,
   "\u2581conocimiento": 4951,
   "\u2581vin": 4952,
   "\u2581propuesta": 4953,
   "\u2581sober": 4954,
   "\u2581tes": 4955,
   "\u2581estab": 4956,
   "\u2581dur\u00f3": 4957,
   "art": 4958,
   "\u2581asent": 4959,
   "\u2581ceremon": 4960,
   "ial": 4961,
   "\u2581costa": 4962,
   "\u2581Winston": 4963,
   "\u2581Churchill": 4964,
   "\u2581r\u00e9gimen": 4965,
   "\u2581Varsovia": 4966,
   "ece": 4967,
   "\u2581esclavos": 4968,
   "\u2581Confederaci\u00f3n": 4969,
   "\u2581tenn": 4970,
   "essee": 4971,
   "\u2581vicepresidente": 4972,
   "\u2581Nombra": 4973,
   "\u2581caball": 4974,
   "\u25811918": 4975,
   "\u2581soci": 4976,
   "\u2581encarg": 4977,
   "ionalmente": 4978,
   "\u25811975": 4979,
   "\u2581trabaja": 4980,
   "\u2581estatus": 4981,
   "iencia": 4982,
   "\u2581muest": 4983,
   "\u2581hotel": 4984,
   "\u2581fama": 4985,
   "\u2581influ": 4986,
   "\u2581voltaje": 4987,
   "ars": 4988,
   "\u25812015,": 4989,
   "\u2581esencial": 4990,
   "\u2581Robert": 4991,
   "borne": 4992,
   "\u2581cul": 4993,
   "ared": 4994,
   "\u2581diam": 4995,
   "lect": 4996,
   "\u2581evolut": 4997,
   "\u2581enfoque": 4998,
   "\u2581pot": 4999,
   "endo": 5000,
   ")?": 5001,
   "yendo": 5002,
   "\u2581mej": 5003,
   "ds": 5004,
   "78": 5005,
   "\u2581ubicada": 5006,
   "\u2581dem\u00e1s": 5007,
   "\u2581correl": 5008,
   "\u2581densidad": 5009,
   "\u00edfer": 5010,
   "\u2581hob": 5011,
   "\u2581suic": 5012,
   "idio": 5013,
   "bt": 5014,
   "\u2581compa\u00f1": 5015,
   "\u2581heterosex": 5016,
   "aller": 5017,
   "\u2581tras": 5018,
   "RA": 5019,
   "ES": 5020,
   "ianza": 5021,
   "\u2581comisi\u00f3n": 5022,
   "\u2581humor": 5023,
   "\u00edstica": 5024,
   "\u2581libros": 5025,
   "\u2581productor": 5026,
   "\u2581bon": 5027,
   "\u2581educ": 5028,
   "ativo": 5029,
   "\u2581tra": 5030,
   "\u00eddo": 5031,
   "\u2581africanos": 5032,
   "\u2581Per": 5033,
   "\u2581proteger": 5034,
   "\u2581Birmania": 5035,
   "\u2581estatal": 5036,
   "\u2581Kanye": 5037,
   "\u2581rap": 5038,
   "\u2581dibuj": 5039,
   "\u2581agr\u00ed": 5040,
   "cola": 5041,
   "omod": 5042,
   "\u2581veget": 5043,
   "\u2581rod": 5044,
   "\u2581espa\u00f1": 5045,
   "\u2581convertirse": 5046,
   "\u2581pel": 5047,
   "ear": 5048,
   "\u2581modern": 5049,
   "\u2581clasificaci\u00f3n": 5050,
   "\u2581cri": 5051,
   "\u2581m\u00e9todos": 5052,
   "und": 5053,
   "\u2581caracter\u00edsticas": 5054,
   "\u2581laserdisc": 5055,
   "\u2581dv": 5056,
   "ez": 5057,
   "\u2581clar": 5058,
   "val": 5059,
   "ub": 5060,
   "\u2581infrar": 5061,
   "\u2581strat": 5062,
   "\u2581c\u00e1l": 5063,
   "\u2581siempre": 5064,
   "\u2581lograr": 5065,
   "\u2581creencia": 5066,
   "\u2581masoner\u00eda": 5067,
   "\u2581rep": 5068,
   "\u2581roles": 5069,
   "\u2581christ": 5070,
   "oph": 5071,
   "als": 5072,
   "\u2581dar": 5073,
   "\u2581ras": 5074,
   "\u2581sect": 5075,
   "\u2581fuertes": 5076,
   "\u2581dimens": 5077,
   "ienden": 5078,
   "\u2581orient": 5079,
   "\u2581sexuales": 5080,
   "unda": 5081,
   "\u2581partid": 5082,
   "\u2581influy": 5083,
   "\u2581distancia": 5084,
   "\u2581refle": 5085,
   "\u2581transmisi\u00f3n": 5086,
   "\u2581Arbor": 5087,
   "\u2581john": 5088,
   "ou": 5089,
   "\u2581familias": 5090,
   "br": 5091,
   "\u2581necesidad": 5092,
   "\u2581etnia": 5093,
   "\u2581somalia": 5094,
   "\u2581varios": 5095,
   "\u2581somal\u00edes": 5096,
   "\u2581Ej": 5097,
   "\u2581armas": 5098,
   "ciales": 5099,
   "\u2581Whitehead": 5100,
   "\u2581dirig": 5101,
   "\u2581acc": 5102,
   "ase": 5103,
   "\u2581db": 5104,
   "rog": 5105,
   "\u2581Roll": 5106,
   "\u25811950": 5107,
   "\u25811970": 5108,
   "\u2581east": 5109,
   "\u2581juez": 5110,
   "hammad": 5111,
   "\u2581188": 5112,
   "\u2581agre": 5113,
   "dir": 5114,
   "lack": 5115,
   "\u2581Power": 5116,
   "\u2581sind": 5117,
   "\u2581residen": 5118,
   "\u2581actualmente": 5119,
   "\u2581limita": 5120,
   "pre": 5121,
   "\u2581design": 5122,
   "\u2581India": 5123,
   "\u2581ferrocarril": 5124,
   "\u2581crearon": 5125,
   "\u2581tradu": 5126,
   "\u2581tip": 5127,
   "ograf": 5128,
   "\u2581creada": 5129,
   "\u2581marines": 5130,
   "\u2581asesinados": 5131,
   "agan": 5132,
   "\u2581coal": 5133,
   "\u2581extr": 5134,
   "..": 5135,
   "\u2581holandeses": 5136,
   "\u2581asisti\u00f3": 5137,
   "\u2581rev": 5138,
   "\u2581debajo": 5139,
   "\u2581esposas": 5140,
   "\u2581Ann": 5141,
   "\u2581colores": 5142,
   "dec": 5143,
   "ations": 5144,
   "\u2581Edward": 5145,
   "\u2581VII": 5146,
   "\u2581cuyo": 5147,
   "\u2581ganado": 5148,
   "\u2581condici\u00f3n": 5149,
   "\u25811984": 5150,
   "\u2581sug": 5151,
   "ips": 5152,
   "\u2581cuer": 5153,
   "ban": 5154,
   "\u2581lic": 5155,
   "\u2581establecimiento": 5156,
   "\u2581licencia": 5157,
   "\u2581adecu": 5158,
   "\u2581turn": 5159,
   "\u2581hor": 5160,
   "\u2581prede": 5161,
   "\u2581pele": 5162,
   "\u2581ali": 5163,
   "ifa": 5164,
   "\u2581acciones": 5165,
   "\u2581posit": 5166,
   "ivas": 5167,
   "char": 5168,
   "\u2581gy": 5169,
   "\u2581ak": 5170,
   "halt": 5171,
   "\u2581bic": 5172,
   "icle": 5173,
   "let": 5174,
   "\u2581realizar": 5175,
   "\u2581requis": 5176,
   "\u2581cumplir": 5177,
   "\u2581Ma": 5178,
   "vel": 5179,
   "\u2581espect": 5180,
   "\u2581populares": 5181,
   "\u2581baloncesto": 5182,
   "\u2581oport": 5183,
   "unidad": 5184,
   "\u2581permis": 5185,
   "\u2581construida": 5186,
   "\u2581agreg": 5187,
   "\u2581rest": 5188,
   "\u2581Mund": 5189,
   "l\u00e1m": 5190,
   "\u2581avicena": 5191,
   "\u2581Vol": 5192,
   "ire": 5193,
   "\u2581discurso": 5194,
   "\u2581Ro": 5195,
   "uss": 5196,
   "eau": 5197,
   "\u012b": 5198,
   "da": 5199,
   "\u2581do": 5200,
   "\u2581textos": 5201,
   "\u2581restr": 5202,
   "\u2581pone": 5203,
   "i\u00f3t": 5204,
   "\u2581poblada": 5205,
   "\u2581distritos": 5206,
   "ates": 5207,
   "\u2581ty": 5208,
   "att": 5209,
   "\u2581detroit": 5210,
   "\u2581consigue": 5211,
   "\u2581Detroit": 5212,
   "\u25812014,": 5213,
   "\u2581viv\u00edan": 5214,
   "\u2581resid": 5215,
   "\u2581Nor": 5216,
   "\u2581Par": 5217,
   "th": 5218,
   "\u2581narr": 5219,
   "\u2581offic": 5220,
   "ew": 5221,
   "orks": 5222,
   "\u2581cient\u00edfica": 5223,
   "\u2581maneras": 5224,
   "\u2581amor": 5225,
   "\u2581Schumann": 5226,
   "ilos": 5227,
   "\u2581all\u00e1": 5228,
   "\u2581desac": 5229,
   "uerdo": 5230,
   "r\u00f3": 5231,
   "\u2581Ne": 5232,
   "\u2581cle": 5233,
   "cra": 5234,
   "\u2581corrupci\u00f3n": 5235,
   "\u258124": 5236,
   "\u2581400": 5237,
   "\u2581dram": 5238,
   "\u00e1ticas": 5239,
   "\u2581cork": 5240,
   "\u2581actriz": 5241,
   "\u2581Hollywood": 5242,
   "\u2581instal": 5243,
   "TAN": 5244,
   "eto": 5245,
   "\u2581amb": 5246,
   "\u2581Guinea": 5247,
   "Bissau": 5248,
   "arias": 5249,
   "\u2581trafic": 5250,
   "inea": 5251,
   "\u2581Def": 5252,
   "\u2581Marshalls": 5253,
   "\u2581resoluci\u00f3n": 5254,
   "\u2581seguridad": 5255,
   "\u2581marshall": 5256,
   "\u2581bal": 5257,
   "uesta": 5258,
   "\u2581she": 5259,
   "\u2581compart": 5260,
   "\u2581republicano": 5261,
   "\u2581finanz": 5262,
   "ientras": 5263,
   "\u2581multi": 5264,
   "\u2581pr\u00e1ct": 5265,
   "\u2581simple": 5266,
   "\u2581interc": 5267,
   "\u2581500": 5268,
   "ivers": 5269,
   "\u2581sand": 5270,
   "\u2581ens": 5271,
   "ayo": 5272,
   "\u258133": 5273,
   "\u2581petr\u00f3leo": 5274,
   "\u2581iran\u00ed": 5275,
   "\u2581asientos": 5276,
   "\u2581ay": 5277,
   "\u2581alcalde": 5278,
   "\u2581cristiano": 5279,
   "\u2581obra": 5280,
   "\u2581frances": 5281,
   "iable": 5282,
   "\u2581diplom": 5283,
   "\u258119": 5284,
   "\u2581extranj": 5285,
   "eo": 5286,
   "\u2581An": 5287,
   "terior": 5288,
   "\u2581dialectos": 5289,
   "\u2581causado": 5290,
   "avian": 5291,
   "\u2581\u00c9": 5292,
   "\u2581ido": 5293,
   "\u2581mucho": 5294,
   "anasio": 5295,
   "\u2581jul": 5296,
   "\u2581Federal": 5297,
   "\u2581Brasil": 5298,
   "\u2581tratados": 5299,
   "\u2581ordin": 5300,
   "\u2581destino": 5301,
   "\u2581Tier": 5302,
   "\u2581protestantes": 5303,
   "\u2581operar": 5304,
   "\u2581manga": 5305,
   "iji": 5306,
   "\u2581c\u00f3m": 5307,
   "\u2581japonesa": 5308,
   "\u2581\u00e9t": 5309,
   "\u2581habil": 5310,
   "\u2581poc": 5311,
   "\u2581comunica": 5312,
   "\u2581cre\u00eda": 5313,
   "Des": 5314,
   "\u2581noroeste": 5315,
   "\u2581atlet": 5316,
   "\u2581northwestern": 5317,
   "\u2581Blair": 5318,
   "\u2581presidencial": 5319,
   "ove": 5320,
   "\u2581ce": 5321,
   "aph": 5322,
   "rag": 5323,
   "\u2581list": 5324,
   "\u2581pla": 5325,
   "\u2581m\u00e9r": 5326,
   "\u2581mostr\u00f3": 5327,
   "\u2581tribun": 5328,
   "\u258158": 5329,
   "\u2581Cor": 5330,
   "\u2581espa\u00f1ola": 5331,
   "\u2581tribu": 5332,
   "\u2581Hidalgo": 5333,
   "\u2581ben": 5334,
   "\u2581sole": 5335,
   "\u2581suburb": 5336,
   "\u2581monument": 5337,
   "arc": 5338,
   "\u2581tuber": 5339,
   "\u00e1mica": 5340,
   "\u2581pref": 5341,
   "pen": 5342,
   "\u2581liquid": 5343,
   "\u25812007": 5344,
   "\u258112": 5345,
   "\u2581implement": 5346,
   "ol\u00f3gica": 5347,
   "\u2581sede": 5348,
   "\u2581Seattle": 5349,
   "gr": 5350,
   "ila": 5351,
   "\u2581referencia": 5352,
   "\u2581desarroll": 5353,
   "\u2581Reg": 5354,
   "\u2581derro": 5355,
   "-2?": 5356,
   "haus": 5357,
   "eral": 5358,
   "alist": 5359,
   "\u2581glad": 5360,
   "\u2581189": 5361,
   "4?": 5362,
   "\u2581se\u00f1or": 5363,
   "osen": 5364,
   "\u25812002": 5365,
   "\u2581desemple": 5366,
   "\u2581ecos": 5367,
   "\u2581junto": 5368,
   "\u2581desarrol": 5369,
   "\u2581anal": 5370,
   "\u00f3gico": 5371,
   "\u2581Hayek": 5372,
   "\u2581llevar": 5373,
   "\u2581loc": 5374,
   "otor": 5375,
   "-19": 5376,
   "73": 5377,
   "\u2581derrot": 5378,
   "gi": 5379,
   "\u2581alp": 5380,
   "\u2581clase": 5381,
   "\u25812019": 5382,
   "\u2581a\u00f1ade": 5383,
   "\u2581bet\u00fan": 5384,
   "\u2581pav": 5385,
   "\u2581sel": 5386,
   "izza": 5387,
   "\u2581pobre": 5388,
   "\u2581manager": 5389,
   "\u2581habl\u00f3": 5390,
   "pect": 5391,
   "\u2581Drake": 5392,
   "\u2581Cir": 5393,
   "cus": 5394,
   "\u2581futuro": 5395,
   "untamiento": 5396,
   "\u2581monaster": 5397,
   "nt": 5398,
   "\u2581let": 5399,
   "\u2581defic": 5400,
   "\u2581geograf": 5401,
   "\u2581alco": 5402,
   "lica": 5403,
   "\u00f3lico": 5404,
   "ont": 5405,
   "\u2581Chihuahua": 5406,
   "\u2581cin": 5407,
   "hs": 5408,
   "\u25811980?": 5409,
   "\u2581etn": 5410,
   "\u2581cens": 5411,
   "\u2581comienzo": 5412,
   "\u2581ascens": 5413,
   "\u2581ces": 5414,
   "\u2581variedad": 5415,
   "\u2581rom": 5416,
   "\u2581visual": 5417,
   "\u2581arco": 5418,
   ".6": 5419,
   "\u2581Shir": 5420,
   "\u2581civilizaci\u00f3n": 5421,
   "\u2581informa": 5422,
   "\u2581document": 5423,
   "\u2581Ins": 5424,
   "\u2581divid": 5425,
   "\u2581Batt": 5426,
   "\u2581Alber": 5427,
   "ti": 5428,
   "\u2581belle": 5429,
   "\u2581ideal": 5430,
   "\u2581alber": 5431,
   "\u2581contrast": 5432,
   "\u2581recept": 5433,
   "\u2581bombard": 5434,
   "lation": 5435,
   "\u2581Grecia": 5436,
   "t\u00e9": 5437,
   "\u2581provoc": 5438,
   "\u2581quit": 5439,
   "tal": 5440,
   "cif": 5441,
   "iction": 5442,
   "\u2581als": 5443,
   "raine": 5444,
   "\u2581frag": 5445,
   "\u2581avenida": 5446,
   "\u2581eslavos": 5447,
   "iber": 5448,
   "\u2581Carolina": 5449,
   "\u2581hellen": 5450,
   "estic": 5451,
   "\u00ednsula": 5452,
   "artes": 5453,
   "\u2581perci": 5454,
   "ipote": 5455,
   "iet": 5456,
   "\u2581equ": 5457,
   "\u2581votaci\u00f3n": 5458,
   "\u25811916": 5459,
   "uman": 5460,
   "\u2581motiv": 5461,
   "\u2581T": 5462,
   "itivo": 5463,
   "get": 5464,
   "\u2581dr": 5465,
   "forman": 5466,
   "\u2581almacen": 5467,
   "nta": 5468,
   "iembre": 5469,
   "upci\u00f3n": 5470,
   "\u2581bizant": 5471,
   "lavos": 5472,
   "\u2581terrestres": 5473,
   "\u2581teor": 5474,
   "43": 5475,
   "ies": 5476,
   "\u2581bet": 5477,
   "\u2581atenci\u00f3n": 5478,
   "\u2581card": 5479,
   "\u2581Hospital": 5480,
   "\u2581mandolina": 5481,
   "egraph": 5482,
   "\u2581el\u00e9ctrico": 5483,
   "\u2581nutr": 5484,
   "\u2581valores": 5485,
   "icios": 5486,
   "ionales": 5487,
   "\u2581alt": 5488,
   "\u2581Texas": 5489,
   "\u2581transm": 5490,
   "uego": 5491,
   "ite": 5492,
   "\u2581internet": 5493,
   "\u2581acu": 5494,
   "l\u00e1nt": 5495,
   "fono": 5496,
   "\u2581necesita": 5497,
   "\u2581termina": 5498,
   "\u2581inters": 5499,
   "\u2581Constantin": 5500,
   "\u2581invadi\u00f3": 5501,
   "atol": 5502,
   "\u2581m\u00edn": 5503,
   "\u2581irland": 5504,
   "emente": 5505,
   "\u2581regional": 5506,
   "\u2581fondo": 5507,
   "\u2581oc\u00e9ano": 5508,
   "\u2581mond": 5509,
   "\u2581cur": 5510,
   "\u2581kind": 5511,
   "oms": 5512,
   "\u2581temas": 5513,
   "\u2581coches": 5514,
   "\u2581sosten": 5515,
   "acion": 5516,
   "\u2581call": 5517,
   "unk": 5518,
   "\u2581transform": 5519,
   "\u2581frecu": 5520,
   "\u2581pueblo": 5521,
   "\u2581chil": 5522,
   "\u2581ind\u00edgenas": 5523,
   "zan": 5524,
   "\u2581solid": 5525,
   "erc": 5526,
   "\u2581Turqu\u00eda": 5527,
   "\u2581manifestantes": 5528,
   "pir": 5529,
   "\u2581porte": 5530,
   "\u2581Kerry": 5531,
   "\u2581marina": 5532,
   "uelta": 5533,
   "\u2581Cas": 5534,
   "\u2581consegu": 5535,
   "ilio": 5536,
   "\u2581reprodu": 5537,
   "\u2581disponibles": 5538,
   "\u2581canal": 5539,
   "cto": 5540,
   "\u2581jugador": 5541,
   "itore": 5542,
   "\u2581adh": 5543,
   "esi\u00f3n": 5544,
   "erca": 5545,
   "oder": 5546,
   "tera": 5547,
   "\u2581dip": 5548,
   "\u2581une": 5549,
   "\u2581euro": 5550,
   "\u2581econ\u00f3mico": 5551,
   "\u2581expand": 5552,
   "\u2581circuito": 5553,
   "\u2581adel": 5554,
   "\u2581mantener": 5555,
   "\u2581tercera": 5556,
   "\u2581rad": 5557,
   "\u2581Tito": 5558,
   "\u2581Gandhi": 5559,
   "ense": 5560,
   "\u2581bel": 5561,
   "yan": 5562,
   "\u2581Du": 5563,
   "\u2581suces": 5564,
   "\u2581Cuyo": 5565,
   "het": 5566,
   "\u2581Valencia": 5567,
   "\u2581catal\u00e1n": 5568,
   "\u2581lleg": 5569,
   "\u2581Cer": 5570,
   "ane": 5571,
   "\u2581incluido": 5572,
   "aff": 5573,
   "\u2581ja": 5574,
   "\u2581imprim": 5575,
   "\u2581broad": 5576,
   "\u2581compact": 5577,
   "\u2581nobles": 5578,
   "\u2581polac": 5579,
   "\u2581repet": 5580,
   "ileo": 5581,
   "ills": 5582,
   "\u2581compos": 5583,
   "\u2581inspir\u00f3": 5584,
   "\u2581cob": 5585,
   "\u2581impuestos": 5586,
   "awa": 5587,
   "\u2581doctrina": 5588,
   "\u2581obser": 5589,
   "vaci\u00f3n": 5590,
   "\u2581entr": 5591,
   "\u2581asisten": 5592,
   "\u2581sch": 5593,
   "umann": 5594,
   "\u2581mascul": 5595,
   "\u2581eliminado": 5596,
   "\u2581filosof": 5597,
   "\u2581mel": 5598,
   "imil": 5599,
   "\u2581africano": 5600,
   "\u2581om": 5601,
   "Q": 5602,
   "\u2581Barts": 5603,
   "\u2581Barth": 5604,
   "\u2581invert": 5605,
   "uawiyah": 5606,
   "\u2581vertical": 5607,
   "\u2581pant": 5608,
   "alla": 5609,
   "\u2581encontr": 5610,
   "\u2581art\u00edculos": 5611,
   "\u2581permiten": 5612,
   "\u2581consent": 5613,
   "verign": 5614,
   "\u2581fact": 5615,
   "amblea": 5616,
   "\u2581Legisl": 5617,
   "len": 5618,
   "\u2581sir": 5619,
   "\u2581Fern": 5620,
   "\u2581Gar": 5621,
   "ugu": 5622,
   "aya": 5623,
   "\u2581Montevideo": 5624,
   "act": 5625,
   "\u2581escribir": 5626,
   "\u2581Im": 5627,
   "9": 5628,
   "\u2581religiones": 5629,
   "\u2581verb": 5630,
   "\u2581altos": 5631,
   "\u2581origin": 5632,
   "\u2581pr\u00e9stamos": 5633,
   "\u2581constante": 5634,
   "\u2581calcul": 5635,
   "\u2581Cal": 5636,
   "cular": 5637,
   "\u2581masones": 5638,
   "\u2581nazi": 5639,
   "\u2581girl": 5640,
   "\u2581union": 5641,
   "\u2581transf": 5642,
   "oney": 5643,
   "\u2581dieron": 5644,
   "\u2581concedi\u00f3": 5645,
   "\u2581hi": 5646,
   "Spe": 5647,
   "\u2581USB": 5648,
   "\u2581velocidad": 5649,
   "\u2581delta": 5650,
   "iss": 5651,
   "ippi": 5652,
   "\u2581alfabet": 5653,
   "\u2581Cla": 5654,
   "udio": 5655,
   "ient\u00ed": 5656,
   "\u2581Gre": 5657,
   "eno": 5658,
   "\u2581tri": 5659,
   "\u2581superc": 5660,
   "ontinente": 5661,
   "indler": 5662,
   "\u2581vicepres": 5663,
   "\u2581p\u00fablicas": 5664,
   "\u2581tim": 5665,
   "\u2581delhi": 5666,
   "ires": 5667,
   "\u2581monte": 5668,
   "video": 5669,
   "\u2581dominio": 5670,
   "\u2581Vir": 5671,
   "inato": 5672,
   "idge": 5673,
   "\u2581country": 5674,
   "put": 5675,
   "\u2581argument": 5676,
   "\u2581permanente": 5677,
   "edores": 5678,
   "\u2581fabricaci\u00f3n": 5679,
   "\u2581impos": 5680,
   "eles": 5681,
   "\u2581Jon": 5682,
   "\u2581Sav": 5683,
   "\u2581bandas": 5684,
   "po": 5685,
   "\u2581Newton": 5686,
   "lor": 5687,
   "ton": 5688,
   "\u25812005,": 5689,
   "\u2581amo": 5690,
   "\u2581Institut": 5691,
   "\u2581Pol": 5692,
   "it\u00e9": 5693,
   "\u2581certific": 5694,
   "\u2581dipl": 5695,
   "\u2581divisiones": 5696,
   "\u2581my": 5697,
   "anmar": 5698,
   "izados": 5699,
   "anim": 5700,
   "\u2581esclav": 5701,
   "\u2581lin": 5702,
   "coln": 5703,
   "\u2581Mah": 5704,
   "\u2581pol\u00edticas": 5705,
   "\u2581espacial": 5706,
   "\u2581desarrollado": 5707,
   "ctica": 5708,
   "\u2581ejecu": 5709,
   "\u2581Davis": 5710,
   "\u2581tratar": 5711,
   "\u2581compil": 5712,
   "\u25811986?": 5713,
   "\u2581records": 5714,
   "\u2581artista": 5715,
   "\u2581nos": 5716,
   "\u2581Siria": 5717,
   "Co": 5718,
   "\u2581Sicilia": 5719,
   "\u25811944?": 5720,
   "ser": 5721,
   "\u2581mc": 5722,
   "tag": 5723,
   "\u2581habido": 5724,
   "\u2581cay": 5725,
   "eron": 5726,
   "pons": 5727,
   "over": 5728,
   "\u2581relacionados": 5729,
   "\u25812010,": 5730,
   "\u2581regul": 5731,
   "ke": 5732,
   "\u2581stock": 5733,
   "\u2581kre": 5734,
   "\u2581logr\u00f3": 5735,
   "\u2581Namibia": 5736,
   "\u2581Tor": 5737,
   "\u2581ocurre": 5738,
   "\u2581nap": 5739,
   "\u00f3nicas": 5740,
   "\u2581kid": 5741,
   "inn": 5742,
   "\u2581astronom": 5743,
   "\u2581mujer": 5744,
   "\u2581gabin": 5745,
   "\u2581Hum": 5746,
   "rey": 5747,
   "\u2581rebeli\u00f3n": 5748,
   "\u2581cook": 5749,
   "worth": 5750,
   "\u2581ingen": 5751,
   "iero": 5752,
   "\u2581involucrado": 5753,
   "\u2581emperador": 5754,
   "ange": 5755,
   "\u2581Zelanda": 5756,
   "\u2581residencia": 5757,
   "\u2581australiano": 5758,
   "\u2581intern": 5759,
   "\u2581191": 5760,
   "ilia": 5761,
   "lan": 5762,
   "wart": 5763,
   "\u2581vocal": 5764,
   "ically": 5765,
   "\u2581t\u00edpico": 5766,
   "men": 5767,
   "\u2581rept": 5768,
   "\u25811990?": 5769,
   "\u2581bab": 5770,
   "\u2581capit": 5771,
   "\u2581marco": 5772,
   "\u2581consola": 5773,
   "\u2581ps": 5774,
   "\u2581jud\u00eda": 5775,
   "\u2581Jer": 5776,
   "\u2581notre": 5777,
   "\u2581encuent": 5778,
   "\u2581Cav": 5779,
   "ugh": 5780,
   "\u00edtico": 5781,
   "\u2581wo": 5782,
   "leum": 5783,
   "\u2581nar": 5784,
   "ight": 5785,
   "bourne": 5786,
   "wn": 5787,
   "\u2581ethn": 5788,
   "\u2581interest": 5789,
   "\u2581qing": 5790,
   "irse": 5791,
   "\u2581Hokkien": 5792,
   "\u2581escrib": 5793,
   "via": 5794,
   "\u00edos": 5795,
   "\u2581proporcion\u00f3": 5796,
   "teg": 5797,
   "\u2581sant": 5798,
   "amas": 5799,
   "igham": 5800,
   "\u2581primarias": 5801,
   "\u2581Plymouth": 5802,
   "\u2581gram": 5803,
   "\u2581pint": 5804,
   "\u2581Grandes": 5805,
   "\u2581export": 5806,
   "\u2581manufact": 5807,
   "organ": 5808,
   "\u25811": 5809,
   "\u25811997?": 5810,
   "\u2581event": 5811,
   "\u2581Francis": 5812,
   "\u2581diagnost": 5813,
   "\u25811995": 5814,
   "\u2581antibi\u00f3ticos": 5815,
   "\u2581motor": 5816,
   "\u2581membres": 5817,
   "\u2581intr": 5818,
   "ais": 5819,
   "\u2581acces": 5820,
   "\u2581interior": 5821,
   "\u2581dispon": 5822,
   "\u2581inclus": 5823,
   "\u2581sust": 5824,
   "ancial": 5825,
   "\u2581vuelo": 5826,
   "\u2581extra": 5827,
   "jud": 5828,
   "\u2581end": 5829,
   "mica": 5830,
   "\u2581caracter": 5831,
   "\u2581pic": 5832,
   "\u2581p\u00e1jaro": 5833,
   "\u2581fed": 5834,
   "pa": 5835,
   "\u2581Plat": 5836,
   "\u2581mente": 5837,
   "\u2581Arist": 5838,
   "ish": 5839,
   "\u2581play": 5840,
   "off": 5841,
   "cs": 5842,
   "\u2581hem": 5843,
   "lob": 5844,
   "mat": 5845,
   "\u2581oc": 5846,
   "\u2581David": 5847,
   "amer": 5848,
   "\u2581pus": 5849,
   "usto": 5850,
   "\u2581Ar": 5851,
   "\u2581movimientos": 5852,
   "\u25812,": 5853,
   "\u258135": 5854,
   "\u25813,": 5855,
   "\u2581care": 5856,
   "\u2581normal": 5857,
   "\u2581contro": 5858,
   "\u2581sulla": 5859,
   "\u2581r\u00e9cord": 5860,
   "\u2581trofe": 5861,
   "\u2581marc": 5862,
   "\u2581vec": 5863,
   "lamento": 5864,
   "\u2581dere": 5865,
   "\u2581protestant": 5866,
   "erno": 5867,
   "inta": 5868,
   "\u2581alemanes": 5869,
   "\u2581cat\u00f3licos": 5870,
   "\u2581juntos": 5871,
   "\u2581179": 5872,
   "\u2581continental": 5873,
   "reg": 5874,
   "\u2581Bern": 5875,
   "\u258140": 5876,
   ",000": 5877,
   "\u2581ubic": 5878,
   "\u2581proporcionan": 5879,
   "cial": 5880,
   "\u2581enter": 5881,
   "tainment": 5882,
   "engdu": 5883,
   "\u2581cet": 5884,
   "onas": 5885,
   "\u2581esp": 5886,
   "inal": 5887,
   "\u2581reforma": 5888,
   "\u2581grad": 5889,
   "\u2581Public": 5890,
   "\u2581papa": 5891,
   "\u258115": 5892,
   "\u2581Papa": 5893,
   "\u2581sor": 5894,
   "pr": 5895,
   "\u2581mill": 5896,
   "\u2581empir": 5897,
   "\u2581finito": 5898,
   "\u2581Gautama": 5899,
   "\u2581Big": 5900,
   "otes": 5901,
   ",\"": 5902,
   "\u2581Vien": 5903,
   "\u2581ped": 5904,
   "\u2581jobs": 5905,
   ".7": 5906,
   "\u2581fa": 5907,
   "\u2581compar": 5908,
   "\u2581cresta": 5909,
   "\u2581everton": 5910,
   "\u2581fc": 5911,
   "ulf": 5912,
   "well": 5913,
   "\u2581luna": 5914,
   "\u2581arrest": 5915,
   "rie": 5916,
   "\u2581Much": 5917,
   "\u2581considerada": 5918,
   "\u2581lanc": 5919,
   "ashire": 5920,
   "\u2581brig": 5921,
   "\u2581sinti\u00f3": 5922,
   "\u2581finalmente": 5923,
   "\u2581pr\u00edn": 5924,
   "cip": 5925,
   "bung": 5926,
   "\u2581rein": 5927,
   "\u2581karma": 5928,
   "\u2581ph": 5929,
   "\u2581Escocia": 5930,
   "\u2581escolar": 5931,
   "\u2581tungsten": 5932,
   "iled": 5933,
   "\u2581bob": 5934,
   "\u2581oto\u00f1o": 5935,
   "\u2581imped": 5936,
   "guer": 5937,
   "\u2581inst": 5938,
   "\u2581negros": 5939,
   "\u2581congreg": 5940,
   "klah": 5941,
   "omans": 5942,
   "\u2581asum": 5943,
   "\u2581responsabilidad": 5944,
   "\u2581primaria": 5945,
   "\u2581hermana": 5946,
   "\u2581bizantino": 5947,
   "\u2581resultados": 5948,
   "\u2581it": 5949,
   "ismarck": 5950,
   "\u2581fav": 5951,
   "\u2581Bismarck": 5952,
   "\u2581individuos": 5953,
   "\u2581perten": 5954,
   "\u2581Univers": 5955,
   "\u2581Europe": 5956,
   "\u2581Universidad": 5957,
   "esa": 5958,
   "\u25811969?": 5959,
   "\u2581musulman": 5960,
   "\u00e1p": 5961,
   "\u2581intercamb": 5962,
   "p\u00fasculo": 5963,
   "\u2581sol\u00eda": 5964,
   "\u2581Florida": 5965,
   "cuencia": 5966,
   "\u2581agosto": 5967,
   "\u25811965": 5968,
   "\u2581dol": 5969,
   "\u2581entrenador": 5970,
   "\u2581cabeza": 5971,
   "ure": 5972,
   "\u2581v\u00ed": 5973,
   "\u2581profesional": 5974,
   "of": 5975,
   "ensiva": 5976,
   "ous": 5977,
   "\u2581comun": 5978,
   "\u2581evalu": 5979,
   "\u2581hidr\u00f3geno": 5980,
   "\u2581part": 5981,
   "\u00edcul": 5982,
   "\u2581electron": 5983,
   "\u2581combina": 5984,
   "\u2581paris": 5985,
   "\u2581tv": 5986,
   "\u2581somal": 5987,
   "iland": 5988,
   "IN": 5989,
   "mbol": 5990,
   "\u2581Ley": 5991,
   "\u2581aerop": 5992,
   "uert": 5993,
   "\u25811940": 5994,
   "\u2581protot": 5995,
   "ipo": 5996,
   "X": 5997,
   "\u2581It": 5998,
   "unes": 5999,
   "\u2581usuarios": 6000,
   "\u2581videoj": 6001,
   "uegos": 6002,
   "urre": 6003,
   "\u2581admir": 6004,
   "\u2581inaugural": 6005,
   "\u2581Patrick": 6006,
   "\u25812004?": 6007,
   "\u258150": 6008,
   "\u2581d\u00f3lares": 6009,
   "fact": 6010,
   "\u2581106": 6011,
   "\u2581Congreso": 6012,
   "\u2581lodge": 6013,
   "\u2581United": 6014,
   "\u2581Grand": 6015,
   "\u2581Lodge": 6016,
   "\u2581pesticidas": 6017,
   "aw": 6018,
   "me": 6019,
   "\u2581an\u00e9l": 6020,
   "\u2581incluye": 6021,
   "\u2581sangu": 6022,
   "\u2581lomb": 6023,
   "\u2581fam": 6024,
   "ists": 6025,
   "\u2581period": 6026,
   "ator": 6027,
   "\u2581Bol": 6028,
   "ivia": 6029,
   "\u2581ind\u00edgen": 6030,
   "\u2581Dr": 6031,
   "\u2581Fe": 6032,
   "\u2581Vis": 6033,
   "\u2581detiene": 6034,
   "\u2581Roland": 6035,
   "\u2581Le": 6036,
   "ky": 6037,
   "coles": 6038,
   "\u2581empie": 6039,
   "\u25811900": 6040,
   "aft": 6041,
   "\u2581vale": 6042,
   "\u2581caz": 6043,
   "\u2581medida": 6044,
   "\u2581siglos": 6045,
   "\u2581james": 6046,
   "\u2581ni": 6047,
   "\u2581altas": 6048,
   "\u2581VIH": 6049,
   "ught": 6050,
   "ctor": 6051,
   "crib": 6052,
   "\u25812006": 6053,
   "8,": 6054,
   "\u2581mueve": 6055,
   "\u2581sky": 6056,
   "T": 6057,
   "\u2581sonora": 6058,
   "\u2581anci": 6059,
   "\u2581deleg": 6060,
   "\u2581polite": 6061,
   "\u2581dioses": 6062,
   "\u2581fundament": 6063,
   "\u2581rechaz\u00f3": 6064,
   "\u2581anterior": 6065,
   "\u2581consist": 6066,
   "\u2581divin": 6067,
   "\u2581terror": 6068,
   "\u2581p\u00e1g": 6069,
   "\u2581Bush": 6070,
   "'?": 6071,
   "\u2581logia": 6072,
   "\u2581pract": 6073,
   "\u2581madaris": 6074,
   "iden": 6075,
   "\u2581rapide": 6076,
   "unde": 6077,
   "\u2581chim": 6078,
   "ene": 6079,
   "\u2581diego": 6080,
   "\u2581swazilandia": 6081,
   "\u2581monar": 6082,
   "qu\u00eda": 6083,
   "\u2581entidad": 6084,
   "\u2581Mo": 6085,
   "\u2581escritor": 6086,
   "\u2581schle": 6087,
   "\u2581Napole\u00f3n": 6088,
   "\u2581Material": 6089,
   "\u2581sed": 6090,
   "\u2581distribu": 6091,
   "\u2581182": 6092,
   "\u2581emiti\u00f3": 6093,
   "\u2581carnaval": 6094,
   "icol": 6095,
   "\u2581fuego": 6096,
   "\u2581parlamento": 6097,
   "\u2581favor": 6098,
   "\u2581monopol": 6099,
   "\u2581fer": 6100,
   "\u2581divert": 6101,
   "\u2581tir": 6102,
   "\u2581core": 6103,
   "\u2581jugar": 6104,
   "\u2581top": 6105,
   "\u2581filos": 6106,
   "\u2581800": 6107,
   "\u2581comparte": 6108,
   "ich": 6109,
   "\u2581PC": 6110,
   "inc": 6111,
   "\u2581such": 6112,
   "\u2581Jos\u00e9": 6113,
   "\u2581enlace": 6114,
   "\u2581ocupaci\u00f3n": 6115,
   "\u2581air": 6116,
   "lines": 6117,
   "\u00edne": 6118,
   "tra": 6119,
   "\u2581ol\u00edmp": 6120,
   "\u2581tayik": 6121,
   "iri": 6122,
   "\u2581copia": 6123,
   "phan": 6124,
   "\u2581seleccion": 6125,
   "In": 6126,
   "depend": 6127,
   "leston": 6128,
   "\u2581rag": 6129,
   "\u2581poeta": 6130,
   "\u2581vers": 6131,
   "iclop": 6132,
   "\u2581pacientes": 6133,
   "iertos": 6134,
   "28": 6135,
   "\u2581repr": 6136,
   "\u00f6": 6137,
   "\u2581ofreci\u00f3": 6138,
   "\u2581cort": 6139,
   "omet": 6140,
   "\u2581Am": 6141,
   "\u2581ricos": 6142,
   "\u2581moral": 6143,
   "\u2581cultur": 6144,
   "\u2581\u00faltima": 6145,
   "ubil": 6146,
   "\u2581nominada": 6147,
   "mand": 6148,
   "\u2581Ten": 6149,
   "jas": 6150,
   "\u25812012,": 6151,
   "\u2581liberal": 6152,
   "\u2581incorpor": 6153,
   "\u2581Z": 6154,
   "\u2581raj": 6155,
   "asth": 6156,
   "\u2581rajasthan": 6157,
   "core": 6158,
   "quil": 6159,
   "omos": 6160,
   "\u00edgen": 6161,
   "\u2581prop\u00f3s": 6162,
   "antar": 6163,
   "\u2581mant": 6164,
   "\u2581calcio": 6165,
   "\u2581sod": 6166,
   "sch": 6167,
   "ool": 6168,
   "\u2581prat": 6169,
   "sa": 6170,
   "esto": 6171,
   "iados": 6172,
   "\u2581Cap": 6173,
   "\u2581Dem": 6174,
   "\u2581Mil": 6175,
   "\u2581ster": 6176,
   "\u2581pr\u00e9st": 6177,
   "\u25811917": 6178,
   "\u2581juda": 6179,
   "\u2581emigr": 6180,
   "\u2581Pen": 6181,
   "\u2581Ib": 6182,
   "atha": 6183,
   "\u2581describ": 6184,
   "\u2581spre": 6185,
   "ctrum": 6186,
   "\u2581clasific": 6187,
   "\u2581antib": 6188,
   "inado": 6189,
   "onian": 6190,
   "\u2581IV": 6191,
   "\u2581sirven": 6192,
   "aton": 6193,
   "\u2581windows": 6194,
   "\u2581ESP": 6195,
   "IA": 6196,
   "\u2581Elizabeth": 6197,
   "\u2581phil": 6198,
   "\u2581market": 6199,
   "atch": 6200,
   "arta": 6201,
   "\u2581p\u00e1": 6202,
   "\u2581activo": 6203,
   "umente": 6204,
   "\u2581birmania": 6205,
   "\u2581greco": 6206,
   "\u2581dialect": 6207,
   "kt": 6208,
   "\u2581samurai": 6209,
   "ablo": 6210,
   "\u2581Biblia": 6211,
   "\u2581tod": 6212,
   "\u2581sonido": 6213,
   "\u2581carreras": 6214,
   "idu": 6215,
   "\u2581acuerdos": 6216,
   "ater": 6217,
   "\u2581minim": 6218,
   "\u2581empr": 6219,
   "\u258129": 6220,
   "14": 6221,
   "\u2581festiv": 6222,
   "iot": 6223,
   "\u2581espec\u00ed": 6224,
   "\u2581Real": 6225,
   "\u2581pin": 6226,
   "\u2581instalaci\u00f3n": 6227,
   "\u2581West": 6228,
   "8": 6229,
   "\u2581ton": 6230,
   "eladas": 6231,
   "\u2581bombas": 6232,
   "\u2581ast": 6233,
   "lab": 6234,
   "\u2581musulm": 6235,
   "\u2581integr": 6236,
   "\u2581inte": 6237,
   "\u2581ampliamente": 6238,
   "ondu": 6239,
   "con\u00f3m": 6240,
   "unge": 6241,
   "\u2581pist": 6242,
   "ined": 6243,
   "\u2581cab": 6244,
   "\u2581predomin": 6245,
   ".9": 6246,
   "lah": 6247,
   "elig": 6248,
   "fra": 6249,
   "aturas": 6250,
   "\u2581m\u00e1": 6251,
   "arth": 6252,
   "\u25811993": 6253,
   "\u2581atr": 6254,
   "\u2581Gladstone": 6255,
   "\u2581sex": 6256,
   "\u2581Chipre": 6257,
   "\u2581chip": 6258,
   "\u2581gob": 6259,
   "\u2581latina": 6260,
   "\u2581universitaria": 6261,
   "\u2581existen": 6262,
   "ock": 6263,
   "oe": 6264,
   "r\u00e1ne": 6265,
   "\u2581pale": 6266,
   "rados": 6267,
   "\u2581seguir": 6268,
   "elt": 6269,
   "\u2581Pat": 6270,
   "\u2581seis": 6271,
   "\u2581muer": 6272,
   "gel": 6273,
   "\u2581staff": 6274,
   "\u2581sost": 6275,
   "\u2581az": 6276,
   "teca": 6277,
   "\u2581bas": 6278,
   "ury": 6279,
   "adha": 6280,
   "\u2581derrota": 6281,
   "upta": 6282,
   "edades": 6283,
   "\u2581pcb": 6284,
   "\u2581musicales": 6285,
   "\u2581Com": 6286,
   "itores": 6287,
   "\u2581independ": 6288,
   "\u2581dev": 6289,
   "Est": 6290,
   "\u2581Frank": 6291,
   "\u2581Ibn": 6292,
   "Haytham": 6293,
   "\u2581geomet": 6294,
   "Far": 6295,
   "\u2581Pe": 6296,
   "\u2581convirt": 6297,
   "\u2581amenaz": 6298,
   "\u2581ignor": 6299,
   ".-": 6300,
   "\u2581Fr": 6301,
   "arto": 6302,
   "\u2581cuarto": 6303,
   "\u2581Don": 6304,
   "culos": 6305,
   "\u2581von": 6306,
   "\u2581Neumann": 6307,
   "ick": 6308,
   "\u2581conta": 6309,
   "\u2581Warner": 6310,
   "adem": 6311,
   "ertos": 6312,
   "\u2581XXI": 6313,
   "\u25812001?": 6314,
   "\u2581Berl\u00edn": 6315,
   "\u2581Parlamento": 6316,
   "\u2581cient\u00ed": 6317,
   "ficas": 6318,
   "\u25811848?": 6319,
   "\u2581somet": 6320,
   "\u2581divide": 6321,
   "\u2581florida": 6322,
   "\u2581temperaturas": 6323,
   "\u2581ascii": 6324,
   "\u2581correspond": 6325,
   "\u2581oppon": 6326,
   "ants": 6327,
   "alidad": 6328,
   "\u2581implica": 6329,
   "\u2581Bron": 6330,
   "\u2581inj": 6331,
   "\u2581Sar": 6332,
   "\u258114": 6333,
   "\u2581incl": 6334,
   "\u2581dominante": 6335,
   "xim": 6336,
   "\u2581investig": 6337,
   "\u2581g\u00e9n": 6338,
   "enciales": 6339,
   "jamin": 6340,
   "ank": 6341,
   "lin": 6342,
   "ances": 6343,
   "ely": 6344,
   "\u2581producido": 6345,
   "\u2581decisi\u00f3n": 6346,
   "\u2581planck": 6347,
   "\u2581op": 6348,
   "\u2581rede": 6349,
   "fin": 6350,
   "\u25811840": 6351,
   "\u00f6p": 6352,
   "eria": 6353,
   "\u2581fibra": 6354,
   "\u2581centr": 6355,
   "\u2581geogr\u00e1fica": 6356,
   "oster": 6357,
   "\u2581luce": 6358,
   "\u2581sentido": 6359,
   "Amer": 6360,
   "\u2581Ver": 6361,
   "ustr": 6362,
   "arks": 6363,
   "ville": 6364,
   "\u2581Nash": 6365,
   "\u258157": 6366,
   "\u2581Premi": 6367,
   "\u2581pasaj": 6368,
   "\u2581interf": 6369,
   "\u2581conexi\u00f3n": 6370,
   "\u2581pasar": 6371,
   "\u2581sequ": 6372,
   "afuti": 6373,
   "\u2581habitu": 6374,
   "\u2581lluv": 6375,
   "\u2581war": 6376,
   "\u2581fum": 6377,
   "\u2581p\u00fablic": 6378,
   "\u2581ganador": 6379,
   "phe": 6380,
   "\u2581enfer": 6381,
   "\u2581americanos": 6382,
   "\u2581hall": 6383,
   "\u2581deport": 6384,
   "\u2581Luis": 6385,
   "\u2581XVI": 6386,
   "\u2581Bonaparte": 6387,
   "\u2581celebr": 6388,
   "c\u00e9s": 6389,
   "ards": 6390,
   "23": 6391,
   "\u2581Spr": 6392,
   "TA": 6393,
   "Star": 6394,
   "\u2581mosaicos": 6395,
   "ets": 6396,
   "life": 6397,
   "\u2581stadium": 6398,
   "\u2581derrotado": 6399,
   "\u00e7": 6400,
   "ann": 6401,
   "ibal": 6402,
   "\u258111?": 6403,
   "\u2581favore": 6404,
   "cieron": 6405,
   "\u2581lit": 6406,
   "\u00edsmo": 6407,
   "odes": 6408,
   "\u2581lengua": 6409,
   "\u2581\u00edd": 6410,
   "\u2581m\u00e1quina": 6411,
   "\u2581way": 6412,
   "back": 6413,
   "arca": 6414,
   "\u2581indio": 6415,
   "iterr\u00e1ne": 6416,
   "\u2581nav": 6417,
   "\u2581Hann": 6418,
   "\u2581unirse": 6419,
   "arn": 6420,
   "\u2581Pres": 6421,
   "\u2581Ern": 6422,
   "\u2581Wil": 6423,
   "kins": 6424,
   "\u2581Esta": 6425,
   "\u2581Paul": 6426,
   "\u2581recom": 6427,
   "hid": 6428,
   "\u2581nativos": 6429,
   "\u2581construyeron": 6430,
   "\u2581constru": 6431,
   "zer": 6432,
   "\u25811983?": 6433,
   "\u2581how": 6434,
   "\u2581Ke": 6435,
   "\u2581documentos": 6436,
   "\u2581green": 6437,
   "ace": 6438,
   "\u2581fen": 6439,
   "\u25811981": 6440,
   "anj": 6441,
   "lava": 6442,
   "\u2581rul": 6443,
   "led": 6444,
   "tod": 6445,
   "\u2581\u00e1n": 6446,
   "\u2581Muhammad": 6447,
   "\u2581Us": 6448,
   "orden": 6449,
   "\u2581longitud": 6450,
   "\u2581conferencia": 6451,
   "amb": 6452,
   "hal": 6453,
   "\u2581house": 6454,
   "\u2581perdieron": 6455,
   "\u2581Fighter": 6456,
   "omm": 6457,
   "iah": 6458,
   "\u2581White": 6459,
   "\u2581III": 6460,
   "\u2581levant": 6461,
   "\u2581maestro": 6462,
   "\u2581Dante": 6463,
   "ispo": 6464,
   "\u2581luter": 6465,
   "\u2581ministr": 6466,
   "asto": 6467,
   "\u2581pert": 6468,
   "\u2581domic": 6469,
   "igner": 6470,
   "\u2581Nobel": 6471,
   "\u2581veh": 6472,
   "\u00edculos": 6473,
   "\u2581Lincoln": 6474,
   "\u2581borough": 6475,
   "fia": 6476,
   "ghan": 6477,
   "kov": 6478,
   "\u2581um": 6479,
   "\u2581Grant": 6480,
   "ilius": 6481,
   "\u2581creencias": 6482,
   "\u2581porque": 6483,
   "esclav": 6484,
   "\u2581horizont": 6485,
   "0": 6486,
   "\u2581ferrocar": 6487,
   "\u2581enj": 6488,
   "ambre": 6489,
   "uster": 6490,
   "\u2581Pu": 6491,
   "iertas": 6492,
   "\u2581Inter": 6493,
   "pol": 6494,
   "\u2581Plan": 6495,
   "\u2581altern": 6496,
   "\u2581entrar": 6497,
   "\u2581precedente": 6498,
   "\u2581dada": 6499,
   "adora": 6500,
   "\u2581Christ": 6501,
   "\u2581Ha": 6502,
   "\u2581inversi\u00f3n": 6503,
   "\u2581vendido": 6504,
   "ecu": 6505,
   "\u2581Morgan": 6506,
   "\u2581llamar": 6507,
   "ulares": 6508,
   "\u258145": 6509,
   "\u2581Taylor": 6510,
   "icks": 6511,
   "\u2581acr\u00f3nimo": 6512,
   "bero": 6513,
   "\u2581ojos": 6514,
   "\u2581baj": 6515,
   "iene": 6516,
   "\u2581suspend": 6517,
   "incap": 6518,
   "i\u00e9": 6519,
   "\u2581Filadelfia": 6520,
   "\u2581republic": 6521,
   "\u2581defend": 6522,
   "\u2581anatom": 6523,
   "eschi": 6524,
   "ombra": 6525,
   "\u2581armenia": 6526,
   "org": 6527,
   "\u2581Thomson": 6528,
   "lique": 6529,
   "\u2581area": 6530,
   "\u2581General": 6531,
   "\u2581farm": 6532,
   "ington": 6533,
   "\u2581R\u00edo": 6534,
   "\u2581Hudson": 6535,
   "\u2581leer": 6536,
   "\u2581rob": 6537,
   "18": 6538,
   "mm": 6539,
   "\u2581fem": 6540,
   "\u2581sale": 6541,
   "\u2581positiva": 6542,
   "\u2581acres": 6543,
   "edro": 6544,
   "\u25812003?": 6545,
   "\u2581patern": 6546,
   "iendas": 6547,
   "\u2581constitu": 6548,
   "icales": 6549,
   "\u25811971?": 6550,
   "lavo": 6551,
   "rir": 6552,
   "\u2581Vietnam": 6553,
   "\u2581transici\u00f3n": 6554,
   "oul": 6555,
   "\u2581congo": 6556,
   "\u25811963?": 6557,
   "cat": 6558,
   "\u2581jem": 6559,
   "\u2581puertos": 6560,
   "\u2581Aut": 6561,
   "ursos": 6562,
   "\u2581ofrecen": 6563,
   "\u2581Australia": 6564,
   "\u2581Industr": 6565,
   "\u2581got": 6566,
   "\u2581Be": 6567,
   "\u2581snes": 6568,
   "\u2581star": 6569,
   "\u2581mobile": 6570,
   "\u2581m\u00e9dicos": 6571,
   "ac\u00e9": 6572,
   "\u2581hockey": 6573,
   "\u2581noct": 6574,
   "urn": 6575,
   "\u2581reserv": 6576,
   "idd": 6577,
   "\u2581decid": 6578,
   "autama": 6579,
   "\u2581federalismo": 6580,
   "\u2581manuscrit": 6581,
   "\u25819?": 6582,
   "\u2581entender": 6583,
   "uros": 6584,
   "onic": 6585,
   "\u2581Anglo": 6586,
   "rada": 6587,
   "\u2581invalid": 6588,
   "\u2581indire": 6589,
   "\u2581Bas": 6590,
   "\u2581derrot\u00f3": 6591,
   "\u2581categor\u00eda": 6592,
   "\u2581roja": 6593,
   "allo": 6594,
   "\u2581proven": 6595,
   "\u2581consolid": 6596,
   "\u2581depende": 6597,
   "quis": 6598,
   "\u2581here": 6599,
   "\u2581hospit": 6600,
   "orn": 6601,
   "\u2581ment": 6602,
   "\u2581promulg": 6603,
   "\u2581est\u00e1ndares": 6604,
   "\u2581Hawking": 6605,
   "\u2581ml": 6606,
   "\u2581360": 6607,
   "rosoft": 6608,
   "idi": 6609,
   "\u2581patr": 6610,
   "\u2581patr\u00f3n": 6611,
   "\u2581tabla": 6612,
   "\u2581chart": 6613,
   "\u2581capac": 6614,
   "acionales": 6615,
   "\u2581Dire": 6616,
   "\u2581nouvelles": 6617,
   "\u2581villes": 6618,
   "ouv": 6619,
   "rier": 6620,
   "\u2581const": 6621,
   "\u2581tercer": 6622,
   "\u2581senador": 6623,
   "\u2581box": 6624,
   "\u2581Ox": 6625,
   "an\u00eda": 6626,
   "\u2581aliados": 6627,
   "\u2581gra": 6628,
   "edir": 6629,
   "ved": 6630,
   "\u2581Sp": 6631,
   "ils": 6632,
   "\u2581continent": 6633,
   "\u2581metros": 6634,
   "\u2581sovi\u00e9tico": 6635,
   "lem\u00e1n": 6636,
   "\u00e1l": 6637,
   "\u2581consig": 6638,
   "\u2581amar": 6639,
   "\u2581mi": 6640,
   "\u2581reyes": 6641,
   "\u2581privileg": 6642,
   "\u2581judios": 6643,
   "oco": 6644,
   "\u2581ruso": 6645,
   "\u2581holandesa": 6646,
   "\u2581examin": 6647,
   "\u2581Ciudad": 6648,
   "\u2581mark": 6649,
   "ermo": 6650,
   "l\u00e1ntico": 6651,
   "\u2581revisi\u00f3n": 6652,
   "\u25811955?": 6653,
   "neo": 6654,
   "\u25819": 6655,
   "\u2581m\u00e9": 6656,
   "-1?": 6657,
   "\u258132": 6658,
   "box": 6659,
   "king": 6660,
   "\u2581poste": 6661,
   "80": 6662,
   "\u2581flota": 6663,
   "\u2581porta": 6664,
   "\u2581enviado": 6665,
   "\u2581elecci\u00f3n": 6666,
   "\u25811952": 6667,
   "\u2581impro": 6668,
   "av\u00eda": 6669,
   "\u2581tot": 6670,
   "ecutivo": 6671,
   "ogo": 6672,
   "\u2581ellos": 6673,
   "\u2581especialmente": 6674,
   "\u2581emis": 6675,
   "\u2581tama": 6676,
   "\u2581cere": 6677,
   "\u2581mul": 6678,
   "\u2581cole": 6679,
   "\u2581centrales": 6680,
   "\u2581bond": 6681,
   "\u2581factores": 6682,
   "2:": 6683,
   "200": 6684,
   "\u2581inmun": 6685,
   "\u2581anim": 6686,
   "uy": 6687,
   "\u2581aparece": 6688,
   "oman": 6689,
   "\u2581escritos": 6690,
   "\u2581line": 6691,
   "\u2581neut": 6692,
   "\u2581Of": 6693,
   "\u2581capt": 6694,
   "\u2581portugues": 6695,
   "\u2581\u00ednd": 6696,
   "\u2581sensibles": 6697,
   "\u2581esa": 6698,
   "isme": 6699,
   "\u2581dirige": 6700,
   "ager": 6701,
   "\u2581contrib": 6702,
   "uciones": 6703,
   "\u2581afroamer": 6704,
   "icanos": 6705,
   "\u2581inscrit": 6706,
   "\u2581Gateway": 6707,
   "\u2581Nation": 6708,
   "\u2581administra": 6709,
   "lis": 6710,
   "\u25811991?": 6711,
   "ements": 6712,
   "\u2581nombr\u00f3": 6713,
   "ST": 6714,
   "\u2581tomado": 6715,
   "\u2581medalla": 6716,
   "\u2581berm": 6717,
   "\u2581ol\u00edmpica": 6718,
   "\u2581person": 6719,
   "\u2581virus": 6720,
   "\u2581Bened": 6721,
   "\u2581XIV": 6722,
   "\u2581sons": 6723,
   "\u2581comcast": 6724,
   "ty": 6725,
   "\u2581promo": 6726,
   "\u2581Jim": 6727,
   "\u00fablica": 6728,
   "\u2581bata": 6729,
   "\u2581Reino": 6730,
   "\u2581Hol": 6731,
   "ki": 6732,
   "\u2581hill": 6733,
   "house": 6734,
   "\u2581herm": 6735,
   "\u2581embar": 6736,
   "\u2581mam\u00edfer": 6737,
   "\u2581pertenece": 6738,
   "own": 6739,
   "\u2581mongol": 6740,
   "\u2581visitantes": 6741,
   "eso": 6742,
   "\u2581Notre": 6743,
   "\u2581fight": 6744,
   "\u2581360?": 6745,
   "\u2581Drag": 6746,
   "\u2581intent": 6747,
   "bre": 6748,
   "\u2581Virgilio": 6749,
   "\u2581Joseph": 6750,
   "\u2581Stalin": 6751,
   "\u2581planes": 6752,
   "\u2581condensador": 6753,
   "\u2581conduct": 6754,
   "\u2581el\u00e9ctr": 6755,
   "\u2581fisc": 6756,
   "201": 6757,
   "\u2581\u00e1rboles": 6758,
   "ienda": 6759,
   "\u2581ritmo": 6760,
   "wich": 6761,
   "\u2581exped": 6762,
   "\u2581sincr": 6763,
   "\u2581ret": 6764,
   "\u2581Hugh": 6765,
   "\u2581come": 6766,
   "\u2581difer": 6767,
   "encian": 6768,
   "pro": 6769,
   "duc": 6770,
   "ulty": 6771,
   "graf": 6772,
   "\u2581But": 6773,
   "\u2581pubs": 6774,
   "astrop": 6775,
   "\u2581sumer": 6776,
   "\u2581discip": 6777,
   "\u2581multip": 6778,
   "ualmente": 6779,
   "\u2581previamente": 6780,
   "\u2581mort": 6781,
   "\u2581100,000": 6782,
   "\u2581nac": 6783,
   "umer": 6784,
   "mental": 6785,
   "\u2581Pepsi": 6786,
   "\u25811997": 6787,
   "\u2581anualmente": 6788,
   "rence": 6789,
   "\u2581Civil": 6790,
   "\u2581Katmand\u00fa": 6791,
   "\u2581Oak": 6792,
   "\u2581Street": 6793,
   "\u2581connect": 6794,
   "\u2581rail": 6795,
   "trak": 6796,
   "\u2581hist\u00f3r": 6797,
   "\u2581Brooklyn": 6798,
   "\u2581island": 6799,
   "\u2581piezas": 6800,
   "utz": 6801,
   "\u2581Lag": 6802,
   "\u2581sepol": 6803,
   "cro": 6804,
   "otokos": 6805,
   "\u2581mosaico": 6806,
   "\u2581familiar": 6807,
   "zy": 6808,
   "\u0142": 6809,
   "\u2581jack": 6810,
   "\u2581particularmente": 6811,
   "\u2581susceptibles": 6812,
   "\u2581infe": 6813,
   "\u2581XVIII": 6814,
   "\u2581sever": 6815,
   "\u2581tradicionales": 6816,
   "\u2581facil": 6817,
   "\u2581round": 6818,
   "\u2581rid": 6819,
   "\u2581carreteras": 6820,
   "\u25811982?": 6821,
   "unn": 6822,
   "ingham": 6823,
   "\u2581Jane": 6824,
   "\u2581And": 6825,
   "\u25812001,": 6826,
   "\u2581favorito": 6827,
   "\u2581chefs": 6828,
   "\u2581proviene": 6829,
   "\u2581profundo": 6830,
   "\u2581conquista": 6831,
   "\u2581giov": 6832,
   "\u2581ball": 6833,
   "\u2581pod": 6834,
   "\u2581publica": 6835,
   "\u2581contempor\u00e1ne": 6836,
   "\u2581flor": 6837,
   "\u25811973?": 6838,
   "\u2581Wo": 6839,
   "\u2581digest": 6840,
   "\u2581Ford": 6841,
   "\u2581ace": 6842,
   "\u2581did": 6843,
   "\u2581300": 6844,
   "\u2581nativ": 6845,
   "fsr": 6846,
   "\u2581urs": 6847,
   "\u2581astron": 6848,
   "\u2581meteor": 6849,
   "\u2581Uno": 6850,
   "uck": 6851,
   "yc": 6852,
   "\u2581foto": 6853,
   "\u2581jug": 6854,
   "\u2581cla": 6855,
   "esen": 6856,
   "\u2581Torre": 6857,
   "\u2581cara": 6858,
   "\u2581profesionales": 6859,
   "\u2581siete": 6860,
   "\u2581conden": 6861,
   "\u25818?": 6862,
   "\u2581edit": 6863,
   "geno": 6864,
   "\u258154": 6865,
   "anv": 6866,
   "\u2581Francisco": 6867,
   "rio": 6868,
   "\u2581Pass": 6869,
   "\u2581Res": 6870,
   "\u0101": 6871,
   "\u2581contenido": 6872,
   "\u2581aspecto": 6873,
   "\u2581fan": 6874,
   "adamente": 6875,
   "\u2581persa": 6876,
   "\u2581m\u00e9dica": 6877,
   "\u2581urban": 6878,
   "\u2581interpret\u00f3": 6879,
   "arre": 6880,
   "\u2581heart": 6881,
   "\u2581ever": 6882,
   "Se": 6883,
   "attle": 6884,
   "\u2581equival": 6885,
   "\u2581literal": 6886,
   "ministra": 6887,
   "\u25813.0": 6888,
   ".5": 6889,
   "ecut": 6890,
   "\u2581intercambio": 6891,
   "lant": 6892,
   "\u2581arch": 6893,
   "\u2581comprende": 6894,
   "lace": 6895,
   "ork": 6896,
   "\u2581exc": 6897,
   "\u2581carolina": 6898,
   "\u25812011,": 6899,
   "\u2581hablantes": 6900,
   "\u2581Shanghai": 6901,
   "ulg": 6902,
   "\u2581manus": 6903,
   "\u2581Zar": 6904,
   "mund": 6905,
   "ejiang": 6906,
   "\u2581ta": 6907,
   "\u2581wen": 6908,
   "\u2581matr": 6909,
   "\u2581comportamiento": 6910,
   "\u2581respond": 6911,
   "\u2581Canal": 6912,
   "\u2581ele": 6913,
   "\u258160": 6914,
   "\u2581matrimonio": 6915,
   "\u00f3d": 6916,
   "untos": 6917,
   "\u2581advan": 6918,
   "\u2581aj": 6919,
   "Ir": 6920,
   "\u2581mini": 6921,
   "\u2581cup": 6922,
   "\u2581tempr": 6923,
   "aces": 6924,
   "\u2581Tesla": 6925,
   "\u2581rotor": 6926,
   "\u2581over": 6927,
   "\u2581sigu": 6928,
   "\u2581law": 6929,
   "\u2581cot": 6930,
   "\u2581antena": 6931,
   "ore": 6932,
   "\u2581univers": 6933,
   "\u2581vivir": 6934,
   "\u2581raleigh": 6935,
   "\u2581black": 6936,
   "IV": 6937,
   "\u2581Guinness": 6938,
   "\u2581Aven": 6939,
   "\u2581referirse": 6940,
   "\u2581explo": 6941,
   "\u2581obt": 6942,
   "\u2581zinc": 6943,
   "ments": 6944,
   "aste": 6945,
   "ols": 6946,
   "\u2581problem": 6947,
   "\u2581afirma": 6948,
   "\u2581llamaban": 6949,
   "\u2581pertenecen": 6950,
   "\u2581cristiana": 6951,
   "\u2581cromos": 6952,
   "\u2581contienen": 6953,
   "\u2581boom": 6954,
   "\u2581ah": 6955,
   "hib": 6956,
   "bao": 6957,
   "\u2581hab\u00edan": 6958,
   "\u2581predic": 6959,
   "\u2581bib": 6960,
   "lia": 6961,
   "\u2581Stadium": 6962,
   "-201": 6963,
   "\u2581rech": 6964,
   "azar": 6965,
   "\u2581177": 6966,
   "\u2581restric": 6967,
   "\u2581firma": 6968,
   "\u25811930?": 6969,
   "\u2581emer": 6970,
   "exual": 6971,
   "cep": 6972,
   "\u2581Mark": 6973,
   "\u2581II": 6974,
   "iac": 6975,
   "ys": 6976,
   "\u2581bit": 6977,
   "aware": 6978,
   "\u2581derr": 6979,
   "\u2581Julian": 6980,
   "\u2581Minn": 6981,
   "\u2581pueblos": 6982,
   "\u2581May": 6983,
   "\u2581tol": 6984,
   "orma": 6985,
   "\u2581cuya": 6986,
   "\u2581185": 6987,
   "ourd": 6988,
   "\u2581Dame": 6989,
   "ibniz": 6990,
   "\u2581visible": 6991,
   "\u2581Cle": 6992,
   "opatra": 6993,
   "\u2581ars": 6994,
   "eren": 6995,
   "\u2581sig": 6996,
   "\u2581responsabil": 6997,
   "\u2581virt": 6998,
   "2": 6999,
   "\u2581ayudan": 7000,
   "J": 7001,
   "uch": 7002,
   "\u2581conclus": 7003,
   "\u2581ly": 7004,
   "\u2581superv": 7005,
   "\u2581perspect": 7006,
   "\u2581scar": 7007,
   "antino": 7008,
   "4,": 7009,
   "irma": 7010,
   "cientes": 7011,
   "ierre": 7012,
   "\u2581alcohol": 7013,
   "\u2581beer": 7014,
   "\u2581mantiene": 7015,
   "uku": 7016,
   "jiang": 7017,
   "uria": 7018,
   "anka": 7019,
   "\u2581ere": 7020,
   "\u25810": 7021,
   "\u2581c\u00e1mara": 7022,
   "yl": 7023,
   "aga": 7024,
   "ateur": 7025,
   "\u2581ave": 7026,
   "\u2581Santa": 7027,
   "\u2581asentimiento": 7028,
   "\u2581responsables": 7029,
   "cula": 7030,
   "E": 7031,
   "erkeley": 7032,
   "urent": 7033,
   "lt": 7034,
   "\u2581femenina": 7035,
   "\u2581edificios": 7036,
   "\u2581dukkha": 7037,
   "gor": 7038,
   "lai": 7039,
   "\u2581166": 7040,
   "\u2581llegaron": 7041,
   "\u2581homosexual": 7042,
   "\u2581categor\u00edas": 7043,
   "\u2581varias": 7044,
   "\u2581reales": 7045,
   "Oper": 7046,
   "\u2581incidente": 7047,
   "cir": 7048,
   "AR": 7049,
   "TE": 7050,
   "\u2581tele": 7051,
   "\u2581aux": 7052,
   "umm": 7053,
   "\u2581relacionado": 7054,
   "\u2581diet": 7055,
   "\u2581alternativa": 7056,
   "\u2581ber": 7057,
   "eri": 7058,
   "\u2581say": 7059,
   "\u2581normas": 7060,
   "\u2581Gh": 7061,
   "orta": 7062,
   "\u2581Cro": 7063,
   "acia": 7064,
   "\u2581Herm": 7065,
   "\u2581transfer": 7066,
   "aku": 7067,
   "\u2581Everton": 7068,
   "prime": 7069,
   "anto": 7070,
   "\u2581anf": 7071,
   "icom": 7072,
   "\u2581manif": 7073,
   "\u2581cy": 7074,
   "\u2581antropolog\u00eda": 7075,
   "une": 7076,
   "\u2581Hor": 7077,
   "\u2581ol": 7078,
   "\u2581free": 7079,
   "\u2581officer": 7080,
   "\u2581eligi\u00f3": 7081,
   "amor": 7082,
   "\u2581destac": 7083,
   "\u2581hind\u00fa": 7084,
   "\u2581ah\u00ed": 7085,
   "\u2581cav": 7086,
   "\u2581interna": 7087,
   "ml": 7088,
   "\u2581form": 7089,
   "\u2581cose": 7090,
   "\u2581carb": 7091,
   "onato": 7092,
   "\u2581sul": 7093,
   "\u2581italianos": 7094,
   "American": 7095,
   "\u2581Cons": 7096,
   "americano": 7097,
   "\u2581profes": 7098,
   "\u25811978": 7099,
   "\u2581data": 7100,
   "anning": 7101,
   "\u2581Graham": 7102,
   "\u2581Sum": 7103,
   "ner": 7104,
   "\u2581ra\u00edces": 7105,
   "ah": 7106,
   "\u2581valenci": 7107,
   "\u2581Catal": 7108,
   "ilo": 7109,
   "\u2581Ob": 7110,
   "icio": 7111,
   "med": 7112,
   "\u00f3logo": 7113,
   "ictoria": 7114,
   "-7": 7115,
   "\u2581rugby": 7116,
   "\u2581d\u00e9c": 7117,
   "\u2581cli": 7118,
   "oid": 7119,
   "\u2581Photo": 7120,
   "\u2581Ap": 7121,
   "\u2581W": 7122,
   "anger": 7123,
   "\u2581Sherlock": 7124,
   "\u2581Holmes": 7125,
   "\u2581\u00e9x": 7126,
   "\u25811980": 7127,
   "Imper": 7128,
   "\u2581protagoniz\u00f3": 7129,
   "Empire": 7130,
   "\u2581sun": 7131,
   "\u2581signific": 7132,
   "\u2581samoa": 7133,
   "\u2581Iglesia": 7134,
   "todox": 7135,
   "\u2581Orient": 7136,
   "\u2581Mayor": 7137,
   "asti": 7138,
   "\u2581periodo": 7139,
   "\u2581doctor": 7140,
   "\u2581enem": 7141,
   "\u2581matem": 7142,
   "\u2581Paolo": 7143,
   "uff": 7144,
   "ini": 7145,
   "uz": 7146,
   "ahaw": 7147,
   "stru": 7148,
   "\u2581Edwards": 7149,
   "\u2581Ram": 7150,
   "rez": 7151,
   "\u2581Justin": 7152,
   "\u2581divis": 7153,
   "yi": 7154,
   "\u2581host": 7155,
   "\u2581anfitri\u00f3n": 7156,
   "zar": 7157,
   "last": 7158,
   "\u2581fir": 7159,
   "mes": 7160,
   "\u2581llen": 7161,
   "\u258170": 7162,
   "\u25812008,": 7163,
   "oner": 7164,
   "\u2581anunci": 7165,
   "\u2581error": 7166,
   "\u2581Microsoft": 7167,
   "\u2581antigu": 7168,
   "\u2581AN": 7169,
   "UN": 7170,
   "CI": 7171,
   "\u2581adopt": 7172,
   "ush": 7173,
   "\u2581eliminar": 7174,
   "abul": 7175,
   "\u2581Sin": 7176,
   "\u2581Na": 7177,
   "\u2581Alabama": 7178,
   "\u2581punjab": 7179,
   "ition": 7180,
   "iga": 7181,
   "\u00e9ro": 7182,
   "\u2581yoga": 7183,
   "\u2581games": 7184,
   "rad": 7185,
   "\u2581prensa": 7186,
   "\u2581Sony": 7187,
   "fuer": 7188,
   "zawa": 7189,
   "\u2581Pra": 7190,
   "ingu": 7191,
   "reta": 7192,
   "teur": 7193,
   "rs": 7194,
   "ats": 7195,
   "\u2581registra": 7196,
   "\u2581coral": 7197,
   "\u2581Ton": 7198,
   "\u2581Intern": 7199,
   "\u2581degr": 7200,
   "\u2581util": 7201,
   "\u2581metabol": 7202,
   "\u2581lev": 7203,
   "adura": 7204,
   "\u2581victor": 7205,
   "ark": 7206,
   "place": 7207,
   "\u2581Market": 7208,
   "iter": 7209,
   "\u2581pronun": 7210,
   "\u25811933": 7211,
   "\u2581Watson": 7212,
   "ignon": 7213,
   "\u2581Lie": 7214,
   "\u2581Tai": 7215,
   "\u2581$": 7216,
   "\u00e1nico": 7217,
   "rod": 7218,
   "\u00f3logos": 7219,
   "ves": 7220,
   "\u258199": 7221,
   "\u2581relacion": 7222,
   "actus": 7223,
   "osper": 7224,
   "very": 7225,
   "\u2581raza": 7226,
   "uario": 7227,
   "\u2581they": 7228,
   "don": 7229,
   "atro": 7230,
   "\u2581distingu": 7231,
   "oke": 7232,
   "ron": 7233,
   "\u25811860": 7234,
   "\u2581madrasa": 7235,
   "viv": 7236,
   "\u2581reemplazar": 7237,
   "\u25811999?": 7238,
   "\u2581Roger": 7239,
   "\u2581carol": 7240,
   "\u2581registros": 7241,
   "\u2581die": 7242,
   "cin": 7243,
   "\u2581Louisiana": 7244,
   "grass": 7245,
   "\u2581mandolin": 7246,
   "\u2581superfic": 7247,
   "\u2581Sahara": 7248,
   "add": 7249,
   "\u2581Hall": 7250,
   "\u2581casino": 7251,
   "\u2581bid": 7252,
   "ufe": 7253,
   "\u2581humana": 7254,
   "insey": 7255,
   "\u2581sacerdo": 7256,
   "\u2581Apolo": 7257,
   "ops": 7258,
   "\u2581sue": 7259,
   "\u2581sigui\u00f3": 7260,
   "line": 7261,
   "cript": 7262,
   "Gen": 7263,
   "\u2581descrit": 7264,
   "\u2581segund": 7265,
   "tiop": 7266,
   "\u2581Feder": 7267,
   "isten": 7268,
   "\u2581arre": 7269,
   "lament": 7270,
   "\u2581herman": 7271,
   "\u25811910": 7272,
   "\u25814,": 7273,
   "\u2581ome": 7274,
   "\u2581historiadores": 7275,
   "cr": 7276,
   "\u2581detect": 7277,
   "\u2581urbano": 7278,
   "ardin": 7279,
   "iae": 7280,
   "\u00e1m": 7281,
   "\u25811993?": 7282,
   "olar": 7283,
   "ction": 7284,
   "\u0161": 7285,
   "\u0107": 7286,
   "ides": 7287,
   "\u2581suministro": 7288,
   "\u2581Hace": 7289,
   "\u2581incent": 7290,
   "\u2581Gaddafi": 7291,
   "\u2581Shakespeare": 7292,
   "\u2581Tar": 7293,
   "\u2581desf": 7294,
   "\u2581secu": 7295,
   "oko": 7296,
   "\u2581hablado": 7297,
   "iko": 7298,
   "\u2581incluyen": 7299,
   "\u2581sen": 7300,
   "\u2581parec": 7301,
   "\u2581fel": 7302,
   "ices": 7303,
   "\u2581CE": 7304,
   "azzi": 7305,
   "\u25811962?": 7306,
   "ultural": 7307,
   "\u2581similares": 7308,
   "\u2581geogr\u00e1": 7309,
   "\u2581fox": 7310,
   "\u2581Camp": 7311,
   "osh": 7312,
   "\u2581bord": 7313,
   "\u00e1mara": 7314,
   "\u25811839?": 7315,
   "\u25811944": 7316,
   "-6": 7317,
   "irce": 7318,
   "\u2581hum": 7319,
   "\u2581raz": 7320,
   "\u2581mari": 7321,
   "\u2581santo": 7322,
   "\u2581Mall": 7323,
   "\u2581kan": 7324,
   "\u014d": 7325,
   "icismo": 7326,
   "\u2581ming": 7327,
   "\u25811903": 7328,
   "\u2581revers": 7329,
   "\u2581icon": 7330,
   "\u2581nomin": 7331,
   "\u2581pr\u00e1cticas": 7332,
   "\u2581ol\u00edmpicos": 7333,
   "ficos": 7334,
   "\u2581cha": 7335,
   "uri": 7336,
   "\u2581gall": 7337,
   "inet": 7338,
   "ris": 7339,
   "acht": 7340,
   "\u2581atac\u00f3": 7341,
   "\u2581interpre": 7342,
   "ingo": 7343,
   "\u2581Mosc": 7344,
   "\u00e9e": 7345,
   "erm": 7346,
   "\u2581na": 7347,
   "\u2581many": 7348,
   "\u2581Miami": 7349,
   "\u2581fur": 7350,
   "\u2581Sut": 7351,
   "part": 7352,
   "ea": 7353,
   "\u2581municipal": 7354,
   "\u2581oper": 7355,
   "\u2581fundador": 7356,
   "\u25811943?": 7357,
   "\u258180?": 7358,
   "\u2581Ze": 7359,
   "\u2581cler": 7360,
   "mont": 7361,
   "\u2581volunt": 7362,
   "\u2581mot": 7363,
   "\u25811876": 7364,
   "\u2581claus": 7365,
   "\u2581antig": 7366,
   "edad": 7367,
   "\u2581nucle": 7368,
   "\u2581use": 7369,
   "\u2581Sa": 7370,
   "iat": 7371,
   "uma": 7372,
   "\u2581150": 7373,
   "\u2581Mun": 7374,
   "ches": 7375,
   "\u2581fracas": 7376,
   "\u2581Ur": 7377,
   "\u2581confirm": 7378,
   "\u2581inspir": 7379,
   "\u2581antrop": 7380,
   "\u25811920": 7381,
   "oth": 7382,
   "\u2581make": 7383,
   "\u2581up": 7384,
   "ello": 7385,
   "\u2581continuo": 7386,
   "\u2581basso": 7387,
   "\u2581ceremonia": 7388,
   "lem": 7389,
   "ao": 7390,
   "amm": 7391,
   "\u2581abad\u00eda": 7392,
   "\u2581154": 7393,
   "\u2581invest": 7394,
   "\u2581charles": 7395,
   "\u2581televis": 7396,
   "\u25811960": 7397,
   "\u2581categor": 7398,
   "\u2581ling\u00fc": 7399,
   "\u2581*": 7400,
   "\u2581CA": 7401,
   "\u017a": 7402,
   "\u2581metropolitana": 7403,
   "\u2581much": 7404,
   "ital": 7405,
   "bank": 7406,
   "\u2581mineral": 7407,
   "\u2581consult": 7408,
   "\u2581disput": 7409,
   "\u2581sint": 7410,
   "akar": 7411,
   "ohn": 7412,
   "100": 7413,
   "\u2581europeas": 7414,
   "\u2581honor": 7415,
   "\u2581bir": 7416,
   "\u2581complex": 7417,
   "cribe": 7418,
   "\u2581nom": 7419,
   "igen": 7420,
   "ink": 7421,
   "hund": 7422,
   "\u25811939": 7423,
   "\u2581atanasio": 7424,
   "\u2581Alejand": 7425,
   "\u2581mog": 7426,
   "\u2581Miller": 7427,
   ".4": 7428,
   "\u2581Windows": 7429,
   "enn": 7430,
   "edy": 7431,
   "\u2581espect\u00e1culo": 7432,
   "\u2581merc": 7433,
   "\u25811982": 7434,
   "\u2581tun": 7435,
   "aven": 7436,
   "Ver": 7437,
   "\u258125": 7438,
   "\u2581CD": 7439,
   "\u2581armenio": 7440,
   "-199": 7441,
   "\u2581francesas": 7442,
   "\u2581Orleans": 7443,
   "wo": 7444,
   "\u25811967": 7445,
   "\u2581Cast": 7446,
   "\u2581:": 7447,
   "\u2581cooper": 7448,
   "ette": 7449,
   "ody": 7450,
   "\u2581photo": 7451,
   "elect": 7452,
   "rons": 7453,
   "\u2581entren": 7454,
   "\u2581riv": 7455,
   "oli": 7456,
   "orge": 7457,
   "\u2581hard": 7458,
   "\u2581glob": 7459,
   "\u2581glaci": 7460,
   "\u2581\u00e9p": 7461,
   "\u2581assention": 7462,
   "\u2581accident": 7463,
   "\u2581197": 7464,
   "\u2581proto": 7465,
   "\u2581high": 7466,
   "ioso": 7467,
   "\u2581terr": 7468,
   "Mar": 7469,
   "\u2581crit": 7470,
   "\u2581georg": 7471,
   "rome": 7472,
   "\u2581kur": 7473,
   "\u2581panel": 7474,
   "\u2581amp": 7475,
   "lio": 7476,
   "\u2581Kat": 7477,
   "\u2581Hopkins": 7478,
   "jet": 7479,
   "\u2581componentes": 7480,
   "\u2581Sir": 7481,
   "\u2581Black": 7482,
   "\u2581verso": 7483,
   "erer": 7484,
   "\u2581due": 7485,
   "3,": 7486,
   "\u2581metropolit": 7487,
   "ahre": 7488,
   "erd": 7489,
   "\u2581inicialmente": 7490,
   "ortun": 7491,
   "\u2581gratu": 7492,
   "\u2581t\u00edtulos": 7493,
   "\u2581Ser": 7494,
   "bia": 7495,
   "\u2581hom": 7496,
   "iens": 7497,
   "ava": 7498,
   "atra": 7499,
   "\u2581Frederick": 7500,
   "ayy": 7501,
   "ju": 7502,
   "\u2581volver": 7503,
   "\u2581product": 7504,
   "LA": 7505,
   "AT": 7506,
   "\u25813?": 7507,
   "olas": 7508,
   "\u2581Dur": 7509,
   "\u2581plaza": 7510,
   "\u2581inno": 7511,
   "\u2581male": 7512,
   "\u25811978?": 7513,
   "Form": 7514,
   "\u2581bate": 7515,
   "\u2581wood": 7516,
   "\u2581actividades": 7517,
   "\u2581summer": 7518,
   "OR": 7519,
   "\u2581t\u00ed": 7520,
   "chen": 7521,
   "\u2581Const": 7522,
   "\u2581Econom": 7523,
   "\u2581Alban": 7524,
   "uten": 7525,
   "As": 7526,
   "vi\u00f3": 7527,
   "\u2581Mu": 7528,
   "\u2581100?": 7529,
   "\u00edst": 7530,
   "hall": 7531,
   "ituci\u00f3n": 7532,
   "into": 7533,
   "ificada": 7534,
   "\u2581preval": 7535,
   "70": 7536,
   "\u2581denomin": 7537,
   "entecost": 7538,
   "entemente": 7539,
   "\u2581Berm": 7540,
   "\u00fcs": 7541,
   "han": 7542,
   "\u2581Dalai": 7543,
   "\u2581Lama": 7544,
   "bet": 7545,
   "\u2581materiales": 7546,
   "\u2581interact": 7547,
   "\u2581caf": 7548,
   "\u2581environment": 7549,
   "\u2581Mult": 7550,
   "\u2581Appro": 7551,
   "\u2581Bak": 7552,
   "manuel": 7553,
   "\u2581vel": 7554,
   "estre": 7555,
   "\u2581piel": 7556,
   "\u2581folk": 7557,
   "\u2581song": 7558,
   "\u2581Fam": 7559,
   "\u2581perm": 7560,
   "bes": 7561,
   "\u2581Isa": 7562,
   "\u2581mise": 7563,
   "\u25811912?": 7564,
   "\u2581econ\u00f3m": 7565,
   "\u2581ciclo": 7566,
   "\u00fap": 7567,
   "acy": 7568,
   "\u2581reside": 7569,
   "\u2581cristian": 7570,
   "\u2581armen": 7571,
   "\u2581water": 7572,
   "\u2581dens": 7573,
   "\u2581Island": 7574,
   "\u2581Normand": 7575,
   "\u2581colon": 7576,
   "andin": 7577,
   "\u2581Cant": 7578,
   "\u2581Down": 7579,
   "\u2581clin": 7580,
   "\u2581sufic": 7581,
   "\u00e9m": 7582,
   "lican": 7583,
   "\u2581der": 7584,
   "\u2581ath": 7585,
   "asia": 7586,
   "\u2581som": 7587,
   "tres": 7588,
   "\u2581naturales": 7589,
   "\u2581cardin": 7590,
   "icar": 7591,
   "\u2581fire": 7592,
   "ords": 7593,
   "\u2581One": 7594,
   "\u2581Vo": 7595,
   "mi": 7596,
   "\u25811989?": 7597,
   "\u2581Karl": 7598,
   "ced": 7599,
   "\u2581esfuer": 7600,
   "\u2581molecular": 7601,
   "\u2581fusion": 7602,
   "\u2581Mary": 7603,
   "\u2581concentr": 7604,
   "wick": 7605,
   "\u00fcne": 7606,
   "\u2581170": 7607,
   "\u2581intelect": 7608,
   "yman": 7609,
   "tempor": 7610,
   "\u2581MLB": 7611,
   "\u2581UEFA": 7612,
   "\u2581comunista": 7613,
   "\u2581banner": 7614,
   "\u2581Ant": 7615,
   "\u2581bloque": 7616,
   "\u2581ferrovi": 7617,
   "\u2581noviembre": 7618,
   "\u2581d\u00e9": 7619,
   "\u2581antibi\u00f3t": 7620,
   "mis": 7621,
   "\u2581discre": 7622,
   "\u2581cated": 7623,
   "\u25811986": 7624,
   "\u2581theme": 7625,
   "\u2581rh": 7626,
   "aps": 7627,
   "\u2581Carl": 7628,
   "\u2581Hob": 7629,
   "\u2581Locke": 7630,
   "\u2581map": 7631,
   "uche": 7632,
   "inden": 7633,
   "\u2581Romana": 7634,
   "\u2581enfr": 7635,
   "\u2581ingenier\u00eda": 7636,
   "ester": 7637,
   "\u2581Brown": 7638,
   "\u2581kings": 7639,
   "port": 7640,
   "\u2581ec": 7641,
   "um\u00e9n": 7642,
   "\u2581MI": 7643,
   "\u2581Lord": 7644,
   "\u25812005": 7645,
   "\u2581Mau": 7646,
   "\u2581mau": 7647,
   "\u2581municipio": 7648,
   "\u2581envi": 7649,
   "aylor": 7650,
   "ows": 7651,
   "\u2581Blan": 7652,
   "ude": 7653,
   "Re": 7654,
   "ster": 7655,
   "\u2581industrial": 7656,
   "\u2581decl": 7657,
   "aldo": 7658,
   "\u2581Kansas": 7659,
   "\u2581bandes": 7660,
   "utch": 7661,
   "\u2581kim": 7662,
   "\u2581emergen": 7663,
   "\u2581infect": 7664,
   "our": 7665,
   "\u2581NYC": 7666,
   "orton": 7667,
   "\u2581insist": 7668,
   "ste": 7669,
   "itr": 7670,
   "amen": 7671,
   "\u2581satur": 7672,
   "\u2581term": 7673,
   "\u2581Victoria": 7674,
   "\u2581brit": 7675,
   "ains": 7676,
   "uth": 7677,
   "\u2581templo": 7678,
   "\u2581recip": 7679,
   "\u2581go": 7680,
   "ogle": 7681,
   "\u2581ile": 7682,
   "uguay": 7683,
   "\u2581Parque": 7684,
   "\u2581conce": 7685,
   "\u2581more": 7686,
   "\u2581Austria": 7687,
   "\u2581180": 7688,
   "\u2581Indonesia": 7689,
   "\u2581orig": 7690,
   "\u2581later": 7691,
   "\u25811967?": 7692,
   "\u2581north": 7693,
   "\u2581fuentes": 7694,
   "\u2581videos": 7695,
   "\u2581Rolling": 7696,
   "\u2581ze": 7697,
   "ppelin": 7698,
   "\u2581ub": 7699,
   "fer": 7700,
   "...": 7701,
   "\u2581Sasha": 7702,
   "\u2581Madison": 7703,
   "uns": 7704,
   "\u2581bec": 7705,
   "oi": 7706,
   "\u2581simbol": 7707,
   "\u2581bol": 7708,
   "\u2581dig": 7709,
   "onda": 7710,
   "\u2581feed": 7711,
   "\u2581bl": 7712,
   "mos": 7713,
   "\u2581ara": 7714,
   "\u2581interpreta": 7715,
   "\u2581Rub": 7716,
   "\u2581stud": 7717,
   "mus": 7718,
   "uno": 7719,
   "\u2581imagen": 7720,
   "\u2581urb": 7721,
   "\u2581studios": 7722,
   "\u2581d\u00f3lar": 7723,
   "\u25811914": 7724,
   "\u2581vistas": 7725,
   "tura": 7726,
   "\u2581corriente": 7727,
   "\u2581graves": 7728,
   "\u2581sar": 7729,
   "\u2581rub": 7730,
   "aises": 7731,
   "El": 7732,
   "\u2581football": 7733,
   "\u2581together": 7734,
   "\u2581now": 7735,
   "\u2581prov": 7736,
   "dic": 7737,
   "\u2581secret": 7738,
   "son": 7739,
   "\u2581votos": 7740,
   "\u2581cron": 7741,
   "\u2581punk": 7742,
   "\u2581doctr": 7743,
   "\u2581patent": 7744,
   "\u2581almacenamiento": 7745,
   "\u2581code": 7746,
   "\u2581Marvel": 7747,
   "\u2581sho": 7748,
   "oter": 7749,
   "ird": 7750,
   "\u2581contemp": 7751,
   "rano": 7752,
   "88": 7753,
   "amble": 7754,
   "\u2581Imp": 7755,
   "\u25812012-201": 7756,
   "\u2581concierto": 7757,
   "\u2581glacial": 7758,
   "\u2581glaciares": 7759,
   "\u2581gestion": 7760,
   "\u2581Alb": 7761,
   "\u2581hdtv": 7762,
   "sc": 7763,
   "\u2581natura": 7764,
   "ardinal": 7765,
   "\u2581ue": 7766,
   "\u2581fly": 7767,
   "\u2581mus": 7768,
   "istic": 7769,
   "\u2581Fer": 7770,
   "isis": 7771,
   "\u2581URSS": 7772,
   "\u25811830": 7773,
   "roy": 7774,
   "\u2581pan": 7775,
   "isms": 7776,
   "\u2581sociedades": 7777,
   "ind": 7778,
   "\u2581RI": 7779,
   "oleto": 7780,
   "\u2581band": 7781,
   "\u2581film": 7782,
   "ister": 7783,
   "\u25811936?": 7784,
   "\u2581\u00e1l": 7785,
   "geb": 7786,
   "\u2581Norman": 7787,
   "\u2581colore": 7788,
   "\u2581\"?": 7789,
   "\u2581indu": 7790,
   "\u2581disp": 7791,
   "ugar": 7792,
   "Mac": 7793,
   "46": 7794,
   "/": 7795,
   "\u2581ports": 7796,
   "mouth": 7797,
   "shire": 7798,
   "chos": 7799,
   "ild": 7800,
   "pc": 7801,
   "\u2581gin": 7802,
   "\u2581Sher": 7803,
   "iff": 7804,
   "\u2581Wh": 7805,
   "\u2581orden\u00f3": 7806,
   "\u2581at\u00f3m": 7807,
   "\u2581SE": 7808,
   "\u258121": 7809,
   "\u2581escrita": 7810,
   "\u2581sav": 7811,
   "ary": 7812,
   "uga": 7813,
   "\u2581rac": 7814,
   "imos": 7815,
   "\u2581white": 7816,
   "\u25811988": 7817,
   "\u2581males": 7818,
   "\u015b": 7819,
   "\u1e63": 7820,
   "\u2581provin": 7821,
   "PC": 7822,
   "\u2581Provin": 7823,
   "\u2581Haven": 7824,
   "\u2581lis": 7825,
   "jer": 7826,
   "\u2581cds": 7827,
   "\u2581dav": 7828,
   "\u2581CBS": 7829,
   "EC": 7830,
   "DS": 7831,
   "RO": 7832,
   "UP": 7833,
   "aves": 7834,
   "pub": 7835,
   "\u2581chap": 7836,
   "\u2581sultan": 7837,
   "\u2581mam": 7838,
   "\u2581Evangel": 7839,
   "\u2581asfalto": 7840,
   "\u2581patentes": 7841,
   "xi": 7842,
   "\u25812013,": 7843,
   "az\u00f3n": 7844,
   "\u2581norma": 7845,
   "\u2581Popper": 7846,
   "mod": 7847,
   "\u2581miner": 7848,
   "hab": 7849,
   "\u2581clasific\u00f3": 7850,
   "\u2581Secret": 7851,
   "\u2581escritores": 7852,
   "\u2581has": 7853,
   "\u2581contempor\u00e1neo": 7854,
   "bir": 7855,
   "\u2581crime": 7856,
   "\u25811949": 7857,
   "\u2581ortograf": 7858,
   "pal": 7859,
   "\u2581agricultores": 7860,
   "\u2581Em": 7861,
   "wei": 7862,
   "ovo": 7863,
   "exist": 7864,
   "row": 7865,
   "\u2581incident": 7866,
   "\u2581academ": 7867,
   "\u2581royale": 7868,
   "\u2581ib": 7869,
   "\u2581polit": 7870,
   "\u2581Bos": 7871,
   "\u2581Rodgers": 7872,
   "\u2581Ho": 7873,
   "\u2581Chopin": 7874,
   "\u2581mund": 7875,
   "frica": 7876,
   "\u2581quinta": 7877,
   "\u2581torneo": 7878,
   "iforn": 7879,
   "alu": 7880,
   "\u2581franco": 7881,
   "34": 7882,
   "\u2581Er": 7883,
   "rene": 7884,
   "\u2581pista": 7885,
   "urb": 7886,
   "ruck": 7887,
   "\u2581contex": 7888,
   "\u2581clan": 7889,
   "\u2581emper": 7890,
   "riz": 7891,
   "\u2581wild": 7892,
   "\u2581style": 7893,
   "\u00e1fico": 7894,
   "\u2581anteriormente": 7895,
   "izo": 7896,
   "\u2581produ": 7897,
   "\u25811961?": 7898,
   "\u2581puntu": 7899,
   "\u2581twilight": 7900,
   "\u258195": 7901,
   "\u2581jam": 7902,
   "burgo": 7903,
   "\u2581Sw": 7904,
   "ift": 7905,
   "des": 7906,
   "\u25811957": 7907,
   "\u2581protector": 7908,
   "\u2581italiana": 7909,
   "\u2581italiano": 7910,
   "\u2581presbiteriana": 7911,
   "\u2581habl": 7912,
   "\u2581Dutch": 7913,
   "\u2581their": 7914,
   "selves": 7915,
   "\u2581formul": 7916,
   "\u2581decide": 7917,
   "\u2581wu": 7918,
   "\u2581empres": 7919,
   "vs": 7920,
   "isher": 7921,
   "\u2581Jeff": 7922,
   "bil": 7923,
   "\u2581dam": 7924,
   "25": 7925,
   "adel": 7926,
   "\u25811842": 7927,
   "LC": 7928,
   "\u2581IN": 7929,
   "\u2581kill": 7930,
   "\u2581time": 7931,
   "\u2581d\u00e9fic": 7932,
   "\u2581ray": 7933,
   "kos": 7934,
   "\u2581bis": 7935,
   "\u2581tin": 7936,
   "\u2581Daniel": 7937,
   "\u2581Craig": 7938,
   "Produ": 7939,
   "\u2581formalmente": 7940,
   "\u258182": 7941,
   "inte": 7942,
   "\u2581abol": 7943,
   "\u2581codific": 7944,
   "\u2581Luc": 7945,
   "\u2581diver": 7946,
   "\u2581dial": 7947,
   "\u2581Williams": 7948,
   "\u2581Queen": 7949,
   "\u2581are": 7950,
   "\u2581champions": 7951,
   "\u2581interno": 7952,
   "\u2581presa": 7953,
   "\u2581Pont": 7954,
   "oda": 7955,
   "\u2581subc": 7956,
   "ici": 7957,
   "asc": 7958,
   "\u2581Nasser": 7959,
   "\u2581polit\u00e9": 7960,
   "\u2581anex": 7961,
   "\u2581figura": 7962,
   "\u2581Sr": 7963,
   "ierra": 7964,
   "\u2581raid": 7965,
   "\u2581villa": 7966,
   "\u2581Victor": 7967,
   "\u2581ejemp": 7968,
   "\u2581rare": 7969,
   "\u2581s\u00e9qu": 7970,
   "\u2581demanda": 7971,
   "\u2581Kent": 7972,
   "ucky": 7973,
   "orro": 7974,
   "ics": 7975,
   "adh": 7976,
   "\u2581grant": 7977,
   "\u2581peso": 7978,
   "vard": 7979,
   "\u2581Gr": 7980,
   "ieg": 7981,
   "\u2581recomend": 7982,
   "\u2581vierte": 7983,
   "\u2581humanismo": 7984,
   "\u2581allen": 7985,
   "\u2581International": 7986,
   "\u2581Corporation": 7987,
   "auf": 7988,
   "rite": 7989,
   "30": 7990,
   "\u2581magn": 7991,
   "\u2581submar": 7992,
   "\u2581Min": 7993,
   "\u2581renun": 7994,
   "\u2581retail": 7995,
   "fol": 7996,
   "\u2581mare": 7997,
   "elles": 7998,
   "elly": 7999,
   "illi": 8000,
   "iencias": 8001,
   "\u2581recaud": 8002,
   "kien": 8003,
   "\u2581erud": 8004,
   "quist": 8005,
   "21": 8006,
   "\u2581renac": 8007,
   "\u2581Somalia": 8008,
   "\u25811996?": 8009,
   "\u2581hijos": 8010,
   "otre": 8011,
   "\u25811919": 8012,
   "\u2581rit": 8013,
   "\u2581aven": 8014,
   "\u2581fru": 8015,
   "\u2581memb": 8016,
   "\u2581complement": 8017,
   "\u2581genoc": 8018,
   "\u2581Origin": 8019,
   "\u2581diel": 8020,
   "\u00e9ctrico": 8021,
   "\u2581Arnold": 8022,
   "pern": 8023,
   "ling": 8024,
   "\u2581#": 8025,
   "ER": 8026,
   "\u2581siste": 8027,
   "\u2581uniforme": 8028,
   "\u2581Helena": 8029,
   "90": 8030,
   "\u2581serv": 8031,
   "enda": 8032,
   "abel": 8033,
   "\u2581202": 8034,
   "\u2581Org": 8035,
   "52": 8036,
   "ays": 8037,
   "agno": 8038,
   "\u2581Software": 8039,
   "W": 8040,
   "\u2581mosa": 8041,
   "aum": 8042,
   "\u2581Mosa": 8043,
   "\u25811949?": 8044,
   "\u2581namib": 8045,
   "\u2581sostiene": 8046,
   "\u2581Din": 8047,
   "\u2581abor": 8048,
   "\u2581Lis": 8049,
   "\u2581sism": 8050,
   "Har": 8051,
   "\u2581acr": 8052,
   "\u2581Isaac": 8053,
   "ko": 8054,
   "\u2581Cristo": 8055,
   "\u2581flo": 8056,
   "enci\u00f3n": 8057,
   "\u2581one": 8058,
   "ylon": 8059,
   "\u25811930": 8060,
   "\u2581Kong": 8061,
   "uez": 8062,
   "adt": 8063,
   "ef": 8064,
   "\u2581espectro": 8065,
   "\u2581rot": 8066,
   "Univers": 8067,
   "\u2581homosex": 8068,
   "etz": 8069,
   "\u2581vid": 8070,
   "\u2581Museo": 8071,
   "\u25811947": 8072,
   "\u2581land": 8073,
   "kre": 8074,
   "\u2581turismo": 8075,
   "\u2581trem": 8076,
   "\u2581pra": 8077,
   "\u00ea": 8078,
   "\u2581adquiri\u00f3": 8079,
   "\u2581Bat": 8080,
   "\u2581vir": 8081,
   "\u2581prol": 8082,
   "ifer": 8083,
   "alph": 8084,
   "\u2581Roberts": 8085,
   "\u2581cable": 8086,
   "opes": 8087,
   "\u258151": 8088,
   "bl": 8089,
   "\u25811992?": 8090,
   "-00": 8091,
   "\u2581flex": 8092,
   "\u2581checo": 8093,
   "\u2581inaug": 8094,
   "\u25811953?": 8095,
   "\u2581Jin": 8096,
   "\u2581illumin": 8097,
   "agu": 8098,
   "iver": 8099,
   "\u2581hered": 8100,
   "\u2581Dist": 8101,
   "rito": 8102,
   "ston": 8103,
   "\u2581Ol": 8104,
   "\u2581compuesto": 8105,
   "\u2581key": 8106,
   "iamente": 8107,
   "\u2581equilibrio": 8108,
   "\u2581Amsterdam": 8109,
   "\u2581114": 8110,
   "culo": 8111,
   "\u2581wr": 8112,
   "pes": 8113,
   "\u2581Rogers": 8114,
   "\u25811838": 8115,
   "\u2581hund": 8116,
   "\u2581cubismo": 8117,
   "\u2581New": 8118,
   "\u2581conne": 8119,
   "cticut": 8120,
   "\u2581sci": 8121,
   "enti": 8122,
   "\u2581diffic": 8123,
   "\u2581Lat": 8124,
   "orno": 8125,
   "ey": 8126,
   "\u2581hier": 8127,
   "gh": 8128,
   "iven": 8129,
   "\u25811937?": 8130,
   "\u2581madras": 8131,
   "akya": 8132,
   "esh": 8133,
   "\u2581Yuan": 8134,
   "\u2581Tibet": 8135,
   "\u2581Den": 8136,
   "\u2581pitt": 8137,
   "burgh": 8138,
   "\u2581prevent": 8139,
   "\u2581princesa": 8140,
   "\u2581nes": 8141,
   "\u2581conquist": 8142,
   "hem": 8143,
   "\u2581respir": 8144,
   "atori": 8145,
   "\u2581grand": 8146,
   "lav": 8147,
   "\u2581Brit": 8148,
   "\u2581caracter\u00edst": 8149,
   "eler": 8150,
   "\u2581Ali": 8151,
   "\u2581hil": 8152,
   "\u2581dess": 8153,
   "ami": 8154,
   "\u2581U": 8155,
   "\u2581schw": 8156,
   "\u2581unter": 8157,
   "\u2581pict": 8158,
   "OD": 8159,
   "anc": 8160,
   "jar": 8161,
   "\u2581ascend": 8162,
   "\u2581Te": 8163,
   "\u2581fac": 8164,
   "\u2581Standard": 8165,
   "\u2581Gle": 8166,
   "itch": 8167,
   "\u2581Obama": 8168,
   "ries": 8169,
   "\u2581parten": 8170,
   "esis": 8171,
   "bu": 8172,
   "\u2581dim": 8173,
   "\u2581subs": 8174,
   "ativ": 8175,
   "\u2581identidad": 8176,
   "ibility": 8177,
   "\u2581cert": 8178,
   "\u2581algorit": 8179,
   "\u2581incor": 8180,
   "\u2581ts": 8181,
   "agh": 8182,
   "\u2581cib": 8183,
   "\u2581ann": 8184,
   "\u2581turistas": 8185,
   "\u2581Living": 8186,
   "unicip": 8187,
   "\u2581supr": 8188,
   "\u2581south": 8189,
   "side": 8190,
   "\u2581subd": 8191,
   "\u25811928?": 8192,
   "\u2581Metropolit": 8193,
   "qu\u00e9s": 8194,
   "\u2581poss": 8195,
   "ions": 8196,
   "\u2581school": 8197,
   "\u2581partic": 8198,
   "Mod": 8199,
   "\u2581volc": 8200,
   "\u2581Hy": 8201,
   "\u2581franc": 8202,
   "2,": 8203,
   "biter": 8204,
   "\u2581hunter": 8205,
   "cole": 8206,
   "gono": 8207,
   "\u2581dismin": 8208,
   "\u2581eg": 8209,
   "ypt": 8210,
   "\u2581wa": 8211,
   "\u25811927": 8212,
   "van": 8213,
   "oplast": 8214,
   "antinop": 8215,
   "yr": 8216,
   "\u2581princip": 8217,
   "\u2581mathemat": 8218,
   "\u2581South": 8219,
   "iam": 8220,
   "\u2581cima": 8221,
   "oral": 8222,
   "\u2581Oriente": 8223,
   "\u2581Val": 8224,
   "air": 8225,
   "\u2581s\u00fcd": 8226,
   "schn": 8227,
   "weg": 8228,
   "\u2581abund": 8229,
   "\u2581Green": 8230,
   "\u25812001": 8231,
   "\u2581Cont": 8232,
   "Ter": 8233,
   "\u2581fit": 8234,
   "mer": 8235,
   "\u2581universitario": 8236,
   "\u2581sit": 8237,
   "\u2581Margaret": 8238,
   "raw": 8239,
   "\u2581marx": 8240,
   "illon": 8241,
   "\u25811990,": 8242,
   "\u2581ashken": 8243,
   "\u2581rif": 8244,
   "yse": 8245,
   "\u2581respect": 8246,
   "\u2581Kan": 8247,
   "\u2581model": 8248,
   "\u2581evacu": 8249,
   "\u2581und": 8250,
   "\u2581polar": 8251,
   "\u2581nob": 8252,
   "\u2581164": 8253,
   "\u2581path": 8254,
   "ropro": 8255,
   "\u2581ted": 8256,
   "isl": 8257,
   "\u2581HD": 8258,
   "\u2581legislativo": 8259,
   "\u2581Duke": 8260,
   "\u2581University": 8261,
   "\u25811941?": 8262,
   "\u2581Mundial": 8263,
   "hin": 8264,
   "\u2581p\u00e9r": 8265,
   "\u2581book": 8266,
   "\u2581Daily": 8267,
   "\u2581Tel": 8268,
   "\u25811995?": 8269,
   "\u2581Tailandia": 8270,
   "\u2581birman": 8271,
   "ru": 8272,
   "\u2581somerset": 8273,
   "aut": 8274,
   "\u2581Bridge": 8275,
   "water": 8276,
   "ih": 8277,
   "isi": 8278,
   "\u2581dimin": 8279,
   "\u2581lign": 8280,
   "\u2581Queens": 8281,
   "town": 8282,
   "\u2581carbon": 8283,
   "\u2581usada": 8284,
   "Pol": 8285,
   "zt": 8286,
   "\u2581cual": 8287,
   "\u2581zum": 8288,
   "\u2581comics": 8289,
   "ive": 8290,
   "lime": 8291,
   "\u2581legend": 8292,
   "\u2581Zelda": 8293,
   "\u25811972?": 8294,
   "\u2581Shah": 8295,
   "\u2581espa\u00f1ol": 8296,
   "\u2581golf": 8297,
   "\u2581Store": 8298,
   "\u2581gold": 8299,
   "\u2581Jennifer": 8300,
   "\u258123": 8301,
   "\u2581pelig": 8302,
   "\u2581estonios": 8303,
   "Br": 8304,
   "\u2581Jac": 8305,
   "\u2581Der": 8306,
   "\u00e1ne": 8307,
   "\u2581estren": 8308,
   "izan": 8309,
   "\u2581philosoph": 8310,
   "odid": 8311,
   "\u2581Simon": 8312,
   "\u25811935?": 8313,
   "\u25819/": 8314,
   "\u2581178": 8315,
   "gio": 8316,
   "\u2581Dukkha": 8317,
   "\u2581ans": 8318,
   "isf": 8319,
   "\u2581Royal": 8320,
   "\u2581Institute": 8321,
   "rices": 8322,
   "\u2581endos": 8323,
   "ymb": 8324,
   "\u2581hop": 8325,
   "\u2581Je": 8326,
   "cy": 8327,
   "\u2581duc": 8328,
   "\u2581hong": 8329,
   "minster": 8330,
   "\u2581ingenier": 8331,
   "\u2581ami": 8332,
   "\u2581Depart": 8333,
   "\u2581Broadcast": 8334,
   "\u2581memorial": 8335,
   "\u2581\u00e9": 8336,
   "\u2581modo": 8337,
   "ici\u00f3": 8338,
   "\u2581hurac": 8339,
   "\u2581kat": 8340,
   "rina": 8341,
   "acul": 8342,
   "\u2581concep": 8343,
   "\u2581Me": 8344,
   "\u258173": 8345,
   "ague": 8346,
   "akt": 8347,
   "\u2581continua": 8348,
   "\u2581child": 8349,
   "ress": 8350,
   "\u2581cour": 8351,
   "ubio": 8352,
   "\u2581132": 8353,
   "\u2581Charles": 8354,
   "\u2581Town": 8355,
   "vento": 8356,
   "\u2581Dominic": 8357,
   "\u2581convent": 8358,
   "\u2581uran": 8359,
   "\u2581micros": 8360,
   "cop": 8361,
   "\u2581mental": 8362,
   "ateral": 8363,
   "\u2581impl": 8364,
   "\u2581canadienses": 8365,
   "\u2581Utrecht": 8366,
   "intes": 8367,
   "grad": 8368,
   "\u25811984?": 8369,
   "bul": 8370,
   "\u25811600": 8371,
   "\u2581Vers": 8372,
   "alles": 8373,
   "hew": 8374,
   "\u2581quinto": 8375,
   "ad\u00eda": 8376,
   "boys": 8377,
   "\u2581blu": 8378,
   "Ray": 8379,
   "\u2581Nov": 8380,
   "izier": 8381,
   "\u2581168": 8382,
   "\u2581fiestas": 8383,
   "\u2581protestante": 8384,
   "\u2581dc": 8385,
   "\u2581jed": 8386,
   "lik": 8387,
   "ansas": 8388,
   "\u2581libres": 8389,
   "\u2581financia": 8390,
   "\u258113?": 8391,
   "\u2581cach": 8392,
   "\u2581dre": 8393,
   "\u2581Phillip": 8394,
   "oll": 8395,
   "\u2581Que": 8396,
   "enstein": 8397,
   "\u2581Che": 8398,
   "\u2581Carol": 8399,
   "\u2581Mos": 8400,
   "eley": 8401,
   "\u2581indem": 8402,
   "dis": 8403,
   "ence": 8404,
   "atz": 8405,
   "\u25811850": 8406,
   "\u2581SA": 8407,
   "MS": 8408,
   "TR": 8409,
   "ON": 8410,
   "isk": 8411,
   "\u2581Scott": 8412,
   "\u2581Ray": 8413,
   "aster": 8414,
   "ostas": 8415,
   "rafo": 8416,
   "open": 8417,
   "hauer": 8418,
   "40": 8419,
   "\u2581agente": 8420,
   "\u2581Cre": 8421,
   "\u2581electric": 8422,
   "\u2581eu": 8423,
   "\u2581Cl": 8424,
   "\u2581vice": 8425,
   "ean": 8426,
   "\u2581cerc": 8427,
   "\u2581tent": 8428,
   "eman": 8429,
   "\u2581lan": 8430,
   "gem": 8431,
   "\u2581veloc": 8432,
   "\u2581artic": 8433,
   "\u2581ascensores": 8434,
   "u\u00e1": 8435,
   "\u2581piano": 8436,
   "\u2581singles": 8437,
   "igan": 8438,
   "\u2581distrib": 8439,
   "cken": 8440,
   "reet": 8441,
   "\u2581eman": 8442,
   "\u2581violent": 8443,
   "\u2581down": 8444,
   "\u2581compat": 8445,
   "\u2581individ": 8446,
   "\u2581gig": 8447,
   "\u2581mens": 8448,
   "\u2581Cos": 8449,
   "\u2581Atl\u00e1ntico": 8450,
   "%": 8451,
   "si": 8452,
   "\u2581Santo": 8453,
   "erva": 8454,
   "\u2581gro": 8455,
   "\u2581nov": 8456,
   "\u2581ign": 8457,
   "YU": 8458,
   "Z": 8459,
   "\u2581hous": 8460,
   "\u2581select": 8461,
   "\u2581resol": 8462,
   "\u2581samo": 8463,
   "ious": 8464,
   "\u2581Ol\u00edmp": 8465,
   "\u2581hano": 8466,
   "orf": 8467,
   "\u2581Tam": 8468,
   "ges": 8469,
   "ages": 8470,
   "\u2581Punk": 8471,
   "\u00fcssel": 8472,
   "erald": 8473,
   "\u2581psic": 8474,
   "\u2581delay": 8475,
   "usal": 8476,
   "feld": 8477,
   "\u2581Magn": 8478,
   "\u2581pad": 8479,
   "\u2581VHS": 8480,
   "\u2581falle": 8481,
   "ienne": 8482,
   "\u2581Center": 8483,
   "\u2581ga": 8484,
   "\u2581fal": 8485,
   "ichuan": 8486,
   "An": 8487,
   "\u2581155": 8488,
   "\u2581miss": 8489,
   "\u2581sovi": 8490,
   "\u2581Mer": 8491,
   "conom": 8492,
   "enario": 8493,
   "acre": 8494,
   "\u2581Hab": 8495,
   "\u25812006,": 8496,
   "\u2581sn": 8497,
   "ipe": 8498,
   "\u2581anfitr": 8499,
   "isson": 8500,
   "ation": 8501,
   "\u2581empezar": 8502,
   "\u2581dei": 8503,
   "ahan": 8504,
   "aq": 8505,
   "\u25811977": 8506,
   "\u2581rally": 8507,
   "\u2581fle": 8508,
   "isa": 8509,
   "\u2581Medical": 8510,
   "\u2581College": 8511,
   "\u25811800": 8512,
   "\u2581simpl": 8513,
   "\u2581Centro": 8514,
   "cono": 8515,
   "\u2581lav": 8516,
   "ae": 8517,
   "\u2581venir": 8518,
   "\u2581Act": 8519,
   "\u25811945?": 8520,
   "\u2581Ch": 8521,
   "\u2581Cel": 8522,
   "blic": 8523,
   "\u2581nerv": 8524,
   "oga": 8525,
   "\u2581tens": 8526,
   "\u2581Social": 8527,
   "urr": 8528,
   "\u2581breve": 8529,
   "\u2581australiana": 8530,
   "ndo": 8531,
   "\u2581tours": 8532,
   "\u2581Imperial": 8533,
   "\u2581forme": 8534,
   "96": 8535,
   "\u2581estren\u00f3": 8536,
   "\u2581Quebec": 8537,
   "\u25812017": 8538,
   "\u2581sign": 8539,
   "\u2581spiel": 8540,
   "\u2581Go": 8541,
   "ode": 8542,
   "Intern": 8543,
   "nip": 8544,
   "\u2581Palest": 8545,
   "rest": 8546,
   "\u2581metod": 8547,
   "AL": 8548,
   "uty": 8549,
   "\u2581Kar": 8550,
   "\u2581Andrew": 8551,
   "\u2581sat\u00e9l": 8552,
   "\u25811400": 8553,
   "pla": 8554,
   "\u2581Potter": 8555,
   "\u2581Dub": 8556,
   "\u2581kn": 8557,
   "\u2581Tolkien": 8558,
   "olit": 8559,
   "\u2581medic": 8560,
   "\u2581God": 8561,
   "\u2581Bab": 8562,
   "bed": 8563,
   "kar": 8564,
   "\u2581bird": 8565,
   "\u2581overs": 8566,
   "\u2581primavera": 8567,
   "Int": 8568,
   "\u2581Boeing": 8569,
   "\u2581was": 8570,
   "hing": 8571,
   "\u25811899": 8572,
   "ilton": 8573,
   "\u258126": 8574,
   "\u25811958?": 8575,
   "\u2581provincias": 8576,
   "\u2581Berkeley": 8577,
   "\u2581Friedrich": 8578,
   "helm": 8579,
   "elling": 8580,
   "\u2581Div": 8581,
   "\u2581mind": 8582,
   "\u00e3": 8583,
   "\u2581Nic": 8584,
   "\u2581Twilight": 8585,
   "flower": 8586,
   "irman": 8587,
   "eli": 8588,
   "\u25811880?": 8589,
   "\u2581automat": 8590,
   "wa": 8591,
   "\u2581Cr": 8592,
   "acon": 8593,
   "\u2581calif": 8594,
   "\u2581sche": 8595,
   "iner": 8596,
   "grade": 8597,
   "\u2581Lancaster": 8598,
   "\u2581tb": 8599,
   "uber": 8600,
   "\u2581ko": 8601,
   "\u2581incomp": 8602,
   "abol": 8603,
   "ashid": 8604,
   "\u2581dove": 8605,
   "\u2581mountain": 8606,
   "\u2581pilo": 8607,
   "\u25811918?": 8608,
   "sha": 8609,
   "ilit": 8610,
   "\u2581dies": 8611,
   "erio": 8612,
   "rist": 8613,
   "\u2581nc": 8614,
   "\u2581escena": 8615,
   "\u2581sacrific": 8616,
   "\u2581ond": 8617,
   "yff": 8618,
   "\u2581Face": 8619,
   "\u25811946": 8620,
   "\u2581Kennedy": 8621,
   "\u2581pont": 8622,
   "000": 8623,
   "\u2581cou": 8624,
   "\u2581Se\u00f1or": 8625,
   "aka": 8626,
   "-5": 8627,
   "harma": 8628,
   "\u2581Howard": 8629,
   "\u2581Mc": 8630,
   "olis": 8631,
   "\u2581Mont": 8632,
   "ieu": 8633,
   "enen": 8634,
   "\u2581Raleigh": 8635,
   "\u2581stream": 8636,
   "del": 8637,
   "elle": 8638,
   "\u2581burn": 8639,
   "sea": 8640,
   "uba": 8641,
   "\u2581Mercury": 8642,
   "\u2581montre": 8643,
   "abi": 8644,
   "\u2581rose": 8645,
   "\u25811942?": 8646,
   "igh": 8647,
   "\u2581River": 8648,
   "\u25811950?": 8649,
   "\u2581abr": 8650,
   "\u2581bomberos": 8651,
   "\u2581jo": 8652,
   "annes": 8653,
   "etros": 8654,
   "\u2581tier": 8655,
   "ature": 8656,
   "\u2581organo": 8657,
   "\u2581chem": 8658,
   "onnie": 8659,
   "\u2581dub": 8660,
   "\u2581rar": 8661,
   "\u2581Pan": 8662,
   "fel": 8663,
   "ix": 8664,
   "tens": 8665,
   "\u258112?": 8666,
   "\u2581epidem": 8667,
   "blico": 8668,
   "\u2581fig": 8669,
   "\u2581prestig": 8670,
   "orme": 8671,
   "\u2581Palermo": 8672,
   "\u2581consid": 8673,
   "\u2581tre": 8674,
   "\u2581Om": 8675,
   "\u2581presidentes": 8676,
   "\u2581lang": 8677,
   "osaur": 8678,
   "\u2581gab": 8679,
   "\u2581Rob": 8680,
   "krit": 8681,
   "\u2581fert": 8682,
   "\u2581diarrea": 8683,
   "ym": 8684,
   "17": 8685,
   "\u2581novel": 8686,
   "\u2581liv": 8687,
   "\u2581Michael": 8688,
   "\u2581Lewis": 8689,
   "\u2581comerci": 8690,
   "\u2581press": 8691,
   "\u2581religios": 8692,
   "\u2581Gol": 8693,
   "\u2581Macedonia": 8694,
   "\u2581\u00c1": 8695,
   "\u2581sele": 8696,
   "\u2581open": 8697,
   "\u2581source": 8698,
   "\u2581IBM": 8699,
   "\u2581stem": 8700,
   "\u2581salt": 8701,
   "\u2581bacter": 8702,
   "phen": 8703,
   "amine": 8704,
   "\u0119": 8705,
   "\u2581lag": 8706,
   "\u2581uniform": 8707,
   "\u2581neuf": 8708,
   "\u2581prince": 8709,
   "ibile": 8710,
   "\u2581carne": 8711,
   "\u2581sacrificio": 8712,
   "\u2581Billboard": 8713,
   "\u2581Inf": 8714,
   "\u2581low": 8715,
   "\u2581sut": 8716,
   "\u2581variaci\u00f3n": 8717,
   "\u2581g\u00f6": 8718,
   "\u2581inse": 8719,
   "\u2581Aug": 8720,
   "\u2581Allen": 8721,
   "ahr": 8722,
   "\u2581CEO": 8723,
   "\u2581Rem": 8724,
   "\u2581protagonista": 8725,
   "\u2581v\u00e9r": 8726,
   "\u2581vert": 8727,
   "porter": 8728,
   "\u2581August": 8729,
   "\u2581esposa": 8730,
   "ugen": 8731,
   "\u2581Bo": 8732,
   "\u2581Wr": 8733,
   "ta\u00f1a": 8734,
   "\u2581find": 8735,
   "lay": 8736,
   "\u2581Cin": 8737,
   "eth": 8738,
   "\u2581carrier": 8739,
   "oning": 8740,
   "\u2581class": 8741,
   "mon": 8742,
   "\u2581kle": 8743,
   "\u2581Tim": 8744,
   "othy": 8745,
   "\u2581episod": 8746,
   "\u2581marvel": 8747,
   "\u2581opp": 8748,
   "idan": 8749,
   "\u25811890?": 8750,
   "\u2581Mov": 8751,
   "\u2581Revol": 8752,
   "ucion": 8753,
   "su": 8754,
   "\u2581peri\u00f3d": 8755,
   "12": 8756,
   "\u2581Joan": 8757,
   "\u2581if": 8758,
   "\u2581revis": 8759,
   "\u2581thr": 8760,
   "lex": 8761,
   "\u2581express": 8762,
   "\u2581Bil": 8763,
   "\u2581infer": 8764,
   "\u2581techn": 8765,
   "\u2581serbo": 8766,
   "\u2581Music": 8767,
   "\u2581Factory": 8768,
   "qual": 8769,
   "\u2581extre": 8770,
   "phone": 8771,
   "\u2581Ath": 8772,
   "ollow": 8773,
   "\u2581World": 8774,
   "\u2581Travel": 8775,
   "\u2581Awards": 8776,
   "\u2581Sud": 8777,
   "\u2581austr": 8778,
   "\u2581Opera": 8779,
   "iling": 8780,
   "i\u00e9n": 8781,
   "\u2581rum": 8782,
   "\u2581lumin": 8783,
   "ciation": 8784,
   "1,": 8785,
   "ety": 8786,
   "\u2581copyright": 8787,
   "idae": 8788,
   "\u2581Ale": 8789,
   "ienten": 8790,
   "\u2581fosse": 8791,
   "\u2581montini": 8792,
   "\u2581oxid": 8793,
   "ione": 8794,
   "\u2581comerciales": 8795,
   "\u2581terrestre": 8796,
   "\u2581sing": 8797,
   "\u2581institut": 8798,
   "ovi": 8799,
   "\u2581Igles": 8800,
   "\u2581profit": 8801,
   "abl": 8802,
   "hy": 8803,
   "hor": 8804,
   "\u2581epic": 8805,
   "\u2581Minister": 8806,
   "64": 8807,
   "unid": 8808,
   "\u2581mandol": 8809,
   "ram": 8810,
   "\u2581str": 8811,
   "\u2581radiod": 8812,
   "FC": 8813,
   "22": 8814,
   "\u2581saf": 8815,
   "\u2581Os": 8816,
   "\u2581hapl": 8817,
   "\u2581c\u00f3d": 8818,
   "\u2581Fel": 8819,
   "idencia": 8820,
   "\u2581inform\u00f3": 8821,
   "\u2581spok": 8822,
   "\u2581abs": 8823,
   "wiy": 8824,
   "\u2581Ohio": 8825,
   "erte": 8826,
   "\u2581segur": 8827,
   "elin": 8828,
   "illet": 8829,
   "istr": 8830,
   "egr": 8831,
   "\u2581pertenec": 8832,
   "\u2581ritu": 8833,
   "\u2581minister": 8834,
   "\u2581NA": 8835,
   "\u2581look": 8836,
   "\u2581complic": 8837,
   "\u2581subst": 8838,
   "\u2581Swan": 8839,
   "\u00f3nimo": 8840,
   "\u2581Christian": 8841,
   "\u2581Bell": 8842,
   "\u2581premi": 8843,
   "\u2581Country": 8844,
   "\u2581Str": 8845,
   "\u2581Nick": 8846,
   "orio": 8847,
   "cesa": 8848,
   "\u25812.0": 8849,
   "mp": 8850,
   "otic": 8851,
   "point": 8852,
   "agar": 8853,
   "\u2581origina": 8854,
   "ctions": 8855,
   "\u2581Premio": 8856,
   "\u2581Arte": 8857,
   "\u2581calend": 8858,
   "\u2581num\u00e9r": 8859,
   "gb": 8860,
   "\u2581reput": 8861,
   "\u2581parent": 8862,
   "\u2581dif\u00ed": 8863,
   "\u2581vor": 8864,
   "pm": 8865,
   "\u2581ling": 8866,
   "\u2581She": 8867,
   "ney": 8868,
   "enna": 8869,
   "\u2581shows": 8870,
   "tona": 8871,
   "\u2581park": 8872,
   "\u2581lam": 8873,
   "chia": 8874,
   "\u2581rank": 8875,
   "\u2581bike": 8876,
   "\u2581Warren": 8877,
   "PS": 8878,
   "ror": 8879,
   "erb": 8880,
   "\u2581b\u00e9isbol": 8881,
   "Sawai": 8882,
   "\u25811974": 8883,
[...]
