<unk>	0
<s>	0
</s>	0
<es>	0
<fr>	0
<it>	0
<de>	0
<ar>	0
<ja>	0
<ko>	0
<tr>	0
<th>	0
zh	0
<en>	0
▁d	-0
en	-1
er	-2
es	-3
in	-4
on	-5
an	-6
▁ا	-7
▁l	-8
el	-9
at	-10
▁p	-11
▁a	-12
▁ال	-13
▁s	-14
▁c	-15
▁t	-16
is	-17
ar	-18
or	-19
▁de	-20
ch	-21
al	-22
▁W	-23
it	-24
as	-25
re	-26
▁f	-27
Qu	-28
il	-29
▁Qu	-30
▁w	-31
▁م	-32
un	-33
qu	-34
he	-35
▁m	-36
ent	-37
os	-38
▁di	-39
▁h	-40
▁la	-41
▁?	-42
om	-43
▁C	-44
ur	-45
ic	-46
le	-47
▁n	-48
▁in	-49
▁qu	-50
ion	-51
▁o	-52
▁g	-53
▁v	-54
ro	-55
▁the	-56
us	-57
ed	-58
▁b	-59
▁S	-60
est	-61
ad	-62
▁Wh	-63
et	-64
▁A	-65
ol	-66
am	-67
im	-68
te	-69
and	-70
▁e	-71
ie	-72
id	-73
▁un	-74
▁en	-75
ir	-76
▁1	-77
ut	-78
▁ف	-79
▁r	-80
▁I	-81
▁of	-82
ig	-83
▁M	-84
▁B	-85
什么	-86
▁P	-87
ci	-88
▁ما	-89
ist	-90
▁D	-91
▁le	-92
▁con	-93
▁2	-94
▁في	-95
▁T	-96
▁What	-97
em	-98
▁el	-99
▁E	-100
▁ه	-101
ان	-102
ra	-103
▁L	-104
▁se	-105
▁ت	-106
ers	-107
ul	-108
▁der	-109
▁من	-110
▁ع	-111
de	-112
iv	-113
▁die	-114
▁al	-115
ich	-116
ale	-117
▁20	-118
▁H	-119
ta	-120
▁ha	-121
ية	-122
▁del	-123
la	-124
▁N	-125
▁Quel	-126
▁est	-127
▁G	-128
ce	-129
ing	-130
▁الم	-131
▁ب	-132
▁com	-133
▁ك	-134
ant	-135
ct	-136
min	-137
▁re	-138
▁é	-139
ال	-140
▁R	-141
▁F	-142
▁ل	-143
elch	-144
▁fil	-145
ia	-146
▁par	-147
um	-148
▁des	-149
op	-150
▁pr	-151
▁k	-152
▁st	-153
▁Qué	-154
ann	-155
st	-156
ation	-157
▁ي	-158
▁y	-159
อง	-160
ien	-161
▁to	-162
▁K	-163
ato	-164
▁es	-165
ue	-166
▁19	-167
▁الت	-168
▁الا	-169
▁어	-170
ين	-171
uá	-172
▁les	-173
ón	-174
ี่	-175
▁J	-176
▁filmin	-177
ang	-178
ات	-179
io	-180
▁è	-181
▁was	-182
ow	-183
ier	-184
▁In	-185
ter	-186
ag	-187
▁pro	-188
to	-189
▁is	-190
▁z	-191
▁hat	-192
ont	-193
▁wh	-194
our	-195
ام	-196
ib	-197
iz	-198
▁Was	-199
▁von	-200
up	-201
▁que	-202
ans	-203
elle	-204
▁Cuá	-205
ere	-206
▁il	-207
ot	-208
ول	-209
▁los	-210
인가	-211
hr	-212
▁الذ	-213
ระ	-214
ür	-215
▁U	-216
ที่	-217
ort	-218
ve	-219
▁be	-220
▁무	-221
에서	-222
ud	-223
▁이	-224
if	-225
▁V	-226
▁qué	-227
ung	-228
ري	-229
end	-230
ها	-231
ap	-232
ab	-233
▁filminin	-234
▁201	-235
▁و	-236
าร	-237
ay	-238
▁Welch	-239
ell	-240
▁ein	-241
▁Qui	-242
▁O	-243
▁ist	-244
▁did	-245
▁Ch	-246
▁per	-247
▁for	-248
od	-249
▁هو	-250
ub	-251
▁الذي	-252
▁هي	-253
▁التي	-254
ten	-255
▁무엇	-256
ica	-257
▁اي	-258
▁er	-259
▁เ	-260
่า	-261
ess	-262
่อ	-263
ass	-264
eg	-265
▁200	-266
ip	-267
した	-268
▁à	-269
isch	-270
すか	-271
ใน	-272
ار	-273
én	-274
ac	-275
ไร	-276
té	-277
คร	-278
▁au	-279
tr	-280
▁im	-281
▁what	-282
ون	-283
▁"	-284
▁En	-285
pe	-286
▁ch	-287
ment	-288
็น	-289
ne	-290
▁ن	-291
▁du	-292
és	-293
me	-294
ér	-295
iqu	-296
ป็น	-297
是什么	-298
ือ	-299
▁كان	-300
omb	-301
ens	-302
ff	-303
อะ	-304
▁The	-305
iel	-306
ción	-307
rit	-308
ของ	-309
▁س	-310
▁war	-311
ind	-312
men	-313
ge	-314
oc	-315
▁gr	-316
▁عل	-317
ですか	-318
▁son	-319
ou	-320
▁j	-321
▁welch	-322
ver	-323
อะไร	-324
und	-325
ado	-326
ate	-327
را	-328
all	-329
▁ق	-330
ine	-331
ond	-332
pr	-333
▁ان	-334
▁tr	-335
ée	-336
ione	-337
▁St	-338
▁an	-339
▁Wie	-340
ํา	-341
og	-342
دي	-343
edir	-344
uer	-345
▁nedir	-346
li	-347
ื่อ	-348
ach	-349
▁fue	-350
ew	-351
▁wur	-352
▁th	-353
▁사	-354
▁and	-355
▁Quelle	-356
▁pl	-357
▁몇	-358
ست	-359
는가	-360
▁zu	-361
▁as	-362
az	-363
les	-364
▁ver	-365
ire	-366
ัน	-367
▁pu	-368
ใด	-369
ient	-370
▁su	-371
nd	-372
osa	-373
▁été	-374
▁Quand	-375
▁or	-376
▁pour	-377
mp	-378
ور	-379
▁do	-380
▁las	-381
▁éta	-382
▁ann	-383
ประ	-384
ีย	-385
เท	-386
▁Quale	-387
va	-388
▁Qual	-389
▁qui	-390
▁ar	-391
のは	-392
ben	-393
nt	-394
มี	-395
▁الع	-396
▁있	-397
▁et	-398
▁i	-399
ente	-400
เป็น	-401
ob	-402
้า	-403
▁ج	-404
▁ex	-405
▁ح	-406
ير	-407
ahr	-408
are	-409
ian	-410
การ	-411
▁على	-412
angi	-413
▁Welche	-414
▁대	-415
▁Who	-416
▁hangi	-417
▁das	-418
▁How	-419
دة	-420
일까	-421
any	-422
▁Un	-423
▁che	-424
ug	-425
▁fr	-426
多少	-427
يا	-428
เม	-429
ord	-430
ame	-431
mer	-432
▁para	-433
ata	-434
▁Ar	-435
▁den	-436
du	-437
ement	-438
ante	-439
ard	-440
่ง	-441
ler	-442
▁für	-443
▁una	-444
ร์	-445
ذا	-446
▁تم	-447
▁comp	-448
▁nel	-449
▁dans	-450
▁Wer	-451
▁prim	-452
cc	-453
หร	-454
▁Cuál	-455
▁pre	-456
au	-457
▁wurde	-458
ico	-459
th	-460
▁Jahr	-461
าย	-462
▁us	-463
per	-464
ique	-465
▁ro	-466
00	-467
ber	-468
ore	-469
lich	-470
▁الح	-471
▁était	-472
▁어떤	-473
▁diz	-474
▁ne	-475
ía	-476
cul	-477
▁at	-478
▁Chi	-479
▁quale	-480
は何	-481
ön	-482
mo	-483
▁und	-484
으로	-485
ity	-486
▁dé	-487
을까	-488
eit	-489
pp	-490
yor	-491
▁dizis	-492
▁시	-493
ik	-494
▁كم	-495
▁ont	-496
▁si	-497
▁are	-498
iss	-499
ma	-500
ัก	-501
▁누	-502
ั้	-503
ost	-504
res	-505
▁Quién	-506
ies	-507
den	-508
าก	-509
▁Z	-510
util	-511
▁الق	-512
▁什么	-513
▁on	-514
سم	-515
▁era	-516
▁ent	-517
اب	-518
art	-519
时候	-520
av	-521
▁ter	-522
ome	-523
▁so	-524
▁언	-525
▁ge	-526
ano	-527
ıyor	-528
▁part	-529
anı	-530
▁무엇인가	-531
▁الب	-532
ischen	-533
دم	-534
▁viel	-535
▁cons	-536
在哪	-537
ใคร	-538
ak	-539
▁(	-540
▁IM	-541
▁por	-542
ect	-543
▁이름	-544
った	-545
▁tür	-546
▁puanı	-547
port	-548
▁IMD	-549
ure	-550
▁제	-551
▁الس	-552
▁alıyor	-553
หน	-554
▁util	-555
▁مت	-556
ับ	-557
▁가	-558
ern	-559
▁عام	-560
ás	-561
したか	-562
▁cosa	-563
ult	-564
▁della	-565
▁quelle	-566
land	-567
onn	-568
าน	-569
▁kim	-570
▁الى	-571
▁Che	-572
▁لل	-573
▁18	-574
ong	-575
▁누구	-576
▁plus	-577
ast	-578
ive	-579
ว่า	-580
เร	-581
▁언제	-582
▁ser	-583
ran	-584
され	-585
▁Be	-586
وا	-587
ign	-588
▁rel	-589
▁sont	-590
▁IMDb	-591
ly	-592
سي	-593
▁ad	-594
าม	-595
oi	-596
دد	-597
ั้ง	-598
وم	-599
ck	-600
▁cont	-601
▁ش	-602
ito	-603
lo	-604
▁Comb	-605
cia	-606
▁Combien	-607
ial	-608
▁dur	-609
▁الج	-610
نا	-611
▁중	-612
emp	-613
▁أ	-614
ith	-615
igh	-616
▁sono	-617
ัง	-618
▁ty	-619
้น	-620
ati	-621
อย	-622
▁Y	-623
يل	-624
▁welchem	-625
▁tra	-626
وع	-627
▁이름은	-628
ina	-629
age	-630
▁no	-631
▁stato	-632
ide	-633
ident	-634
▁When	-635
ิน	-636
▁quel	-637
ton	-638
คือ	-639
▁many	-640
▁dis	-641
▁ab	-642
ain	-643
ada	-644
ite	-645
vent	-646
▁pers	-647
▁tro	-648
za	-649
man	-650
▁Al	-651
▁auf	-652
ils	-653
▁Le	-654
▁عدد	-655
▁más	-656
aj	-657
ิด	-658
ais	-659
urs	-660
ivers	-661
▁sur	-662
▁cl	-663
▁De	-664
▁기	-665
▁dizisin	-666
ft	-667
che	-668
عل	-669
▁co	-670
ear	-671
▁viele	-672
ces	-673
▁La	-674
てい	-675
▁3	-676
▁수	-677
amp	-678
▁res	-679
▁filminde	-680
ió	-681
▁مع	-682
ริ	-683
▁الك	-684
ische	-685
▁pe	-686
▁ماذا	-687
one	-688
รา	-689
▁gen	-690
icht	-691
▁متى	-692
kt	-693
iert	-694
▁어디	-695
ov	-696
▁oy	-697
cular	-698
▁¿	-699
att	-700
ipo	-701
พระ	-702
mi	-703
ัด	-704
ction	-705
▁me	-706
▁pop	-707
uss	-708
ndo	-709
▁with	-710
رة	-711
▁전	-712
ru	-713
▁oyun	-714
ett	-715
าว	-716
ados	-717
▁pol	-718
▁oyuncular	-719
▁fa	-720
▁지	-721
▁Sch	-722
ert	-723
▁ré	-724
▁als	-725
رب	-726
▁yön	-727
▁dem	-728
co	-729
▁것	-730
▁谁	-731
uch	-732
ill	-733
دا	-734
ación	-735
ชื่อ	-736
ido	-737
cent	-738
ons	-739
ales	-740
ins	-741
哪个	-742
ทย	-743
aus	-744
▁Re	-745
เทศ	-746
وب	-747
gr	-748
▁Gr	-749
▁reg	-750
▁haben	-751
▁الش	-752
ión	-753
▁New	-754
▁Cuándo	-755
▁mit	-756
▁añ	-757
▁col	-758
enn	-759
하는	-760
▁um	-761
▁cre	-762
▁does	-763
▁sind	-764
ork	-765
▁الن	-766
▁الف	-767
▁grand	-768
▁아	-769
▁ind	-770
▁Wann	-771
out	-772
一年	-773
▁gro	-774
cl	-775
ère	-776
ประเทศ	-777
▁that	-778
▁Quando	-779
▁ส	-780
▁عن	-781
▁Com	-782
▁pub	-783
ition	-784
▁خ	-785
▁sich	-786
▁An	-787
▁une	-788
ู่	-789
ité	-790
▁sp	-791
تم	-792
▁pi	-793
▁한	-794
ari	-795
تح	-796
▁were	-797
▁type	-798
orm	-799
▁inter	-800
sch	-801
▁199	-802
▁aut	-803
▁tipo	-804
قة	-805
▁정	-806
ese	-807
▁'	-808
▁av	-809
▁kon	-810
اء	-811
▁ر	-812
▁eine	-813
ated	-814
مل	-815
▁nom	-816
▁te	-817
lic	-818
ille	-819
cip	-820
cu	-821
fer	-822
เมื่อ	-823
▁선	-824
เก	-825
ด้	-826
เล	-827
▁app	-828
▁by	-829
▁بال	-830
اي	-831
que	-832
▁am	-833
่น	-834
ous	-835
▁yönet	-836
▁일	-837
▁Which	-838
يف	-839
はど	-840
▁pres	-841
olog	-842
▁Sp	-843
ice	-844
▁fin	-845
▁경	-846
▁الر	-847
▁produ	-848
anti	-849
▁yönetmen	-850
▁인	-851
ées	-852
hn	-853
วง	-854
ict	-855
cr	-856
▁Cuánt	-857
ux	-858
der	-859
ise	-860
ละ	-861
▁year	-862
▁pa	-863
oss	-864
ys	-865
ican	-866
idad	-867
▁어떻	-868
رك	-869
ائ	-870
usu	-871
▁해	-872
▁ใคร	-873
了什么	-874
كن	-875
gan	-876
▁어떻게	-877
▁Mar	-878
▁can	-879
ven	-880
iones	-881
▁car	-882
ations	-883
لا	-884
ภา	-885
gen	-886
▁from	-887
された	-888
pt	-889
esch	-890
يس	-891
▁konusu	-892
ู้	-893
▁나	-894
▁inf	-895
ze	-896
อร์	-897
▁cr	-898
itt	-899
▁prin	-900
ors	-901
ando	-902
▁국	-903
▁Pr	-904
▁주	-905
่อง	-906
▁연	-907
ied	-908
▁nomb	-909
▁الد	-910
ento	-911
ปี	-912
ird	-913
▁più	-914
าง	-915
▁Se	-916
▁mod	-917
一个	-918
▁rol	-919
▁dizisinin	-920
▁유	-921
بر	-922
ura	-923
有多少	-924
مة	-925
▁د	-926
▁da	-927
tre	-928
ติ	-929
oy	-930
▁Par	-931
cé	-932
▁كانت	-933
년도	-934
▁在	-935
ific	-936
we	-937
urop	-938
▁yönetmeni	-939
ok	-940
▁cap	-941
اد	-942
หรือ	-943
ence	-944
▁cent	-945
tat	-946
اع	-947
ole	-948
▁وال	-949
▁mus	-950
▁aus	-951
ましたか	-952
▁ant	-953
▁quoi	-954
ile	-955
▁Wo	-956
▁mar	-957
มา	-958
rie	-959
▁form	-960
อยู่	-961
no	-962
什么时候	-963
ม่	-964
▁방	-965
▁dell	-966
▁Welcher	-967
▁조	-968
▁사람	-969
لي	-970
▁เป็น	-971
ónde	-972
lam	-973
con	-974
iene	-975
▁แ	-976
เด	-977
ah	-978
▁발	-979
▁อ	-980
ph	-981
ได้	-982
itu	-983
▁لم	-984
اف	-985
니까	-986
ستخ	-987
▁guer	-988
▁primer	-989
▁하	-990
eb	-991
รร	-992
zione	-993
▁he	-994
▁it	-995
ight	-996
azione	-997
0?	-998
ali	-999
▁Where	-1000
بل	-1001
int	-1002
act	-1003
▁temp	-1004
iste	-1005
▁nombre	-1006
ใช	-1007
ath	-1008
ish	-1009
chen	-1010
elles	-1011
▁popul	-1012
ว่าอะไร	-1013
▁año	-1014
อก	-1015
อน	-1016
▁sup	-1017
▁anno	-1018
▁fir	-1019
หล	-1020
▁무엇일까	-1021
▁부	-1022
▁cu	-1023
uto	-1024
▁utiliz	-1025
ผู้	-1026
▁ac	-1027
▁출	-1028
iques	-1029
ions	-1030
vel	-1031
▁princip	-1032
19	-1033
▁all	-1034
▁위	-1035
ex	-1036
سب	-1037
▁Que	-1038
rol	-1039
▁Pro	-1040
▁اين	-1041
ุด	-1042
ตร	-1043
وس	-1044
▁มี	-1045
▁영	-1046
▁mon	-1047
▁pas	-1048
▁ers	-1049
ื่อง	-1050
▁lo	-1051
▁yer	-1052
ble	-1053
▁lib	-1054
▁역	-1055
▁como	-1056
oria	-1057
tro	-1058
ry	-1059
acht	-1060
▁année	-1061
▁Art	-1062
ตั้ง	-1063
▁الص	-1064
▁cal	-1065
รั	-1066
mente	-1067
▁198	-1068
▁5	-1069
ase	-1070
▁sol	-1071
▁consid	-1072
จาก	-1073
vec	-1074
▁4	-1075
▁El	-1076
▁wer	-1077
وق	-1078
▁Ver	-1079
ino	-1080
▁caus	-1081
は誰	-1082
État	-1083
20	-1084
une	-1085
ance	-1086
se	-1087
go	-1088
ater	-1089
เท่า	-1090
▁Amer	-1091
되었	-1092
▁พ	-1093
どの	-1094
▁sch	-1095
วิ	-1096
▁يم	-1097
から	-1098
▁Welches	-1099
▁have	-1100
▁الط	-1101
▁cor	-1102
▁Is	-1103
▁개	-1104
ca	-1105
▁Où	-1106
crit	-1107
uv	-1108
vol	-1109
▁parte	-1110
ger	-1111
ita	-1112
able	-1113
pos	-1114
▁fo	-1115
▁acc	-1116
หม	-1117
gl	-1118
▁sign	-1119
كل	-1120
▁lang	-1121
ลง	-1122
be	-1123
ior	-1124
ador	-1125
▁공	-1126
ioni	-1127
Un	-1128
"?	-1129
án	-1130
▁sec	-1131
ays	-1132
bl	-1133
是什么时候	-1134
ede	-1135
anno	-1136
▁بع	-1137
▁wird	-1138
▁const	-1139
▁것은	-1140
ให	-1141
▁نوع	-1142
ไทย	-1143
ود	-1144
ريك	-1145
รก	-1146
▁الام	-1147
▁werden	-1148
▁türler	-1149
éd	-1150
▁comm	-1151
fic	-1152
ove	-1153
▁Fran	-1154
dir	-1155
▁utilis	-1156
▁배	-1157
▁ก	-1158
▁يع	-1159
fr	-1160
عة	-1161
lu	-1162
▁الان	-1163
ios	-1164
صل	-1165
▁first	-1166
▁group	-1167
▁소	-1168
amb	-1169
นัก	-1170
▁US	-1171
国家	-1172
▁ü	-1173
ไหร	-1174
▁누구인가	-1175
ants	-1176
oma	-1177
▁man	-1178
ın	-1179
▁김	-1180
▁person	-1181
ไหร่	-1182
▁ค	-1183
▁Dónde	-1184
هم	-1185
เพ	-1186
▁ci	-1187
▁프	-1188
ità	-1189
جم	-1190
▁act	-1191
▁미	-1192
وي	-1193
do	-1194
▁스	-1195
▁구	-1196
نة	-1197
ไม่	-1198
▁المتح	-1199
▁اسم	-1200
▁197	-1201
▁rec	-1202
ld	-1203
elt	-1204
อล	-1205
▁non	-1206
▁sh	-1207
▁Die	-1208
zen	-1209
جل	-1210
ime	-1211
าล	-1212
ary	-1213
▁name	-1214
▁จ	-1215
▁fuer	-1216
mier	-1217
▁pla	-1218
ational	-1219
เข	-1220
ade	-1221
วัน	-1222
aut	-1223
いつ	-1224
ism	-1225
▁ed	-1226
วัด	-1227
▁Con	-1228
ical	-1229
▁go	-1230
▁غ	-1231
▁194	-1232
나요	-1233
โด	-1234
▁stata	-1235
▁ap	-1236
ero	-1237
▁Br	-1238
ick	-1239
ómo	-1240
▁마	-1241
ori	-1242
uc	-1243
ida	-1244
▁الي	-1245
▁المتحدة	-1246
▁Quels	-1247
خر	-1248
▁哪	-1249
vis	-1250
▁entre	-1251
▁세	-1252
ขึ	-1253
iam	-1254
าส	-1255
▁ins	-1256
vern	-1257
ขึ้น	-1258
▁ob	-1259
af	-1260
تب	-1261
样的	-1262
▁trans	-1263
▁년도	-1264
▁ag	-1265
يد	-1266
▁يمكن	-1267
▁relig	-1268
▁welcher	-1269
▁الث	-1270
ution	-1271
hi	-1272
▁organ	-1273
▁hanno	-1274
ke	-1275
▁grande	-1276
ustr	-1277
cial	-1278
her	-1279
ents	-1280
▁اله	-1281
▁오	-1282
こと	-1283
▁تح	-1284
ét	-1285
ชา	-1286
▁뭐	-1287
ますか	-1288
ثر	-1289
▁Quelles	-1290
ัย	-1291
encia	-1292
uf	-1293
ูก	-1294
yon	-1295
ower	-1296
เจ	-1297
แรก	-1298
اني	-1299
▁wurden	-1300
رن	-1301
▁Quanti	-1302
▁Cuántos	-1303
美国	-1304
ild	-1305
▁17	-1306
pu	-1307
igin	-1308
▁med	-1309
اح	-1310
vers	-1311
▁최	-1312
ès	-1313
▁min	-1314
นา	-1315
ungen	-1316
ek	-1317
ไหน	-1318
▁اك	-1319
wend	-1320
する	-1321
เรื่อง	-1322
lan	-1323
▁vers	-1324
在哪里	-1325
▁ass	-1326
▁고	-1327
دين	-1328
したのは	-1329
الم	-1330
ستخدم	-1331
▁univers	-1332
▁هل	-1333
ono	-1334
▁War	-1335
erg	-1336
قد	-1337
ohn	-1338
لة	-1339
hen	-1340
ème	-1341
▁보	-1342
▁À	-1343
กับ	-1344
etz	-1345
ือง	-1346
▁über	-1347
اس	-1348
ista	-1349
amente	-1350
انية	-1351
ชน	-1352
้อง	-1353
tem	-1354
▁Dans	-1355
▁서	-1356
วน	-1357
在哪一年	-1358
وف	-1359
▁mil	-1360
عب	-1361
وج	-1362
▁성	-1363
▁come	-1364
▁État	-1365
ís	-1366
▁loc	-1367
▁dei	-1368
aux	-1369
ولاي	-1370
▁yay	-1371
▁Cómo	-1372
▁ใน	-1373
enz	-1374
▁어느	-1375
▁후	-1376
▁Sh	-1377
eral	-1378
▁which	-1379
▁yayın	-1380
▁قبل	-1381
▁الخ	-1382
)?	-1383
idos	-1384
▁Gre	-1385
สุด	-1386
▁ang	-1387
▁comme	-1388
ait	-1389
▁신	-1390
ولايات	-1391
لال	-1392
▁Or	-1393
ativ	-1394
po	-1395
▁durante	-1396
ally	-1397
ana	-1398
udad	-1399
cess	-1400
▁pos	-1401
▁stud	-1402
ラン	-1403
▁comb	-1404
▁aux	-1405
بي	-1406
▁ص	-1407
▁관	-1408
hl	-1409
▁무엇이	-1410
يم	-1411
aç	-1412
izo	-1413
▁대한	-1414
▁art	-1415
olo	-1416
▁Tr	-1417
▁있는	-1418
▁8	-1419
اري	-1420
▁자	-1421
▁الل	-1422
agn	-1423
▁pass	-1424
iale	-1425
▁Quali	-1426
使用	-1427
opin	-1428
▁dass	-1429
▁nome	-1430
anz	-1431
▁cer	-1432
▁spe	-1433
▁Reg	-1434
▁Name	-1435
▁ciudad	-1436
cer	-1437
pl	-1438
ราช	-1439
wo	-1440
▁has	-1441
iet	-1442
▁premi	-1443
▁Te	-1444
ust	-1445
▁2008	-1446
▁언제인가	-1447
▁노	-1448
เรีย	-1449
▁geg	-1450
شر	-1451
istr	-1452
tag	-1453
▁Th	-1454
ren	-1455
كون	-1456
▁Est	-1457
有什么	-1458
▁hizo	-1459
ย์	-1460
▁도	-1461
ige	-1462
▁196	-1463
▁gem	-1464
▁kaç	-1465
own	-1466
▁inv	-1467
▁consider	-1468
▁되	-1469
ている	-1470
ines	-1471
▁import	-1472
alt	-1473
تر	-1474
unt	-1475
ิง	-1476
▁diff	-1477
โร	-1478
ند	-1479
▁동	-1480
▁vol	-1481
▁used	-1482
▁2014	-1483
▁Ne	-1484
▁ph	-1485
ario	-1486
ele	-1487
▁2009	-1488
▁비	-1489
iento	-1490
tra	-1491
▁يتم	-1492
▁ط	-1493
▁Beyon	-1494
▁af	-1495
▁6	-1496
pres	-1497
▁nach	-1498
คน	-1499
igen	-1500
▁avec	-1501
bre	-1502
▁تق	-1503
ครั้ง	-1504
หรือไม่	-1505
▁emp	-1506
▁fam	-1507
▁bas	-1508
▁serv	-1509
ตร์	-1510
▁guerra	-1511
▁의	-1512
اص	-1513
▁grup	-1514
▁7	-1515
ัว	-1516
และ	-1517
omin	-1518
กี่	-1519
ئيس	-1520
▁그	-1521
▁2011	-1522
▁사람은	-1523
はどこ	-1524
▁York	-1525
par	-1526
än	-1527
▁장	-1528
▁estab	-1529
▁해는	-1530
▁다	-1531
▁inc	-1532
▁not	-1533
▁상	-1534
لك	-1535
▁X	-1536
▁الذين	-1537
amm	-1538
دينة	-1539
▁있을까	-1540
led	-1541
▁Univers	-1542
▁may	-1543
▁تع	-1544
▁trad	-1545
▁لا	-1546
して	-1547
ึ่ง	-1548
yn	-1549
▁polit	-1550
▁당	-1551
▁contr	-1552
ires	-1553
れた	-1554
orth	-1555
▁em	-1556
por	-1557
▁Les	-1558
▁def	-1559
ห่ง	-1560
は何ですか	-1561
โดย	-1562
ose	-1563
▁gli	-1564
何年	-1565
ちら	-1566
▁film	-1567
ional	-1568
โล	-1569
gli	-1570
▁Europ	-1571
リー	-1572
들이	-1573
ates	-1574
iti	-1575
是多少	-1576
ced	-1577
isten	-1578
▁États	-1579
jo	-1580
▁만	-1581
▁sc	-1582
liche	-1583
▁pays	-1584
▁2013	-1585
▁beg	-1586
ument	-1587
ual	-1588
▁sein	-1589
5?	-1590
erst	-1591
でしたか	-1592
▁verwend	-1593
▁2007	-1594
▁Er	-1595
▁2012	-1596
ทาง	-1597
▁2010	-1598
▁cult	-1599
▁class	-1600
世界	-1601
▁po	-1602
▁tiene	-1603
▁leg	-1604
sh	-1605
▁الأ	-1606
ใช่	-1607
▁está	-1608
리그	-1609
학교	-1610
▁nicht	-1611
atur	-1612
▁Ind	-1613
▁Dove	-1614
▁때	-1615
anto	-1616
ieren	-1617
▁dizisi	-1618
▁Car	-1619
aire	-1620
▁الولايات	-1621
▁origin	-1622
开始	-1623
▁mem	-1624
▁모	-1625
aft	-1626
ังห	-1627
uld	-1628
▁u	-1629
ht	-1630
ictoria	-1631
▁constru	-1632
วย	-1633
adt	-1634
ภาพ	-1635
ther	-1636
aron	-1637
▁delle	-1638
กา	-1639
antes	-1640
▁cas	-1641
cht	-1642
▁10	-1643
▁occ	-1644
ولة	-1645
▁fe	-1646
ที่เท่า	-1647
입니까	-1648
ystem	-1649
是哪	-1650
ory	-1651
▁met	-1652
▁seg	-1653
ส์	-1654
▁195	-1655
▁لدي	-1656
ใช่หรือไม่	-1657
▁deux	-1658
▁가장	-1659
년에	-1660
่ม	-1661
lichen	-1662
เน	-1663
كان	-1664
สม	-1665
▁Comment	-1666
ิม	-1667
arg	-1668
uth	-1669
esse	-1670
▁most	-1671
▁생	-1672
aman	-1673
▁soci	-1674
ät	-1675
▁brit	-1676
ังหวัด	-1677
รี	-1678
ros	-1679
▁gew	-1680
▁inst	-1681
อา	-1682
▁American	-1683
によ	-1684
ri	-1685
orld	-1686
tern	-1687
▁결	-1688
iff	-1689
هر	-1690
▁cos	-1691
▁país	-1692
ปล	-1693
แห่ง	-1694
▁Lond	-1695
▁ou	-1696
▁الو	-1697
سة	-1698
▁작	-1699
▁wie	-1700
ace	-1701
▁dire	-1702
▁türü	-1703
oci	-1704
ack	-1705
änd	-1706
agg	-1707
▁뭐야	-1708
▁ve	-1709
▁어디인가	-1710
คว	-1711
▁9	-1712
▁Ab	-1713
没有	-1714
ake	-1715
▁population	-1716
世纪	-1717
ทร	-1718
에는	-1719
▁경기	-1720
▁fait	-1721
وري	-1722
▁كيف	-1723
▁193	-1724
수는	-1725
red	-1726
ارة	-1727
哪些	-1728
为什么	-1729
▁ten	-1730
▁John	-1731
él	-1732
▁여	-1733
طل	-1734
▁哪个	-1735
ible	-1736
يرة	-1737
ดง	-1738
دث	-1739
être	-1740
▁bo	-1741
annt	-1742
ommen	-1743
ople	-1744
▁sa	-1745
ona	-1746
vo	-1747
ني	-1748
Cuá	-1749
▁Ph	-1750
▁kimler	-1751
idente	-1752
erm	-1753
▁맡	-1754
▁진	-1755
▁wo	-1756
ismo	-1757
▁long	-1758
▁명	-1759
▁cuá	-1760
ute	-1761
▁เก	-1762
hal	-1763
ったのは	-1764
ähr	-1765
▁zaman	-1766
ör	-1767
ある	-1768
▁neler	-1769
طة	-1770
ดี	-1771
its	-1772
่าง	-1773
▁ام	-1774
▁trou	-1775
▁어떠	-1776
Unis	-1777
▁ess	-1778
iemp	-1779
ยน	-1780
▁türde	-1781
oman	-1782
▁dal	-1783
ici	-1784
하였	-1785
▁اع	-1786
▁내	-1787
outh	-1788
▁받	-1789
▁vis	-1790
ock	-1791
▁اول	-1792
▁Chopin	-1793
้าง	-1794
มห	-1795
untr	-1796
▁siste	-1797
II	-1798
▁Mus	-1799
▁قام	-1800
เมือง	-1801
▁much	-1802
erv	-1803
▁verwendet	-1804
son	-1805
orte	-1806
▁türleri	-1807
▁Land	-1808
▁port	-1809
第一	-1810
▁conf	-1811
ريق	-1812
centage	-1813
▁premier	-1814
ركة	-1815
aison	-1816
▁llam	-1817
กล	-1818
يو	-1819
เว	-1820
▁sy	-1821
▁علي	-1822
iens	-1823
▁Quante	-1824
رق	-1825
aten	-1826
▁문	-1827
ank	-1828
▁As	-1829
▁prima	-1830
ua	-1831
▁welche	-1832
▁id	-1833
▁พระ	-1834
صر	-1835
▁บ	-1836
ola	-1837
omm	-1838
ima	-1839
era	-1840
▁termin	-1841
▁hist	-1842
در	-1843
▁교	-1844
▁fueron	-1845
▁سنة	-1846
▁Ge	-1847
▁resp	-1848
enti	-1849
▁state	-1850
يت	-1851
este	-1852
ديد	-1853
ชาว	-1854
▁Id	-1855
aven	-1856
BC	-1857
▁bet	-1858
▁Cosa	-1859
▁المع	-1860
นิ	-1861
▁팀	-1862
大学	-1863
ium	-1864
▁Sta	-1865
▁خلال	-1866
เส	-1867
▁prés	-1868
crib	-1869
▁Fl	-1870
▁South	-1871
ทํา	-1872
叫什么	-1873
اج	-1874
▁sie	-1875
▁Nap	-1876
▁nelerdir	-1877
▁한국	-1878
ones	-1879
▁nella	-1880
้ํา	-1881
sen	-1882
▁mot	-1883
▁hum	-1884
▁alla	-1885
▁Pour	-1886
ิล	-1887
let	-1888
رض	-1889
oll	-1890
วั	-1891
obre	-1892
لم	-1893
▁sul	-1894
▁tiemp	-1895
名字	-1896
日本	-1897
ena	-1898
▁mayor	-1899
▁승	-1900
▁16	-1901
icos	-1902
▁بعد	-1903
ool	-1904
รับ	-1905
เจ้า	-1906
แส	-1907
▁คือ	-1908
▁Pre	-1909
ていた	-1910
▁mond	-1911
inn	-1912
▁dec	-1913
▁Cuántas	-1914
anye	-1915
ivo	-1916
▁Por	-1917
▁waren	-1918
▁influ	-1919
velop	-1920
▁bef	-1921
ings	-1922
▁للم	-1923
▁dizisinde	-1924
▁camp	-1925
リカ	-1926
الي	-1927
▁Hous	-1928
▁West	-1929
เซ	-1930
200	-1931
▁sub	-1932
라는	-1933
英国	-1934
年に	-1935
▁الاس	-1936
▁men	-1937
ste	-1938
▁프로	-1939
imes	-1940
▁gemacht	-1941
กร	-1942
▁남	-1943
öff	-1944
▁fond	-1945
▁people	-1946
까지	-1947
ühr	-1948
รัฐ	-1949
pect	-1950
ما	-1951
رت	-1952
▁imp	-1953
▁neg	-1954
▁progr	-1955
▁بين	-1956
▁City	-1957
▁intern	-1958
▁현	-1959
▁citt	-1960
ิต	-1961
▁gesch	-1962
▁aff	-1963
isation	-1964
▁einen	-1965
▁countr	-1966
old	-1967
▁총	-1968
▁『	-1969
▁우	-1970
▁fran	-1971
ادة	-1972
▁اس	-1973
▁있는가	-1974
▁처	-1975
▁commen	-1976
▁العالم	-1977
iche	-1978
▁bel	-1979
ต์	-1980
부터	-1981
ret	-1982
ษา	-1983
atto	-1984
▁vor	-1985
صب	-1986
▁ges	-1987
เมื่อไหร่	-1988
▁المن	-1989
ถูก	-1990
▁eff	-1991
▁other	-1992
▁cour	-1993
وت	-1994
认为	-1995
bor	-1996
▁prov	-1997
▁المح	-1998
الية	-1999
lt	-2000
▁12	-2001
▁new	-2002
1?	-2003
izz	-2004
iger	-2005
oro	-2006
ores	-2007
▁second	-2008
ién	-2009
▁ต	-2010
どちら	-2011
▁Mens	-2012
▁ville	-2013
ให้	-2014
vert	-2015
라고	-2016
▁capit	-2017
▁태	-2018
ชาติ	-2019
ama	-2020
▁است	-2021
▁être	-2022
▁Victoria	-2023
asser	-2024
قا	-2025
isen	-2026
érica	-2027
kla	-2028
▁filmi	-2029
▁his	-2030
에게	-2031
jet	-2032
pend	-2033
했을까	-2034
公司	-2035
▁Fr	-2036
ค์	-2037
ule	-2038
▁rég	-2039
▁their	-2040
FA	-2041
าร์	-2042
form	-2043
جموع	-2044
▁Haven	-2045
bum	-2046
▁영화	-2047
▁estado	-2048
ature	-2049
なの	-2050
ars	-2051
▁تش	-2052
onnen	-2053
▁예	-2054
▁prof	-2055
près	-2056
▁gan	-2057
ix	-2058
▁15	-2059
ธิ	-2060
▁ア	-2061
▁mo	-2062
ifica	-2063
▁2006	-2064
conom	-2065
ール	-2066
leg	-2067
▁zw	-2068
▁how	-2069
pués	-2070
▁mov	-2071
ury	-2072
atal	-2073
▁erste	-2074
▁종	-2075
rop	-2076
rieg	-2077
قل	-2078
▁얼	-2079
▁sus	-2080
ti	-2081
chn	-2082
▁hab	-2083
غة	-2084
▁원	-2085
▁amer	-2086
▁Idol	-2087
▁된	-2088
▁sistema	-2089
▁Am	-2090
adas	-2091
▁str	-2092
ili	-2093
unto	-2094
▁cond	-2095
ความ	-2096
ün	-2097
▁Per	-2098
▁sta	-2099
ative	-2100
▁dist	-2101
حت	-2102
▁드	-2103
▁einer	-2104
▁rap	-2105
▁Man	-2106
ún	-2107
izi	-2108
▁poss	-2109
▁term	-2110
▁déc	-2111
▁Menschen	-2112
▁25	-2113
แสดง	-2114
ai	-2115
endant	-2116
▁città	-2117
unden	-2118
了多少	-2119
เต	-2120
▁Can	-2121
▁Zeit	-2122
▁통	-2123
aciones	-2124
▁public	-2125
orn	-2126
pen	-2127
▁Dur	-2128
piel	-2129
ít	-2130
▁Co	-2131
رف	-2132
人口	-2133
esso	-2134
▁방송	-2135
ene	-2136
als	-2137
▁국가	-2138
cept	-2139
▁Mon	-2140
▁Brit	-2141
如何	-2142
▁Ant	-2143
zt	-2144
▁/	-2145
-1	-2146
ศาส	-2147
▁Il	-2148
4?	-2149
قت	-2150
ker	-2151
اض	-2152
ini	-2153
โลก	-2154
▁city	-2155
esta	-2156
▁langu	-2157
▁respons	-2158
ras	-2159
ิก	-2160
enza	-2161
▁bec	-2162
▁เกิด	-2163
ec	-2164
เบ	-2165
▁강	-2166
aff	-2167
是哪一年	-2168
ierung	-2169
▁사용	-2170
▁alle	-2171
nto	-2172
▁conc	-2173
▁mat	-2174
▁event	-2175
▁بش	-2176
aje	-2177
ใช้	-2178
▁degli	-2179
▁مح	-2180
▁num	-2181
ียน	-2182
ts	-2183
▁바	-2184
▁tiempo	-2185
از	-2186
▁typ	-2187
▁박	-2188
▁At	-2189
لف	-2190
▁one	-2191
iment	-2192
▁oder	-2193
دام	-2194
▁Bar	-2195
▁gef	-2196
▁primo	-2197
▁première	-2198
▁차	-2199
فعل	-2200
ics	-2201
onna	-2202
▁encu	-2203
lass	-2204
ball	-2205
▁stati	-2206
▁날	-2207
城市	-2208
▁포	-2209
▁โ	-2210
스의	-2211
▁جز	-2212
▁특	-2213
ร้อง	-2214
是谁	-2215
▁bu	-2216
▁الغ	-2217
صف	-2218
دما	-2219
▁lie	-2220
وات	-2221
atz	-2222
▁enc	-2223
▁Stadt	-2224
ที่สุด	-2225
tal	-2226
▁Mit	-2227
목은	-2228
hed	-2229
ieron	-2230
▁ซ	-2231
하고	-2232
▁quién	-2233
민국	-2234
ック	-2235
可以	-2236
▁contin	-2237
cio	-2238
▁gre	-2239
▁nue	-2240
خت	-2241
eth	-2242
▁출연	-2243
▁什么是	-2244
▁incl	-2245
▁peut	-2246
▁에	-2247
도는	-2248
▁Me	-2249
▁liv	-2250
▁운	-2251
öß	-2252
heit	-2253
ink	-2254
▁when	-2255
เอ	-2256
▁kn	-2257
etto	-2258
▁kön	-2259
▁two	-2260
▁كل	-2261
ague	-2262
▁called	-2263
ัต	-2264
▁파	-2265
erc	-2266
▁San	-2267
▁commencé	-2268
يز	-2269
reich	-2270
▁einem	-2271
▁얼마	-2272
▁gén	-2273
▁일본	-2274
▁Mad	-2275
▁For	-2276
öffent	-2277
vi	-2278
メリカ	-2279
地区	-2280
▁perm	-2281
▁durch	-2282
▁Chr	-2283
▁bek	-2284
▁น	-2285
▁곳	-2286
war	-2287
▁govern	-2288
▁sobre	-2289
회의	-2290
ures	-2291
ิส	-2292
▁eu	-2293
▁Char	-2294
▁sal	-2295
▁대한민국	-2296
etti	-2297
▁선수	-2298
vait	-2299
▁sci	-2300
▁principal	-2301
▁처음	-2302
▁esp	-2303
▁europ	-2304
▁「	-2305
▁انت	-2306
ของประเทศ	-2307
하여	-2308
äs	-2309
คล	-2310
▁modern	-2311
▁ce	-2312
▁encuent	-2313
na	-2314
▁Kanye	-2315
▁Col	-2316
▁off	-2317
▁dos	-2318
▁Napole	-2319
▁ม	-2320
スト	-2321
▁during	-2322
ner	-2323
odo	-2324
▁use	-2325
▁مدينة	-2326
▁presidente	-2327
000	-2328
▁Ger	-2329
är	-2330
ศ์	-2331
oph	-2332
attle	-2333
▁kann	-2334
▁personn	-2335
öl	-2336
وية	-2337
▁gob	-2338
ha	-2339
▁viv	-2340
▁Russ	-2341
▁control	-2342
のこと	-2343
▁hel	-2344
opo	-2345
beit	-2346
tain	-2347
قي	-2348
aria	-2349
ral	-2350
ière	-2351
は誰ですか	-2352
▁เม	-2353
▁oper	-2354
เพลง	-2355
されたのは	-2356
▁perio	-2357
▁Los	-2358
pub	-2359
▁월	-2360
ows	-2361
▁after	-2362
يع	-2363
จังหวัด	-2364
研究	-2365
igr	-2366
طور	-2367
▁milit	-2368
▁chi	-2369
▁평	-2370
els	-2371
ival	-2372
▁chang	-2373
3?	-2374
สร	-2375
iere	-2376
▁sim	-2377
▁행	-2378
▁Beyonce	-2379
▁bes	-2380
rag	-2381
ออก	-2382
طقة	-2383
습니까	-2384
▁기록	-2385
どこ	-2386
イン	-2387
da	-2388
รรม	-2389
▁되는가	-2390
▁vo	-2391
▁partic	-2392
quoi	-2393
ภาพยน	-2394
▁2015	-2395
▁memb	-2396
في	-2397
wn	-2398
แบ	-2399
들은	-2400
ats	-2401
▁end	-2402
▁puede	-2403
▁étaient	-2404
كت	-2405
▁mund	-2406
كم	-2407
eng	-2408
▁alg	-2409
ชี	-2410
ara	-2411
最も	-2412
部分	-2413
ark	-2414
▁tem	-2415
lav	-2416
▁위해	-2417
▁Jap	-2418
▁안	-2419
نية	-2420
▁Gu	-2421
▁pod	-2422
스트	-2423
entes	-2424
رية	-2425
▁Pa	-2426
ئي	-2427
klah	-2428
▁المو	-2429
2?	-2430
▁단	-2431
adio	-2432
▁chiam	-2433
ree	-2434
ampton	-2435
halten	-2436
▁combien	-2437
ัญ	-2438
▁어떠한	-2439
จํา	-2440
ctor	-2441
▁get	-2442
landı	-2443
ตั้งอยู่	-2444
col	-2445
どの国	-2446
ense	-2447
ibu	-2448
iano	-2449
▁könn	-2450
▁después	-2451
했던	-2452
201	-2453
▁Ad	-2454
มีชื่อ	-2455
▁après	-2456
▁Nord	-2457
▁Pourquoi	-2458
راء	-2459
▁fatto	-2460
▁found	-2461
ึง	-2462
▁배우	-2463
▁gest	-2464
▁tit	-2465
▁utilisé	-2466
ession	-2467
▁시작	-2468
▁att	-2469
ährend	-2470
ที่เท่าไร	-2471
น์	-2472
mes	-2473
อบ	-2474
▁설	-2475
افة	-2476
▁Why	-2477
▁عندما	-2478
▁gu	-2479
isme	-2480
▁gou	-2481
ır	-2482
▁primera	-2483
▁ض	-2484
▁main	-2485
ดิ	-2486
ไป	-2487
▁لما	-2488
▁tari	-2489
iter	-2490
▁lu	-2491
▁its	-2492
▁North	-2493
hower	-2494
isenhower	-2495
سبة	-2496
政府	-2497
سية	-2498
teur	-2499
▁sig	-2500
ภาพยนตร์	-2501
เป	-2502
ason	-2503
klahoma	-2504
▁ir	-2505
▁미국	-2506
andard	-2507
▁imper	-2508
▁yayınlandı	-2509
ด์	-2510
▁anim	-2511
▁دي	-2512
发生	-2513
▁191	-2514
▁등	-2515
▁pal	-2516
▁올	-2517
▁축	-2518
otre	-2519
▁년도는	-2520
erein	-2521
اق	-2522
▁groß	-2523
▁불	-2524
วงศ์	-2525
ward	-2526
▁bei	-2527
▁autre	-2528
ited	-2529
사는	-2530
▁ej	-2531
خص	-2532
▁pré	-2533
เรียก	-2534
▁mé	-2535
▁제목은	-2536
igt	-2537
▁exp	-2538
▁ref	-2539
acter	-2540
mb	-2541
ias	-2542
▁يق	-2543
اه	-2544
▁بها	-2545
้อ	-2546
▁á	-2547
upt	-2548
▁11	-2549
tt	-2550
▁ز	-2551
▁ris	-2552
▁comun	-2553
bo	-2554
▁arch	-2555
▁누구일까	-2556
▁temps	-2557
▁Da	-2558
▁vin	-2559
icas	-2560
▁لماذا	-2561
▁partie	-2562
▁목	-2563
として	-2564
▁meisten	-2565
▁계	-2566
ناء	-2567
imo	-2568
▁super	-2569
▁up	-2570
▁equ	-2571
▁essere	-2572
▁guerre	-2573
alu	-2574
ที่ไหน	-2575
ünd	-2576
้าน	-2577
▁Bo	-2578
sten	-2579
▁fun	-2580
主要	-2581
▁ใครคือ	-2582
▁Cuáles	-2583
▁ول	-2584
▁han	-2585
▁Spiel	-2586
▁او	-2587
▁her	-2588
▁work	-2589
จัก	-2590
だった	-2591
▁Unidos	-2592
ject	-2593
▁pat	-2594
▁2000	-2595
ission	-2596
▁알	-2597
▁타	-2598
最初	-2599
▁br	-2600
▁Estados	-2601
يش	-2602
▁we	-2603
▁cré	-2604
▁elect	-2605
▁يح	-2606
▁맡은	-2607
▁arr	-2608
▁lead	-2609
ajo	-2610
▁로	-2611
라마	-2612
mouth	-2613
fol	-2614
ames	-2615
▁rés	-2616
ienen	-2617
▁compr	-2618
imiento	-2619
▁pap	-2620
▁اكثر	-2621
▁ث	-2622
فعله	-2623
▁pob	-2624
▁Cuánto	-2625
يك	-2626
ator	-2627
hing	-2628
رج	-2629
うち	-2630
กัน	-2631
▁geb	-2632
▁นัก	-2633
▁libro	-2634
▁commun	-2635
ken	-2636
ียง	-2637
บุ	-2638
erry	-2639
ück	-2640
ello	-2641
▁utilizz	-2642
جموعة	-2643
▁2016	-2644
เช	-2645
▁Har	-2646
▁언제야	-2647
帝国	-2648
▁거	-2649
gg	-2650
▁بد	-2651
▁who	-2652
été	-2653
▁Queen	-2654
▁trova	-2655
ドイ	-2656
▁분	-2657
のうち	-2658
▁회	-2659
tru	-2660
mand	-2661
▁언제일까	-2662
مر	-2663
▁ท	-2664
hre	-2665
omp	-2666
▁Quanto	-2667
▁located	-2668
▁He	-2669
▁char	-2670
▁감	-2671
▁음	-2672
▁اخر	-2673
▁Grand	-2674
udi	-2675
ได้รับ	-2676
▁time	-2677
▁Welt	-2678
▁المت	-2679
▁offic	-2680
ott	-2681
irt	-2682
▁Pol	-2683
ักษ	-2684
▁الحرب	-2685
nes	-2686
▁Ein	-2687
ister	-2688
자는	-2689
ég	-2690
لد	-2691
lev	-2692
ora	-2693
แข	-2694
ในปี	-2695
ienne	-2696
▁Port	-2697
yp	-2698
จะ	-2699
فض	-2700
gel	-2701
บอล	-2702
▁system	-2703
▁데	-2704
▁Ex	-2705
▁با	-2706
roit	-2707
8?	-2708
ドイツ	-2709
eren	-2710
▁Teil	-2711
▁الاش	-2712
▁과	-2713
iva	-2714
▁arm	-2715
▁syst	-2716
▁camb	-2717
ريكية	-2718
bour	-2719
keit	-2720
▁defin	-2721
way	-2722
▁date	-2723
ición	-2724
St	-2725
لب	-2726
▁요	-2727
برا	-2728
▁당시	-2729
urch	-2730
▁يعت	-2731
Qué	-2732
▁اث	-2733
▁años	-2734
あり	-2735
ilt	-2736
ouv	-2737
ontr	-2738
▁Cl	-2739
cle	-2740
ícul	-2741
▁verb	-2742
present	-2743
▁Rich	-2744
の中	-2745
语言	-2746
▁belie	-2747
มน	-2748
ยา	-2749
▁popol	-2750
?"	-2751
▁prom	-2752
لس	-2753
مو	-2754
▁während	-2755
▁Des	-2756
▁had	-2757
▁disc	-2758
of	-2759
▁말	-2760
gt	-2761
lio	-2762
พัน	-2763
gh	-2764
ements	-2765
schaft	-2766
แต	-2767
▁참	-2768
egr	-2769
▁country	-2770
test	-2771
▁tre	-2772
ellen	-2773
▁독	-2774
ció	-2775
eder	-2776
uel	-2777
ึก	-2778
利亚	-2779
ตรี	-2780
▁رئيس	-2781
▁Auf	-2782
▁tér	-2783
▁groupe	-2784
除了	-2785
▁Fil	-2786
ตัว	-2787
9?	-2788
年の	-2789
ظام	-2790
▁سي	-2791
▁League	-2792
▁재	-2793
▁World	-2794
เล่น	-2795
ues	-2796
▁Verein	-2797
ート	-2798
다고	-2799
지는	-2800
iden	-2801
ric	-2802
にな	-2803
เมริ	-2804
▁ren	-2805
▁about	-2806
他们	-2807
▁due	-2808
▁Nasser	-2809
ques	-2810
▁الاول	-2811
▁cuando	-2812
rieben	-2813
ellt	-2814
ette	-2815
▁การ	-2816
▁Grup	-2817
▁civ	-2818
▁ide	-2819
▁pobla	-2820
زة	-2821
▁왕	-2822
▁인물	-2823
ween	-2824
▁Sup	-2825
▁vend	-2826
ilos	-2827
หนึ่ง	-2828
amento	-2829
ugar	-2830
öffentlich	-2831
作品	-2832
레이	-2833
▁prop	-2834
นาม	-2835
▁13	-2836
▁أي	-2837
▁area	-2838
▁größ	-2839
▁Warum	-2840
▁compos	-2841
ntos	-2842
cción	-2843
▁어디일까	-2844
▁카	-2845
되어	-2846
องค์	-2847
▁términ	-2848
▁On	-2849
▁النا	-2850
▁بي	-2851
▁지역	-2852
esto	-2853
ität	-2854
ères	-2855
▁Bur	-2856
▁plan	-2857
ges	-2858
itz	-2859
sel	-2860
itect	-2861
ajor	-2862
ième	-2863
▁192	-2864
▁Lib	-2865
▁当	-2866
Cuál	-2867
▁rom	-2868
▁Cent	-2869
▁trab	-2870
ครั้งแรก	-2871
cha	-2872
▁vie	-2873
ya	-2874
▁been	-2875
7?	-2876
็ก	-2877
▁ét	-2878
▁축구	-2879
▁ba	-2880
iana	-2881
ams	-2882
onia	-2883
adores	-2884
하기	-2885
indet	-2886
ستخدام	-2887
▁industr	-2888
の名	-2889
▁Kön	-2890
حة	-2891
▁초	-2892
ظم	-2893
เภ	-2894
▁fl	-2895
▁pens	-2896
▁المس	-2897
▁라	-2898
▁리	-2899
▁some	-2900
In	-2901
rab	-2902
▁14	-2903
▁cel	-2904
▁드라마	-2905
ammen	-2906
▁Proz	-2907
ionale	-2908
zo	-2909
▁열	-2910
▁تن	-2911
ในประเทศ	-2912
系统	-2913
▁بعض	-2914
อย่าง	-2915
▁energ	-2916
▁music	-2917
ุ่น	-2918
▁gouvern	-2919
기는	-2920
raf	-2921
▁Ha	-2922
อเมริ	-2923
ni	-2924
انون	-2925
وك	-2926
▁실	-2927
▁int	-2928
▁الجن	-2929
แล	-2930
▁lieu	-2931
▁فيها	-2932
よう	-2933
▁لت	-2934
ax	-2935
▁ling	-2936
▁mort	-2937
egriff	-2938
พิ	-2939
▁val	-2940
▁Prin	-2941
völ	-2942
ถึง	-2943
▁Fe	-2944
▁nu	-2945
▁بشكل	-2946
ka	-2947
ikan	-2948
▁out	-2949
하였는가	-2950
▁Avec	-2951
▁ident	-2952
volution	-2953
▁لك	-2954
▁2018	-2955
ibt	-2956
▁يت	-2957
head	-2958
▁tras	-2959
▁domin	-2960
では	-2961
ume	-2962
سبب	-2963
▁무엇인가요	-2964
จัด	-2965
▁qual	-2966
▁trouve	-2967
afi	-2968
Quién	-2969
itution	-2970
▁encuentra	-2971
บริ	-2972
在哪个	-2973
iver	-2974
▁conn	-2975
叫什么名字	-2976
يب	-2977
ีน	-2978
▁ذ	-2979
リア	-2980
▁ur	-2981
▁غير	-2982
▁stat	-2983
▁곳은	-2984
▁known	-2985
学校	-2986
udd	-2987
▁je	-2988
reet	-2989
▁الشم	-2990
▁Southampton	-2991
añ	-2992
▁Mel	-2993
▁magg	-2994
▁White	-2995
ี้	-2996
oir	-2997
▁cop	-2998
▁게	-2999
影响	-3000
▁Su	-3001
ides	-3002
imento	-3003
▁반	-3004
ない	-3005
wei	-3006
▁بر	-3007
했는가	-3008
▁Del	-3009
はいつ	-3010
اريخ	-3011
しましたか	-3012
这个	-3013
▁mad	-3014
▁lors	-3015
▁Aus	-3016
▁high	-3017
▁forma	-3018
▁pendant	-3019
üt	-3020
ities	-3021
▁población	-3022
▁ร	-3023
앨범	-3024
anj	-3025
▁remp	-3026
▁يكون	-3027
▁Oklahoma	-3028
lis	-3029
▁place	-3030
▁jue	-3031
▁اليه	-3032
って	-3033
▁ear	-3034
▁الرئيس	-3035
より	-3036
▁Stati	-3037
▁cat	-3038
▁trava	-3039
▁Houston	-3040
ete	-3041
▁2005	-3042
▁Spra	-3043
▁ihre	-3044
▁intro	-3045
▁président	-3046
uale	-3047
▁succ	-3048
ologie	-3049
▁unter	-3050
▁Europe	-3051
リン	-3052
chi	-3053
▁lar	-3054
▁pér	-3055
▁uno	-3056
pro	-3057
พันธ	-3058
▁الز	-3059
atore	-3060
▁rele	-3061
▁unt	-3062
▁pourcentage	-3063
▁입	-3064
ยุ	-3065
▁피	-3066
▁به	-3067
▁som	-3068
ัล	-3069
ター	-3070
ely	-3071
ณ์	-3072
とな	-3073
urn	-3074
ก่อ	-3075
▁University	-3076
สู	-3077
▁personnes	-3078
ثل	-3079
عم	-3080
ché	-3081
▁process	-3082
▁첫	-3083
▁Nam	-3084
▁많	-3085
لام	-3086
▁App	-3087
▁siè	-3088
ús	-3089
egger	-3090
zioni	-3091
وروب	-3092
▁best	-3093
ุต	-3094
las	-3095
édér	-3096
▁Cor	-3097
▁什么样的	-3098
völker	-3099
imm	-3100
▁atta	-3101
主义	-3102
ize	-3103
laub	-3104
แข่ง	-3105
▁是什么	-3106
▁deven	-3107
ony	-3108
berg	-3109
▁Guer	-3110
clar	-3111
▁crit	-3112
رس	-3113
วม	-3114
▁&	-3115
reg	-3116
งาน	-3117
▁into	-3118
äsident	-3119
völkerung	-3120
lex	-3121
▁Bost	-3122
lement	-3123
warzen	-3124
fen	-3125
▁personas	-3126
▁Val	-3127
▁dir	-3128
▁lugar	-3129
وز	-3130
ーム	-3131
for	-3132
ages	-3133
car	-3134
تاب	-3135
▁Ges	-3136
▁ses	-3137
▁grupo	-3138
▁عليها	-3139
▁estaba	-3140
ลา	-3141
▁pel	-3142
▁real	-3143
▁หรือ	-3144
▁gener	-3145
▁gio	-3146
หาร	-3147
▁ai	-3148
ucht	-3149
アメリカ	-3150
▁Je	-3151
6?	-3152
▁between	-3153
arm	-3154
▁Pop	-3155
▁major	-3156
wick	-3157
▁mehr	-3158
▁II	-3159
หมาย	-3160
▁tempo	-3161
▁Gen	-3162
بت	-3163
فس	-3164
▁paese	-3165
▁econom	-3166
▁Eisenhower	-3167
▁Es	-3168
▁cro	-3169
▁무엇을	-3170
▁final	-3171
▁organiz	-3172
▁إ	-3173
▁dest	-3174
▁américa	-3175
▁FI	-3176
▁월드	-3177
▁play	-3178
▁trat	-3179
▁zwei	-3180
hington	-3181
▁第	-3182
들어	-3183
bar	-3184
ude	-3185
▁dopo	-3186
▁Austr	-3187
▁tarihi	-3188
หลวง	-3189
▁الوق	-3190
usammen	-3191
ディ	-3192
▁ني	-3193
▁Ply	-3194
▁zur	-3195
戦争	-3196
▁무슨	-3197
hund	-3198
▁conoc	-3199
fl	-3200
▁阿	-3201
▁fu	-3202
▁bomb	-3203
▁national	-3204
リス	-3205
ein	-3206
وان	-3207
▁واح	-3208
▁appel	-3209
되는	-3210
▁Washington	-3211
ังก	-3212
▁Bro	-3213
▁مص	-3214
เกิด	-3215
▁عمل	-3216
▁band	-3217
▁popular	-3218
▁임	-3219
其他	-3220
يان	-3221
▁fre	-3222
▁century	-3223
อด	-3224
ศาสตร์	-3225
สุ	-3226
ife	-3227
urr	-3228
▁Roy	-3229
▁describ	-3230
▁코	-3231
cel	-3232
ugh	-3233
▁الال	-3234
▁divis	-3235
▁would	-3236
▁lí	-3237
otto	-3238
▁날짜	-3239
▁Mac	-3240
▁kind	-3241
براطور	-3242
ites	-3243
▁Som	-3244
▁Geor	-3245
▁Jahrhund	-3246
با	-3247
리는	-3248
uen	-3249
▁เพ	-3250
termin	-3251
导致	-3252
สถ	-3253
▁활	-3254
équ	-3255
▁يج	-3256
▁tuv	-3257
▁Beyoncé	-3258
ém	-3259
่าย	-3260
▁fem	-3261
▁لديها	-3262
etzt	-3263
isto	-3264
▁esc	-3265
▁Im	-3266
▁espe	-3267
리아	-3268
▁除了	-3269
▁Ste	-3270
▁norm	-3271
▁Sw	-3272
▁more	-3273
▁Madonna	-3274
▁Premier	-3275
▁ไ	-3276
erk	-3277
ika	-3278
▁mis	-3279
▁为什么	-3280
icial	-3281
▁quando	-3282
▁record	-3283
cast	-3284
ular	-3285
ภาษา	-3286
fe	-3287
▁ป	-3288
▁베	-3289
▁학	-3290
스가	-3291
ใหญ	-3292
▁작품	-3293
cher	-3294
类型	-3295
▁Tenn	-3296
▁Plymouth	-3297
ต้	-3298
lege	-3299
▁terme	-3300
▁made	-3301
ased	-3302
ทั	-3303
yle	-3304
็จ	-3305
▁두	-3306
▁Kon	-3307
▁Mex	-3308
ps	-3309
cies	-3310
essee	-3311
ciones	-3312
azioni	-3313
组织	-3314
يات	-3315
▁ihr	-3316
▁repr	-3317
▁proble	-3318
▁«	-3319
uan	-3320
mpire	-3321
▁trib	-3322
▁الملك	-3323
大的	-3324
▁선거	-3325
▁larg	-3326
▁London	-3327
▁Portug	-3328
▁zwischen	-3329
สา	-3330
raph	-3331
▁idi	-3332
▁disp	-3333
▁jour	-3334
warzenegger	-3335
كة	-3336
哪里	-3337
ane	-3338
lect	-3339
ament	-3340
▁Come	-3341
ensch	-3342
▁มีชื่อ	-3343
▁cir	-3344
▁commer	-3345
▁système	-3346
ัฐ	-3347
ail	-3348
temp	-3349
적으로	-3350
▁territ	-3351
vil	-3352
▁vi	-3353
▁Island	-3354
▁persone	-3355
▁Jahrhundert	-3356
طول	-3357
▁تا	-3358
▁결과	-3359
ités	-3360
▁deb	-3361
▁importante	-3362
60	-3363
하게	-3364
ترة	-3365
ريط	-3366
▁gel	-3367
สิ	-3368
สํา	-3369
▁Boston	-3370
되었는가	-3371
▁gran	-3372
ho	-3373
▁있었	-3374
anci	-3375
gest	-3376
▁lim	-3377
▁over	-3378
▁Times	-3379
▁program	-3380
그램	-3381
▁britann	-3382
▁번	-3383
▁표	-3384
eden	-3385
▁genre	-3386
▁الاست	-3387
Pod	-3388
▁comenz	-3389
กี	-3390
กุ	-3391
ดับ	-3392
▁né	-3393
▁Fre	-3394
สร้าง	-3395
▁leur	-3396
▁están	-3397
ティ	-3398
▁تحت	-3399
▁Dame	-3400
▁Notre	-3401
เมื่อวัน	-3402
▁language	-3403
10	-3404
18	-3405
ron	-3406
▁مس	-3407
▁발매	-3408
▁날짜는	-3409
▁الاخر	-3410
▁nota	-3411
▁inizi	-3412
している	-3413
วี	-3414
esi	-3415
かった	-3416
shall	-3417
▁Carol	-3418
▁années	-3419
▁Begriff	-3420
ضا	-3421
rea	-3422
▁Christ	-3423
▁Europa	-3424
▁fon	-3425
▁bekannt	-3426
▁Tennessee	-3427
▁tradition	-3428
▁Afr	-3429
▁Geb	-3430
▁연도는	-3431
▁2010?	-3432
▁Vereinig	-3433
▁ประเทศ	-3434
by	-3435
▁post	-3436
▁this	-3437
acional	-3438
▁ol	-3439
ktion	-3440
▁base	-3441
▁test	-3442
提供	-3443
たのは	-3444
▁bar	-3445
imin	-3446
▁cui	-3447
▁الوقت	-3448
อม	-3449
▁大	-3450
立的	-3451
▁bir	-3452
▁there	-3453
들의	-3454
▁بدا	-3455
▁sing	-3456
▁Uniti	-3457
적인	-3458
net	-3459
▁이유	-3460
lack	-3461
▁Med	-3462
otball	-3463
▁result	-3464
▁op	-3465
ที	-3466
وسط	-3467
จักร	-3468
▁Bell	-3469
▁sou	-3470
▁school	-3471
▁Staaten	-3472
bourne	-3473
ซี	-3474
ดา	-3475
mond	-3476
什么样的	-3477
ED	-3478
osp	-3479
ชนิด	-3480
กํา	-3481
▁시즌	-3482
ใหญ่	-3483
▁wicht	-3484
▁écrit	-3485
เป็นผู้	-3486
▁광	-3487
▁autor	-3488
▁veröffentlich	-3489
éc	-3490
成为	-3491
▁역할	-3492
▁universidad	-3493
ณะ	-3494
cho	-3495
كوم	-3496
▁hay	-3497
▁Stud	-3498
▁donn	-3499
indows	-3500
▁types	-3501
宗教	-3502
フラン	-3503
hm	-3504
▁don	-3505
▁zum	-3506
ierno	-3507
▁Comp	-3508
▁club	-3509
cy	-3510
illi	-3511
ctions	-3512
كر	-3513
▁호	-3514
ideo	-3515
แบบ	-3516
▁USA	-3517
▁누구야	-3518
▁contra	-3519
ัท	-3520
ัม	-3521
▁اب	-3522
▁mondiale	-3523
には	-3524
▁Las	-3525
▁tod	-3526
▁有多少	-3527
▁welchen	-3528
▁건	-3529
▁sel	-3530
▁erano	-3531
▁اللغة	-3532
▁추	-3533
▁และ	-3534
izione	-3535
▁siglo	-3536
tır	-3537
▁suo	-3538
▁colon	-3539
سيق	-3540
▁بو	-3541
▁Der	-3542
▁lav	-3543
ที่มี	-3544
▁american	-3545
تج	-3546
▁변	-3547
▁직	-3548
win	-3549
يين	-3550
▁Pal	-3551
▁riv	-3552
▁Bevölkerung	-3553
uda	-3554
▁اصب	-3555
كثر	-3556
ขัน	-3557
▁Ed	-3558
enne	-3559
orie	-3560
คืออะไร	-3561
cuel	-3562
▁ing	-3563
▁percent	-3564
BS	-3565
▁ด	-3566
▁Fo	-3567
▁수상	-3568
▁앨범	-3569
endo	-3570
ube	-3571
ฟุต	-3572
oles	-3573
▁doc	-3574
▁término	-3575
ตุ	-3576
ผล	-3577
られ	-3578
สหร	-3579
abeth	-3580
年的	-3581
oth	-3582
▁Mo	-3583
asse	-3584
▁الدولة	-3585
▁avait	-3586
▁period	-3587
스는	-3588
ists	-3589
▁يستخدم	-3590
▁befindet	-3591
▁standard	-3592
▁veröffentlicht	-3593
ved	-3594
▁sua	-3595
▁출연한	-3596
ュー	-3597
▁mu	-3598
ละคร	-3599
▁FIFA	-3600
▁함	-3601
tes	-3602
blic	-3603
iente	-3604
▁anni	-3605
ibet	-3606
▁2004	-3607
▁메	-3608
الة	-3609
واع	-3610
▁서울	-3611
▁소속	-3612
▁dev	-3613
▁fer	-3614
▁wenn	-3615
▁Isra	-3616
▁Seattle	-3617
ั้น	-3618
▁حصل	-3619
的人	-3620
▁algun	-3621
add	-3622
érie	-3623
▁mal	-3624
▁original	-3625
▁양	-3626
▁acqu	-3627
▁fund	-3628
▁monde	-3629
▁Dar	-3630
▁può	-3631
▁Pres	-3632
pir	-3633
ランド	-3634
▁Gro	-3635
atura	-3636
▁weit	-3637
▁génér	-3638
▁2017	-3639
iß	-3640
▁ay	-3641
▁후보	-3642
▁مرة	-3643
ركز	-3644
ster	-3645
▁المص	-3646
▁government	-3647
gle	-3648
mar	-3649
による	-3650
ロー	-3651
获得	-3652
imon	-3653
▁escuel	-3654
▁gouvernement	-3655
の中で	-3656
▁cin	-3657
▁Part	-3658
▁natur	-3659
ye	-3660
不是	-3661
发现	-3662
illa	-3663
▁déf	-3664
▁sex	-3665
▁appro	-3666
ilosoph	-3667
상을	-3668
hip	-3669
دار	-3670
▁My	-3671
▁bre	-3672
ていますか	-3673
▁eines	-3674
▁삼	-3675
ily	-3676
lay	-3677
▁cant	-3678
ฟุตบอล	-3679
▁Melbourne	-3680
▁جزء	-3681
ateur	-3682
inc	-3683
unk	-3684
▁imm	-3685
ว์	-3686
ga	-3687
战争	-3688
กระ	-3689
isse	-3690
▁ช	-3691
▁관련	-3692
▁ben	-3693
▁otro	-3694
▁Krieg	-3695
ynast	-3696
▁percentage	-3697
▁Vereinigten	-3698
ット	-3699
▁bro	-3700
▁fois	-3701
▁mont	-3702
าวิ	-3703
ious	-3704
▁priv	-3705
▁mundo	-3706
▁مو	-3707
▁mand	-3708
อยู่ใน	-3709
▁world	-3710
br	-3711
▁ele	-3712
ismus	-3713
▁sous	-3714
▁andere	-3715
第一次	-3716
▁الاف	-3717
▁무엇입니까	-3718
▁région	-3719
เค	-3720
尼亚	-3721
림픽	-3722
bbe	-3723
▁sin	-3724
▁películ	-3725
まで	-3726
ave	-3727
use	-3728
โรง	-3729
▁anci	-3730
▁prote	-3731
▁يفعله	-3732
▁화	-3733
欧洲	-3734
통령	-3735
ündet	-3736
دى	-3737
▁tor	-3738
▁tienen	-3739
▁law	-3740
▁scrit	-3741
من	-3742
gos	-3743
▁India	-3744
▁celeb	-3745
ته	-3746
이는	-3747
انيا	-3748
▁besch	-3749
▁general	-3750
▁porcent	-3751
راج	-3752
▁100	-3753
achen	-3754
้าย	-3755
▁사건	-3756
hmen	-3757
ellement	-3758
خل	-3759
โม	-3760
aires	-3761
▁속	-3762
▁جم	-3763
▁قد	-3764
▁Hay	-3765
▁Kerry	-3766
ذه	-3767
หญ	-3768
▁순	-3769
len	-3770
▁美国	-3771
▁you	-3772
▁human	-3773
แก	-3774
▁청	-3775
▁اجل	-3776
umento	-3777
▁tempor	-3778
ash	-3779
اقة	-3780
cion	-3781
▁porcentaje	-3782
▁Do	-3783
าลัย	-3784
▁than	-3785
▁Paris	-3786
▁pério	-3787
▁maggior	-3788
هد	-3789
ets	-3790
▁ست	-3791
anza	-3792
▁din	-3793
▁div	-3794
▁Comm	-3795
▁eing	-3796
▁loro	-3797
▁begin	-3798
▁introdu	-3799
ئة	-3800
▁%	-3801
iami	-3802
▁dévelop	-3803
▁ين	-3804
▁حدث	-3805
▁ที่	-3806
▁Jahren	-3807
▁ersten	-3808
▁항	-3809
▁Inst	-3810
▁eran	-3811
▁centro	-3812
▁segund	-3813
زل	-3814
にお	-3815
▁받은	-3816
▁ley	-3817
▁الاح	-3818
amiento	-3819
とい	-3820
ใต้	-3821
により	-3822
vano	-3823
▁Sec	-3824
▁cha	-3825
▁mor	-3826
atori	-3827
▁cost	-3828
▁sort	-3829
▁Präsident	-3830
▁associ	-3831
าศ	-3832
ley	-3833
いく	-3834
ต่อ	-3835
▁situ	-3836
▁distr	-3837
แข่งขัน	-3838
▁특징	-3839
▁월드컵	-3840
▁occident	-3841
いて	-3842
มาก	-3843
▁مق	-3844
▁capac	-3845
▁Street	-3846
▁Sprache	-3847
▁ot	-3848
▁몇년도	-3849
▁France	-3850
كبر	-3851
▁méd	-3852
是在哪一年	-3853
年代	-3854
▁Go	-3855
▁ev	-3856
▁진행	-3857
ella	-3858
▁lig	-3859
▁dónde	-3860
▁المنا	-3861
▁minist	-3862
ตํา	-3863
่วน	-3864
arch	-3865
▁album	-3866
▁refer	-3867
▁contro	-3868
▁Schwarzenegger	-3869
aw	-3870
ため	-3871
▁TV	-3872
alia	-3873
▁protest	-3874
주의	-3875
omas	-3876
▁Bron	-3877
▁نسبة	-3878
ทยาลัย	-3879
▁군	-3880
▁تص	-3881
类型的	-3882
▁rest	-3883
▁We	-3884
▁谁是	-3885
eben	-3886
ต้น	-3887
되었을까	-3888
▁King	-3889
▁König	-3890
▁invest	-3891
▁National	-3892
이었	-3893
rat	-3894
▁있어	-3895
▁ric	-3896
▁Engl	-3897
▁langue	-3898
▁peu	-3899
istas	-3900
ดน	-3901
▁Min	-3902
▁quali	-3903
▁start	-3904
ruct	-3905
امعة	-3906
ments	-3907
时间	-3908
대표	-3909
نين	-3910
▁Eng	-3911
▁exist	-3912
▁세계	-3913
▁zona	-3914
ี่ย	-3915
▁사망	-3916
lica	-3917
▁air	-3918
▁red	-3919
ander	-3920
▁grie	-3921
▁어떠한가	-3922
▁British	-3923
▁Ä	-3924
انت	-3925
ange	-3926
ด้วย	-3927
▁اكبر	-3928
▁لديه	-3929
▁프로그램	-3930
▁Apple	-3931
▁mater	-3932
▁signif	-3933
▁-	-3934
어난	-3935
วรร	-3936
▁become	-3937
ño	-3938
اش	-3939
▁190	-3940
mania	-3941
▁take	-3942
▁Unter	-3943
▁القرن	-3944
▁Gruppe	-3945
▁considér	-3946
ثة	-3947
uta	-3948
ثير	-3949
สาม	-3950
NA	-3951
支持	-3952
▁Imp	-3953
▁살	-3954
atter	-3955
ありますか	-3956
▁avant	-3957
▁nation	-3958
▁Londres	-3959
ظر	-3960
نع	-3961
▁매	-3962
cen	-3963
ius	-3964
▁fac	-3965
▁jou	-3966
▁gobierno	-3967
يج	-3968
中国	-3969
시아	-3970
▁Her	-3971
▁nav	-3972
▁China	-3973
alement	-3974
▁represent	-3975
طلح	-3976
ตอน	-3977
เกา	-3978
▁Ir	-3979
part	-3980
通常	-3981
▁common	-3982
▁inform	-3983
▁버	-3984
원은	-3985
ชาย	-3986
ital	-3987
▁adop	-3988
▁corr	-3989
อิน	-3990
▁팀은	-3991
▁Miami	-3992
▁altro	-3993
▁الانت	-3994
▁develop	-3995
▁filmini	-3996
ورك	-3997
▁env	-3998
เรียน	-3999
▁türlerde	-4000
äng	-4001
ี่ป	-4002
▁مب	-4003
▁alc	-4004
lished	-4005
▁comenzó	-4006
ตะ	-4007
▁Eg	-4008
ญี่ป	-4009
▁العام	-4010
▁민	-4011
▁투	-4012
اية	-4013
▁sett	-4014
▁radio	-4015
▁Whitehead	-4016
ทธ	-4017
もの	-4018
▁Cr	-4019
ührt	-4020
▁tele	-4021
▁principale	-4022
ié	-4023
ضاء	-4024
gi	-4025
▁»	-4026
▁법	-4027
명은	-4028
بير	-4029
▁techn	-4030
▁viene	-4031
ญี่ปุ่น	-4032
▁gewonnen	-4033
50	-4034
andid	-4035
▁accord	-4036
の名前	-4037
ider	-4038
▁Bre	-4039
▁uso	-4040
▁requ	-4041
سا	-4042
พื	-4043
انب	-4044
▁대통령	-4045
arrol	-4046
建筑	-4047
ivid	-4048
▁mur	-4049
สหรัฐ	-4050
▁pot	-4051
▁certa	-4052
มิ	-4053
▁Pl	-4054
▁pou	-4055
▁compar	-4056
ks	-4057
ฬา	-4058
bur	-4059
▁구성	-4060
หญิง	-4061
▁frü	-4062
▁capital	-4063
▁디	-4064
中的	-4065
aint	-4066
bert	-4067
▁rif	-4068
▁Delhi	-4069
ฤษ	-4070
▁야	-4071
선거	-4072
▁Bl	-4073
ouse	-4074
▁Air	-4075
▁Nor	-4076
▁cause	-4077
▁diale	-4078
▁Intern	-4079
▁점	-4080
▁Ber	-4081
erson	-4082
igkeit	-4083
▁divent	-4084
▁période	-4085
动物	-4086
地方	-4087
ucson	-4088
▁nell	-4089
▁seine	-4090
▁Francia	-4091
▁desarrol	-4092
ían	-4093
▁Pe	-4094
▁mes	-4095
athol	-4096
▁الاج	-4097
▁faire	-4098
▁العمل	-4099
โอ	-4100
blica	-4101
มาจาก	-4102
▁gegr	-4103
▁عليه	-4104
lem	-4105
▁Ter	-4106
▁geh	-4107
senal	-4108
▁orient	-4109
▁gegründet	-4110
▁더	-4111
▁bl	-4112
▁jo	-4113
▁리그	-4114
▁Phil	-4115
▁المش	-4116
▁Niger	-4117
▁avuto	-4118
▁yönetti	-4119
agt	-4120
ادي	-4121
▁Det	-4122
บัน	-4123
用什么	-4124
ปร	-4125
▁sem	-4126
ieder	-4127
ology	-4128
▁United	-4129
代表	-4130
通过	-4131
나라	-4132
▁누가	-4133
▁hatte	-4134
▁Portugal	-4135
ba	-4136
yl	-4137
▁Ol	-4138
enci	-4139
▁avoir	-4140
▁where	-4141
▁منطقة	-4142
映画	-4143
法国	-4144
uge	-4145
lymp	-4146
▁educ	-4147
เมื่อใด	-4148
تش	-4149
▁황	-4150
希腊	-4151
▁인물은	-4152
▁يعتقد	-4153
▁المدينة	-4154
eo	-4155
はどの	-4156
▁187	-4157
▁otr	-4158
▁년도에	-4159
เขียน	-4160
รู	-4161
ุง	-4162
ians	-4163
▁baş	-4164
▁conv	-4165
esehen	-4166
▁propos	-4167
▁present	-4168
ضع	-4169
สี	-4170
▁où	-4171
ギリス	-4172
▁Bez	-4173
▁ste	-4174
▁tex	-4175
يث	-4176
เตอร์	-4177
はどこですか	-4178
▁signific	-4179
시의	-4180
▁dom	-4181
▁jud	-4182
▁log	-4183
▁2001	-4184
▁Yale	-4185
อเมริกา	-4186
▁estable	-4187
geb	-4188
▁اخ	-4189
イギリス	-4190
▁hacer	-4191
سمى	-4192
amer	-4193
iles	-4194
▁Hol	-4195
▁polít	-4196
ัส	-4197
▁Rom	-4198
▁Sur	-4199
▁san	-4200
▁مست	-4201
▁pris	-4202
▁معظم	-4203
ูน	-4204
▁토	-4205
▁형	-4206
eter	-4207
▁Marshall	-4208
FL	-4209
ไม	-4210
スの	-4211
될까	-4212
يري	-4213
other	-4214
▁visit	-4215
▁kimdir	-4216
▁Tuv	-4217
ersch	-4218
▁북	-4219
anc	-4220
▁เจ	-4221
▁1990	-4222
▁auch	-4223
▁histor	-4224
音乐	-4225
▁Cal	-4226
▁dies	-4227
▁الامبراطور	-4228
เศ	-4229
が多	-4230
联邦	-4231
ทั้ง	-4232
可能	-4233
被认为	-4234
udio	-4235
uter	-4236
มหาวิ	-4237
ederal	-4238
▁causa	-4239
estival	-4240
issance	-4241
▁leader	-4242
คม	-4243
▁크	-4244
を受	-4245
hlt	-4246
ält	-4247
▁mas	-4248
▁design	-4249
▁Richmond	-4250
uso	-4251
وني	-4252
▁Os	-4253
▁哪些	-4254
做什么	-4255
▁Dell	-4256
▁Tuvalu	-4257
▁frances	-4258
TV	-4259
中心	-4260
▁감독	-4261
west	-4262
izabeth	-4263
โก	-4264
▁새	-4265
▁않	-4266
isc	-4267
▁sulla	-4268
oso	-4269
ريد	-4270
เคร	-4271
▁ประ	-4272
Ar	-4273
ンの	-4274
ody	-4275
ษัท	-4276
▁가지	-4277
▁فاز	-4278
▁vari	-4279
كس	-4280
▁달	-4281
ที่สุดใน	-4282
▁utiliza	-4283
ja	-4284
事件	-4285
▁gi	-4286
▁happ	-4287
▁begonnen	-4288
ares	-4289
▁iPod	-4290
▁Super	-4291
▁anderen	-4292
จุ	-4293
▁금	-4294
▁Ro	-4295
▁ig	-4296
asil	-4297
ارات	-4298
لسلة	-4299
änder	-4300
▁nord	-4301
▁prod	-4302
▁word	-4303
▁invent	-4304
▁siècle	-4305
▁ล	-4306
▁《	-4307
地域	-4308
cep	-4309
ifs	-4310
▁jug	-4311
▁west	-4312
▁considered	-4313
irg	-4314
▁dr	-4315
▁أم	-4316
▁chr	-4317
▁كتب	-4318
需要	-4319
ipe	-4320
▁podr	-4321
▁George	-4322
abad	-4323
▁Str	-4324
▁add	-4325
aient	-4326
▁Napoleon	-4327
bil	-4328
▁183	-4329
▁differ	-4330
amo	-4331
atta	-4332
rait	-4333
▁mag	-4334
していた	-4335
zeich	-4336
▁casa	-4337
▁perí	-4338
▁propr	-4339
▁contre	-4340
▁이후	-4341
▁Von	-4342
▁높	-4343
▁창	-4344
▁اج	-4345
angen	-4346
▁Durante	-4347
fo	-4348
▁레	-4349
عية	-4350
مال	-4351
ปลา	-4352
▁To	-4353
▁gruppo	-4354
▁religion	-4355
出版	-4356
である	-4357
ield	-4358
▁bis	-4359
▁vot	-4360
▁الدول	-4361
▁termine	-4362
ุน	-4363
พรร	-4364
▁اق	-4365
▁الأم	-4366
▁تستخدم	-4367
ภู	-4368
เห	-4369
acc	-4370
ike	-4371
▁condu	-4372
▁저	-4373
的一	-4374
▁Kir	-4375
▁هنا	-4376
12	-4377
▁oc	-4378
istes	-4379
racht	-4380
▁Japan	-4381
▁Barcel	-4382
学院	-4383
장은	-4384
ham	-4385
lin	-4386
ías	-4387
▁ret	-4388
▁اعل	-4389
üd	-4390
いた	-4391
▁전국	-4392
▁Sud	-4393
▁Frank	-4394
▁trois	-4395
誰ですか	-4396
▁فيلم	-4397
▁support	-4398
▁본	-4399
entr	-4400
▁2003	-4401
▁entr	-4402
▁البح	-4403
▁คือใคร	-4404
▁contribu	-4405
ES	-4406
พล	-4407
เขา	-4408
▁So	-4409
▁활동	-4410
ئيسي	-4411
▁ganó	-4412
▁الهند	-4413
▁mayoría	-4414
▁capitale	-4415
▁este	-4416
▁tuvo	-4417
▁separ	-4418
▁kaçtır	-4419
ergie	-4420
▁lange	-4421
▁산	-4422
lie	-4423
่อม	-4424
▁ใด	-4425
raft	-4426
▁being	-4427
▁können	-4428
적은	-4429
はどれ	-4430
lant	-4431
كومة	-4432
وريا	-4433
ationen	-4434
▁استخدام	-4435
เย	-4436
ชนะ	-4437
โดยใคร	-4438
▁edific	-4439
▁escrib	-4440
عي	-4441
وة	-4442
صول	-4443
ื้อ	-4444
▁تت	-4445
ices	-4446
▁arg	-4447
▁이유는	-4448
▁Ital	-4449
▁سكان	-4450
▁هناك	-4451
▁จังหวัด	-4452
ST	-4453
ford	-4454
▁ven	-4455
▁alto	-4456
▁four	-4457
depend	-4458
▁important	-4459
리가	-4460
วิต	-4461
ําร	-4462
yder	-4463
▁tut	-4464
affen	-4465
▁gibt	-4466
alis	-4467
تحاد	-4468
▁make	-4469
▁quelles	-4470
▁popolazione	-4471
11	-4472
BM	-4473
とは	-4474
rain	-4475
▁mill	-4476
▁costru	-4477
mas	-4478
▁انه	-4479
▁2009?	-4480
▁Q	-4481
▁곡	-4482
igu	-4483
▁Lu	-4484
▁را	-4485
▁سب	-4486
▁desc	-4487
addafi	-4488
▁norte	-4489
▁développ	-4490
ña	-4491
工作	-4492
cif	-4493
ôle	-4494
▁Para	-4495
▁media	-4496
▁Darwin	-4497
ุณ	-4498
bol	-4499
▁FC	-4500
isce	-4501
▁ผู้	-4502
▁writ	-4503
▁wichtig	-4504
▁Zusammen	-4505
جلس	-4506
ิ่ม	-4507
▁방영	-4508
orea	-4509
CA	-4510
je	-4511
▁따	-4512
統領	-4513
นด์	-4514
▁év	-4515
▁나라	-4516
folk	-4517
▁dalla	-4518
▁vinto	-4519
ves	-4520
られた	-4521
ades	-4522
ากาศ	-4523
▁لعب	-4524
▁temper	-4525
▁England	-4526
An	-4527
ًا	-4528
▁트	-4529
ظهر	-4530
▁determin	-4531
يط	-4532
有多	-4533
いのは	-4534
▁Paul	-4535
เมื่อปี	-4536
yderabad	-4537
위를	-4538
▁sé	-4539
▁pet	-4540
teurs	-4541
anjing	-4542
マン	-4543
レー	-4544
▁UE	-4545
▁게임	-4546
▁akt	-4547
▁mús	-4548
▁Mont	-4549
▁scient	-4550
▁Carolina	-4551
▁브	-4552
时期	-4553
したの	-4554
ural	-4555
▁tip	-4556
▁Film	-4557
▁เพลง	-4558
▁الصين	-4559
▁países	-4560
รม	-4561
原因	-4562
斯特	-4563
بات	-4564
ورة	-4565
大統領	-4566
▁189	-4567
▁ايضا	-4568
▁ชื่อ	-4569
erstüt	-4570
▁Tucson	-4571
▁período	-4572
สง	-4573
들을	-4574
امل	-4575
▁وف	-4576
▁sud	-4577
ciato	-4578
▁color	-4579
▁divers	-4580
▁peuvent	-4581
زي	-4582
▁할	-4583
ises	-4584
ธรรม	-4585
は何年に	-4586
دف	-4587
▁24	-4588
เด็จ	-4589
▁gagn	-4590
▁geschrieben	-4591
่าน	-4592
▁อะไร	-4593
▁gegen	-4594
ather	-4595
osten	-4596
▁Arch	-4597
▁notable	-4598
罗马	-4599
eld	-4600
▁mol	-4601
▁antes	-4602
มหาวิทยาลัย	-4603
app	-4604
mio	-4605
▁조선	-4606
▁they	-4607
▁Hayek	-4608
▁idioma	-4609
لق	-4610
人的	-4611
مار	-4612
▁اف	-4613
cito	-4614
ives	-4615
enden	-4616
▁House	-4617
▁quels	-4618
▁société	-4619
▁Regierung	-4620
ีก	-4621
elli	-4622
วิทย	-4623
▁pueden	-4624
دو	-4625
ไฟ	-4626
หนัง	-4627
▁لكي	-4628
ativo	-4629
▁الوط	-4630
という	-4631
▁America	-4632
ニア	-4633
▁日本	-4634
agne	-4635
▁squ	-4636
▁style	-4637
pla	-4638
▁via	-4639
▁data	-4640
nehmen	-4641
▁2013?	-4642
▁Bronx	-4643
▁pubblic	-4644
▁película	-4645
yd	-4646
重要	-4647
بية	-4648
crip	-4649
ating	-4650
▁grandes	-4651
▁significa	-4652
رم	-4653
일에	-4654
utt	-4655
inden	-4656
ายการ	-4657
▁alta	-4658
▁hace	-4659
▁lanz	-4660
▁mosa	-4661
رش	-4662
▁득	-4663
get	-4664
لاب	-4665
▁gek	-4666
ío	-4667
▁Ser	-4668
อากาศ	-4669
▁تاريخ	-4670
▁Detroit	-4671
ุม	-4672
فضل	-4673
▁노선	-4674
iven	-4675
▁188	-4676
▁mie	-4677
▁عادة	-4678
▁created	-4679
ême	-4680
▁184	-4681
▁لها	-4682
▁올림픽	-4683
▁exper	-4684
▁volta	-4685
▁zuerst	-4686
▁iniziato	-4687
最高	-4688
eln	-4689
นวน	-4690
▁현재	-4691
在什么	-4692
เดีย	-4693
▁power	-4694
▁simil	-4695
国の	-4696
owl	-4697
였는가	-4698
▁years	-4699
▁cuántos	-4700
พบ	-4701
ket	-4702
وائ	-4703
▁최초	-4704
utsch	-4705
▁estaban	-4706
▁particip	-4707
BA	-4708
sp	-4709
uß	-4710
راض	-4711
▁Tur	-4712
▁reci	-4713
▁الجم	-4714
▁Along	-4715
▁Repub	-4716
ky	-4717
▁南	-4718
orr	-4719
ouve	-4720
▁شركة	-4721
▁activ	-4722
โน	-4723
▁cou	-4724
▁المب	-4725
发展	-4726
사의	-4727
idé	-4728
ว่าง	-4729
▁percentuale	-4730
行わ	-4731
cil	-4732
éta	-4733
اعد	-4734
ุ่ม	-4735
▁ke	-4736
인가요	-4737
سيقى	-4738
ส่วน	-4739
▁concept	-4740
voir	-4741
▁wür	-4742
inder	-4743
▁dove	-4744
ateurs	-4745
▁집	-4746
成的	-4747
来的	-4748
ush	-4749
idas	-4750
▁mer	-4751
▁thé	-4752
▁russ	-4753
ท์	-4754
แน	-4755
lar	-4756
خاب	-4757
▁استخدم	-4758
▁Welchen	-4759
los	-4760
จีน	-4761
orté	-4762
▁2011?	-4763
▁الناس	-4764
▁Windows	-4765
กรรม	-4766
▁Kar	-4767
▁aver	-4768
▁College	-4769
▁西	-4770
▁تج	-4771
▁scu	-4772
เด็จพระ	-4773
át	-4774
▁체	-4775
▁판	-4776
所有	-4777
umann	-4778
▁1980	-4779
▁التح	-4780
▁nueva	-4781
社会	-4782
ostr	-4783
▁بول	-4784
▁land	-4785
▁stag	-4786
▁클	-4787
ani	-4788
ظمة	-4789
ös	-4790
บา	-4791
wer	-4792
▁英国	-4793
▁Cong	-4794
▁مجموعة	-4795
▁这	-4796
ファ	-4797
عات	-4798
สูง	-4799
adre	-4800
▁국가대표	-4801
▁serie	-4802
กิ	-4803
ดิน	-4804
bers	-4805
▁vez	-4806
▁2007?	-4807
▁السيا	-4808
وط	-4809
ภาค	-4810
▁بلد	-4811
▁2002	-4812
▁2008?	-4813
▁Elizabeth	-4814
▁천	-4815
eau	-4816
ized	-4817
etter	-4818
اضافة	-4819
▁redu	-4820
▁الجز	-4821
▁culture	-4822
zi	-4823
図書	-4824
▁agr	-4825
▁tur	-4826
▁viol	-4827
▁Armen	-4828
▁المست	-4829
▁جامعة	-4830
คํา	-4831
▁CD	-4832
▁مش	-4833
▁위치	-4834
하는가	-4835
▁يجب	-4836
▁Nach	-4837
▁britán	-4838
BI	-4839
▁ú	-4840
▁انش	-4841
▁Iran	-4842
电影	-4843
خاص	-4844
▁Av	-4845
▁No	-4846
▁Gal	-4847
หม่อม	-4848
ในการ	-4849
▁carr	-4850
▁mondo	-4851
▁estados	-4852
apt	-4853
▁Af	-4854
▁ep	-4855
▁él	-4856
cole	-4857
▁ของ	-4858
inter	-4859
▁Gran	-4860
▁différ	-4861
ライ	-4862
▁نظام	-4863
▁season	-4864
17	-4865
ทะ	-4866
▁伊	-4867
バー	-4868
ser	-4869
▁خط	-4870
น้ํา	-4871
▁cab	-4872
했어	-4873
iot	-4874
▁fig	-4875
▁الاخرى	-4876
▁dialect	-4877
فة	-4878
▁Ü	-4879
两个	-4880
第二	-4881
점은	-4882
▁Das	-4883
▁ord	-4884
▁Gesch	-4885
▁under	-4886
-2	-4887
ูล	-4888
ecut	-4889
▁sat	-4890
▁sold	-4891
▁الامريكية	-4892
hu	-4893
اط	-4894
德国	-4895
文化	-4896
百分	-4897
rale	-4898
▁occup	-4899
pi	-4900
▁اش	-4901
▁아이	-4902
▁프랑	-4903
iang	-4904
▁migr	-4905
جر	-4906
▁uu	-4907
lung	-4908
ويورك	-4909
▁Tito	-4910
▁rank	-4911
▁igles	-4912
▁اليون	-4913
▁سلسلة	-4914
▁evento	-4915
ยาย	-4916
▁cél	-4917
▁تقع	-4918
▁book	-4919
▁sent	-4920
"؟	-4921
äd	-4922
ณา	-4923
일은	-4924
ftw	-4925
ران	-4926
▁내용	-4927
uddh	-4928
▁UEFA	-4929
▁tour	-4930
▁العث	-4931
▁المك	-4932
▁nomin	-4933
▁zweit	-4934
▁dispos	-4935
▁trabajo	-4936
قاط	-4937
▁Sel	-4938
▁dar	-4939
▁led	-4940
▁nelle	-4941
เท่าไหร่	-4942
▁individ	-4943
ín	-4944
是如何	-4945
weit	-4946
▁alt	-4947
▁conqu	-4948
▁Nigeria	-4949
▁بالاضافة	-4950
رات	-4951
روف	-4952
وير	-4953
▁Ap	-4954
ches	-4955
▁lat	-4956
▁negli	-4957
▁encontr	-4958
▁passiert	-4959
ช่	-4960
hor	-4961
▁VI	-4962
▁aer	-4963
▁East	-4964
▁yayınlan	-4965
سك	-4966
แม	-4967
▁예선	-4968
▁هذه	-4969
gesch	-4970
▁Virg	-4971
▁Roman	-4972
▁الاسم	-4973
30	-4974
cn	-4975
多数	-4976
生产	-4977
▁谁在	-4978
▁déb	-4979
いですか	-4980
▁Tibet	-4981
▁quand	-4982
ift	-4983
ندا	-4984
wood	-4985
▁Bew	-4986
▁قامت	-4987
▁desde	-4988
▁School	-4989
▁company	-4990
に対	-4991
主教	-4992
之间	-4993
▁hö	-4994
▁اح	-4995
▁show	-4996
▁gegeben	-4997
리의	-4998
▁ee	-4999
有哪些	-5000
uelle	-5001
▁heiß	-5002
▁again	-5003
▁crist	-5004
▁point	-5005
▁effect	-5006
▁música	-5007
▁entwick	-5008
▁각	-5009
itut	-5010
▁rev	-5011
ision	-5012
ministr	-5013
▁애	-5014
▁죽	-5015
ชีวิต	-5016
entsatz	-5017
▁Popper	-5018
▁السكان	-5019
存在	-5020
esa	-5021
▁주장	-5022
izio	-5023
omen	-5024
▁ave	-5025
ender	-5026
icano	-5027
ธาน	-5028
teil	-5029
▁اثنين	-5030
▁Prozentsatz	-5031
yr	-5032
บท	-5033
อส	-5034
运动	-5035
ينا	-5036
ศึก	-5037
ريكي	-5038
▁بدات	-5039
かったのは	-5040
▁autres	-5041
▁größte	-5042
▁représ	-5043
ルト	-5044
lad	-5045
▁이용	-5046
ائزة	-5047
▁Rob	-5048
anten	-5049
▁Junto	-5050
▁secolo	-5051
▁societ	-5052
不同	-5053
ودة	-5054
▁nam	-5055
eston	-5056
▁Const	-5057
▁could	-5058
스터	-5059
ode	-5060
ierte	-5061
▁一	-5062
لاق	-5063
ายุ	-5064
▁mom	-5065
▁الاط	-5066
▁فترة	-5067
▁insect	-5068
ห์	-5069
▁물	-5070
▁외	-5071
▁مؤ	-5072
ually	-5073
▁publi	-5074
ก่อตั้ง	-5075
▁English	-5076
▁العالمية	-5077
怎么	-5078
比例	-5079
ala	-5080
▁Di	-5081
▁التق	-5082
▁conten	-5083
▁간	-5084
▁Ma	-5085
utzt	-5086
ativa	-5087
เพื่อ	-5088
▁Willi	-5089
▁social	-5090
نى	-5091
▁없	-5092
▁캐	-5093
▁발표	-5094
elig	-5095
icio	-5096
inos	-5097
▁provin	-5098
かに	-5099
▁เข	-5100
fect	-5101
กีฬา	-5102
verno	-5103
ังกฤษ	-5104
▁build	-5105
▁palab	-5106
▁Center	-5107
▁saison	-5108
▁largest	-5109
▁نيويورك	-5110
pa	-5111
▁네	-5112
نيس	-5113
ครอง	-5114
▁Israel	-5115
▁lingua	-5116
▁オ	-5117
▁치	-5118
▁Ins	-5119
▁Diego	-5120
อย่างไร	-5121
▁complet	-5122
▁convert	-5123
ró	-5124
ارك	-5125
นาด	-5126
▁함께	-5127
puis	-5128
▁Aut	-5129
▁Für	-5130
▁llev	-5131
▁minor	-5132
▁เมื่อ	-5133
▁philosoph	-5134
وقع	-5135
▁국제	-5136
▁대표	-5137
등학교	-5138
ynman	-5139
▁Black	-5140
فل	-5141
วา	-5142
▁책	-5143
فال	-5144
▁az	-5145
▁대해	-5146
Al	-5147
シア	-5148
ンド	-5149
يني	-5150
▁يش	-5151
انات	-5152
▁Mal	-5153
upart	-5154
▁Buch	-5155
▁Park	-5156
▁الاق	-5157
▁plupart	-5158
국의	-5159
이야	-5160
ระห	-5161
▁어땠	-5162
rest	-5163
คราม	-5164
▁BBC	-5165
เริ่ม	-5166
▁Organ	-5167
▁difer	-5168
โรงเรียน	-5169
▁televis	-5170
وبر	-5171
▁데뷔	-5172
▁많은	-5173
sche	-5174
▁Res	-5175
edeut	-5176
▁Ever	-5177
▁tamb	-5178
▁الاص	-5179
▁فريق	-5180
▁الاتحاد	-5181
▁deuxième	-5182
دل	-5183
ント	-5184
上的	-5185
사를	-5186
▁등장	-5187
リーズ	-5188
oren	-5189
▁oft	-5190
はどちら	-5191
krieg	-5192
▁1970	-5193
▁カ	-5194
共和	-5195
学家	-5196
▁nú	-5197
▁สม	-5198
พื้น	-5199
▁bus	-5200
▁top	-5201
édéric	-5202
▁sport	-5203
▁another	-5204
▁scritto	-5205
ヨー	-5206
▁Arten	-5207
▁service	-5208
▁travail	-5209
▁escribió	-5210
方法	-5211
▁acuer	-5212
▁ใครร้อง	-5213
印度	-5214
سيك	-5215
▁이루	-5216
的是什么	-5217
glich	-5218
▁conse	-5219
问题	-5220
▁Sov	-5221
พันธ์	-5222
▁bene	-5223
▁candid	-5224
▁Spielberg	-5225
▁합	-5226
▁III	-5227
ienda	-5228
vilup	-5229
▁line	-5230
▁جانب	-5231
▁rapport	-5232
اعدة	-5233
▁wem	-5234
▁Arbeit	-5235
▁persona	-5236
での	-5237
▁gra	-5238
▁mig	-5239
▁ult	-5240
▁sido	-5241
▁große	-5242
ระหว่าง	-5243
▁الاشخاص	-5244
▁ใครคือผู้	-5245
ula	-5246
いくつ	-5247
อังกฤษ	-5248
기의	-5249
abil	-5250
▁FBI	-5251
arios	-5252
▁gior	-5253
▁signifie	-5254
人类	-5255
法律	-5256
▁Ba	-5257
ress	-5258
uman	-5259
▁Cub	-5260
▁help	-5261
genommen	-5262
▁politique	-5263
ep	-5264
▁ス	-5265
控制	-5266
行的	-5267
mal	-5268
▁opp	-5269
▁هذا	-5270
▁ออก	-5271
ุก	-5272
แพ	-5273
パー	-5274
哪一	-5275
udo	-5276
▁Um	-5277
ขนาด	-5278
▁pur	-5279
ights	-5280
▁mass	-5281
されましたか	-5282
▁الرئيسية	-5283
ดู	-5284
간은	-5285
자의	-5286
▁Alas	-5287
▁released	-5288
인은	-5289
vin	-5290
رائ	-5291
▁하는	-5292
ison	-5293
▁Act	-5294
▁Mil	-5295
▁últ	-5296
▁gente	-5297
▁llama	-5298
▁south	-5299
▁Lo	-5300
▁اغ	-5301
▁평균	-5302
的主要	-5303
iers	-5304
udes	-5305
▁어디야	-5306
▁miemb	-5307
▁position	-5308
▁ใช่หรือไม่	-5309
รส	-5310
ترا	-5311
▁وج	-5312
▁naz	-5313
tagne	-5314
どちらですか	-5315
.?	-5316
fér	-5317
ําเภ	-5318
▁Ass	-5319
▁también	-5320
▁从	-5321
と呼	-5322
ago	-5323
han	-5324
lim	-5325
ฉาย	-5326
図書館	-5327
erne	-5328
eros	-5329
ours	-5330
ลักษ	-5331
▁équ	-5332
actér	-5333
▁الاخ	-5334
▁Royal	-5335
▁เมือง	-5336
▁genannt	-5337
▁chiamato	-5338
ジョ	-5339
用来	-5340
دير	-5341
▁ru	-5342
▁بح	-5343
่น้ํา	-5344
▁leurs	-5345
▁svilup	-5346
▁produce	-5347
▁الرئيسي	-5348
โต	-5349
다는	-5350
ène	-5351
▁운행	-5352
世界大	-5353
เข้า	-5354
▁LED	-5355
glise	-5356
▁rend	-5357
érique	-5358
▁connu	-5359
ほかに	-5360
inas	-5361
▁You	-5362
altung	-5363
▁independ	-5364
cs	-5365
يام	-5366
▁dro	-5367
leston	-5368
▁Brasil	-5369
▁escuela	-5370
▁gefunden	-5371
▁근	-5372
lob	-5373
ains	-5374
▁Arm	-5375
▁tun	-5376
▁dise	-5377
▁التن	-5378
arbeit	-5379
▁verurs	-5380
▁musique	-5381
▁temporada	-5382
都市	-5383
cos	-5384
ديم	-5385
▁Bu	-5386
▁جن	-5387
▁186	-5388
▁prev	-5389
äl	-5390
199	-5391
▁تس	-5392
▁정부	-5393
edes	-5394
▁منذ	-5395
ardin	-5396
▁High	-5397
▁ย	-5398
▁존	-5399
ング	-5400
lia	-5401
هور	-5402
เดิม	-5403
▁결과는	-5404
シリーズ	-5405
▁normal	-5406
▁논	-5407
▁백	-5408
ald	-5409
▁Fra	-5410
▁cla	-5411
▁국회의	-5412
ibles	-5413
istan	-5414
▁livre	-5415
▁nouve	-5416
▁적	-5417
디오	-5418
▁XX	-5419
▁jap	-5420
▁raz	-5421
▁وقت	-5422
▁사람의	-5423
ennen	-5424
usion	-5425
▁rece	-5426
▁2015?	-5427
▁early	-5428
▁Arsenal	-5429
▁ใครเป็นผู้	-5430
บน	-5431
nal	-5432
▁역대	-5433
される	-5434
enna	-5435
หน้า	-5436
▁ได้	-5437
▁나라는	-5438
▁only	-5439
▁tier	-5440
▁السل	-5441
ología	-5442
▁2012?	-5443
▁tenía	-5444
▁total	-5445
总统	-5446
统治	-5447
กุล	-5448
ือก	-5449
▁독일	-5450
▁185	-5451
▁Cu	-5452
がある	-5453
osci	-5454
▁القوات	-5455
ครั้งที่	-5456
เธ	-5457
ミー	-5458
aya	-5459
íst	-5460
ธิบ	-5461
่วม	-5462
▁เร	-5463
نيسة	-5464
▁poder	-5465
ef	-5466
kl	-5467
리를	-5468
리즈	-5469
▁ju	-5470
▁ta	-5471
▁대회	-5472
iato	-5473
▁tan	-5474
uerto	-5475
▁team	-5476
▁Burke	-5477
▁الموا	-5478
▁quanti	-5479
โบ	-5480
结束	-5481
aba	-5482
off	-5483
ovo	-5484
ารถ	-5485
のは何	-5486
▁Pat	-5487
illes	-5488
▁Rock	-5489
▁التج	-5490
▁Neumann	-5491
▁governo	-5492
▁product	-5493
▁fonction	-5494
idge	-5495
▁Groß	-5496
▁común	-5497
▁취	-5498
▁필	-5499
gyp	-5500
ypt	-5501
âge	-5502
alth	-5503
zeit	-5504
ملكة	-5505
▁Sun	-5506
▁cette	-5507
▁often	-5508
▁countries	-5509
رح	-5510
▁ضد	-5511
▁만들어	-5512
ionen	-5513
▁sout	-5514
▁المج	-5515
▁númer	-5516
▁البريط	-5517
めて	-5518
นํา	-5519
▁ber	-5520
▁أول	-5521
▁cell	-5522
▁Norfolk	-5523
ญา	-5524
isl	-5525
▁사이	-5526
egen	-5527
ules	-5528
สถาน	-5529
▁Plan	-5530
▁créé	-5531
อฟ	-5532
cie	-5533
▁لع	-5534
หน่ง	-5535
rench	-5536
▁invol	-5537
▁dispon	-5538
▁الثاني	-5539
▁新	-5540
出现	-5541
alk	-5542
ارع	-5543
لية	-5544
rough	-5545
▁edad	-5546
▁mult	-5547
قط	-5548
وى	-5549
▁<	-5550
机构	-5551
irm	-5552
ราง	-5553
▁행정	-5554
ใหม่	-5555
▁hic	-5556
▁nei	-5557
round	-5558
▁expl	-5559
▁James	-5560
▁المجموعة	-5561
罗斯	-5562
제는	-5563
▁Ur	-5564
▁europe	-5565
▁football	-5566
▁루	-5567
参加	-5568
ban	-5569
دول	-5570
▁Far	-5571
laubt	-5572
▁Alex	-5573
▁parl	-5574
▁واحد	-5575
▁large	-5576
▁Alaska	-5577
▁equipo	-5578
▁히	-5579
タイ	-5580
ポー	-5581
时代	-5582
대의	-5583
หัว	-5584
,000	-5585
neur	-5586
▁Fin	-5587
▁Met	-5588
▁있나요	-5589
▁sour	-5590
▁Grande	-5591
▁document	-5592
้ง	-5593
▁マ	-5594
した人	-5595
anta	-5596
สมัย	-5597
▁Fam	-5598
▁Nel	-5599
▁Out	-5600
▁dit	-5601
แหน่ง	-5602
فق	-5603
้ว	-5604
랜드	-5605
ney	-5606
▁Mid	-5607
วิทยา	-5608
何年のこと	-5609
▁nuevo	-5610
▁treat	-5611
▁dynast	-5612
▁الثانية	-5613
▁material	-5614
▁utilizzato	-5615
가는	-5616
egn	-5617
ivi	-5618
▁ma	-5619
▁بت	-5620
▁될까	-5621
line	-5622
▁cam	-5623
▁mej	-5624
▁عرض	-5625
▁기록한	-5626
▁2014?	-5627
▁civil	-5628
▁incre	-5629
▁instr	-5630
بع	-5631
▁용	-5632
ilo	-5633
lik	-5634
تها	-5635
เอก	-5636
▁30	-5637
▁Form	-5638
▁examp	-5639
▁acuerdo	-5640
'?	-5641
40	-5642
óm	-5643
根据	-5644
▁na	-5645
▁fall	-5646
▁lung	-5647
▁machen	-5648
▁partir	-5649
ที่เท่าไหร่	-5650
▁الامبراطورية	-5651
ซ์	-5652
犹太	-5653
원이	-5654
的哪个	-5655
▁dig	-5656
▁الض	-5657
igine	-5658
orben	-5659
▁Saint	-5660
▁الجنوب	-5661
哪种	-5662
建立	-5663
asa	-5664
tto	-5665
วัล	-5666
▁Ent	-5667
▁الالم	-5668
▁French	-5669
21	-5670
フィ	-5671
何时	-5672
Pro	-5673
eri	-5674
▁ital	-5675
▁تكون	-5676
▁obten	-5677
▁States	-5678
▁nacional	-5679
▁권	-5680
ラー	-5681
允许	-5682
唯一	-5683
ultur	-5684
▁sens	-5685
▁against	-5686
irtschaft	-5687
où	-5688
َن	-5689
หมด	-5690
▁Tw	-5691
▁발생	-5692
▁شخص	-5693
▁dijo	-5694
▁lleg	-5695
▁أكبر	-5696
▁objet	-5697
▁podría	-5698
▁produit	-5699
YU	-5700
ทธิ	-5701
▁له	-5702
とは何	-5703
전에서	-5704
ences	-5705
▁ayud	-5706
▁Valencia	-5707
장의	-5708
gar	-5709
▁เด	-5710
▁노래	-5711
▁여자	-5712
anos	-5713
▁dirig	-5714
▁weiter	-5715
▁zurück	-5716
طن	-5717
之前	-5718
▁اص	-5719
대학교	-5720
▁مَن	-5721
▁perd	-5722
▁Musik	-5723
▁model	-5724
▁العديد	-5725
enschaft	-5726
ification	-5727
▁remporté	-5728
มีชื่อว่าอะไร	-5729
フォ	-5730
ヴィ	-5731
oli	-5732
▁연기	-5733
atum	-5734
work	-5735
▁Flor	-5736
idades	-5737
ราชวงศ์	-5738
▁compet	-5739
▁ingles	-5740
▁Barcelona	-5741
经济	-5742
çais	-5743
แลนด์	-5744
ontrol	-5745
▁Haupt	-5746
▁parti	-5747
▁국가대표팀	-5748
▁المنطقة	-5749
▁ว	-5750
▁“	-5751
东西	-5752
他的	-5753
多く	-5754
소는	-5755
▁Sc	-5756
adem	-5757
isti	-5758
nent	-5759
หลัก	-5760
▁Tex	-5761
▁but	-5762
▁ถูก	-5763
ances	-5764
iforn	-5765
▁musul	-5766
▁gebaut	-5767
▁souvent	-5768
çu	-5769
▁윤	-5770
以前	-5771
增加	-5772
漱石	-5773
ctr	-5774
داد	-5775
ويل	-5776
▁과정	-5777
uses	-5778
zahl	-5779
何年ですか	-5780
แรกของ	-5781
▁child	-5782
▁القانون	-5783
大き	-5784
航空	-5785
ديو	-5786
บาล	-5787
▁fav	-5788
▁letz	-5789
ograph	-5790
▁plant	-5791
▁estudi	-5792
▁periodo	-5793
▁responsable	-5794
ava	-5795
mat	-5796
▁Dr	-5797
apos	-5798
▁Unt	-5799
▁بان	-5800
cript	-5801
▁처음으로	-5802
ชนิดใด	-5803
▁gagné	-5804
▁quant	-5805
▁escrit	-5806
▁premio	-5807
▁الأمريكية	-5808
ulo	-5809
كمة	-5810
ياب	-5811
เทพ	-5812
였을까	-5813
ende	-5814
wort	-5815
درسة	-5816
▁وضع	-5817
ontin	-5818
▁IMDB	-5819
▁also	-5820
▁arriv	-5821
▁comer	-5822
▁appelé	-5823
▁numero	-5824
▁imperio	-5825
产生	-5826
关于	-5827
开始的	-5828
itor	-5829
ونسي	-5830
▁fab	-5831
▁علم	-5832
▁선수는	-5833
哪个国家	-5834
iblio	-5835
▁Vers	-5836
▁apoy	-5837
▁empres	-5838
▁happen	-5839
▁คืออะไร	-5840
것은	-5841
원의	-5842
เภท	-5843
ัตว์	-5844
▁arte	-5845
▁cens	-5846
FC	-5847
▁송	-5848
斯顿	-5849
uni	-5850
▁sans	-5851
▁Namib	-5852
ตําแหน่ง	-5853
▁architect	-5854
▁복	-5855
ศน์	-5856
▁เท	-5857
▁것이	-5858
ungs	-5859
enten	-5860
สหรัฐอเมริกา	-5861
ีย์	-5862
▁Tod	-5863
▁pra	-5864
itions	-5865
▁ejemp	-5866
▁قانون	-5867
▁Charles	-5868
อุ	-5869
▁얻	-5870
ull	-5871
anas	-5872
ختلف	-5873
▁day	-5874
itzer	-5875
▁Vert	-5876
▁dall	-5877
ประจํา	-5878
▁oficial	-5879
计划	-5880
nis	-5881
طار	-5882
ليز	-5883
▁발견	-5884
cted	-5885
ired	-5886
▁far	-5887
เรียกว่าอะไร	-5888
اة	-5889
청률	-5890
哪一年	-5891
最大的	-5892
ซึ่ง	-5893
essen	-5894
▁플	-5895
▁받았	-5896
ling	-5897
▁BYU	-5898
▁Berm	-5899
western	-5900
▁gobern	-5901
▁trabaj	-5902
พุ	-5903
▁담	-5904
uti	-5905
▁ho	-5906
تبار	-5907
▁الاع	-5908
▁propor	-5909
▁mundial	-5910
غي	-5911
人の	-5912
isé	-5913
éro	-5914
ños	-5915
utes	-5916
▁einz	-5917
▁اصبح	-5918
▁التع	-5919
▁باسم	-5920
りましたか	-5921
tempor	-5922
▁spiel	-5923
▁الغرب	-5924
▁Kirche	-5925
▁iglesia	-5926
▁victoria	-5927
▁홍	-5928
역은	-5929
loy	-5930
▁مك	-5931
taña	-5932
▁Pap	-5933
▁ซึ่ง	-5934
▁Olymp	-5935
▁Guerra	-5936
uk	-5937
وح	-5938
▁쓰	-5939
라이	-5940
ือน	-5941
▁21	-5942
▁دا	-5943
ประก	-5944
▁Trans	-5945
▁terre	-5946
او	-5947
历史	-5948
帮助	-5949
قيق	-5950
สาร	-5951
ntas	-5952
▁ged	-5953
ispiel	-5954
▁Greek	-5955
▁الحكومة	-5956
▁ภาพยนตร์	-5957
yó	-5958
▁뉴	-5959
被称	-5960
▁다른	-5961
▁대학	-5962
oper	-5963
▁가지고	-5964
▁이름이	-5965
▁ment	-5966
▁conne	-5967
▁الشمالية	-5968
80	-5969
▁圣	-5970
多久	-5971
学生	-5972
▁HD	-5973
akter	-5974
ichte	-5975
▁noch	-5976
▁disco	-5977
▁Guerre	-5978
gestellt	-5979
▁Beispiel	-5980
▁hicieron	-5981
▁territor	-5982
术语	-5983
지방	-5984
una	-5985
بال	-5986
สือ	-5987
▁wen	-5988
outube	-5989
▁Canada	-5990
طي	-5991
▁北	-5992
国际	-5993
独立	-5994
▁pú	-5995
▁전쟁	-5996
었는가	-5997
imat	-5998
ness	-5999
▁Vor	-6000
▁حول	-6001
▁قدم	-6002
▁시작한	-6003
▁Wort	-6004
▁rock	-6005
▁forme	-6006
▁declar	-6007
위는	-6008
▁ni	-6009
▁참여	-6010
ager	-6011
เสียง	-6012
▁bata	-6013
lantic	-6014
▁algunos	-6015
约翰	-6016
nam	-6017
فاع	-6018
ากร	-6019
โทร	-6020
▁설립	-6021
anst	-6022
▁نيو	-6023
▁이루어	-6024
▁البر	-6025
▁house	-6026
▁quart	-6027
▁الروم	-6028
▁맡았	-6029
▁명칭	-6030
他们的	-6031
iendo	-6032
ttoman	-6033
▁الحدي	-6034
▁chopin	-6035
▁Nanjing	-6036
▁international	-6037
ابق	-6038
وتر	-6039
ฟ้า	-6040
년부터	-6041
▁Spe	-6042
▁hal	-6043
▁dern	-6044
▁nouv	-6045
▁attra	-6046
Univers	-6047
▁transm	-6048
▁ตั้งอยู่	-6049
最后	-6050
سيس	-6051
ทีม	-6052
ศรี	-6053
ليون	-6054
▁Bir	-6055
▁loi	-6056
▁كتاب	-6057
▁identif	-6058
ตก	-6059
▁加	-6060
인의	-6061
uls	-6062
なかった	-6063
▁last	-6064
itaire	-6065
▁catal	-6066
▁liber	-6067
▁Mexico	-6068
▁الاكثر	-6069
▁primero	-6070
▁stagione	-6071
标准	-6072
리스	-6073
▁수는	-6074
▁전투	-6075
▁moy	-6076
estic	-6077
▁dere	-6078
▁بسبب	-6079
Empire	-6080
ของใคร	-6081
▁donné	-6082
▁otros	-6083
▁gesagt	-6084
izzazione	-6085
比赛	-6086
现代	-6087
arr	-6088
هام	-6089
ฐาน	-6090
ような	-6091
ibil	-6092
▁aument	-6093
▁entwickelt	-6094
bt	-6095
会社	-6096
번째	-6097
äre	-6098
auft	-6099
▁Kat	-6100
▁anal	-6101
▁roman	-6102
▁dinast	-6103
▁describe	-6104
▁Hyderabad	-6105
▁별	-6106
uro	-6107
yth	-6108
ört	-6109
▁UN	-6110
▁حق	-6111
▁世界	-6112
▁음반	-6113
▁조별	-6114
ivos	-6115
▁cru	-6116
▁rad	-6117
▁tub	-6118
▁ก่อ	-6119
▁Cour	-6120
ically	-6121
▁produz	-6122
でし	-6123
会的	-6124
服务	-6125
für	-6126
ght	-6127
rei	-6128
สัญ	-6129
zung	-6130
▁ach	-6131
▁sir	-6132
において	-6133
いつですか	-6134
▁Union	-6135
▁estim	-6136
▁ferro	-6137
▁During	-6138
▁Empire	-6139
icamente	-6140
生物	-6141
피언	-6142
bra	-6143
iev	-6144
▁dim	-6145
▁enf	-6146
▁것들이	-6147
iness	-6148
▁Nept	-6149
▁quest	-6150
▁element	-6151
▁president	-6152
▁巴	-6153
▁연구	-6154
oney	-6155
▁Cre	-6156
▁المؤ	-6157
ชื่อว่าอะไร	-6158
军队	-6159
uno	-6160
atos	-6161
ديدة	-6162
▁IBM	-6163
▁set	-6164
▁fort	-6165
▁الوح	-6166
ทั้งหมด	-6167
▁welches	-6168
بة	-6169
ตา	-6170
▁및	-6171
作为	-6172
名的	-6173
الث	-6174
رير	-6175
ったか	-6176
eron	-6177
èces	-6178
▁amb	-6179
▁uff	-6180
▁joué	-6181
▁muer	-6182
▁prat	-6183
▁كانوا	-6184
▁könnte	-6185
▁은	-6186
▁증	-6187
どれ	-6188
ニー	-6189
้อย	-6190
▁스타	-6191
يادة	-6192
▁اذا	-6193
のほかに	-6194
被认为是	-6195
anden	-6196
▁Reich	-6197
▁usato	-6198
▁الانج	-6199
▁continu	-6200
ウル	-6201
군의	-6202
irl	-6203
เกม	-6204
▁ري	-6205
cific	-6206
▁المم	-6207
รางวัล	-6208
▁compañ	-6209
▁병	-6210
ょう	-6211
ジャ	-6212
教育	-6213
osh	-6214
นาย	-6215
อัน	-6216
▁اخت	-6217
▁شكل	-6218
ables	-6219
▁cuál	-6220
▁الرا	-6221
▁invas	-6222
▁Gaddafi	-6223
ยะ	-6224
くら	-6225
拉斯	-6226
時代	-6227
ลูก	-6228
atro	-6229
ktur	-6230
▁All	-6231
▁Fir	-6232
▁afr	-6233
▁dio	-6234
だったの	-6235
emente	-6236
▁occur	-6237
▁Grecia	-6238
▁başrol	-6239
▁traité	-6240
▁investig	-6241
とも	-6242
への	-6243
이션	-6244
เหน	-6245
▁ات	-6246
▁اد	-6247
▁상대	-6248
▁우승	-6249
챔피언	-6250
iani	-6251
reib	-6252
เซีย	-6253
▁merc	-6254
▁appar	-6255
▁heißt	-6256
▁البلد	-6257
intendo	-6258
▁before	-6259
▁demand	-6260
▁seiner	-6261
▁single	-6262
▁erhalten	-6263
▁الموسيقى	-6264
ทรง	-6265
ause	-6266
utch	-6267
▁Sal	-6268
▁Mich	-6269
▁isla	-6270
▁الشرق	-6271
▁German	-6272
▁membres	-6273
ัจ	-6274
akt	-6275
ête	-6276
ศิล	-6277
另一个	-6278
ionn	-6279
olit	-6280
▁Men	-6281
▁fut	-6282
されたか	-6283
ศึกษา	-6284
▁مجلس	-6285
▁الحيو	-6286
▁中	-6287
eum	-6288
زال	-6289
schn	-6290
▁old	-6291
▁حرب	-6292
▁특징은	-6293
ancia	-6294
▁ethn	-6295
▁Second	-6296
จิ	-6297
▁타이	-6298
fall	-6299
ندية	-6300
ี่ยว	-6301
▁cod	-6302
フランス	-6303
▁statt	-6304
▁church	-6305
▁Frédéric	-6306
▁edificio	-6307
แค	-6308
形式	-6309
维多	-6310
auf	-6311
قتص	-6312
ahre	-6313
etta	-6314
ogen	-6315
▁ban	-6316
でしょう	-6317
维多利亚	-6318
▁pred	-6319
▁Monte	-6320
▁الدين	-6321
▁mandol	-6322
くな	-6323
と何	-6324
一番	-6325
어났	-6326
ตาม	-6327
▁Jo	-6328
▁يقع	-6329
stadt	-6330
▁tecn	-6331
▁local	-6332
▁Marvel	-6333
的大	-6334
스타	-6335
인이	-6336
▁정당	-6337
初めて	-6338
▁Dis	-6339
urrent	-6340
Cuántos	-6341
▁Pendant	-6342
▁central	-6343
▁federal	-6344
▁palabra	-6345
▁الاوروب	-6346
▁É	-6347
拒绝	-6348
政治	-6349
력은	-6350
isi	-6351
île	-6352
▁Hen	-6353
▁فعل	-6354
▁1960	-6355
PA	-6356
فع	-6357
รถ	-6358
▁채	-6359
▁패	-6360
▁페	-6361
教堂	-6362
艺术	-6363
구의	-6364
ece	-6365
وقف	-6366
▁종류	-6367
leur	-6368
tres	-6369
▁القدم	-6370
15	-6371
زب	-6372
▁심	-6373
法院	-6374
선수	-6375
élé	-6376
▁Pf	-6377
▁최고	-6378
▁مثل	-6379
وروبا	-6380
▁بوصف	-6381
▁devenu	-6382
zeichnet	-6383
Or	-6384
üs	-6385
غير	-6386
▁ra	-6387
▁حا	-6388
에서는	-6389
▁dém	-6390
emple	-6391
▁Cons	-6392
▁font	-6393
▁sost	-6394
▁جميع	-6395
▁début	-6396
▁líder	-6397
▁Mitgli	-6398
▁lavoro	-6399
▁الاولى	-6400
▁الكتاب	-6401
▁financi	-6402
วร	-6403
อต	-6404
▁약	-6405
The	-6406
ief	-6407
▁도시	-6408
▁아버	-6409
成立的	-6410
▁대학교	-6411
▁시청률	-6412
▁어디에	-6413
▁1940	-6414
▁Club	-6415
▁held	-6416
▁prog	-6417
▁كبير	-6418
▁국회의원	-6419
หนังสือ	-6420
▁compon	-6421
▁groupes	-6422
SA	-6423
fü	-6424
سر	-6425
▁테	-6426
ckt	-6427
ระบ	-6428
ไม้	-6429
▁rè	-6430
▁ég	-6431
▁شي	-6432
▁فر	-6433
▁되었	-6434
hrop	-6435
▁Leg	-6436
▁amp	-6437
▁hom	-6438
▁mac	-6439
ประเภท	-6440
▁aveva	-6441
▁verbunden	-6442
シュ	-6443
eta	-6444
lit	-6445
รูป	-6446
했나요	-6447
وبان	-6448
▁Stra	-6449
▁rice	-6450
▁uran	-6451
▁study	-6452
▁number	-6453
▁الطاقة	-6454
▁unterstüt	-6455
▁철	-6456
ussi	-6457
▁sac	-6458
▁โดย	-6459
ทัศน์	-6460
▁Spect	-6461
▁filos	-6462
▁الفرن	-6463
▁واحدة	-6464
▁หม่อม	-6465
▁forces	-6466
ضم	-6467
▁ข	-6468
侵攻	-6469
arn	-6470
bel	-6471
▁ib	-6472
▁เส	-6473
umer	-6474
▁Bes	-6475
▁cub	-6476
▁ext	-6477
▁하는가	-6478
acion	-6479
ใดของ	-6480
▁tent	-6481
บริษัท	-6482
▁Namen	-6483
▁fecha	-6484
▁اليها	-6485
▁ولاية	-6486
▁무엇일까요	-6487
を何	-6488
关系	-6489
도의	-6490
어는	-6491
할까	-6492
emás	-6493
lish	-6494
ريكا	-6495
▁نها	-6496
▁챔피언	-6497
行われた	-6498
▁firm	-6499
▁live	-6500
▁allow	-6501
▁built	-6502
▁cours	-6503
▁secondo	-6504
▁เกิดเมื่อวัน	-6505
ธี	-6506
역의	-6507
점을	-6508
مية	-6509
ิดา	-6510
▁سن	-6511
▁Ist	-6512
▁ger	-6513
▁لمن	-6514
▁مات	-6515
pielt	-6516
▁2019	-6517
されている	-6518
▁Relig	-6519
▁Church	-6520
▁número	-6521
▁through	-6522
▁principales	-6523
如果	-6524
平均	-6525
사가	-6526
occ	-6527
olé	-6528
org	-6529
vas	-6530
ارج	-6531
แต่	-6532
▁Lou	-6533
aster	-6534
wards	-6535
▁recon	-6536
▁moderne	-6537
▁kimlerdir	-6538
kr	-6539
自由	-6540
는데	-6541
드의	-6542
ารา	-6543
▁AC	-6544
▁만든	-6545
▁중국	-6546
▁Jud	-6547
كتوريا	-6548
▁Insel	-6549
▁aerop	-6550
▁würde	-6551
▁struct	-6552
ใจ	-6553
▁골	-6554
管理	-6555
纽约	-6556
èce	-6557
لاف	-6558
étique	-6559
iennent	-6560
▁pouvoir	-6561
▁bataille	-6562
▁relations	-6563
▁Unternehmen	-6564
lı	-6565
れる	-6566
发布	-6567
是由	-6568
正式	-6569
prün	-6570
พุทธ	-6571
▁Tit	-6572
▁teor	-6573
▁المد	-6574
▁inclu	-6575
▁Albert	-6576
▁chaque	-6577
番目	-6578
ods	-6579
▁통해	-6580
第一个	-6581
ช่วง	-6582
istor	-6583
ําเภอ	-6584
▁Rome	-6585
▁rich	-6586
icación	-6587
▁influen	-6588
ล์	-6589
ける	-6590
定义	-6591
▁是谁	-6592
iten	-6593
ough	-6594
ought	-6595
ución	-6596
▁الاد	-6597
▁الياب	-6598
▁caused	-6599
▁quanto	-6600
แท	-6601
esp	-6602
นี้	-6603
ริง	-6604
▁PC	-6605
▁Jul	-6606
▁Red	-6607
▁fra	-6608
▁bajo	-6609
▁zinc	-6610
▁tradu	-6611
▁campus	-6612
▁William	-6613
ym	-6614
联合	-6615
azi	-6616
يدر	-6617
้อน	-6618
▁ub	-6619
unta	-6620
èmes	-6621
اسية	-6622
▁Hel	-6623
▁ارس	-6624
▁dello	-6625
▁region	-6626
جة	-6627
คา	-6628
▁년	-6629
名称	-6630
植物	-6631
كرة	-6632
لعب	-6633
▁PS	-6634
▁높은	-6635
▁열린	-6636
▁Bra	-6637
▁Rus	-6638
▁urs	-6639
▁idea	-6640
▁prob	-6641
็ม	-6642
ソ連	-6643
要求	-6644
면서	-6645
iza	-6646
äuf	-6647
سات	-6648
كار	-6649
وما	-6650
▁By	-6651
اهدة	-6652
รั่ง	-6653
▁Cap	-6654
▁Lut	-6655
▁asc	-6656
▁태어난	-6657
anger	-6658
▁2020	-6659
什么时候开始	-6660
▁sosten	-6661
▁political	-6662
▁편	-6663
方面	-6664
기를	-6665
iat	-6666
inde	-6667
▁aug	-6668
▁día	-6669
สามารถ	-6670
▁liter	-6671
▁Perché	-6672
▁gespielt	-6673
기가	-6674
وار	-6675
▁وا	-6676
最初の	-6677
▁نفس	-6678
ฝรั่ง	-6679
▁polic	-6680
▁tierra	-6681
▁tratado	-6682
▁conocido	-6683
▁utilizan	-6684
比亚	-6685
dom	-6686
▁Ann	-6687
▁1950	-6688
lassen	-6689
▁raison	-6690
dem	-6691
ชีพ	-6692
었을까	-6693
olar	-6694
غيير	-6695
▁pasó	-6696
▁アメリカ	-6697
14	-6698
16	-6699
25	-6700
漫画	-6701
ويس	-6702
▁Si	-6703
tens	-6704
▁run	-6705
ielle	-6706
▁agen	-6707
▁otra	-6708
▁macht	-6709
▁يعتبر	-6710
طق	-6711
条约	-6712
azz	-6713
▁ze	-6714
▁가수	-6715
▁들어	-6716
ieme	-6717
iend	-6718
rote	-6719
عليم	-6720
▁gla	-6721
だったか	-6722
aggio	-6723
press	-6724
▁blan	-6725
▁ejér	-6726
▁will	-6727
atalla	-6728
ていましたか	-6729
▁adoles	-6730
▁dirige	-6731
▁Charleston	-6732
▁aufgenommen	-6733
ki	-6734
创造	-6735
是从	-6736
ipp	-6737
ira	-6738
▁영향	-6739
▁제작	-6740
▁차지	-6741
ided	-6742
اصمة	-6743
▁roi	-6744
▁Love	-6745
▁أطول	-6746
▁무엇이라고	-6747
▁aspect	-6748
▁segunda	-6749
▁certains	-6750
▁continent	-6751
▁뮤	-6752
不能	-6753
包括	-6754
기에	-6755
ful	-6756
oni	-6757
umb	-6758
▁بم	-6759
▁تط	-6760
erca	-6761
▁Jew	-6762
▁قال	-6763
เหนือ	-6764
▁mean	-6765
▁song	-6766
▁Imper	-6767
▁canad	-6768
ey	-6769
uj	-6770
เฉ	-6771
▁러	-6772
この	-6773
ンが	-6774
例子	-6775
lag	-6776
ؤول	-6777
▁유럽	-6778
▁음악	-6779
رنسا	-6780
▁ale	-6781
▁Span	-6782
▁rang	-6783
▁Stato	-6784
▁مصطلح	-6785
▁System	-6786
แห่งชาติ	-6787
▁concent	-6788
ทิ	-6789
シャ	-6790
国王	-6791
游戏	-6792
장을	-6793
호는	-6794
qué	-6795
▁根据	-6796
▁Bür	-6797
▁lit	-6798
▁2006?	-6799
▁großen	-6800
▁tribun	-6801
▁military	-6802
▁proporcion	-6803
基督	-6804
生活	-6805
osc	-6806
ova	-6807
ror	-6808
▁23	-6809
▁sm	-6810
äten	-6811
▁Bere	-6812
▁capt	-6813
▁chef	-6814
▁เจ้า	-6815
▁adopt	-6816
▁death	-6817
▁perman	-6818
グラ	-6819
生ま	-6820
트의	-6821
ids	-6822
ทร์	-6823
กลาง	-6824
▁gab	-6825
▁المف	-6826
estaur	-6827
▁Gramm	-6828
▁antib	-6829
▁Estonia	-6830
▁준	-6831
との	-6832
位于	-6833
있는	-6834
지의	-6835
دية	-6836
สัน	-6837
หลี	-6838
▁ps	-6839
ピック	-6840
leri	-6841
▁Dem	-6842
▁foc	-6843
▁كرة	-6844
poque	-6845
venue	-6846
▁neue	-6847
▁Oltre	-6848
ฝรั่งเศ	-6849
เครื่อง	-6850
▁creato	-6851
ประเทศอะไร	-6852
ปก	-6853
นาน	-6854
▁몇명	-6855
ミー賞	-6856
cord	-6857
iore	-6858
ählt	-6859
▁tom	-6860
▁ucc	-6861
igung	-6862
ierten	-6863
▁contempor	-6864
uz	-6865
رتب	-6866
▁NA	-6867
がより	-6868
orme	-6869
اليا	-6870
▁USB	-6871
▁erh	-6872
▁nut	-6873
▁역사는	-6874
▁peup	-6875
▁zone	-6876
คือใคร	-6877
▁incor	-6878
lection	-6879
schnitt	-6880
▁Länder	-6881
▁déclar	-6882
▁Company	-6883
Te	-6884
동시	-6885
년까지	-6886
ería	-6887
▁Acc	-6888
▁DST	-6889
▁Nue	-6890
▁abs	-6891
▁فيه	-6892
されたの	-6893
▁cuer	-6894
พระราช	-6895
▁neces	-6896
▁bacter	-6897
▁distin	-6898
▁versch	-6899
▁Spectre	-6900
▁batalla	-6901
でき	-6902
来自	-6903
cis	-6904
سيح	-6905
▁XI	-6906
olle	-6907
الات	-6908
ท้าย	-6909
ใดใน	-6910
▁Mag	-6911
▁Mod	-6912
▁Tra	-6913
▁dés	-6914
itato	-6915
ตะวัน	-6916
▁back	-6917
▁fine	-6918
▁mais	-6919
▁étudi	-6920
▁aliment	-6921
▁possono	-6922
▁official	-6923
▁production	-6924
قع	-6925
▁ห	-6926
人们	-6927
形成	-6928
期间	-6929
자가	-6930
ندن	-6931
สาย	-6932
▁ún	-6933
▁방법	-6934
itute	-6935
autres	-6936
▁tratt	-6937
▁interp	-6938
▁stabil	-6939
ฝรั่งเศส	-6940
ós	-6941
▁큰	-6942
▁목록	-6943
▁cot	-6944
▁pag	-6945
สัตว์	-6946
▁call	-6947
▁tres	-6948
▁three	-6949
▁Saison	-6950
▁actual	-6951
▁publié	-6952
▁European	-6953
issenschaft	-6954
成立	-6955
王国	-6956
제가	-6957
لاح	-6958
บิน	-6959
▁어떨	-6960
arts	-6961
ใดที่	-6962
▁لندن	-6963
▁Chine	-6964
▁based	-6965
▁reino	-6966
▁Deutsch	-6967
▁resident	-6968
▁فيكتوريا	-6969
öm	-6970
زن	-6971
مي	-6972
▁확	-6973
cte	-6974
oten	-6975
ผลิต	-6976
ศิลป	-6977
▁And	-6978
▁قاد	-6979
inese	-6980
▁Star	-6981
▁clas	-6982
▁لاول	-6983
▁Canad	-6984
▁Staat	-6985
▁austr	-6986
▁author	-6987
▁proces	-6988
▁report	-6989
▁النظام	-6990
öt	-6991
ุ์	-6992
▁エ	-6993
発生	-6994
ิร์	-6995
zeug	-6996
بتون	-6997
راسة	-6998
▁Tag	-6999
▁نشر	-7000
terre	-7001
มนตรี	-7002
▁Time	-7003
▁حصلت	-7004
iennes	-7005
▁china	-7006
▁stand	-7007
▁الشخص	-7008
su	-7009
ハン	-7010
最大	-7011
ınd	-7012
▁것을	-7013
หรับ	-7014
▁Pun	-7015
earch	-7016
ories	-7017
▁Kong	-7018
▁sede	-7019
▁السن	-7020
▁habit	-7021
▁어떠한가요	-7022
んだ	-7023
오는	-7024
rio	-7025
كيل	-7026
nder	-7027
ulen	-7028
ريقة	-7029
abile	-7030
▁attr	-7031
▁gens	-7032
发生了什么	-7033
▁ถ	-7034
▁ฮ	-7035
决定	-7036
班牙	-7037
irk	-7038
▁hol	-7039
weise	-7040
▁Mess	-7041
▁Show	-7042
▁انها	-7043
▁centre	-7044
▁menudo	-7045
▁similar	-7046
▁success	-7047
▁construction	-7048
บล	-7049
トル	-7050
duc	-7051
eme	-7052
vor	-7053
▁เล	-7054
▁어떨까	-7055
lique	-7056
ดนตรี	-7057
▁angla	-7058
▁offer	-7059
▁orden	-7060
▁ursprün	-7061
▁premiers	-7062
نت	-7063
スタ	-7064
ッド	-7065
拿大	-7066
理论	-7067
ائل	-7068
▁Kr	-7069
▁하나	-7070
▁항공	-7071
atch	-7072
uras	-7073
リンピック	-7074
▁solar	-7075
▁members	-7076
到了	-7077
成员	-7078
进行	-7079
امج	-7080
سمح	-7081
▁höch	-7082
▁وفقا	-7083
▁무엇으로	-7084
▁Inter	-7085
▁posit	-7086
▁الاصل	-7087
▁الانس	-7088
▁religi	-7089
▁Universal	-7090
▁허	-7091
させ	-7092
用于	-7093
นคร	-7094
▁เอ	-7095
ream	-7096
ليزية	-7097
▁Jack	-7098
▁cree	-7099
▁ever	-7100
▁open	-7101
▁تسمى	-7102
▁water	-7103
ización	-7104
▁became	-7105
▁change	-7106
▁einige	-7107
▁regard	-7108
gleterre	-7109
▁believe	-7110
▁società	-7111
▁festival	-7112
チャ	-7113
女王	-7114
fte	-7115
กรุง	-7116
▁vida	-7117
▁بناء	-7118
▁어디에서	-7119
▁State	-7120
antwort	-7121
▁condens	-7122
▁filosof	-7123
▁นักแสดง	-7124
ikanischen	-7125
시즌	-7126
tog	-7127
ดาว	-7128
ดีต	-7129
เขต	-7130
อาณา	-7131
▁anc	-7132
▁eng	-7133
▁Hall	-7134
▁agric	-7135
▁islam	-7136
▁veces	-7137
▁altern	-7138
▁General	-7139
▁cultura	-7140
▁utilisée	-7141
▁verursacht	-7142
自己	-7143
보는	-7144
hib	-7145
ั่น	-7146
itch	-7147
unic	-7148
vuto	-7149
دارس	-7150
▁ans	-7151
oléon	-7152
▁évén	-7153
▁mejor	-7154
cciones	-7155
▁Australia	-7156
พร	-7157
▁규	-7158
III	-7159
ahl	-7160
ياء	-7161
สมา	-7162
การ์	-7163
▁Jes	-7164
▁gioc	-7165
▁head	-7166
สงคราม	-7167
▁champ	-7168
▁Frankreich	-7169
ât	-7170
성의	-7171
ieg	-7172
orb	-7173
▁Ob	-7174
▁Day	-7175
▁abb	-7176
▁얼마나	-7177
▁élev	-7178
▁Great	-7179
▁Schla	-7180
▁emper	-7181
โทรทัศน์	-7182
▁conosci	-7183
serv	-7184
▁dog	-7185
▁nob	-7186
▁발매한	-7187
▁anche	-7188
▁البرت	-7189
▁Irland	-7190
▁transport	-7191
▁profession	-7192
▁pubblicato	-7193
位置	-7194
hnt	-7195
▁Zu	-7196
▁تد	-7197
▁생애	-7198
ache	-7199
▁jeu	-7200
▁wrote	-7201
▁الموج	-7202
▁Gebiet	-7203
▁energía	-7204
▁Atlantic	-7205
▁caracter	-7206
アル	-7207
大会	-7208
str	-7209
조에서	-7210
iera	-7211
rich	-7212
issau	-7213
▁Bowl	-7214
▁الاب	-7215
▁2005?	-7216
▁Jahre	-7217
▁affect	-7218
▁elimin	-7219
▁offizi	-7220
▁feature	-7221
óg	-7222
ชิ	-7223
▁海	-7224
の方	-7225
カー	-7226
aga	-7227
tri	-7228
دمة	-7229
طلق	-7230
เธอ	-7231
▁vu	-7232
ined	-7233
▁역할을	-7234
▁อยู่	-7235
▁Pruss	-7236
▁haven	-7237
▁اصبحت	-7238
▁attack	-7239
▁contrib	-7240
▁founded	-7241
اث	-7242
▁波	-7243
めた	-7244
建設	-7245
fit	-7246
سون	-7247
▁Sm	-7248
▁如果	-7249
▁의해	-7250
แต่ง	-7251
▁Gra	-7252
▁للح	-7253
ossen	-7254
قاطعة	-7255
▁Sing	-7256
▁dipl	-7257
▁يحدث	-7258
ietnam	-7259
เกาหลี	-7260
▁frequ	-7261
▁papel	-7262
▁punto	-7263
▁nouveau	-7264
▁compañía	-7265
관은	-7266
리카	-7267
으며	-7268
지가	-7269
하지	-7270
ety	-7271
ทอง	-7272
ilia	-7273
บ้าน	-7274
▁ces	-7275
▁río	-7276
ieden	-7277
laves	-7278
▁cada	-7279
▁Nueva	-7280
▁diese	-7281
▁probl	-7282
▁disposit	-7283
▁historia	-7284
ór	-7285
تل	-7286
ชม	-7287
ยม	-7288
ไว	-7289
▁폴	-7290
何を	-7291
宣布	-7292
描述	-7293
领导	-7294
eda	-7295
نيف	-7296
ัจจุ	-7297
▁alm	-7298
▁rey	-7299
▁1998	-7300
▁Ingl	-7301
▁prix	-7302
▁الري	-7303
▁ในปี	-7304
ftware	-7305
idence	-7306
▁Islam	-7307
▁اليوم	-7308
▁groups	-7309
▁Feynman	-7310
▁conserv	-7311
▁personne	-7312
▁different	-7313
▁représent	-7314
En	-7315
ii	-7316
فا	-7317
นน	-7318
▁马	-7319
技术	-7320
科学	-7321
율은	-7322
äch	-7323
دود	-7324
▁Mc	-7325
▁몇년	-7326
▁osp	-7327
▁roy	-7328
▁sov	-7329
ธิบดี	-7330
▁Bill	-7331
▁coup	-7332
▁اخرى	-7333
▁والت	-7334
Bissau	-7335
▁Louis	-7336
▁europé	-7337
ณฑ	-7338
一种	-7339
皇帝	-7340
esc	-7341
ogn	-7342
▁يد	-7343
▁기준	-7344
erie	-7345
อายุ	-7346
▁sit	-7347
▁توف	-7348
organ	-7349
▁home	-7350
▁哪个国家	-7351
▁chino	-7352
▁given	-7353
▁morte	-7354
ัจจุบัน	-7355
▁island	-7356
▁registr	-7357
▁gebracht	-7358
ij	-7359
طر	-7360
ชิก	-7361
▁Ag	-7362
rado	-7363
وسيا	-7364
▁Dav	-7365
▁May	-7366
▁Song	-7367
▁verl	-7368
▁Datum	-7369
▁video	-7370
▁Gesetz	-7371
▁ejército	-7372
ルー	-7373
保护	-7374
성이	-7375
이가	-7376
اعة	-7377
วัติ	-7378
▁Aug	-7379
▁Tre	-7380
▁نهر	-7381
emble	-7382
▁Fort	-7383
▁Grie	-7384
▁Roma	-7385
▁전국동시	-7386
ilight	-7387
▁Night	-7388
▁artic	-7389
▁العلم	-7390
▁dieser	-7391
▁studio	-7392
▁ก่อตั้ง	-7393
▁농	-7394
苏联	-7395
iko	-7396
راع	-7397
ษัต	-7398
▁哪种	-7399
edad	-7400
ffen	-7401
onie	-7402
▁ril	-7403
▁جون	-7404
▁시리즈	-7405
지방선거	-7406
ester	-7407
▁Play	-7408
▁miss	-7409
▁Grund	-7410
▁meille	-7411
▁produc	-7412
▁concern	-7413
▁présent	-7414
▁เป็นนัก	-7415
▁français	-7416
▁published	-7417
▁Königreich	-7418
่ว	-7419
革命	-7420
이의	-7421
bit	-7422
▁bil	-7423
▁rép	-7424
conde	-7425
ษัตริ	-7426
aterra	-7427
▁moins	-7428
▁movie	-7429
▁تفعله	-7430
▁Person	-7431
▁natural	-7432
▁segundo	-7433
าะ	-7434
็ด	-7435
▁ณ	-7436
▁イ	-7437
早期	-7438
구는	-7439
vah	-7440
zza	-7441
แนว	-7442
▁ém	-7443
fico	-7444
inea	-7445
บุรี	-7446
▁own	-7447
还有什么	-7448
▁bien	-7449
▁decl	-7450
صة	-7451
oca	-7452
이라는	-7453
omet	-7454
ทะเล	-7455
▁gar	-7456
▁수상한	-7457
▁hold	-7458
▁trov	-7459
vaient	-7460
▁accus	-7461
landais	-7462
สุดท้าย	-7463
▁calend	-7464
▁direct	-7465
▁التاريخ	-7466
▁Inglaterra	-7467
né	-7468
شل	-7469
โซ	-7470
教会	-7471
軍が	-7472
▁Kn	-7473
▁مث	-7474
▁Sam	-7475
▁Seg	-7476
▁شعب	-7477
▁manif	-7478
▁station	-7479
Am	-7480
يح	-7481
”?	-7482
서는	-7483
식은	-7484
ัติ	-7485
▁득표	-7486
หลัง	-7487
▁Lin	-7488
▁Son	-7489
▁عمر	-7490
▁favor	-7491
▁legge	-7492
▁murió	-7493
ษัตริย์	-7494
issement	-7495
ลี	-7496
▁온	-7497
ダム	-7498
州的	-7499
种族	-7500
수가	-7501
مان	-7502
ورن	-7503
▁แม	-7504
▁남자	-7505
iapp	-7506
▁spé	-7507
▁tít	-7508
▁Mary	-7509
▁phys	-7510
▁什么时候	-7511
▁تاسيس	-7512
▁فرنسا	-7513
▁اليهود	-7514
を行	-7515
can	-7516
rar	-7517
tér	-7518
فاق	-7519
▁og	-7520
▁나타	-7521
arth	-7522
häng	-7523
lior	-7524
▁One	-7525
▁dif	-7526
▁시기는	-7527
▁líne	-7528
▁want	-7529
▁얼마인가	-7530
▁Dutch	-7531
▁juego	-7532
▁antigu	-7533
ได้รับการ	-7534
ué	-7535
aro	-7536
ิมป	-7537
▁개최	-7538
anda	-7539
itar	-7540
omat	-7541
orso	-7542
unde	-7543
▁mic	-7544
icago	-7545
▁1945	-7546
▁trav	-7547
▁dirit	-7548
▁bedeut	-7549
▁trouvent	-7550
▁전국동시지방선거	-7551
▁Weltkrieg	-7552
▁established	-7553
▁ウ	-7554
人物	-7555
足球	-7556
irs	-7557
زيل	-7558
▁if	-7559
▁참가	-7560
ーパー	-7561
▁gol	-7562
▁appe	-7563
▁foss	-7564
▁الاغ	-7565
▁شوبان	-7566
▁Napoléon	-7567
▁commerci	-7568
월에	-7569
hol	-7570
يست	-7571
orma	-7572
ارية	-7573
ummer	-7574
ville	-7575
▁Sich	-7576
▁north	-7577
แผ	-7578
オー	-7579
ロッ	-7580
禁止	-7581
르는	-7582
com	-7583
row	-7584
โอล	-7585
▁경우	-7586
unty	-7587
▁them	-7588
▁بشان	-7589
uments	-7590
▁hecho	-7591
▁Football	-7592
▁gestorben	-7593
▁손	-7594
一起	-7595
nah	-7596
▁Em	-7597
ローマ	-7598
▁Han	-7599
▁Nob	-7600
▁درج	-7601
▁사망한	-7602
▁glob	-7603
▁modo	-7604
▁solo	-7605
▁vent	-7606
▁몇년도에	-7607
▁2000?	-7608
▁adult	-7609
▁armen	-7610
▁chans	-7611
▁اوروبا	-7612
تى	-7613
ตี	-7614
▁:	-7615
▁Ö	-7616
サン	-7617
条約	-7618
eso	-7619
ogo	-7620
راد	-7621
واس	-7622
▁사회	-7623
armée	-7624
▁body	-7625
▁nomm	-7626
encias	-7627
icenna	-7628
▁squad	-7629
▁Thomas	-7630
▁muerte	-7631
▁Comcast	-7632
▁formato	-7633
活动	-7634
ape	-7635
jer	-7636
เหล	-7637
▁주요	-7638
aggi	-7639
▁abr	-7640
▁sop	-7641
▁บริ	-7642
▁ปลา	-7643
alter	-7644
อาชีพ	-7645
▁From	-7646
▁catt	-7647
▁idol	-7648
atures	-7649
▁Selon	-7650
▁concl	-7651
▁finanz	-7652
▁grupos	-7653
▁الوطني	-7654
▁current	-7655
▁miembros	-7656
kk	-7657
zz	-7658
นม	-7659
▁古	-7660
▁정치	-7661
เกาะ	-7662
▁rule	-7663
▁view	-7664
ポーランド	-7665
جموعات	-7666
พันธุ์	-7667
▁white	-7668
▁América	-7669
▁Vertrag	-7670
▁partido	-7671
▁species	-7672
ificación	-7673
▁Nintendo	-7674
غو	-7675
รู้	-7676
▁야구	-7677
▁Kal	-7678
▁Vol	-7679
▁bew	-7680
▁صنع	-7681
▁يوم	-7682
assen	-7683
ittel	-7684
▁ense	-7685
▁soll	-7686
▁tend	-7687
aleigh	-7688
▁Henry	-7689
▁passé	-7690
▁cantidad	-7691
▁généralement	-7692
يه	-7693
その	-7694
制作	-7695
反对	-7696
드는	-7697
พิม	-7698
▁Ré	-7699
Amer	-7700
chos	-7701
odox	-7702
▁360	-7703
▁dai	-7704
▁pen	-7705
▁Kath	-7706
▁need	-7707
▁whom	-7708
▁منها	-7709
▁todos	-7710
▁scientif	-7711
▁diventato	-7712
พ์	-7713
之一	-7714
女性	-7715
过程	-7716
يار	-7717
มัน	-7718
▁50	-7719
▁مج	-7720
▁개발	-7721
blig	-7722
itos	-7723
▁Ale	-7724
▁Hot	-7725
▁drei	-7726
▁verd	-7727
▁اعلى	-7728
▁بريط	-7729
▁había	-7730
▁light	-7731
▁famoso	-7732
▁letter	-7733
▁satell	-7734
ード	-7735
设计	-7736
มาณ	-7737
▁40	-7738
俄罗斯	-7739
allo	-7740
rent	-7741
ائية	-7742
ولوج	-7743
ริ่ม	-7744
▁عقد	-7745
▁ناب	-7746
ember	-7747
▁bran	-7748
▁يعمل	-7749
▁Music	-7750
▁rifer	-7751
▁เริ่ม	-7752
▁portug	-7753
ซิ	-7754
传统	-7755
이트	-7756
Sch	-7757
กาศ	-7758
อีก	-7759
▁ál	-7760
▁vic	-7761
iller	-7762
attagl	-7763
▁titre	-7764
▁región	-7765
▁Griechen	-7766
▁considéré	-7767
As	-7768
キャ	-7769
시안	-7770
van	-7771
ผลง	-7772
สิน	-7773
▁배경	-7774
quel	-7775
▁Bas	-7776
▁God	-7777
▁hin	-7778
▁kle	-7779
▁say	-7780
aiser	-7781
aking	-7782
▁Cork	-7783
▁verk	-7784
▁match	-7785
▁otten	-7786
▁Soviet	-7787
▁police	-7788
ในประเทศไทย	-7789
何の	-7790
aug	-7791
ops	-7792
ئية	-7793
وجد	-7794
▁ปี	-7795
hung	-7796
eller	-7797
▁Bern	-7798
▁Roya	-7799
▁depart	-7800
▁format	-7801
▁convirt	-7802
..	-7803
90	-7804
SR	-7805
رو	-7806
▁충	-7807
時の	-7808
▁조직	-7809
asth	-7810
brit	-7811
ollo	-7812
بيرة	-7813
▁Lee	-7814
▁حكم	-7815
ผลงาน	-7816
▁agua	-7817
▁game	-7818
▁Domin	-7819
▁Force	-7820
▁esemp	-7821
▁القدي	-7822
▁نهاية	-7823
▁classe	-7824
▁través	-7825
▁العثور	-7826
▁Princess	-7827
▁britannique	-7828
国は	-7829
-19	-7830
جوم	-7831
نان	-7832
▁역을	-7833
aden	-7834
akes	-7835
▁Kan	-7836
▁Camp	-7837
▁each	-7838
ologia	-7839
▁River	-7840
▁largo	-7841
▁mujer	-7842
▁utilisés	-7843
▁친	-7844
始ま	-7845
斯的	-7846
许多	-7847
gef	-7848
ياة	-7849
▁Ho	-7850
▁지방	-7851
▁bât	-7852
aften	-7853
iland	-7854
▁Sand	-7855
▁aper	-7856
▁sovi	-7857
▁دولة	-7858
ชาวไทย	-7859
เกี่ยว	-7860
▁álbum	-7861
origine	-7862
หมายถึง	-7863
▁Virgin	-7864
▁comple	-7865
▁亚	-7866
▁완	-7867
方式	-7868
民族	-7869
行动	-7870
공항	-7871
버스	-7872
داء	-7873
กาล	-7874
จาร	-7875
ลํา	-7876
▁It	-7877
▁一个	-7878
▁가진	-7879
あった	-7880
で最も	-7881
▁วัด	-7882
▁배우는	-7883
っていた	-7884
endre	-7885
▁يعرف	-7886
▁mostr	-7887
แม่น้ํา	-7888
IC	-7889
意思	-7890
멤버	-7891
ارد	-7892
اصر	-7893
▁cit	-7894
▁lég	-7895
▁1999	-7896
▁cerc	-7897
▁altri	-7898
▁campo	-7899
▁paesi	-7900
▁recib	-7901
▁regul	-7902
▁animal	-7903
▁scuola	-7904
▁المعروف	-7905
▁المملكة	-7906
▁المستخدم	-7907
▁américaine	-7908
هة	-7909
▁有	-7910
▁탄	-7911
ค้น	-7912
รัก	-7913
ั่ง	-7914
を受け	-7915
▁1997	-7916
▁joue	-7917
▁التص	-7918
▁المز	-7919
▁Straß	-7920
▁fréqu	-7921
▁hacen	-7922
▁ihren	-7923
▁padre	-7924
▁série	-7925
osition	-7926
▁beiden	-7927
▁energy	-7928
▁Napoleón	-7929
▁contrôle	-7930
委员	-7931
成功	-7932
erd	-7933
mee	-7934
▁Au	-7935
▁تب	-7936
▁sho	-7937
▁حتى	-7938
▁발표한	-7939
térie	-7940
جلترا	-7941
▁segu	-7942
▁Produ	-7943
▁haute	-7944
▁rilas	-7945
▁depuis	-7946
▁juegos	-7947
▁states	-7948
▁Royaume	-7949
▁Vietnam	-7950
▁seconda	-7951
▁البريطانية	-7952
ルの	-7953
出生	-7954
فين	-7955
atre	-7956
glés	-7957
pose	-7958
ต้อง	-7959
▁gas	-7960
▁actu	-7961
▁fare	-7962
▁tous	-7963
▁جنوب	-7964
▁decis	-7965
▁nuovo	-7966
▁party	-7967
オリンピック	-7968
ination	-7969
▁grandi	-7970
▁الملكة	-7971
▁Chinese	-7972
▁Gericht	-7973
▁Namibia	-7974
เฟ	-7975
▁ฟ	-7976
igo	-7977
▁당선	-7978
を受賞	-7979
▁Ide	-7980
▁tot	-7981
▁كار	-7982
どの国の	-7983
ibile	-7984
ollow	-7985
uncil	-7986
épend	-7987
خابات	-7988
▁sorti	-7989
▁permit	-7990
▁seinen	-7991
▁svilupp	-7992
▁Schlacht	-7993
▁musulman	-7994
▁Revolution	-7995
▁Northwestern	-7996
ضر	-7997
▁키	-7998
变化	-7999
斯坦	-8000
誰か	-8001
جيل	-8002
يفة	-8003
สอง	-8004
umen	-8005
يريا	-8006
▁Ath	-8007
となった	-8008
coles	-8009
onais	-8010
otter	-8011
▁impl	-8012
quelle	-8013
▁Shell	-8014
▁trouv	-8015
Station	-8016
▁Bürger	-8017
pression	-8018
▁augment	-8019
▁conflic	-8020
▁parties	-8021
▁version	-8022
▁Internet	-8023
▁character	-8024
▁Organisation	-8025
대는	-8026
위원	-8027
▁독립	-8028
ロシア	-8029
เนีย	-8030
▁Cos	-8031
blico	-8032
▁grec	-8033
▁الفر	-8034
▁الارض	-8035
▁inglés	-8036
▁المسيح	-8037
▁desarroll	-8038
út	-8039
ยู	-8040
▁졸	-8041
프로	-8042
zas	-8043
alen	-8044
atif	-8045
izia	-8046
จริง	-8047
▁Bel	-8048
▁rac	-8049
どの国か	-8050
有多少人	-8051
กลุ่ม	-8052
▁Ende	-8053
▁fium	-8054
▁usar	-8055
▁تسبب	-8056
ประธาน	-8057
▁After	-8058
▁الجوية	-8059
▁بوصفها	-8060
▁معاهدة	-8061
ประพันธ์	-8062
▁problema	-8063
วด	-8064
了一	-8065
颜色	-8066
Est	-8067
وست	-8068
▁공격	-8069
▁Geg	-8070
▁Süd	-8071
▁tener	-8072
▁Africa	-8073
▁Museum	-8074
▁example	-8075
▁الكنيسة	-8076
▁نابليون	-8077
▁الانجليزية	-8078
合衆	-8079
فيذ	-8080
▁의미	-8081
krit	-8082
prim	-8083
ichen	-8084
قتصاد	-8085
ระดับ	-8086
▁Herr	-8087
▁الحر	-8088
▁areas	-8089
▁lavor	-8090
▁ايدول	-8091
▁critic	-8092
▁inspir	-8093
▁المركز	-8094
▁Everton	-8095
▁caractér	-8096
เง	-8097
▁ä	-8098
▁奥	-8099
▁폐	-8100
vest	-8101
เนิด	-8102
▁rit	-8103
▁حيث	-8104
▁프랑스	-8105
jiang	-8106
▁1930	-8107
▁Tour	-8108
▁forn	-8109
▁star	-8110
▁vict	-8111
▁العل	-8112
▁مركز	-8113
でしょうか	-8114
vision	-8115
▁Corea	-8116
▁corte	-8117
Université	-8118
▁estableció	-8119
▁협	-8120
ーン	-8121
年以	-8122
성은	-8123
oft	-8124
▁يف	-8125
eria	-8126
unid	-8127
سمية	-8128
▁bit	-8129
▁dep	-8130
▁명칭은	-8131
ิมปิก	-8132
▁ogni	-8133
▁questo	-8134
▁allemand	-8135
▁constitution	-8136
اك	-8137
▁最	-8138
▁같	-8139
▁환	-8140
戴尔	-8141
首都	-8142
abe	-8143
eno	-8144
บาท	-8145
lage	-8146
urre	-8147
▁ميل	-8148
▁뭐라고	-8149
▁luch	-8150
▁التس	-8151
▁ersch	-8152
▁order	-8153
▁source	-8154
▁الثالث	-8155
อาณาจักร	-8156
▁gesehen	-8157
▁produziert	-8158
▁バ	-8159
▁슈	-8160
▁효	-8161
선의	-8162
장이	-8163
adr	-8164
bli	-8165
▁NY	-8166
▁هم	-8167
▁อา	-8168
iser	-8169
zone	-8170
はどこの	-8171
次世界大	-8172
的另一个	-8173
útbol	-8174
▁homb	-8175
▁host	-8176
▁القط	-8177
ording	-8178
าธิบดี	-8179
▁Techn	-8180
▁الدوري	-8181
▁momento	-8182
▁الاحيان	-8183
▁Religion	-8184
▁rappresent	-8185
lè	-8186
▁爱	-8187
世紀	-8188
지를	-8189
▁많이	-8190
ために	-8191
คริส	-8192
▁ترك	-8193
ittle	-8194
ที่ใด	-8195
▁evol	-8196
▁Über	-8197
▁بالن	-8198
▁Party	-8199
▁Regel	-8200
vention	-8201
▁Austral	-8202
▁restaur	-8203
▁ministro	-8204
▁política	-8205
▁돌	-8206
を持	-8207
opp	-8208
▁영국	-8209
▁Ang	-8210
によって	-8211
▁adlı	-8212
▁dato	-8213
▁Antar	-8214
▁estud	-8215
อินเดีย	-8216
▁diffic	-8217
▁pourrait	-8218
พู	-8219
▁斯	-8220
▁업	-8221
ジェ	-8222
har	-8223
ركات	-8224
ภูมิ	-8225
▁dép	-8226
▁จัด	-8227
▁최초로	-8228
ience	-8229
▁1992	-8230
▁الثق	-8231
▁beste	-8232
▁fútbol	-8233
▁squadra	-8234
▁Californ	-8235
▁versucht	-8236
▁estadounid	-8237
هي	-8238
▁검	-8239
▁싱	-8240
加入	-8241
广播	-8242
教皇	-8243
군이	-8244
ots	-8245
تبر	-8246
جرة	-8247
عاب	-8248
ธาร	-8249
▁漱石	-8250
▁졸업	-8251
arde	-8252
icia	-8253
tere	-8254
▁bud	-8255
▁دور	-8256
▁Game	-8257
▁grow	-8258
▁trop	-8259
▁경기에서	-8260
ändern	-8261
▁droit	-8262
▁누구인가요	-8263
ificato	-8264
quitect	-8265
▁battagl	-8266
▁command	-8267
▁Standard	-8268
▁centrale	-8269
▁relación	-8270
▁Institute	-8271
วันที่เท่าไร	-8272
-0	-8273
مز	-8274
าป	-8275
ルク	-8276
调查	-8277
開発	-8278
éra	-8279
علق	-8280
は何人	-8281
burg	-8282
▁bio	-8283
▁rim	-8284
▁ذلك	-8285
代表什么	-8286
▁1996	-8287
▁text	-8288
▁vide	-8289
▁enreg	-8290
▁ihrer	-8291
▁الاعل	-8292
▁الخاص	-8293
ikanische	-8294
▁primeros	-8295
ิป	-8296
日に	-8297
대에	-8298
ينغ	-8299
▁멤버	-8300
aris	-8301
ينيا	-8302
ระบบ	-8303
เล็ก	-8304
▁ABC	-8305
▁fle	-8306
▁vom	-8307
ouver	-8308
▁Cubs	-8309
▁mouv	-8310
etwork	-8311
izzato	-8312
▁categ	-8313
▁الجيش	-8314
▁대한민국의	-8315
ียชีวิต	-8316
▁griech	-8317
▁estudio	-8318
▁Hauptstadt	-8319
▁yayınlanma	-8320
▁organization	-8321
▁줄	-8322
んな	-8323
제의	-8324
ตูน	-8325
▁วิ	-8326
oung	-8327
ด้าน	-8328
▁ast	-8329
▁röm	-8330
▁누구의	-8331
orden	-8332
▁célè	-8333
▁häuf	-8334
▁Egypt	-8335
▁fédér	-8336
▁limit	-8337
▁pract	-8338
▁característ	-8339
▁estudiantes	-8340
建造	-8341
니아	-8342
▁성우	-8343
تماع	-8344
ظرية	-8345
▁jur	-8346
における	-8347
▁creó	-8348
▁king	-8349
▁patr	-8350
▁افضل	-8351
▁관련하여	-8352
ใดเป็น	-8353
▁reina	-8354
▁verantwort	-8355
减少	-8356
土地	-8357
联盟	-8358
وين	-8359
ติด	-8360
▁Dé	-8361
▁FA	-8362
▁Ze	-8363
▁aj	-8364
▁최종	-8365
ivil	-8366
ucle	-8367
ving	-8368
ينات	-8369
▁Sen	-8370
▁kil	-8371
▁vit	-8372
einfl	-8373
frica	-8374
ianos	-8375
örper	-8376
はどちらが	-8377
ustrie	-8378
▁efect	-8379
▁انشاء	-8380
▁Proble	-8381
▁الانواع	-8382
สมเด็จพระ	-8383
▁administr	-8384
▁卡	-8385
威尔	-8386
ั้ม	-8387
enze	-8388
▁Jan	-8389
▁Mah	-8390
empla	-8391
ettre	-8392
واسطة	-8393
▁Life	-8394
▁grad	-8395
▁franz	-8396
▁steht	-8397
ตั้งแต่	-8398
▁Helena	-8399
▁consum	-8400
IA	-8401
一天	-8402
作用	-8403
地位	-8404
起こ	-8405
어로	-8406
รัส	-8407
ิ่น	-8408
▁وس	-8409
百分比	-8410
iker	-8411
iron	-8412
isis	-8413
usqu	-8414
▁Emp	-8415
▁Mic	-8416
▁bra	-8417
▁اقل	-8418
lagen	-8419
mandu	-8420
unter	-8421
ément	-8422
▁Gebä	-8423
▁Oper	-8424
▁يسمى	-8425
erweise	-8426
▁series	-8427
▁französ	-8428
▁Twilight	-8429
誰が	-8430
赢得	-8431
화의	-8432
cta	-8433
uns	-8434
▁Sy	-8435
▁Up	-8436
了哪些	-8437
افين	-8438
▁Mov	-8439
▁sea	-8440
▁1991	-8441
▁Miss	-8442
System	-8443
intosh	-8444
▁indic	-8445
▁somal	-8446
▁title	-8447
britann	-8448
▁بواسطة	-8449
รัฐมนตรี	-8450
▁Bermuda	-8451
การแข่งขัน	-8452
▁arquitect	-8453
▁organización	-8454
.0	-8455
▁0	-8456
▁x	-8457
举行	-8458
계는	-8459
성을	-8460
hte	-8461
واج	-8462
ويت	-8463
ชุด	-8464
มวย	-8465
▁sw	-8466
adel	-8467
back	-8468
criv	-8469
punk	-8470
▁Pub	-8471
▁vac	-8472
enses	-8473
▁1995	-8474
▁life	-8475
▁nive	-8476
▁force	-8477
▁menos	-8478
▁Chicago	-8479
▁Florida	-8480
▁Kathmandu	-8481
っち	-8482
以外	-8483
何か	-8484
도를	-8485
key	-8486
احة	-8487
▁第二	-8488
▁출전	-8489
otte	-8490
ourd	-8491
ิยาย	-8492
เมตร	-8493
▁179	-8494
▁way	-8495
เปอร์	-8496
▁Soci	-8497
iencia	-8498
▁eserc	-8499
▁kanye	-8500
▁لديهم	-8501
▁biblio	-8502
▁beeinfl	-8503
▁ejemplo	-8504
▁الجديدة	-8505
▁manifest	-8506
70	-8507
▁걸	-8508
▁육	-8509
家庭	-8510
adh	-8511
kte	-8512
ยาว	-8513
▁하계	-8514
这个词	-8515
▁lic	-8516
▁pay	-8517
▁لاي	-8518
porto	-8519
ührer	-8520
▁1939	-8521
▁لعبة	-8522
ตอนไหน	-8523
▁défin	-8524
▁esper	-8525
▁الفيل	-8526
itución	-8527
กําเนิด	-8528
▁cuerpo	-8529
▁rempla	-8530
のどちらですか	-8531
▁Veranst	-8532
▁average	-8533
▁especies	-8534
▁students	-8535
utilisation	-8536
วิทยาศาสตร์	-8537
▁yönetmenleri	-8538
▁verantwortlich	-8539
SC	-8540
▁탈	-8541
▁폭	-8542
必须	-8543
死亡	-8544
iew	-8545
ديل	-8546
บ้าง	-8547
▁Gol	-8548
iction	-8549
ientos	-8550
▁islas	-8551
▁visto	-8552
▁누구입니까	-8553
▁habitu	-8554
▁cuántas	-8555
▁ใครแสดง	-8556
▁geschaffen	-8557
้ม	-8558
▁블	-8559
▁식	-8560
电视	-8561
dle	-8562
íos	-8563
يجة	-8564
▁Bü	-8565
▁날은	-8566
▁출시	-8567
asso	-8568
xico	-8569
▁Dov	-8570
▁Law	-8571
いますか	-8572
icina	-8573
▁reçu	-8574
▁télé	-8575
▁يعيش	-8576
▁altra	-8577
▁اعادة	-8578
▁الطائ	-8579
▁Avenue	-8580
▁former	-8581
▁lorsqu	-8582
▁treaty	-8583
▁équipe	-8584
▁établi	-8585
ontinent	-8586
▁بريطانيا	-8587
ทั้งหมดกี่	-8588
▁utilizado	-8589
ee	-8590
سخ	-8591
会议	-8592
排名	-8593
신의	-8594
jab	-8595
اسع	-8596
تمع	-8597
▁때는	-8598
▁번째	-8599
▁역사	-8600
之间的	-8601
되는가	-8602
▁AFC	-8603
▁byu	-8604
▁아시안	-8605
▁Wenn	-8606
▁symb	-8607
▁الات	-8608
▁front	-8609
▁direction	-8610
ุธ	-8611
ไล	-8612
▁ธ	-8613
アン	-8614
之后	-8615
写的	-8616
宪法	-8617
政策	-8618
수의	-8619
èle	-8620
تمد	-8621
هزة	-8622
รัช	-8623
▁Po	-8624
▁bi	-8625
▁my	-8626
的一个	-8627
fahr	-8628
▁Def	-8629
▁Tor	-8630
▁any	-8631
▁règ	-8632
▁ملك	-8633
▁1994	-8634
▁agli	-8635
▁führ	-8636
▁geme	-8637
▁iran	-8638
▁Burma	-8639
▁oblig	-8640
▁trasm	-8641
▁جزيرة	-8642
▁هافين	-8643
▁Neptune	-8644
▁superfic	-8645
▁케	-8646
フェ	-8647
ヴァ	-8648
开发	-8649
ليل	-8650
▁Cy	-8651
▁마지	-8652
ニュー	-8653
▁Mat	-8654
▁pic	-8655
▁rep	-8656
▁했을까	-8657
azine	-8658
lectr	-8659
otion	-8660
petto	-8661
▁batt	-8662
▁rate	-8663
▁said	-8664
▁tard	-8665
จํานวน	-8666
▁court	-8667
▁الاحت	-8668
▁famous	-8669
▁enfants	-8670
▁construit	-8671
法案	-8672
高い	-8673
대가	-8674
bst	-8675
ueb	-8676
่วย	-8677
้าร	-8678
inin	-8679
irse	-8680
unes	-8681
îles	-8682
▁Old	-8683
uption	-8684
▁Buddh	-8685
▁conta	-8686
▁العصر	-8687
ization	-8688
▁Cuando	-8689
▁schools	-8690
▁caratter	-8691
▁wichtigste	-8692
13	-8693
哲学	-8694
업은	-8695
제를	-8696
omo	-8697
علم	-8698
▁22	-8699
스리그	-8700
تيجة	-8701
▁ogg	-8702
▁موج	-8703
ograf	-8704
▁Mart	-8705
▁Mund	-8706
rosoft	-8707
▁Regno	-8708
▁Wofür	-8709
▁الاسب	-8710
▁souten	-8711
▁taille	-8712
▁usually	-8713
▁Avicenna	-8714
▁According	-8715
▁università	-8716
ms	-8717
ウェ	-8718
조의	-8719
Bre	-8720
oco	-8721
と呼ば	-8722
ロッパ	-8723
▁DNA	-8724
▁big	-8725
▁يحت	-8726
reten	-8727
▁fact	-8728
▁البي	-8729
▁المق	-8730
รายการ	-8731
▁lungo	-8732
▁Region	-8733
▁Gruppen	-8734
▁happened	-8735
▁organism	-8736
▁International	-8737
زو	-8738
▁악	-8739
何月	-8740
文学	-8741
风格	-8742
도가	-8743
체는	-8744
رام	-8745
▁80	-8746
acio	-8747
fois	-8748
kten	-8749
ünst	-8750
▁Div	-8751
▁vel	-8752
▁일어난	-8753
的一部分	-8754
video	-8755
พิมพ์	-8756
▁down	-8757
▁même	-8758
ヨーロッパ	-8759
名字是什么	-8760
ingham	-8761
▁dimin	-8762
férence	-8763
▁comien	-8764
▁المصطلح	-8765
▁religios	-8766
▁religión	-8767
▁쇼	-8768
查尔	-8769
yen	-8770
وفي	-8771
ดิ์	-8772
ตัน	-8773
โรค	-8774
ivel	-8775
▁Cup	-8776
▁beh	-8777
▁Arab	-8778
▁Girl	-8779
▁alli	-8780
▁Harry	-8781
▁apare	-8782
▁enter	-8783
▁great	-8784
▁named	-8785
▁potre	-8786
▁repla	-8787
▁using	-8788
énergie	-8789
▁Grammy	-8790
▁Guinea	-8791
▁alcuni	-8792
▁musica	-8793
▁الجديد	-8794
ıl	-8795
ตน	-8796
พั	-8797
负责	-8798
명한	-8799
hab	-8800
ابل	-8801
ภาย	-8802
มาร	-8803
▁MP	-8804
が最も	-8805
共和国	-8806
fass	-8807
inge	-8808
▁Sie	-8809
▁ドイツ	-8810
anmar	-8811
istic	-8812
istra	-8813
▁Haus	-8814
▁Mill	-8815
▁bois	-8816
▁hard	-8817
▁stor	-8818
▁sugg	-8819
▁لكرة	-8820
▁legal	-8821
▁peque	-8822
สําหรับ	-8823
▁Kultur	-8824
▁celebr	-8825
iquement	-8826
▁Bretaña	-8827
▁Britain	-8828
▁azienda	-8829
bs	-8830
ขา	-8831
ยก	-8832
かけ	-8833
につ	-8834
年谁	-8835
cas	-8836
imp	-8837
rig	-8838
zie	-8839
▁90	-8840
▁tí	-8841
▁สถ	-8842
▁เค	-8843
rebbe	-8844
rogen	-8845
▁Dead	-8846
▁Eins	-8847
▁cred	-8848
▁المط	-8849
atalan	-8850
▁equip	-8851
▁neuen	-8852
▁nivel	-8853
▁volte	-8854
▁انواع	-8855
ชื่อว่า	-8856
▁spesso	-8857
▁canción	-8858
▁bedeutet	-8859
▁territorio	-8860
ของประเทศไทย	-8861
▁Großbritann	-8862
ซา	-8863
▁ศ	-8864
ショ	-8865
数据	-8866
的な	-8867
组成	-8868
صبح	-8869
ينج	-8870
คัญ	-8871
▁cô	-8872
▁يس	-8873
▁ซี	-8874
ゲーム	-8875
uppe	-8876
▁마지막	-8877
ended	-8878
éxico	-8879
อาหาร	-8880
▁Verb	-8881
▁muss	-8882
▁الله	-8883
isiert	-8884
itario	-8885
ลักษณะ	-8886
▁cerve	-8887
▁nucle	-8888
▁supre	-8889
▁Robert	-8890
▁décrit	-8891
▁letzte	-8892
▁indigen	-8893
▁ใครเป็น	-8894
Re	-8895
ุษ	-8896
先に	-8897
常见	-8898
接受	-8899
관의	-8900
세가	-8901
정은	-8902
eff	-8903
law	-8904
xim	-8905
ฤดู	-8906
▁اط	-8907
の方が	-8908
▁Bei	-8909
▁Dig	-8910
▁Zwe	-8911
▁bal	-8912
▁nur	-8913
▁ارت	-8914
antin	-8915
prise	-8916
▁Mass	-8917
▁croy	-8918
▁voul	-8919
▁선거에서	-8920
▁시청률은	-8921
ทางการ	-8922
▁Pflan	-8923
▁beyon	-8924
▁fuera	-8925
itation	-8926
▁Greece	-8927
▁empire	-8928
▁preced	-8929
▁quante	-8930
▁título	-8931
▁اليونان	-8932
▁district	-8933
▁쓴	-8934
나는	-8935
당의	-8936
▁ép	-8937
▁بن	-8938
▁وز	-8939
▁이상	-8940
erve	-8941
izar	-8942
todo	-8943
ught	-8944
راضي	-8945
เลีย	-8946
▁Off	-8947
▁cho	-8948
iante	-8949
▁tant	-8950
uzione	-8951
▁Titel	-8952
▁retir	-8953
▁Schule	-8954
โอลิมปิก	-8955
▁building	-8956
▁américain	-8957
▁attravers	-8958
▁对	-8959
▁길	-8960
ards	-8961
umin	-8962
▁Tro	-8963
▁señ	-8964
▁คํา	-8965
ようにな	-8966
▁Hand	-8967
▁anti	-8968
▁engl	-8969
▁site	-8970
▁serve	-8971
▁times	-8972
พระองค์	-8973
▁manten	-8974
▁tercer	-8975
▁zusammen	-8976
▁nationale	-8977
ジア	-8978
基因	-8979
اتل	-8980
▁26	-8981
于什么	-8982
parte	-8983
▁Germ	-8984
reiben	-8985
สําคัญ	-8986
▁sujet	-8987
▁الشعب	-8988
▁appear	-8989
▁individu	-8990
▁battaglia	-8991
▁populaire	-8992
後の	-8993
誰の	-8994
abb	-8995
val	-8996
▁ip	-8997
cita	-8998
iqué	-8999
ived	-9000
zion	-9001
▁Don	-9002
aines	-9003
ocrat	-9004
▁apro	-9005
abhäng	-9006
▁dichi	-9007
▁medio	-9008
lamento	-9009
▁confer	-9010
▁legisl	-9011
เล่นเป็น	-9012
▁Seconde	-9013
▁benefic	-9014
▁escuelas	-9015
▁للولايات	-9016
▁Christian	-9017
▁développement	-9018
عد	-9019
▁纳	-9020
ーの	-9021
发明	-9022
air	-9023
nel	-9024
ريت	-9025
هرب	-9026
วีป	-9027
▁تف	-9028
▁위한	-9029
、19	-9030
チーム	-9031
番目に	-9032
ivre	-9033
tein	-9034
uert	-9035
zept	-9036
โมสร	-9037
▁Lig	-9038
▁erw	-9039
▁نور	-9040
altet	-9041
ommun	-9042
▁brev	-9043
▁circ	-9044
▁teil	-9045
はどれくら	-9046
เท่าไร	-9047
▁fiume	-9048
▁these	-9049
▁cultur	-9050
▁membri	-9051
Bretagne	-9052
ducation	-9053
อเมริกัน	-9054
▁encuentran	-9055
▁มีชื่อว่าอะไร	-9056
王星	-9057
的に	-9058
idi	-9059
ถือ	-9060
▁고려	-9061
▁북한	-9062
▁운영	-9063
にある	-9064
-201	-9065
cono	-9066
เหตุ	-9067
▁180	-9068
▁XIX	-9069
▁rip	-9070
▁중에서	-9071
ーパーボ	-9072
terra	-9073
vered	-9074
ศาสนา	-9075
▁taux	-9076
▁سانت	-9077
ประกอบ	-9078
▁broad	-9079
▁benutzt	-9080
▁portato	-9081
▁proceso	-9082
▁provide	-9083
▁religie	-9084
▁science	-9085
▁computer	-9086
▁laquelle	-9087
وء	-9088
ิว	-9089
▁ハ	-9090
▁못	-9091
優勝	-9092
örd	-9093
يمة	-9094
ชัย	-9095
▁عض	-9096
▁กล	-9097
บั้ม	-9098
▁موا	-9099
れている	-9100
Spiel	-9101
orias	-9102
▁Test	-9103
▁dice	-9104
れましたか	-9105
iziert	-9106
ouvert	-9107
▁Santa	-9108
▁temperatura	-9109
▁암	-9110
民主	-9111
œuv	-9112
▁اض	-9113
▁بط	-9114
amen	-9115
unch	-9116
▁Hit	-9117
▁var	-9118
▁عشر	-9119
ereur	-9120
▁Samo	-9121
▁bird	-9122
▁التش	-9123
omaine	-9124
がありますか	-9125
▁recher	-9126
▁Myanmar	-9127
▁anglais	-9128
▁Festival	-9129
▁geworden	-9130
▁convirtió	-9131
▁structure	-9132
▁également	-9133
▁movimiento	-9134
▁unterstützt	-9135
ám	-9136
บี	-9137
▁글	-9138
のか	-9139
伦敦	-9140
地震	-9141
提出	-9142
اتي	-9143
▁Sa	-9144
▁몇개	-9145
ประช	-9146
▁baj	-9147
▁luz	-9148
っている	-9149
どちらの	-9150
ものは何	-9151
▁rôle	-9152
▁Bezug	-9153
▁tipos	-9154
▁Kinder	-9155
▁employ	-9156
▁regione	-9157
TA	-9158
▁آ	-9159
一次	-9160
乐部	-9161
格兰	-9162
试图	-9163
选举	-9164
gew	-9165
▁부산	-9166
リング	-9167
俱乐部	-9168
unst	-9169
▁Tes	-9170
▁Tom	-9171
▁Una	-9172
▁يست	-9173
autre	-9174
▁Sony	-9175
▁berü	-9176
▁biet	-9177
▁erhö	-9178
▁الصح	-9179
▁بالل	-9180
unicip	-9181
ทําให้	-9182
▁claim	-9183
▁México	-9184
▁formed	-9185
azionale	-9186
▁austral	-9187
▁adolescent	-9188
ış	-9189
هو	-9190
นี	-9191
▁퍼	-9192
ンは	-9193
警察	-9194
했을	-9195
Uni	-9196
ria	-9197
วัง	-9198
สาว	-9199
▁Ju	-9200
▁لو	-9201
どっち	-9202
arse	-9203
ettr	-9204
face	-9205
name	-9206
كاني	-9207
▁gle	-9208
▁voy	-9209
▁역할은	-9210
ética	-9211
▁Mand	-9212
▁doll	-9213
▁méth	-9214
▁الار	-9215
ประมาณ	-9216
▁Green	-9217
▁Maria	-9218
▁chies	-9219
▁gioco	-9220
▁repub	-9221
▁seule	-9222
▁الأول	-9223
▁observ	-9224
▁langues	-9225
▁weiterer	-9226
▁developed	-9227
▁สมเด็จพระ	-9228
▁Montevideo	-9229
GB	-9230
äh	-9231
ษฐ	-9232
世の	-9233
大利	-9234
情况	-9235
단은	-9236
동차	-9237
ieß	-9238
ähl	-9239
راق	-9240
▁تخ	-9241
▁만들	-9242
inen	-9243
assin	-9244
verse	-9245
ونسيه	-9246
▁Bush	-9247
▁Lord	-9248
▁diffus	-9249
▁parola	-9250
เกิดขึ้น	-9251
▁célèbre	-9252
PC	-9253
aï	-9254
▁획	-9255
停止	-9256
完成	-9257
影響	-9258
後に	-9259
部门	-9260
非洲	-9261
ชิง	-9262
อัล	-9263
▁só	-9264
▁يب	-9265
▁Top	-9266
Europ	-9267
troit	-9268
▁Hill	-9269
▁erre	-9270
▁race	-9271
▁invad	-9272
lemagne	-9273
▁Apollo	-9274
▁adopté	-9275
▁maison	-9276
▁sexual	-9277
▁perform	-9278
▁المناطق	-9279
▁argument	-9280
▁responsible	-9281
机场	-9282
相信	-9283
도로	-9284
프트	-9285
nen	-9286
uck	-9287
กาย	-9288
แทน	-9289
▁مم	-9290
意大利	-9291
-200	-9292
klär	-9293
▁255	-9294
▁gal	-9295
uppen	-9296
▁Dark	-9297
▁find	-9298
▁magn	-9299
▁rais	-9300
▁todo	-9301
▁معدل	-9302
สมาชิก	-9303
▁corre	-9304
▁يتعلق	-9305
aziland	-9306
istoire	-9307
▁Además	-9308
▁estilo	-9309
▁follow	-9310
▁العامة	-9311
▁المحكمة	-9312
▁contiene	-9313
Angleterre	-9314
▁industria	-9315
▁instrument	-9316
PS	-9317
新的	-9318
력을	-9319
céd	-9320
ema	-9321
بار	-9322
เคย	-9323
▁그룹	-9324
amin	-9325
ومات	-9326
วรรณ	-9327
▁AFL	-9328
▁bor	-9329
▁iss	-9330
▁اعط	-9331
▁미국의	-9332
▁اثناء	-9333
iciones	-9334
▁descub	-9335
▁theory	-9336
▁utilizó	-9337
▁البلدان	-9338
▁القديمة	-9339
ป์	-9340
전의	-9341
하며	-9342
dic	-9343
oto	-9344
لوب	-9345
▁CA	-9346
▁os	-9347
导致了	-9348
ชั้น	-9349
▁amo	-9350
▁web	-9351
▁جعل	-9352
▁일본의	-9353
▁late	-9354
▁Texas	-9355
▁aussi	-9356
▁معركة	-9357
▁nasser	-9358
▁wieder	-9359
▁Quiénes	-9360
▁Raleigh	-9361
の名前は何ですか	-9362
فن	-9363
▁갖	-9364
▁엔	-9365
改变	-9366
自然	-9367
인공	-9368
Mac	-9369
ฒนา	-9370
에서의	-9371
bero	-9372
▁bur	-9373
▁لعام	-9374
▁causó	-9375
▁forte	-9376
▁unido	-9377
▁économ	-9378
▁dichiar	-9379
▁gewählt	-9380
▁événement	-9381
ปฏ	-9382
zer	-9383
ثلة	-9384
راه	-9385
ورج	-9386
▁우리	-9387
abet	-9388
ทธิ์	-9389
สิ่ง	-9390
▁Ash	-9391
▁Bet	-9392
▁Way	-9393
▁she	-9394
▁اخذ	-9395
▁지역은	-9396
使用什么	-9397
entro	-9398
icode	-9399
inner	-9400
▁العن	-9401
▁ناصر	-9402
▁Armee	-9403
▁cerca	-9404
▁berühm	-9405
▁destin	-9406
▁pestic	-9407
▁النبات	-9408
▁nachdem	-9409
▁المكسيك	-9410
▁Napoleone	-9411
▁angesehen	-9412
จังหวัดอะไร	-9413
تن	-9414
▁克	-9415
▁埃	-9416
德里	-9417
자로	-9418
azu	-9419
سيا	-9420
▁希腊	-9421
建立的	-9422
onic	-9423
tera	-9424
▁usa	-9425
▁won	-9426
▁غال	-9427
▁นาย	-9428
arden	-9429
isión	-9430
▁Ziel	-9431
▁inte	-9432
▁mark	-9433
▁meth	-9434
▁îles	-9435
▁اكتش	-9436
▁طريق	-9437
พระนาม	-9438
▁Fluss	-9439
▁línea	-9440
▁sotto	-9441
▁المال	-9442
ประวัติ	-9443
▁civile	-9444
▁includ	-9445
▁comment	-9446
▁lorsque	-9447
▁mouvement	-9448
▁verwenden	-9449
▁มหาวิทยาลัย	-9450
▁ใครร้องเพลง	-9451
فر	-9452
に入	-9453
ステ	-9454
制造	-9455
概念	-9456
英语	-9457
rog	-9458
ump	-9459
▁Gl	-9460
▁Ib	-9461
▁KU	-9462
▁UK	-9463
▁민주	-9464
亡くな	-9465
affe	-9466
erei	-9467
▁Anf	-9468
▁age	-9469
▁برن	-9470
▁auto	-9471
▁dazu	-9472
ellung	-9473
lossen	-9474
▁Après	-9475
▁Bezie	-9476
▁Schwe	-9477
▁Under	-9478
▁grado	-9479
▁تشكيل	-9480
ropolit	-9481
▁الموسم	-9482
▁Großbritannien	-9483
と言	-9484
ロン	-9485
ワイ	-9486
协议	-9487
尔兰	-9488
ogr	-9489
the	-9490
่อย	-9491
้อม	-9492
▁يؤ	-9493
▁교육	-9494
agli	-9495
gono	-9496
ستور	-9497
▁pie	-9498
▁âge	-9499
▁Vict	-9500
▁suoi	-9501
öglich	-9502
▁Japon	-9503
▁Tesla	-9504
▁conte	-9505
▁selon	-9506
▁عاصمة	-9507
lerinde	-9508
ประเทศใด	-9509
▁Armenia	-9510
▁Alexander	-9511
▁languages	-9512
▁troisième	-9513
มุ	-9514
▁与	-9515
ップ	-9516
ーズ	-9517
時期	-9518
ämp	-9519
▁اه	-9520
▁この	-9521
▁가능	-9522
into	-9523
▁كات	-9524
ennes	-9525
lands	-9526
stone	-9527
▁dens	-9528
▁habl	-9529
▁just	-9530
▁مثال	-9531
了什么样的	-9532
▁häufig	-9533
▁impact	-9534
▁villes	-9535
▁bombard	-9536
▁combatt	-9537
▁youtube	-9538
▁relation	-9539
▁Microsoft	-9540
▁certaines	-9541
23	-9542
レイ	-9543
福克	-9544
rak	-9545
بول	-9546
هاز	-9547
คาร	-9548
▁되는	-9549
▁rem	-9550
▁احت	-9551
änger	-9552
▁Fall	-9553
▁Flug	-9554
▁Stat	-9555
▁vice	-9556
▁woll	-9557
▁어땠을까	-9558
▁Brown	-9559
▁Milit	-9560
▁aleman	-9561
▁colleg	-9562
▁muchos	-9563
▁profes	-9564
▁الفيلم	-9565
▁highest	-9566
▁nouvelle	-9567
▁Geschichte	-9568
ース	-9569
议会	-9570
重新	-9571
cés	-9572
eil	-9573
ลาย	-9574
สู่	-9575
▁بج	-9576
▁획득	-9577
是哪个	-9578
atte	-9579
fica	-9580
less	-9581
يكية	-9582
ต่าง	-9583
▁Kre	-9584
▁init	-9585
▁باري	-9586
▁ولكن	-9587
▁الصنا	-9588
▁الطبي	-9589
wendung	-9590
▁factor	-9591
▁libros	-9592
▁market	-9593
▁öffent	-9594
histoire	-9595
▁Francis	-9596
▁idiomas	-9597
▁théorie	-9598
▁الاطفال	-9599
▁utiliser	-9600
▁President	-9601
??	-9602
物种	-9603
과는	-9604
ope	-9605
وبة	-9606
▁모델	-9607
adır	-9608
ghil	-9609
▁لاع	-9610
hovah	-9611
ipend	-9612
owers	-9613
èrent	-9614
▁1900	-9615
▁Seit	-9616
▁pero	-9617
▁Neben	-9618
▁متوسط	-9619
▁언제인가요	-9620
▁install	-9621
ghilterra	-9622
▁contribué	-9623
ôt	-9624
▁小	-9625
レン	-9626
任命	-9627
拥有	-9628
方言	-9629
상은	-9630
ตรา	-9631
は何年	-9632
itud	-9633
omme	-9634
pond	-9635
usst	-9636
▁Gew	-9637
▁يتح	-9638
▁1984	-9639
▁cong	-9640
▁revol	-9641
▁Mexiko	-9642
▁البرتغ	-9643
▁college	-9644
▁municip	-9645
▁الافراج	-9646
▁influence	-9647
▁organisation	-9648
رر	-9649
وذ	-9650
受到	-9651
광역	-9652
량은	-9653
jos	-9654
ยุค	-9655
ศัก	-9656
▁ah	-9657
犹太人	-9658
西班牙	-9659
chte	-9660
▁dej	-9661
▁منح	-9662
▁어떤것	-9663
▁1988	-9664
▁Guam	-9665
▁liga	-9666
▁orth	-9667
▁vert	-9668
ciales	-9669
อําเภอ	-9670
▁Lutero	-9671
▁década	-9672
▁necess	-9673
istiques	-9674
▁tiempos	-9675
▁studenti	-9676
▁interpret	-9677
▁principalmente	-9678
US	-9679
สน	-9680
之外	-9681
有关	-9682
軍の	-9683
드가	-9684
스를	-9685
정된	-9686
لول	-9687
ندي	-9688
يور	-9689
แม่	-9690
▁27	-9691
▁싱글	-9692
百分之	-9693
ènes	-9694
▁Boy	-9695
▁cad	-9696
▁nas	-9697
▁sue	-9698
▁ساو	-9699
▁오스트	-9700
▁Laut	-9701
▁esta	-9702
▁vale	-9703
▁Ägyp	-9704
▁维多利亚	-9705
▁films	-9706
▁genet	-9707
▁lingu	-9708
▁oppos	-9709
▁vient	-9710
cuencia	-9711
▁estánd	-9712
▁fuerza	-9713
▁unidos	-9714
▁algunas	-9715
▁contest	-9716
▁empresa	-9717
▁geführt	-9718
▁emperador	-9719
▁başrollerinde	-9720
สะ	-9721
โย	-9722
地球	-9723
방송	-9724
이나	-9725
황은	-9726
ائد	-9727
คุณ	-9728
▁va	-9729
▁따라	-9730
▁시절	-9731
▁Tem	-9732
▁sen	-9733
▁لان	-9734
▁مقد	-9735
▁وصل	-9736
▁รัฐ	-9737
ientí	-9738
ining	-9739
tagna	-9740
▁Qing	-9741
▁bord	-9742
▁elev	-9743
▁pron	-9744
▁prot	-9745
▁svol	-9746
▁구성되어	-9747
▁하였는가	-9748
achsen	-9749
▁Sport	-9750
▁madre	-9751
▁monar	-9752
▁femmes	-9753
▁object	-9754
▁scuole	-9755
▁vielen	-9756
▁Insieme	-9757
▁internet	-9758
▁servicio	-9759
év	-9760
หา	-9761
斯兰	-9762
现在	-9763
開催	-9764
어의	-9765
ค้า	-9766
▁นิ	-9767
reas	-9768
ทวีป	-9769
รถไฟ	-9770
▁KBS	-9771
▁يون	-9772
▁Gott	-9773
▁atte	-9774
▁eleg	-9775
▁like	-9776
▁mois	-9777
▁rédu	-9778
▁2004?	-9779
▁Grèce	-9780
▁tuber	-9781
▁الهدف	-9782
ที่เป็น	-9783
▁transl	-9784
▁costitu	-9785
▁profess	-9786
▁انجلترا	-9787
▁Brasilia	-9788
▁software	-9789
عر	-9790
โค	-9791
报告	-9792
역을	-9793
진이	-9794
hne	-9795
الب	-9796
▁cy	-9797
▁คว	-9798
▁인해	-9799
ateg	-9800
enta	-9801
ären	-9802
▁Lad	-9803
▁sam	-9804
▁나오는	-9805
▁선수의	-9806
▁주인공	-9807
▁Last	-9808
▁شارع	-9809
名称是什么	-9810
ichtet	-9811
▁ligne	-9812
▁primi	-9813
▁البشر	-9814
▁تصنيف	-9815
ception	-9816
▁cientí	-9817
▁inglese	-9818
▁utilise	-9819
▁religious	-9820
▁superficie	-9821
ナル	-9822
太阳	-9823
领域	-9824
جاج	-9825
▁شب	-9826
▁这个	-9827
▁경제	-9828
회에서	-9829
iken	-9830
▁Pul	-9831
omano	-9832
เนื้อ	-9833
▁Mond	-9834
▁verw	-9835
▁carta	-9836
▁reine	-9837
▁السنة	-9838
cimiento	-9839
▁Richard	-9840
▁internation	-9841
زم	-9842
▁ク	-9843
▁니	-9844
▁울	-9845
殖民	-9846
谁的	-9847
連合	-9848
開始	-9849
限制	-9850
리에	-9851
아가	-9852
พาน	-9853
▁Mu	-9854
▁정규	-9855
folg	-9856
omos	-9857
لاثة	-9858
▁500	-9859
▁mid	-9860
▁내용은	-9861
中有多少	-9862
했습니까	-9863
▁caso	-9864
▁cher	-9865
▁hand	-9866
▁role	-9867
▁مكتب	-9868
是什么意思	-9869
ettato	-9870
ußball	-9871
▁Supre	-9872
▁aktör	-9873
▁النها	-9874
は誰でしたか	-9875
▁amount	-9876
▁europä	-9877
▁الاصلي	-9878
▁บริษัท	-9879
▁aumento	-9880
▁ricevuto	-9881
▁educación	-9882
▁난	-9883
基金	-9884
皇家	-9885
里亚	-9886
트는	-9887
했나	-9888
LED	-9889
فقة	-9890
يدة	-9891
มหา	-9892
▁中国	-9893
▁출마	-9894
委员会	-9895
anni	-9896
ında	-9897
สกุล	-9898
เงิน	-9899
▁caz	-9900
▁faç	-9901
▁pes	-9902
▁voc	-9903
▁لغة	-9904
ohner	-9905
▁Sans	-9906
▁drit	-9907
▁quit	-9908
lauben	-9909
▁Ergeb	-9910
▁zweite	-9911
▁gemeins	-9912
▁business	-9913
▁détermin	-9914
▁esercito	-9915
▁incorpor	-9916
▁considera	-9917
▁commercial	-9918
▁접	-9919
制度	-9920
发表	-9921
計画	-9922
ilm	-9923
ips	-9924
éré	-9925
ساء	-9926
▁Mr	-9927
aval	-9928
ipto	-9929
makt	-9930
ธารณ	-9931
▁Fun	-9932
▁cul	-9933
▁mai	-9934
▁سان	-9935
ansas	-9936
▁extr	-9937
izioni	-9938
▁Nobel	-9939
▁money	-9940
▁terms	-9941
▁action	-9942
▁crisis	-9943
▁الفترة	-9944
▁Western	-9945
▁chanson	-9946
▁couleur	-9947
ثي	-9948
كا	-9949
受賞	-9950
团体	-9951
獲得	-9952
群体	-9953
ทาน	-9954
นาง	-9955
ยาน	-9956
▁ca	-9957
▁مف	-9958
▁نق	-9959
edio	-9960
oire	-9961
zial	-9962
▁Mur	-9963
▁NYC	-9964
angel	-9965
▁erst	-9966
▁والم	-9967
▁Japón	-9968
▁Unito	-9969
▁still	-9970
▁Commun	-9971
▁Kaiser	-9972
▁resist	-9973
▁romano	-9974
maktadır	-9975
minister	-9976
▁allowed	-9977
▁artista	-9978
▁conduit	-9979
▁esempio	-9980
▁อะไรคือ	-9981
▁ministre	-9982
▁yayınlanm	-9983
22	-9984
▁图	-9985
リオ	-9986
共同	-9987
尔伯	-9988
세기	-9989
치는	-9990
edi	-9991
▁설치	-9992
▁출신	-9993
afen	-9994
bell	-9995
cias	-9996
onda	-9997
side	-9998
▁Are	-9999
▁Cop	-10000
▁Dan	-10001
▁hyd	-10002
做了什么	-10003
เลือก	-10004
▁case	-10005
▁excl	-10006
▁يسمح	-10007
▁عملية	-10008
▁frühen	-10009
▁tarihte	-10010
▁اليابان	-10011
▁โรงเรียน	-10012
▁occidental	-10013
▁responsabile	-10014
利用	-10015
属于	-10016
应该	-10017
戦い	-10018
発表	-10019
부의	-10020
씨의	-10021
die	-10022
lor	-10023
öst	-10024
ابة	-10025
طاق	-10026
้าว	-10027
▁새로	-10028
られる	-10029
インド	-10030
이라고	-10031
arsi	-10032
urai	-10033
ying	-10034
ช่อง	-10035
▁تست	-10036
▁ofre	-10037
▁sert	-10038
▁vidé	-10039
▁ساوث	-10040
atives	-10041
▁David	-10042
▁hasta	-10043
▁isola	-10044
▁month	-10045
▁الجام	-10046
▁تعتبر	-10047
▁specie	-10048
▁الرياض	-10049
▁챔피언스리그	-10050
anischen	-10051
▁Después	-10052
▁espèces	-10053
▁thought	-10054
เกี่ยวกับ	-10055
▁desarrollo	-10056
▁occidentale	-10057
▁극	-10058
市场	-10059
西亚	-10060
贝尔	-10061
起源	-10062
정한	-10063
해야	-10064
ظيم	-10065
▁لج	-10066
oses	-10067
stru	-10068
هاور	-10069
▁Sil	-10070
▁Sir	-10071
▁fal	-10072
▁van	-10073
▁win	-10074
▁دول	-10075
▁لاح	-10076
▁วัน	-10077
▁1920	-10078
▁leng	-10079
▁sull	-10080
▁بالت	-10081
action	-10082
ildung	-10083
inning	-10084
Église	-10085
▁among	-10086
anische	-10087
▁Edward	-10088
▁create	-10089
▁امريكا	-10090
lichkeit	-10091
▁Mundial	-10092
▁gedacht	-10093
▁llamado	-10094
▁refiere	-10095
▁dynastie	-10096
▁processus	-10097
▁ใครแสดงเป็น	-10098
RA	-10099
iy	-10100
▁布	-10101
に出	-10102
んで	-10103
ael	-10104
met	-10105
ote	-10106
ونة	-10107
ปาก	-10108
เวณ	-10109
▁Ra	-10110
▁法国	-10111
▁때문	-10112
▁라이	-10113
일까요	-10114
คนใด	-10115
▁Bus	-10116
▁aud	-10117
▁rid	-10118
▁فقط	-10119
▁국가는	-10120
attan	-10121
▁Kill	-10122
▁Manh	-10123
どのような	-10124
iments	-10125
▁envoy	-10126
▁level	-10127
▁ordin	-10128
▁sépar	-10129
▁Egipto	-10130
▁Londra	-10131
▁Gebäude	-10132
▁Schweiz	-10133
▁밀	-10134
▁벤	-10135
▁커	-10136
ラス	-10137
安全	-10138
拉夫	-10139
本土	-10140
王朝	-10141
미널	-10142
asi	-10143
راف	-10144
จัน	-10145
沙尼亚	-10146
นายก	-10147
▁Pak	-10148
▁Raj	-10149
▁erm	-10150
▁خلق	-10151
▁عند	-10152
▁러시아	-10153
ified	-10154
ilien	-10155
istre	-10156
ريقيا	-10157
▁Ming	-10158
▁cres	-10159
▁else	-10160
▁seit	-10161
▁درجة	-10162
▁있습니까	-10163
ปกครอง	-10164
อันดับ	-10165
▁Radio	-10166
▁audio	-10167
▁focus	-10168
▁établ	-10169
▁الروس	-10170
▁الكون	-10171
▁cardin	-10172
▁höchste	-10173
▁terminó	-10174
▁trovano	-10175
▁Minister	-10176
▁research	-10177
ภั	-10178
▁„	-10179
每年	-10180
荷兰	-10181
oms	-10182
ยัง	-10183
อิส	-10184
▁أف	-10185
大利亚	-10186
halb	-10187
igur	-10188
kehr	-10189
▁Den	-10190
▁Hat	-10191
れたのは	-10192
eland	-10193
▁Cina	-10194
▁list	-10195
▁phon	-10196
achine	-10197
argent	-10198
▁gebor	-10199
▁otras	-10200
ーパーボウル	-10201
prochen	-10202
▁Energie	-10203
▁militar	-10204
▁produced	-10205
แป	-10206
▁Á	-10207
▁到	-10208
▁며	-10209
球队	-10210
碧昂	-10211
운동	-10212
주는	-10213
NES	-10214
يزة	-10215
บับ	-10216
โคร	-10217
▁สา	-10218
▁สุ	-10219
数が多	-10220
的人口	-10221
länd	-10222
uest	-10223
▁Sci	-10224
▁inm	-10225
▁بور	-10226
▁선수권	-10227
▁참여한	-10228
はいくつ	-10229
澳大利亚	-10230
craft	-10231
egung	-10232
▁Erit	-10233
▁Gold	-10234
▁Konf	-10235
▁Team	-10236
จากการ	-10237
▁india	-10238
▁انتاج	-10239
هامبتون	-10240
▁chasse	-10241
▁Sichuan	-10242
▁disting	-10243
▁prodotto	-10244
▁services	-10245
شب	-10246
ซู	-10247
อว	-10248
▁밝	-10249
作者	-10250
物质	-10251
目的	-10252
葡萄	-10253
迈阿	-10254
urt	-10255
▁국민	-10256
▁담당	-10257
▁뮤직	-10258
▁부분	-10259
的第一	-10260
迈阿密	-10261
edor	-10262
▁Esp	-10263
▁bul	-10264
▁fol	-10265
▁태어났	-10266
owjet	-10267
produ	-10268
scher	-10269
uchen	-10270
école	-10271
▁With	-10272
▁ases	-10273
▁الخط	-10274
équipe	-10275
มีความ	-10276
▁Barts	-10277
▁calle	-10278
▁جائزة	-10279
▁شعبية	-10280
วงศ์เธอ	-10281
หนึ่งใน	-10282
▁Indian	-10283
▁teoría	-10284
▁الشركة	-10285
▁الطيور	-10286
▁Federal	-10287
▁devenue	-10288
▁mission	-10289
▁musical	-10290
▁receive	-10291
▁الانسان	-10292
▁Alemania	-10293
▁gehalten	-10294
▁الامريكي	-10295
DP	-10296
▁ブ	-10297
政党	-10298
امة	-10299
▁60	-10300
▁قط	-10301
▁문재	-10302
▁승리	-10303
▁이적	-10304
▁주로	-10305
idió	-10306
onte	-10307
äfte	-10308
เกีย	-10309
▁Une	-10310
▁영향을	-10311
ervice	-10312
▁prior	-10313
は何でしたか	-10314
▁Wasser	-10315
▁belong	-10316
▁écoles	-10317
▁استخدمت	-10318
จังหวัดใด	-10319
▁الجنوبية	-10320
▁habituellement	-10321
▁면	-10322
▁빌	-10323
エン	-10324
ッツ	-10325
什麼	-10326
移民	-10327
種類	-10328
经常	-10329
임한	-10330
uvo	-10331
كال	-10332
▁비판	-10333
▁포함	-10334
hamm	-10335
itto	-10336
ológ	-10337
▁now	-10338
▁타이틀	-10339
▁Conf	-10340
▁cómo	-10341
▁área	-10342
▁القر	-10343
ändert	-10344
زنهاور	-10345
▁museo	-10346
▁tutti	-10347
▁August	-10348
▁Cathol	-10349
▁Russia	-10350
▁should	-10351
▁déclaré	-10352
▁général	-10353
▁mainten	-10354
▁المدارس	-10355
▁movement	-10356
▁programm	-10357
▁stations	-10358
▁tubercul	-10359
▁الالمانية	-10360
ตู	-10361
ลิ	-10362
人在	-10363
記録	-10364
hov	-10365
ونا	-10366
บรร	-10367
แก่	-10368
▁동계	-10369
▁학교	-10370
的哪一	-10371
cipe	-10372
ommt	-10373
▁ata	-10374
▁جبل	-10375
▁مصر	-10376
ambre	-10377
▁Geld	-10378
▁Vars	-10379
istica	-10380
itäten	-10381
▁Angel	-10382
▁black	-10383
▁finan	-10384
▁morto	-10385
▁الجزء	-10386
▁مختلف	-10387
▁appart	-10388
▁dentro	-10389
▁reform	-10390
▁tempér	-10391
▁Entwick	-10392
ประธานาธิบดี	-10393
▁vorgestellt	-10394
อิ	-10395
目标	-10396
izó	-10397
غات	-10398
iede	-10399
ักษ์	-10400
▁178	-10401
▁lan	-10402
▁سجل	-10403
▁عصر	-10404
▁لتح	-10405
▁ตัว	-10406
ingen	-10407
▁1989	-10408
▁Kind	-10409
▁give	-10410
▁must	-10411
▁spre	-10412
▁있었을까	-10413
比例是多少	-10414
astern	-10415
▁bevor	-10416
▁chrét	-10417
▁feder	-10418
▁fourn	-10419
▁niños	-10420
ichtung	-10421
▁inizio	-10422
▁uranio	-10423
▁باللغة	-10424
▁dizinin	-10425
▁التعليم	-10426
ذج	-10427
ーク	-10428
信仰	-10429
占領	-10430
去了	-10431
首相	-10432
马里	-10433
년대	-10434
erb	-10435
rif	-10436
ปฏิ	-10437
าลี	-10438
▁28	-10439
▁로마	-10440
▁며칠	-10441
からの	-10442
▁Cro	-10443
▁행정구	-10444
▁Live	-10445
▁carb	-10446
▁sólo	-10447
▁detto	-10448
▁manch	-10449
ที่ใหญ่	-10450
▁Secret	-10451
▁finale	-10452
▁canzone	-10453
▁reempla	-10454
▁الوطنية	-10455
▁trattato	-10456
▁Universität	-10457
▁普	-10458
博物	-10459
大陆	-10460
拿破	-10461
测试	-10462
hui	-10463
igi	-10464
▁캐릭	-10465
フリカ	-10466
拉斯加	-10467
拿破仑	-10468
的什么	-10469
드에서	-10470
pert	-10471
กว่า	-10472
เปิด	-10473
▁Ast	-10474
▁ทํา	-10475
gypte	-10476
porte	-10477
▁أكثر	-10478
▁بالم	-10479
cement	-10480
▁Mater	-10481
▁Zweit	-10482
▁circu	-10483
การ์ตูน	-10484
▁Battle	-10485
▁applic	-10486
▁immigr	-10487
▁Council	-10488
▁dernier	-10489
▁durchschnitt	-10490
DN	-10491
SO	-10492
êt	-10493
セン	-10494
公元	-10495
단의	-10496
자를	-10497
회가	-10498
rès	-10499
uve	-10500
وند	-10501
ื่น	-10502
▁gé	-10503
▁بل	-10504
▁변화	-10505
著名的	-10506
ensa	-10507
rier	-10508
teca	-10509
لالة	-10510
ํารง	-10511
asons	-10512
ituto	-10513
▁1979	-10514
▁proy	-10515
ential	-10516
untain	-10517
éroport	-10518
▁cathol	-10519
▁increase	-10520
▁Veranstaltung	-10521
45	-10522
شف	-10523
▁뜻	-10524
ッホ	-10525
因为	-10526
最多	-10527
식을	-10528
즈의	-10529
pes	-10530
صار	-10531
ดํา	-10532
แชม	-10533
▁운동	-10534
ardo	-10535
reso	-10536
ฉบับ	-10537
บัติ	-10538
เวีย	-10539
▁Bay	-10540
▁성적은	-10541
되었나요	-10542
ประชา	-10543
▁Meth	-10544
▁aves	-10545
被称为什么	-10546
ension	-10547
▁First	-10548
▁Macht	-10549
▁Parte	-10550
▁extra	-10551
▁field	-10552
▁llegó	-10553
▁tempr	-10554
▁debido	-10555
▁history	-10556
▁Republic	-10557
▁bekommen	-10558
▁nombreux	-10559
▁diferentes	-10560
▁southampton	-10561
▁ساوثهامبتون	-10562
▁normalerweise	-10563
دت	-10564
แร	-10565
プロ	-10566
偶像	-10567
群岛	-10568
萨斯	-10569
로의	-10570
회는	-10571
ums	-10572
ากล	-10573
▁일반	-10574
▁평가	-10575
▁현대	-10576
เดอะ	-10577
▁She	-10578
embre	-10579
uddha	-10580
était	-10581
▁Khan	-10582
▁aura	-10583
▁doit	-10584
▁dont	-10585
▁grab	-10586
▁maje	-10587
▁العب	-10588
▁Farbe	-10589
▁Jehov	-10590
▁speak	-10591
▁Anzahl	-10592
▁Provin	-10593
▁chiens	-10594
▁obtenu	-10595
▁aktörler	-10596
ว่าอย่างไร	-10597
▁Studenten	-10598
ที่สุดในโลก	-10599
วก	-10600
肖邦	-10601
计算	-10602
记录	-10603
대를	-10604
acy	-10605
emb	-10606
mos	-10607
viv	-10608
▁سم	-10609
▁교황	-10610
▁나온	-10611
bens	-10612
cell	-10613
ilie	-10614
ptem	-10615
▁176	-10616
▁let	-10617
▁الإ	-10618
endet	-10619
▁Bank	-10620
▁Wars	-10621
▁pubs	-10622
いつのこと	-10623
▁tedes	-10624
はどれですか	-10625
▁begann	-10626
▁cambio	-10627
▁formal	-10628
ualmente	-10629
▁propied	-10630
▁Germania	-10631
▁institut	-10632
▁الموجودة	-10633
▁organizzazione	-10634
ウス	-10635
オス	-10636
天堂	-10637
第三	-10638
되고	-10639
요한	-10640
iar	-10641
اسي	-10642
แดน	-10643
▁لي	-10644
▁개의	-10645
▁유로	-10646
ゴッホ	-10647
선에서	-10648
ktiv	-10649
onom	-10650
uble	-10651
▁Kol	-10652
▁Wen	-10653
▁réc	-10654
ompon	-10655
เดือน	-10656
▁1993	-10657
▁Pers	-10658
▁rema	-10659
▁يعني	-10660
▁ความ	-10661
รู้จัก	-10662
▁Child	-10663
▁derro	-10664
▁nommé	-10665
▁الاخت	-10666
なかったのは	-10667
ünstler	-10668
▁Harbor	-10669
▁Mittel	-10670
▁Record	-10671
▁christ	-10672
▁cuánto	-10673
▁niveau	-10674
▁prefer	-10675
▁Archite	-10676
▁ciudades	-10677
▁americano	-10678
▁programme	-10679
SP	-10680
قم	-10681
▁쿠	-10682
カデ	-10683
現在	-10684
目の	-10685
보다	-10686
pan	-10687
unu	-10688
yan	-10689
▁صح	-10690
▁บุ	-10691
▁문화	-10692
▁있던	-10693
▁표현	-10694
ールド	-10695
使用的	-10696
天主教	-10697
▁CBC	-10698
▁Pra	-10699
▁Sky	-10700
▁max	-10701
▁sia	-10702
izado	-10703
▁nave	-10704
▁محطة	-10705
ิดาของ	-10706
▁2014,	-10707
▁Polit	-10708
▁مقدار	-10709
▁어디인가요	-10710
▁comune	-10711
▁family	-10712
▁grands	-10713
▁appelle	-10714
▁الاصلية	-10715
▁Pulitzer	-10716
▁erreicht	-10717
▁Manhattan	-10718
▁ใครเล่นเป็น	-10719
بط	-10720
▁国	-10721
▁벌	-10722
入侵	-10723
兰经	-10724
定的	-10725
月に	-10726
eté	-10727
▁GE	-10728
▁li	-10729
▁애니	-10730
haus	-10731
وائز	-10732
▁Gli	-10733
▁hor	-10734
tagon	-10735
▁aber	-10736
▁fest	-10737
▁seul	-10738
どこですか	-10739
▁Album	-10740
▁novel	-10741
▁raggi	-10742
▁think	-10743
▁veloc	-10744
นักแสดง	-10745
▁attacc	-10746
▁insegn	-10747
▁titolo	-10748
▁Protest	-10749
▁geboren	-10750
▁division	-10751
-3	-10752
人员	-10753
离开	-10754
시에	-10755
하면	-10756
egu	-10757
▁클럽	-10758
ases	-10759
ektr	-10760
▁Zhe	-10761
▁har	-10762
在哪一天	-10763
aller	-10764
هورية	-10765
وفييت	-10766
▁Post	-10767
▁tasa	-10768
▁took	-10769
forman	-10770
heiten	-10771
ولندية	-10772
▁Story	-10773
▁asist	-10774
▁glaci	-10775
▁llevó	-10776
▁matér	-10777
▁rivol	-10778
▁باريس	-10779
▁Indien	-10780
▁compte	-10781
▁giorno	-10782
▁termes	-10783
▁totale	-10784
▁written	-10785
▁พระองค์	-10786
▁satellite	-10787
▁considerato	-10788
อร	-10789
▁갈	-10790
▁엘	-10791
▁헤	-10792
コー	-10793
学者	-10794
로는	-10795
조는	-10796
exp	-10797
بيل	-10798
عمل	-10799
เปล	-10800
โปร	-10801
▁PI	-10802
▁戴尔	-10803
▁기능	-10804
▁에피	-10805
▁했던	-10806
最初に	-10807
coup	-10808
แล้ว	-10809
▁Jug	-10810
▁نقل	-10811
▁이름을	-10812
▁되었는가	-10813
▁leben	-10814
▁prime	-10815
▁ouvert	-10816
ในเรื่อง	-10817
▁Bereich	-10818
▁Britann	-10819
▁europea	-10820
ตั้งอยู่ใน	-10821
▁Philosoph	-10822
▁الحيوانات	-10823
▁Wissenschaft	-10824
▁터	-10825
ウィ	-10826
南部	-10827
欢迎	-10828
职业	-10829
부분	-10830
ple	-10831
لاد	-10832
واء	-10833
คคล	-10834
คิด	-10835
▁aé	-10836
▁哪家	-10837
▁결혼	-10838
▁인터	-10839
▁프리	-10840
상에서	-10841
rief	-10842
▁Eig	-10843
▁Ibn	-10844
▁det	-10845
▁opt	-10846
▁سيا	-10847
▁ظهر	-10848
▁قتل	-10849
▁위치한	-10850
Union	-10851
artet	-10852
imate	-10853
occup	-10854
▁ocup	-10855
▁same	-10856
▁vita	-10857
▁المض	-10858
▁About	-10859
▁Power	-10860
▁corps	-10861
▁luogo	-10862
▁olymp	-10863
▁since	-10864
istique	-10865
พื้นที่	-10866
▁Prince	-10867
▁ancien	-10868
▁around	-10869
▁réalis	-10870
▁within	-10871
▁contain	-10872
▁famille	-10873
▁private	-10874
▁constitu	-10875
▁partecip	-10876
▁successo	-10877
▁militaire	-10878
▁originale	-10879
24	-10880
ny	-10881
บู	-10882
▁哈	-10883
▁安	-10884
▁묘	-10885
たち	-10886
イル	-10887
ベル	-10888
意味	-10889
攻撃	-10890
時点	-10891
結婚	-10892
行为	-10893
进入	-10894
wan	-10895
ريف	-10896
▁رب	-10897
▁태양	-10898
inst	-10899
itet	-10900
▁Ben	-10901
▁Lat	-10902
innen	-10903
การณ์	-10904
▁code	-10905
▁paar	-10906
▁الكم	-10907
terior	-10908
กํากับ	-10909
▁ocurr	-10910
▁العثم	-10911
ynastie	-10912
▁Society	-10913
▁addition	-10914
▁conquist	-10915
▁dinastía	-10916
▁possible	-10917
▁servizio	-10918
▁encontrar	-10919
▁politische	-10920
โท	-10921
▁三	-10922
▁本	-10923
▁뒤	-10924
作家	-10925
公园	-10926
增长	-10927
198	-10928
avy	-10929
ril	-10930
رنت	-10931
่าว	-10932
▁第一	-10933
▁ply	-10934
▁ابن	-10935
▁방영된	-10936
▁캐릭터	-10937
▁1982	-10938
▁Good	-10939
▁nato	-10940
▁السب	-10941
▁사용하는	-10942
からですか	-10943
▁المقد	-10944
▁Potter	-10945
▁permis	-10946
▁secret	-10947
▁unters	-10948
▁Russian	-10949
▁moderno	-10950
▁Zhejiang	-10951
▁children	-10952
▁concentr	-10953
▁francese	-10954
▁potrebbe	-10955
▁verkauft	-10956
▁resultado	-10957
▁experiment	-10958
โจ	-10959
▁잡	-10960
だと	-10961
北部	-10962
州の	-10963
상의	-10964
해서	-10965
rav	-10966
zan	-10967
zug	-10968
▁sí	-10969
ways	-10970
▁cur	-10971
▁lum	-10972
▁주장한	-10973
ators	-10974
itive	-10975
▁both	-10976
▁debe	-10977
▁rejo	-10978
▁موسم	-10979
▁무엇이라	-10980
iseaux	-10981
้าร่วม	-10982
▁opera	-10983
▁الوسط	-10984
▁نتيجة	-10985
していますか	-10986
▁chiama	-10987
▁droits	-10988
▁ganado	-10989
onnement	-10990
ที่เมือง	-10991
▁Ottoman	-10992
▁größten	-10993
▁بالنسبة	-10994
▁derechos	-10995
▁specific	-10996
▁découvert	-10997
▁verlassen	-10998
▁Inghilterra	-10999
SS	-11000
ár	-11001
ีม	-11002
▁맞	-11003
ナー	-11004
批准	-11005
森纳	-11006
영이	-11007
chè	-11008
vió	-11009
افظ	-11010
سمي	-11011
▁约翰	-11012
▁분류	-11013
▁승차	-11014
ったの	-11015
任天堂	-11016
到什么	-11017
메이션	-11018
Inde	-11019
chio	-11020
culo	-11021
etro	-11022
iner	-11023
kien	-11024
osso	-11025
ured	-11026
▁dol	-11027
▁hot	-11028
▁jam	-11029
istro	-11030
▁Band	-11031
▁Best	-11032
▁Cast	-11033
▁anun	-11034
▁언제부터	-11035
是什么样的	-11036
▁Manch	-11037
▁reven	-11038
▁العسك	-11039
▁batter	-11040
▁electr	-11041
▁elettr	-11042
▁integr	-11043
▁offici	-11044
▁scoper	-11045
Amérique	-11046
publique	-11047
▁einzige	-11048
▁sostitu	-11049
▁Position	-11050
EC	-11051
Gr	-11052
اؤ	-11053
غط	-11054
チェ	-11055
丽莎	-11056
产品	-11057
公共	-11058
征服	-11059
流行	-11060
社区	-11061
設立	-11062
트가	-11063
ads	-11064
raw	-11065
لحة	-11066
รวม	-11067
▁อุ	-11068
▁존재	-11069
国家的	-11070
Punk	-11071
gers	-11072
igos	-11073
oute	-11074
▁Gio	-11075
▁hog	-11076
▁rus	-11077
▁에피소	-11078
▁Fred	-11079
▁Kran	-11080
▁rail	-11081
▁sang	-11082
▁النو	-11083
▁فيما	-11084
Europe	-11085
imonio	-11086
แรกที่	-11087
▁route	-11088
▁explor	-11089
▁perros	-11090
ological	-11091
▁Schulen	-11092
▁journal	-11093
▁ottoman	-11094
▁antibiot	-11095
▁plymouth	-11096
▁Mitglieder	-11097
غر	-11098
▁ト	-11099
权力	-11100
袭击	-11101
选择	-11102
부가	-11103
Ind	-11104
قرا	-11105
ونت	-11106
▁45	-11107
▁If	-11108
▁وت	-11109
▁마이	-11110
いくら	-11111
อยุธ	-11112
ี่ยน	-11113
▁End	-11114
▁MBC	-11115
▁Mos	-11116
▁pun	-11117
▁تمت	-11118
▁جزر	-11119
▁ต้น	-11120
に対して	-11121
▁Hong	-11122
▁vuel	-11123
accord	-11124
▁Prinz	-11125
▁Solar	-11126
▁keine	-11127
▁اللعب	-11128
ésident	-11129
▁connue	-11130
▁negoci	-11131
arbeitet	-11132
▁compagn	-11133
▁proyect	-11134
▁electric	-11135
▁particular	-11136
wa	-11137
yo	-11138
โช	-11139
๊ก	-11140
▁색	-11141
军事	-11142
持续	-11143
라의	-11144
äft	-11145
انج	-11146
เกล	-11147
▁70	-11148
▁Ep	-11149
▁계획	-11150
多くの	-11151
uted	-11152
äter	-11153
พรรค	-11154
ร้อน	-11155
▁Bab	-11156
▁Hal	-11157
▁Mut	-11158
▁apr	-11159
▁연기한	-11160
cheid	-11161
lavos	-11162
▁Dest	-11163
▁Home	-11164
▁able	-11165
グラミー賞	-11166
▁Diale	-11167
▁immun	-11168
▁dispar	-11169
▁release	-11170
▁الاراضي	-11171
▁المدرسة	-11172
▁Imperial	-11173
▁estándar	-11174
▁posición	-11175
▁Verwendung	-11176
هب	-11177
▁침	-11178
コン	-11179
メン	-11180
伯克	-11181
스크	-11182
호가	-11183
bet	-11184
osi	-11185
ดูก	-11186
▁BC	-11187
▁Gh	-11188
▁대구	-11189
▁지원	-11190
▁형태	-11191
들에게	-11192
เชีย	-11193
▁Ost	-11194
▁flu	-11195
▁kar	-11196
▁برا	-11197
▁จํา	-11198
jourd	-11199
หน่วย	-11200
่นดิน	-11201
▁Real	-11202
▁enth	-11203
▁guid	-11204
▁بدلا	-11205
▁ساعد	-11206
roffen	-11207
▁Arbor	-11208
▁Juden	-11209
▁París	-11210
▁aband	-11211
▁antig	-11212
▁cargo	-11213
▁porta	-11214
▁prest	-11215
▁ricon	-11216
térieur	-11217
ธารณรัฐ	-11218
▁Frauen	-11219
▁encore	-11220
▁madera	-11221
▁الحياة	-11222
▁fondato	-11223
▁trasfer	-11224
▁Pflanzen	-11225
▁communic	-11226
▁personal	-11227
▁propriet	-11228
▁education	-11229
▁yayınlanmaya	-11230
CM	-11231
Os	-11232
oo	-11233
▁막	-11234
▁석	-11235
信息	-11236
穆斯	-11237
这些	-11238
어를	-11239
pre	-11240
äus	-11241
ارل	-11242
โรป	-11243
▁Ac	-11244
丽莎白	-11245
诺福克	-11246
aken	-11247
اثول	-11248
شرين	-11249
وستن	-11250
สิ้น	-11251
▁bem	-11252
▁got	-11253
▁oss	-11254
▁rot	-11255
ingia	-11256
ières	-11257
▁agre	-11258
▁hunt	-11259
▁الدا	-11260
▁يقوم	-11261
▁년도인가	-11262
▁되었을까	-11263
▁Kunst	-11264
▁Oscar	-11265
▁motor	-11266
▁women	-11267
▁غالبا	-11268
▁approv	-11269
▁cities	-11270
▁destru	-11271
▁modèle	-11272
▁seinem	-11273
▁purpose	-11274
สร้างขึ้น	-11275
▁processo	-11276
ประวัติศาสตร์	-11277
ภาพยนตร์เรื่อง	-11278
48	-11279
อี	-11280
▁질	-11281
など	-11282
島の	-11283
戦闘	-11284
投票	-11285
시킨	-11286
bes	-11287
sta	-11288
ربة	-11289
عار	-11290
ورد	-11291
▁جي	-11292
agen	-11293
osen	-11294
▁Ele	-11295
▁Wit	-11296
▁pir	-11297
▁ähn	-11298
grund	-11299
iglio	-11300
▁Army	-11301
▁Kadh	-11302
▁fabr	-11303
▁fais	-11304
▁remo	-11305
▁wood	-11306
▁يجعل	-11307
issent	-11308
▁Leben	-11309
▁ajout	-11310
▁fondé	-11311
▁initi	-11312
▁might	-11313
▁nació	-11314
▁center	-11315
▁holand	-11316
▁nécess	-11317
▁العليا	-11318
American	-11319
ปัจจุบัน	-11320
▁Kadhafi	-11321
▁Zweiten	-11322
▁llamada	-11323
▁الغربية	-11324
▁términos	-11325
▁americana	-11326
▁communaut	-11327
▁bezeichnet	-11328
ได้รับรางวัล	-11329
fs	-11330
بد	-11331
▁上	-11332
▁自	-11333
▁볼	-11334
▁헌	-11335
为了	-11336
体育	-11337
全国	-11338
대학	-11339
fra	-11340
hin	-11341
kin	-11342
กิจ	-11343
วิล	-11344
ออส	-11345
ินี	-11346
็อง	-11347
▁31	-11348
▁لن	-11349
▁مه	-11350
▁이전	-11351
会发生	-11352
合衆国	-11353
▁dam	-11354
▁حدي	-11355
ないのは	-11356
inado	-11357
ureau	-11358
بيوتر	-11359
พรรดิ	-11360
▁Inse	-11361
économ	-11362
ลักษณ์	-11363
▁Progr	-11364
▁tibet	-11365
▁اعضاء	-11366
▁انشاؤ	-11367
▁Körper	-11368
▁projet	-11369
▁Kontrol	-11370
▁humanos	-11371
▁religiö	-11372
▁Jahrhunderts	-11373
-9	-11374
▁ภ	-11375
▁봉	-11376
不再	-11377
수를	-11378
시는	-11379
아의	-11380
점이	-11381
키는	-11382
ميم	-11383
▁Nä	-11384
▁แต	-11385
▁연도	-11386
什么是	-11387
essa	-11388
iali	-11389
urer	-11390
ينية	-11391
▁Web	-11392
▁اصل	-11393
▁جاء	-11394
すること	-11395
▁Jews	-11396
▁Städ	-11397
▁aggi	-11398
▁gene	-11399
▁ubic	-11400
▁تعمل	-11401
▁شمال	-11402
▁كلمة	-11403
▁نطاق	-11404
▁ويست	-11405
▁Georg	-11406
▁colla	-11407
▁proto	-11408
▁sirve	-11409
ération	-11410
▁chines	-11411
▁discip	-11412
▁الطلاب	-11413
▁fuerzas	-11414
▁initial	-11415
▁subject	-11416
▁cultures	-11417
▁objetivo	-11418
เฮ	-11419
▁サ	-11420
▁東	-11421
タン	-11422
不可	-11423
前に	-11424
同盟	-11425
教徒	-11426
电容	-11427
贸易	-11428
과의	-11429
زاب	-11430
موث	-11431
▁لح	-11432
何年に	-11433
프리카	-11434
하였나	-11435
hors	-11436
ígen	-11437
ابقة	-11438
▁ens	-11439
▁him	-11440
▁sui	-11441
▁작품은	-11442
率是多少	-11443
▁aiut	-11444
▁ferm	-11445
adelph	-11446
ientes	-11447
ública	-11448
▁Human	-11449
▁clima	-11450
▁diseñ	-11451
▁expos	-11452
▁press	-11453
▁Gegend	-11454
▁street	-11455
หนึ่งของ	-11456
▁energia	-11457
▁interno	-11458
▁partito	-11459
▁primary	-11460
▁الكاثول	-11461
▁الملكية	-11462
▁magazine	-11463
▁الاجتماع	-11464
▁beeinflusst	-11465
▁Constitution	-11466
▁internacional	-11467
▁홈	-11468
翻译	-11469
耶鲁	-11470
동안	-11471
duğ	-11472
ริญ	-11473
▁XV	-11474
▁관계	-11475
被称为	-11476
teid	-11477
vail	-11478
▁رفض	-11479
▁للق	-11480
▁مدى	-11481
▁大多数	-11482
▁플레이	-11483
cteur	-11484
field	-11485
ierto	-11486
رائيل	-11487
▁hous	-11488
▁Jesus	-11489
▁Leute	-11490
▁donne	-11491
▁نظرية	-11492
▁Lebens	-11493
▁storia	-11494
▁électr	-11495
▁Michael	-11496
▁Prozess	-11497
▁conflit	-11498
istischen	-11499
▁industry	-11500
▁superior	-11501
▁travaill	-11502
▁السوفييت	-11503
áp	-11504
มะ	-11505
死的	-11506
设备	-11507
정을	-11508
صال	-11509
ดวง	-11510
となる	-11511
どこの	-11512
在美国	-11513
穆斯林	-11514
ladı	-11515
nung	-11516
หมู่	-11517
▁Pan	-11518
有多少个	-11519
诺福克岛	-11520
itore	-11521
zentr	-11522
มีการ	-11523
▁Baum	-11524
▁Zust	-11525
▁cabo	-11526
▁chez	-11527
▁يوجد	-11528
▁crede	-11529
▁emple	-11530
▁olduğ	-11531
▁perdu	-11532
▁tourn	-11533
▁Origin	-11534
▁recent	-11535
▁último	-11536
▁هيوستن	-11537
▁Messico	-11538
▁Montini	-11539
▁discuss	-11540
▁mujeres	-11541
▁plantas	-11542
▁الامريك	-11543
ไทยเรื่อง	-11544
▁posizione	-11545
▁typically	-11546
▁PlayStation	-11547
▁architecture	-11548
▁德	-11549
▁귀	-11550
▁먹	-11551
いる	-11552
取代	-11553
道院	-11554
팀은	-11555
aco	-11556
ينت	-11557
▁DC	-11558
▁Kl	-11559
▁เป	-11560
的影响	-11561
lace	-11562
يران	-11563
▁177	-11564
▁pan	-11565
▁第一次	-11566
inger	-11567
ผู้ใด	-11568
เดียว	-11569
▁Dieu	-11570
▁موقع	-11571
▁يشير	-11572
▁2003?	-11573
▁2010,	-11574
▁femme	-11575
▁reach	-11576
▁senza	-11577
▁مدرسة	-11578
▁애니메이션	-11579
▁Straße	-11580
▁battle	-11581
▁istitu	-11582
▁league	-11583
▁Sprachen	-11584
▁Virginia	-11585
خط	-11586
▁와	-11587
基础	-11588
材料	-11589
세의	-11590
스와	-11591
었던	-11592
였나	-11593
วาง	-11594
สภา	-11595
แดง	-11596
▁مل	-11597
▁진출	-11598
odes	-11599
écut	-11600
شرات	-11601
موذج	-11602
▁정보는	-11603
賞を受賞	-11604
adium	-11605
crito	-11606
ildet	-11607
ليموث	-11608
aucoup	-11609
vasion	-11610
ที่ใช้	-11611
▁Champ	-11612
จัดขึ้น	-11613
▁llaman	-11614
▁potere	-11615
▁promin	-11616
▁reason	-11617
▁résult	-11618
▁اعتبار	-11619
▁الحديد	-11620
▁الوسطى	-11621
ckingham	-11622
▁Irlanda	-11623
▁régions	-11624
▁الجزيرة	-11625
▁conocida	-11626
▁university	-11627
ืน	-11628
何が	-11629
孩子	-11630
文件	-11631
斯曼	-11632
였어	-11633
iac	-11634
نطن	-11635
กอง	-11636
▁hi	-11637
▁도입	-11638
▁바이	-11639
▁시티	-11640
ctic	-11641
ickt	-11642
imal	-11643
onas	-11644
rael	-11645
غيرة	-11646
▁Als	-11647
▁Big	-11648
▁Kor	-11649
▁Not	-11650
▁tel	-11651
▁اسب	-11652
▁عنه	-11653
enzen	-11654
icans	-11655
ragon	-11656
หน่าย	-11657
▁Blue	-11658
▁Mehr	-11659
▁know	-11660
▁tomb	-11661
▁ร้อง	-11662
▁국제공항	-11663
raient	-11664
▁Congo	-11665
▁estar	-11666
▁labor	-11667
▁porto	-11668
inación	-11669
▁Canadá	-11670
▁Chiesa	-11671
▁Nation	-11672
▁Studie	-11673
▁comput	-11674
▁dismin	-11675
▁başladı	-11676
▁données	-11677
▁Republik	-11678
▁développé	-11679
▁associated	-11680
▁investigación	-11681
▁늑	-11682
▁맨	-11683
▁콘	-11684
文書	-11685
联系	-11686
项目	-11687
전은	-11688
aña	-11689
roy	-11690
ulg	-11691
zia	-11692
ป่า	-11693
▁نش	-11694
▁欧洲	-11695
▁罗马	-11696
▁논란	-11697
▁알려	-11698
tage	-11699
tura	-11700
éctr	-11701
ทยาน	-11702
▁Arg	-11703
▁Lab	-11704
▁Lod	-11705
▁mut	-11706
▁see	-11707
▁tax	-11708
▁وما	-11709
▁ตอน	-11710
▁아시아	-11711
고등학교	-11712
▁Bund	-11713
▁bell	-11714
▁opin	-11715
▁verh	-11716
▁ثاني	-11717
▁Laser	-11718
▁الحزب	-11719
▁دراسة	-11720
▁Temper	-11721
▁chiesa	-11722
▁hatten	-11723
▁interd	-11724
▁propri	-11725
▁teoria	-11726
▁الكهرب	-11727
▁Prozent	-11728
▁ersetzt	-11729
▁network	-11730
▁الشرقية	-11731
▁dernière	-11732
▁gekommen	-11733
▁generale	-11734
▁programa	-11735
▁الفرنسية	-11736
▁britische	-11737
▁Philadelph	-11738
▁britischen	-11739
▁metropolit	-11740
▁Entwicklung	-11741
デル	-11742
出的	-11743
勢力	-11744
处理	-11745
box	-11746
تمي	-11747
سيم	-11748
จุด	-11749
บรม	-11750
▁공항	-11751
▁인천	-11752
スター	-11753
和其他	-11754
clam	-11755
ทั่ว	-11756
▁Rep	-11757
▁哪一个	-11758
board	-11759
crire	-11760
เชื่อ	-11761
▁Long	-11762
▁créd	-11763
▁crít	-11764
▁بالق	-11765
ention	-11766
กับใคร	-11767
▁Enter	-11768
▁began	-11769
▁montr	-11770
▁الصوت	-11771
▁تطوير	-11772
ありましたか	-11773
issione	-11774
▁Italia	-11775
▁Philip	-11776
▁prohib	-11777
▁مقاطعة	-11778
Oklahoma	-11779
▁Kingdom	-11780
▁Königin	-11781
▁rispetto	-11782
▁الاوروبي	-11783
▁nazionale	-11784
▁temperature	-11785
▁ursprünglich	-11786
DA	-11787
▁费	-11788
ヴェ	-11789
金属	-11790
agé	-11791
ßer	-11792
هود	-11793
คณะ	-11794
▁สิ	-11795
▁계약	-11796
▁사고	-11797
لندا	-11798
▁adm	-11799
▁nov	-11800
タイトル	-11801
ctica	-11802
لاسيك	-11803
▁Asia	-11804
▁Dopo	-11805
▁bamb	-11806
▁cast	-11807
▁ress	-11808
▁什么东西	-11809
hammad	-11810
tación	-11811
บริเวณ	-11812
▁Autor	-11813
▁Movie	-11814
▁asoci	-11815
▁entde	-11816
▁exemp	-11817
▁facil	-11818
▁impro	-11819
▁sound	-11820
▁torch	-11821
▁تحديد	-11822
ว่าเป็น	-11823
▁impero	-11824
▁because	-11825
▁consejo	-11826
▁moyenne	-11827
▁Sanskrit	-11828
▁orientale	-11829
▁religione	-11830
▁Presidente	-11831
▁conosciuto	-11832
SF	-11833
ré	-11834
พง	-11835
▁弗	-11836
▁머	-11837
レオ	-11838
出身	-11839
区域	-11840
選手	-11841
법은	-11842
lat	-11843
الو	-11844
ورا	-11845
ไว้	-11846
▁가족	-11847
▁시간	-11848
▁정책	-11849
重要的	-11850
aker	-11851
▁Sub	-11852
▁بيل	-11853
▁واش	-11854
hemat	-11855
▁جورج	-11856
▁مكان	-11857
öffnet	-11858
▁Korea	-11859
▁Whose	-11860
▁angeb	-11861
▁molti	-11862
▁muest	-11863
▁restr	-11864
▁تاثير	-11865
▁Depuis	-11866
▁Virgil	-11867
▁attemp	-11868
▁longue	-11869
▁plants	-11870
▁played	-11871
▁الفريق	-11872
itecture	-11873
▁Fußball	-11874
▁Ägypten	-11875
▁المنظمة	-11876
▁bâtiment	-11877
▁consiste	-11878
▁orthodox	-11879
▁quartier	-11880
▁Macintosh	-11881
▁movimento	-11882
▁development	-11883
▁relationship	-11884
ON	-11885
ษฎ	-11886
▁ビ	-11887
建的	-11888
早く	-11889
選挙	-11890
黑文	-11891
체의	-11892
gio	-11893
▁광주	-11894
▁메달	-11895
▁생각	-11896
▁aér	-11897
▁hon	-11898
▁hub	-11899
▁انح	-11900
zeigt	-11901
▁Carn	-11902
▁came	-11903
▁diss	-11904
▁near	-11905
▁tema	-11906
▁york	-11907
asthan	-11908
อยุธยา	-11909
▁Durch	-11910
▁Osman	-11911
▁acqua	-11912
▁award	-11913
▁later	-11914
▁البحر	-11915
▁الساد	-11916
ftwaffe	-11917
นวนิยาย	-11918
▁acerca	-11919
▁ascens	-11920
▁charge	-11921
▁corres	-11922
▁gehört	-11923
▁introd	-11924
▁Ergebnis	-11925
▁reemplaz	-11926
▁verloren	-11927
ae	-11928
็บ	-11929
つの	-11930
乔治	-11931
以上	-11932
啤酒	-11933
因素	-11934
玛丽	-11935
레일	-11936
ทย์	-11937
ทิศ	-11938
เตร	-11939
็อก	-11940
▁29	-11941
▁وح	-11942
纽黑文	-11943
lach	-11944
mbre	-11945
ware	-11946
ونيا	-11947
เรือ	-11948
▁nor	-11949
▁Ära	-11950
▁éle	-11951
olare	-11952
onstr	-11953
ยุโรป	-11954
▁Link	-11955
▁arab	-11956
▁nied	-11957
▁الرب	-11958
▁تعرف	-11959
▁حاول	-11960
次世界大戦	-11961
ansion	-11962
utsche	-11963
وتردام	-11964
▁Broad	-11965
▁games	-11966
▁posto	-11967
univers	-11968
▁County	-11969
▁assist	-11970
▁fusion	-11971
▁gouver	-11972
▁helped	-11973
▁Digimon	-11974
▁Germany	-11975
▁accordo	-11976
▁celebra	-11977
▁weniger	-11978
ที่เท่าใด	-11979
▁montagne	-11980
▁almaktadır	-11981
ól	-11982
多大	-11983
官方	-11984
居民	-11985
改革	-11986
당은	-11987
사한	-11988
이스	-11989
하려	-11990
แอน	-11991
▁Du	-11992
▁fi	-11993
▁공식	-11994
▁레이	-11995
▁생활	-11996
▁이론	-11997
は何歳	-11998
大学的	-11999
ande	-12000
colo	-12001
orto	-12002
äger	-12003
รีส์	-12004
▁Ord	-12005
▁hit	-12006
▁sug	-12007
▁œuv	-12008
▁بار	-12009
▁목록은	-12010
▁순위는	-12011
めたのは	-12012
ultan	-12013
▁Nähe	-12014
▁appr	-12015
▁hakk	-12016
▁stop	-12017
▁يريد	-12018
▁2002?	-12019
▁metal	-12020
▁único	-12021
▁اسمها	-12022
▁membre	-12023
▁السلطة	-12024
▁hakkında	-12025
▁Kontrolle	-12026
โอลิมปิกฤดู	-12027
▁introduced	-12028
Pr	-12029
▁ナ	-12030
▁罗	-12031
▁끝	-12032
▁범	-12033
スが	-12034
从来	-12035
克斯	-12036
最终	-12037
期間	-12038
生産	-12039
程序	-12040
시가	-12041
bew	-12042
enc	-12043
sin	-12044
ímp	-12045
فات	-12046
ล่า	-12047
แมน	-12048
▁tu	-12049
▁해당	-12050
修道院	-12051
发生的	-12052
索马里	-12053
osto	-12054
upes	-12055
▁175	-12056
▁fus	-12057
▁usb	-12058
▁اهم	-12059
▁يكن	-12060
▁감독은	-12061
▁기록은	-12062
▁후보는	-12063
itori	-12064
ivent	-12065
nahme	-12066
▁Fire	-12067
▁Jose	-12068
▁defe	-12069
▁sant	-12070
▁supr	-12071
いましたか	-12072
gleich	-12073
ionali	-12074
ischer	-12075
▁außer	-12076
▁banda	-12077
▁forze	-12078
▁inaug	-12079
▁sehen	-12080
estellt	-12081
▁الدفاع	-12082
スーパーボウル	-12083
▁finales	-12084
▁trouver	-12085
▁voulait	-12086
▁costruito	-12087
▁eisenhower	-12088
▁การแข่งขัน	-12089
发射	-12090
合作	-12091
知事	-12092
스템	-12093
야구	-12094
이라	-12095
FPA	-12096
iny	-12097
وفر	-12098
ขาว	-12099
哪一个	-12100
2000	-12101
kins	-12102
ober	-12103
osis	-12104
otti	-12105
ก่อน	-12106
▁ble	-12107
▁età	-12108
▁gam	-12109
▁احد	-12110
▁คุณ	-12111
▁관련된	-12112
cipit	-12113
orcha	-12114
zogen	-12115
▁born	-12116
▁note	-12117
▁الحم	-12118
▁الول	-12119
▁دوري	-12120
▁ريتش	-12121
▁イギリス	-12122
▁regla	-12123
▁royal	-12124
▁varia	-12125
▁اطلاق	-12126
▁climat	-12127
▁واشنطن	-12128
จําหน่าย	-12129
▁نوتردام	-12130
เมืองหลวง	-12131
▁antorcha	-12132
▁probable	-12133
▁الانترنت	-12134
▁Swaziland	-12135
▁elecciones	-12136
▁ก่อตั้งขึ้น	-12137
▁พระองค์เจ้า	-12138
▁generalmente	-12139
ダー	-12140
西哥	-12141
解释	-12142
경기	-12143
ols	-12144
ugu	-12145
ائن	-12146
▁لف	-12147
▁พล	-12148
▁뭐가	-12149
联合国	-12150
ufen	-12151
ومان	-12152
يبيا	-12153
▁Imm	-12154
▁Int	-12155
▁Män	-12156
▁앨범의	-12157
▁한국의	-12158
哪个城市	-12159
uscon	-12160
ático	-12161
▁Dios	-12162
▁adul	-12163
▁ebre	-12164
▁gain	-12165
▁gilt	-12166
▁التا	-12167
▁ahora	-12168
▁canon	-12169
▁datos	-12170
▁libre	-12171
▁somet	-12172
▁Russie	-12173
▁Termin	-12174
▁Secondo	-12175
▁anthrop	-12176
▁diritto	-12177
▁dynasty	-12178
▁frequent	-12179
▁majority	-12180
▁documento	-12181
▁construcción	-12182
lé	-12183
วจ	-12184
基本	-12185
才能	-12186
用的	-12187
도록	-12188
Dou	-12189
Reg	-12190
▁sl	-12191
▁대전	-12192
▁문제	-12193
▁수도	-12194
▁회차	-12195
Zeit	-12196
omes	-12197
ruck	-12198
ستان	-12199
มหาน	-12200
▁adv	-12201
▁blo	-12202
▁vec	-12203
▁باي	-12204
▁맡았던	-12205
▁Rück	-12206
ikaner	-12207
▁annon	-12208
▁asiat	-12209
▁avail	-12210
▁jusqu	-12211
▁viven	-12212
ospital	-12213
▁dinero	-12214
▁regina	-12215
▁serait	-12216
▁African	-12217
▁Nations	-12218
▁antigua	-12219
▁carrera	-12220
▁indipend	-12221
▁broadcast	-12222
▁establish	-12223
▁référence	-12224
▁principali	-12225
▁Griechenland	-12226
27	-12227
TO	-12228
โป	-12229
ไข	-12230
▁좋	-12231
性的	-12232
調査	-12233
阻止	-12234
치의	-12235
his	-12236
▁Ta	-12237
▁박근	-12238
タリア	-12239
以什么	-12240
受欢迎	-12241
墨西哥	-12242
chan	-12243
here	-12244
igan	-12245
otos	-12246
ذافي	-12247
▁Deb	-12248
▁fib	-12249
▁inn	-12250
▁ält	-12251
▁خاص	-12252
したこと	-12253
이었는가	-12254
iquer	-12255
ังกัด	-12256
▁Berg	-12257
▁afro	-12258
▁army	-12259
▁clos	-12260
▁giud	-12261
▁préd	-12262
▁خارج	-12263
▁كلية	-12264
会发生什么	-12265
autama	-12266
▁Corée	-12267
▁ciento	-12268
▁launch	-12269
▁الكلاب	-12270
▁Militär	-12271
erlandais	-12272
▁Catholic	-12273
▁animales	-12274
▁economía	-12275
▁militare	-12276
▁politica	-12277
▁popolare	-12278
▁transfer	-12279
▁premières	-12280
าช	-12281
どう	-12282
선은	-12283
인물	-12284
edy	-12285
hir	-12286
via	-12287
áne	-12288
دات	-12289
บาง	-12290
heim	-12291
iPod	-12292
otta	-12293
عمال	-12294
▁Mer	-12295
▁acr	-12296
▁dou	-12297
▁low	-12298
année	-12299
orial	-12300
ragen	-12301
وانين	-12302
▁Book	-12303
▁Eton	-12304
▁genoc	-12305
▁كبيرة	-12306
fassung	-12307
▁fabric	-12308
▁finden	-12309
▁mensch	-12310
▁partes	-12311
▁última	-12312
▁بليموث	-12313
cription	-12314
▁derecho	-12315
▁erlaubt	-12316
▁funzion	-12317
▁lanzado	-12318
是什么时候开始的	-12319
▁Japanese	-12320
▁Mitglied	-12321
▁ในเรื่อง	-12322
▁Temperatur	-12323
▁individual	-12324
▁Deutschland	-12325
.5	-12326
ël	-12327
จน	-12328
ณี	-12329
▁高	-12330
▁돼	-12331
两种	-12332
变得	-12333
版本	-12334
監督	-12335
飞机	-12336
시한	-12337
طات	-12338
لمة	-12339
▁기술	-12340
地区的	-12341
长时间	-12342
▁deg	-12343
▁rat	-12344
▁six	-12345
▁ويل	-12346
▁경력은	-12347
りますか	-12348
ahlen	-12349
lasse	-12350
จารย์	-12351
▁Bond	-12352
▁Just	-12353
▁cess	-12354
▁punt	-12355
▁schw	-12356
▁الوز	-12357
▁كيري	-12358
▁แห่ง	-12359
▁rango	-12360
▁refus	-12361
rededor	-12362
▁antrop	-12363
▁durant	-12364
▁infect	-12365
▁livres	-12366
▁quatre	-12367
▁status	-12368
▁الاستق	-12369
▁comport	-12370
▁supérie	-12371
▁القذافي	-12372
▁relacion	-12373
▁الاقتصاد	-12374
เดิมว่าอะไร	-12375
▁croissance	-12376
ธา	-12377
の一	-12378
イト	-12379
同意	-12380
定居	-12381
相似	-12382
DNA	-12383
ñas	-12384
وعة	-12385
يال	-12386
ส่ง	-12387
▁DV	-12388
▁Ke	-12389
▁WW	-12390
▁말은	-12391
▁삼성	-12392
了一个	-12393
졌는가	-12394
agna	-12395
iffe	-12396
orno	-12397
ونية	-12398
▁Beg	-12399
▁Bod	-12400
▁Mem	-12401
▁Rod	-12402
▁sla	-12403
▁것으로	-12404
bbero	-12405
itter	-12406
ค้นพบ	-12407
▁1943	-12408
▁Rang	-12409
▁dogs	-12410
▁food	-12411
▁less	-12412
▁well	-12413
▁الفن	-12414
▁enfer	-12415
▁ideal	-12416
iamento	-12417
truktur	-12418
เป็นที่	-12419
▁ancora	-12420
▁arrivé	-12421
▁lequel	-12422
▁التاسع	-12423
économie	-12424
▁funcion	-12425
▁الطريقة	-12426
▁Università	-12427
▁aeropuerto	-12428
CD	-12429
Is	-12430
ษ์	-12431
หว	-12432
ไอ	-12433
▁ミ	-12434
▁워	-12435
プト	-12436
公開	-12437
国内	-12438
怀特	-12439
時間	-12440
面積	-12441
군은	-12442
pal	-12443
▁IV	-12444
▁세운	-12445
장으로	-12446
esen	-12447
jekt	-12448
rabe	-12449
rice	-12450
ถิ่น	-12451
เวลา	-12452
▁Did	-12453
▁Haw	-12454
▁Urs	-12455
▁ادى	-12456
▁للب	-12457
について	-12458
allen	-12459
union	-12460
ดํารง	-12461
▁Holz	-12462
▁chim	-12463
▁vive	-12464
▁السك	-12465
▁الشي	-12466
lament	-12467
ของไทย	-12468
▁2001?	-12469
▁ayudó	-12470
▁mismo	-12471
itaires	-12472
▁Kansas	-12473
▁Little	-12474
▁Martin	-12475
▁announ	-12476
▁recens	-12477
▁Theorie	-12478
▁descubr	-12479
▁terrest	-12480
▁الحشرات	-12481
▁cultural	-12482
▁entdeckt	-12483
▁estación	-12484
▁ottenuto	-12485
▁británico	-12486
▁rilasciato	-12487
xt	-12488
ضة	-12489
มร	-12490
▁뭘	-12491
▁혼	-12492
人々	-12493
発見	-12494
还有	-12495
라가	-12496
부는	-12497
소의	-12498
이지	-12499
적을	-12500
ych	-12501
زني	-12502
ตรง	-12503
ติน	-12504
▁되어	-12505
▁소설	-12506
▁스페	-12507
▁종교	-12508
どんな	-12509
年から	-12510
电容器	-12511
arte	-12512
cido	-12513
ipes	-12514
سيطر	-12515
ร่วม	-12516
เส้น	-12517
▁ott	-12518
▁ابل	-12519
▁توس	-12520
▁وقد	-12521
alité	-12522
▁Stre	-12523
▁amen	-12524
▁الشر	-12525
▁만들어진	-12526
▁Giapp	-12527
▁Marie	-12528
▁maxim	-12529
▁provo	-12530
▁today	-12531
▁الصوم	-12532
▁القيا	-12533
▁المدن	-12534
ulation	-12535
▁Ashken	-12536
▁tradic	-12537
▁الحديث	-12538
▁الخارج	-12539
▁السابق	-12540
▁Records	-12541
▁special	-12542
▁พระเจ้า	-12543
▁empresas	-12544
▁político	-12545
▁construyó	-12546
▁enthalten	-12547
Be	-12548
سل	-12549
วล	-12550
商业	-12551
结构	-12552
로가	-12553
특별	-12554
Ver	-12555
اند	-12556
شرة	-12557
ดอก	-12558
อิต	-12559
่อน	-12560
▁ปล	-12561
▁광고	-12562
▁동안	-12563
▁모두	-12564
公司的	-12565
bles	-12566
ermo	-12567
iels	-12568
لفزي	-12569
▁Bef	-12570
▁Inn	-12571
▁Sco	-12572
▁ciò	-12573
▁dav	-12574
▁mix	-12575
▁배경은	-12576
แชมป์	-12577
▁Alli	-12578
▁acto	-12579
▁läng	-12580
▁noto	-12581
▁spaz	-12582
ศักดิ์	-12583
▁Court	-12584
▁Franz	-12585
▁angef	-12586
▁canal	-12587
▁clase	-12588
▁dépla	-12589
▁sería	-12590
▁التبت	-12591
landese	-12592
ruzione	-12593
▁BeiDou	-12594
▁Somalia	-12595
▁aujourd	-12596
▁estruct	-12597
▁systems	-12598
▁الحرارة	-12599
▁الفرنسي	-12600
▁นักร้อง	-12601
ที่มีชื่อ	-12602
▁believed	-12603
▁imperial	-12604
6,	-12605
El	-12606
نك	-12607
็ง	-12608
็ต	-12609
▁ヒ	-12610
▁칼	-12611
特征	-12612
环境	-12613
给了	-12614
网络	-12615
관이	-12616
vos	-12617
ชัน	-12618
มือ	-12619
▁ya	-12620
ارنة	-12621
ักษร	-12622
▁Bad	-12623
▁Ort	-12624
▁reb	-12625
▁sil	-12626
▁للت	-12627
▁จาก	-12628
▁명인가	-12629
▁박근혜	-12630
arias	-12631
fluss	-12632
étude	-12633
▁Merc	-12634
▁Trad	-12635
▁dial	-12636
▁emer	-12637
▁meas	-12638
▁sell	-12639
▁نادي	-12640
engono	-12641
ership	-12642
immung	-12643
▁Samoa	-12644
▁colle	-12645
▁doctr	-12646
▁terra	-12647
▁مسؤول	-12648
▁arbeit	-12649
▁perten	-12650
▁strada	-12651
▁époque	-12652
▁انتخاب	-12653
▁economy	-12654
▁oficina	-12655
▁travers	-12656
▁الحديثة	-12657
▁المسؤول	-12658
▁agricult	-12659
▁originally	-12660
▁producción	-12661
▁soviétique	-12662
ัพ	-12663
专辑	-12664
保持	-12665
收入	-12666
联赛	-12667
规定	-12668
铁路	-12669
권을	-12670
란드	-12671
머니	-12672
ätz	-12673
ยอด	-12674
▁德国	-12675
▁몇월	-12676
アカデ	-12677
休斯顿	-12678
基督教	-12679
phen	-12680
unit	-12681
▁NES	-12682
▁lle	-12683
▁rul	-12684
▁شرق	-12685
▁طلب	-12686
▁عضو	-12687
▁문재인	-12688
了多少钱	-12689
erior	-12690
techn	-12691
▁poly	-12692
▁انته	-12693
▁อดีต	-12694
antage	-12695
wealth	-12696
ของพระ	-12697
ในช่วง	-12698
▁altre	-12699
▁notre	-12700
▁oltre	-12701
▁piano	-12702
▁المشت	-12703
▁سلالة	-12704
วงดนตรี	-12705
▁Middle	-12706
▁attend	-12707
▁besond	-12708
▁instal	-12709
▁judíos	-12710
▁moment	-12711
▁África	-12712
▁الخاصة	-12713
▁المنزل	-12714
▁Islands	-12715
▁connect	-12716
มากที่สุด	-12717
▁indépend	-12718
▁produits	-12719
▁الكلاسيك	-12720
โมสรฟุตบอล	-12721
▁controllo	-12722
▁المجموعات	-12723
▁publication	-12724
▁wichtigsten	-12725
ุล	-12726
▁왜	-12727
スは	-12728
已经	-12729
年度	-12730
dos	-12731
فاء	-12732
▁동물	-12733
▁왕은	-12734
▁팀의	-12735
いつか	-12736
加拿大	-12737
orts	-12738
rary	-12739
นิยม	-12740
▁تاي	-12741
▁وقع	-12742
indre	-12743
กี่คน	-12744
▁alte	-12745
▁cere	-12746
▁suel	-12747
iciale	-12748
▁2008,	-12749
▁Rolle	-12750
▁accep	-12751
▁asent	-12752
▁libri	-12753
▁preso	-12754
▁proté	-12755
glichen	-12756
▁Anteil	-12757
▁efecto	-12758
▁marché	-12759
▁europeo	-12760
▁organis	-12761
▁respect	-12762
เกาหลีใต้	-12763
▁Giappone	-12764
▁especial	-12765
▁included	-12766
▁característica	-12767
DS	-12768
ยว	-12769
▁삶	-12770
えた	-12771
シェ	-12772
住在	-12773
姆斯	-12774
明治	-12775
里的	-12776
197	-12777
bro	-12778
iso	-12779
درة	-12780
ملك	-12781
يبد	-12782
ุ่ง	-12783
▁สร	-12784
있을까	-12785
arto	-12786
hood	-12787
illo	-12788
rach	-12789
ربية	-12790
شروع	-12791
ورية	-12792
ราษฎ	-12793
▁Blo	-12794
▁Sin	-12795
▁dov	-12796
▁طول	-12797
▁ياش	-12798
▁哪一年	-12799
illed	-12800
▁1948	-12801
▁Hard	-12802
▁Hung	-12803
▁USAF	-12804
▁bere	-12805
▁dame	-12806
▁suff	-12807
▁بانه	-12808
百分之多少	-12809
prises	-12810
époque	-12811
มหานคร	-12812
▁Juifs	-12813
▁Recht	-12814
▁Rusia	-12815
▁birds	-12816
▁comté	-12817
▁miles	-12818
▁passe	-12819
idencia	-12820
▁contrô	-12821
▁cuatro	-12822
▁الطريق	-12823
▁ياشيبد	-12824
การศึกษา	-12825
ตะวันออก	-12826
▁Spanish	-12827
▁avrebbe	-12828
▁causato	-12829
▁moderna	-12830
▁nations	-12831
▁publicó	-12832
▁البحرية	-12833
▁province	-12834
▁systèmes	-12835
▁américains	-12836
ビア	-12837
전을	-12838
Afr	-12839
mon	-12840
ربع	-12841
ภาษ	-12842
▁از	-12843
▁공개	-12844
は何の	-12845
ヨーク	-12846
site	-12847
▁ehe	-12848
▁típ	-12849
▁ذات	-12850
▁加拿大	-12851
ackel	-12852
immen	-12853
▁Wahl	-12854
▁hinz	-12855
▁tama	-12856
▁vote	-12857
▁الاز	-12858
▁عنها	-12859
▁accue	-12860
▁dedic	-12861
▁ebrei	-12862
▁extre	-12863
▁stile	-12864
▁اجهزة	-12865
▁الميل	-12866
人は誰ですか	-12867
▁Muslim	-12868
▁aperto	-12869
▁combin	-12870
▁method	-12871
▁trouvé	-12872
▁antiguo	-12873
▁gaddafi	-12874
▁project	-12875
▁recibió	-12876
▁anterior	-12877
▁commonly	-12878
▁influenz	-12879
▁sistemas	-12880
▁performan	-12881
▁Wirtschaft	-12882
▁institution	-12883
▁급	-12884
に関	-12885
功能	-12886
变成	-12887
感染	-12888
灭绝	-12889
视频	-12890
라운	-12891
르크	-12892
정이	-12893
اكم	-12894
كلة	-12895
لاث	-12896
นต์	-12897
▁ジョ	-12898
▁입단	-12899
伊斯兰	-12900
博物馆	-12901
aine	-12902
edia	-12903
eles	-12904
eras	-12905
gang	-12906
immt	-12907
تجاه	-12908
▁Dio	-12909
▁Has	-12910
▁hid	-12911
▁syn	-12912
▁연도별	-12913
stand	-12914
ينيسي	-12915
เวอร์	-12916
▁1941	-12917
▁1987	-12918
▁lois	-12919
▁état	-12920
▁سويس	-12921
▁조별리그	-12922
▁Hunde	-12923
▁Young	-12924
▁avere	-12925
▁lanzó	-12926
▁razón	-12927
▁trade	-12928
▁جوائز	-12929
▁어떠했는가	-12930
となったのは	-12931
▁Common	-12932
▁captur	-12933
▁conven	-12934
▁famili	-12935
▁exemple	-12936
▁madaris	-12937
▁السياسي	-12938
▁problème	-12939
▁propriété	-12940
▁continente	-12941
▁représente	-12942
▁arquitectura	-12943
▁estadounidenses	-12944
พา	-12945
▁q	-12946
デン	-12947
陀林	-12948
ota	-12949
سسة	-12950
سين	-12951
فاظ	-12952
ราย	-12953
▁联邦	-12954
▁여성	-12955
▁일으	-12956
▁제공	-12957
▁초기	-12958
不同的	-12959
的哪些	-12960
식으로	-12961
ocon	-12962
ผ่าน	-12963
▁Hab	-12964
▁ora	-12965
▁rib	-12966
▁sor	-12967
▁vio	-12968
▁승점은	-12969
▁있었던	-12970
是由什么	-12971
用什么来	-12972
레일리아	-12973
haupt	-12974
ieurs	-12975
ommes	-12976
oslav	-12977
جمالي	-12978
▁Eine	-12979
▁reun	-12980
▁vier	-12981
▁الحق	-12982
▁اللا	-12983
▁داخل	-12984
années	-12985
imenti	-12986
▁angek	-12987
▁costa	-12988
▁lanci	-12989
▁التوق	-12990
▁انحاء	-12991
reichen	-12992
ตัวละคร	-12993
▁Somali	-12994
▁dimens	-12995
▁gruppi	-12996
▁برنامج	-12997
▁include	-12998
▁started	-12999
▁Mehrheit	-13000
▁majorité	-13001
▁promedio	-13002
▁résident	-13003
▁المعروفة	-13004
▁República	-13005
▁propiedad	-13006
▁recherche	-13007
▁offizielle	-13008
นายกรัฐมนตรี	-13009
ใบ	-13010
▁萨	-13011
▁측	-13012
ネル	-13013
ージ	-13014
华盛	-13015
登場	-13016
访问	-13017
连接	-13018
국은	-13019
였던	-13020
치가	-13021
gem	-13022
ram	-13023
ray	-13024
วัฒ	-13025
▁تر	-13026
▁지금	-13027
ディズ	-13028
华盛顿	-13029
大多数	-13030
quer	-13031
ยุทธ	-13032
▁Nov	-13033
▁Wol	-13034
▁ign	-13035
▁جيم	-13036
▁เคร	-13037
▁영화는	-13038
esten	-13039
ónica	-13040
วงการ	-13041
▁Pass	-13042
▁جزءا	-13043
▁สถาน	-13044
▁대회에서	-13045
enswer	-13046
كنولوج	-13047
▁Premi	-13048
▁attiv	-13049
▁donde	-13050
▁estos	-13051
▁famig	-13052
▁fundó	-13053
▁sulle	-13054
▁روسيا	-13055
แผ่นดิน	-13056
▁affili	-13057
▁fondée	-13058
▁mediev	-13059
▁الاقلي	-13060
▁Station	-13061
▁consist	-13062
▁parfois	-13063
▁rivière	-13064
▁soutenu	-13065
▁المانيا	-13066
ariamente	-13067
▁dinastia	-13068
▁meilleur	-13069
อยู่ในวงศ์	-13070
▁utilisent	-13071
▁California	-13072
▁universidades	-13073
▁尼	-13074
完全	-13075
援助	-13076
签署	-13077
规则	-13078
서의	-13079
어가	-13080
oce	-13081
ocr	-13082
ترح	-13083
ออฟ	-13084
▁ak	-13085
▁حل	-13086
▁부문	-13087
▁생산	-13088
▁얻은	-13089
爱尔兰	-13090
itan	-13091
ning	-13092
olis	-13093
onne	-13094
وائل	-13095
เกิล	-13096
▁Pir	-13097
▁حقق	-13098
▁과정은	-13099
nelle	-13100
ètres	-13101
اريات	-13102
▁Janu	-13103
▁Skla	-13104
▁fatt	-13105
▁haut	-13106
▁lign	-13107
▁mant	-13108
▁جبال	-13109
▁ماري	-13110
เท่าใด	-13111
▁Entre	-13112
▁ihrem	-13113
▁الامم	-13114
▁الفرق	-13115
amerika	-13116
▁Wessen	-13117
▁concep	-13118
▁erklär	-13119
▁libert	-13120
▁Eritrea	-13121
▁environ	-13122
▁fédéral	-13123
▁erstellt	-13124
▁geschickt	-13125
▁เสียชีวิต	-13126
3,	-13127
MA	-13128
主義	-13129
程度	-13130
范围	-13131
소년	-13132
이며	-13133
upe	-13134
urz	-13135
اول	-13136
▁Ce	-13137
▁لأ	-13138
▁เน	-13139
▁공연	-13140
▁자유	-13141
共和党	-13142
发现的	-13143
alto	-13144
hand	-13145
lair	-13146
osex	-13147
werk	-13148
ögel	-13149
มหาส	-13150
เดิน	-13151
▁hoy	-13152
▁ill	-13153
▁étr	-13154
▁لدى	-13155
▁획득한	-13156
lande	-13157
▁1919	-13158
▁Einw	-13159
▁Sina	-13160
▁face	-13161
▁fore	-13162
▁read	-13163
▁size	-13164
▁surn	-13165
▁town	-13166
▁الاه	-13167
▁الشه	-13168
▁essay	-13169
▁situé	-13170
▁vidéo	-13171
▁élevé	-13172
▁كارول	-13173
▁compan	-13174
▁corpor	-13175
▁ehemal	-13176
▁export	-13177
▁sollte	-13178
▁teatro	-13179
▁troops	-13180
▁tuvalu	-13181
▁usando	-13182
▁تينيسي	-13183
▁พระราช	-13184
▁attempt	-13185
▁concert	-13186
▁consent	-13187
▁miglior	-13188
▁troupes	-13189
▁แม่น้ํา	-13190
▁comercio	-13191
▁referred	-13192
geschlagen	-13193
▁available	-13194
▁ufficiale	-13195
▁gesprochen	-13196
▁televisión	-13197
▁ร้องโดยใคร	-13198
▁フ	-13199
▁艾	-13200
▁또	-13201
ブラ	-13202
機関	-13203
活動	-13204
结果	-13205
首次	-13206
민주	-13207
센트	-13208
았던	-13209
วิน	-13210
▁Op	-13211
▁มา	-13212
▁다시	-13213
▁모든	-13214
▁유래	-13215
常见的	-13216
美尼亚	-13217
orse	-13218
thur	-13219
ريبا	-13220
وسطن	-13221
▁Ham	-13222
▁Kap	-13223
▁coû	-13224
▁lui	-13225
▁mez	-13226
はどこで	-13227
最高法院	-13228
وسكار	-13229
▁neur	-13230
▁spok	-13231
▁tipi	-13232
▁تقوم	-13233
▁Earth	-13234
▁Kraft	-13235
▁jetzt	-13236
▁trait	-13237
▁الحدث	-13238
▁الخشب	-13239
▁الصيف	-13240
ecutive	-13241
▁Academ	-13242
▁access	-13243
▁acquis	-13244
▁aurait	-13245
▁intent	-13246
▁modelo	-13247
ขนาดใหญ่	-13248
▁hombres	-13249
▁solaire	-13250
▁الوزراء	-13251
Allemagne	-13252
▁according	-13253
▁controvers	-13254
▁discovered	-13255
▁influenced	-13256
▁sviluppato	-13257
▁néerlandais	-13258
▁amerikanischen	-13259
.1	-13260
TC	-13261
اخ	-13262
ไซ	-13263
内容	-13264
卫星	-13265
다가	-13266
사로	-13267
하던	-13268
ifi	-13269
انا	-13270
جمع	-13271
رشح	-13272
▁학생	-13273
日本の	-13274
되었나	-13275
ogue	-13276
unda	-13277
▁Wal	-13278
▁abg	-13279
▁nat	-13280
▁sav	-13281
▁بنا	-13282
▁مقر	-13283
▁되나요	-13284
▁자신의	-13285
▁장소는	-13286
いたのは	-13287
เชียง	-13288
▁Four	-13289
▁Kamp	-13290
▁Stil	-13291
▁basa	-13292
▁sare	-13293
▁아버지는	-13294
▁Order	-13295
▁clubs	-13296
▁haber	-13297
▁áreas	-13298
▁كنيسة	-13299
นักร้อง	-13300
▁Awards	-13301
▁causes	-13302
▁travel	-13303
เรียกว่า	-13304
▁regiert	-13305
▁olduğunu	-13306
▁sociedad	-13307
▁formation	-13308
▁produzione	-13309
architecture	-13310
▁Architektur	-13311
▁principalement	-13312
مم	-13313
える	-13314
クロ	-13315
一般	-13316
克拉	-13317
公民	-13318
君主	-13319
得到	-13320
战役	-13321
截至	-13322
最早	-13323
温度	-13324
部隊	-13325
領土	-13326
구에	-13327
리오	-13328
원을	-13329
شار	-13330
لهي	-13331
وعا	-13332
▁ár	-13333
▁哪位	-13334
人は誰	-13335
aged	-13336
alie	-13337
يناء	-13338
ียร์	-13339
▁Sat	-13340
▁ple	-13341
▁sum	-13342
▁باع	-13343
▁دار	-13344
▁وصف	-13345
▁누구를	-13346
▁어디로	-13347
▁최초의	-13348
の名前は	-13349
orfen	-13350
ليدية	-13351
▁bank	-13352
▁meet	-13353
▁عالم	-13354
▁고등학교	-13355
在哪个城市	-13356
auteur	-13357
รัฐบาล	-13358
▁Death	-13359
▁nativ	-13360
▁paper	-13361
▁ruolo	-13362
▁école	-13363
▁تحتوي	-13364
ตะวันตก	-13365
อัลบั้ม	-13366
▁colore	-13367
▁propós	-13368
▁recogn	-13369
▁ارتفاع	-13370
▁المحلي	-13371
▁familia	-13372
▁reprodu	-13373
▁التاثير	-13374
是什么时候成立的	-13375
▁Birmania	-13376
▁apparten	-13377
▁pubblica	-13378
▁باستخدام	-13379
▁attraverso	-13380
▁considerado	-13381
ao	-13382
ko	-13383
▁섬	-13384
数字	-13385
時に	-13386
角色	-13387
赛季	-13388
종의	-13389
bey	-13390
inh	-13391
urg	-13392
اكل	-13393
กรม	-13394
ทุก	-13395
อํา	-13396
▁تز	-13397
▁กร	-13398
▁중앙	-13399
▁초대	-13400
ุษย์	-13401
▁رسم	-13402
▁كال	-13403
▁기간은	-13404
atten	-13405
ayana	-13406
byter	-13407
conóm	-13408
iving	-13409
reibt	-13410
thers	-13411
▁Angr	-13412
▁Lage	-13413
▁cito	-13414
▁erit	-13415
▁flor	-13416
▁meno	-13417
▁père	-13418
▁كندا	-13419
ensive	-13420
▁inten	-13421
▁works	-13422
▁بحلول	-13423
▁bouddh	-13424
▁tamaño	-13425
▁الحالي	-13426
▁monarch	-13427
▁nazione	-13428
▁prevent	-13429
▁오스트레일리아	-13430
▁beaucoup	-13431
▁location	-13432
▁sometimes	-13433
▁whitehead	-13434
▁République	-13435
▁녹	-13436
▁핵	-13437
の著	-13438
の間	-13439
使わ	-13440
几个	-13441
動物	-13442
原子	-13443
喜欢	-13444
尔的	-13445
思想	-13446
找到	-13447
支配	-13448
苹果	-13449
電所	-13450
명을	-13451
00?	-13452
ged	-13453
جال	-13454
خرج	-13455
قال	-13456
ฟิล	-13457
▁éx	-13458
▁تؤ	-13459
▁فل	-13460
▁纽约	-13461
▁여러	-13462
▁할까	-13463
アルバ	-13464
与什么	-13465
民主党	-13466
avia	-13467
olas	-13468
urso	-13469
▁Squ	-13470
▁rue	-13471
ahmen	-13472
▁2021	-13473
▁Geme	-13474
▁beso	-13475
▁mamm	-13476
▁mati	-13477
▁nick	-13478
▁stim	-13479
▁등장인물	-13480
原因是什么	-13481
amment	-13482
Égypte	-13483
▁Peter	-13484
▁españ	-13485
▁vista	-13486
▁ayudar	-13487
▁bemerk	-13488
▁elektr	-13489
▁tropas	-13490
▁Mission	-13491
▁Montana	-13492
▁console	-13493
▁gezeigt	-13494
▁happens	-13495
▁lumière	-13496
▁افريقيا	-13497
▁الشمسية	-13498
▁Bretagna	-13499
▁bacteria	-13500
▁befinden	-13501
▁contient	-13502
▁genommen	-13503
▁interest	-13504
▁الحديدية	-13505
▁Barcelone	-13506
▁problemas	-13507
▁เมืองหลวง	-13508
▁angefangen	-13509
▁philosophie	-13510
AC	-13511
dr	-13512
zy	-13513
三个	-13514
授予	-13515
相比	-13516
能源	-13517
長い	-13518
auv	-13519
ète	-13520
ถนน	-13521
▁Of	-13522
▁Sk	-13523
▁Zy	-13524
▁谁的	-13525
▁결승	-13526
▁경찰	-13527
▁관한	-13528
▁반대	-13529
▁중에	-13530
は何を	-13531
从哪里	-13532
이었던	-13533
erva	-13534
ابات	-13535
رحلة	-13536
▁182	-13537
▁Loc	-13538
▁vir	-13539
▁بيع	-13540
▁عدم	-13541
▁هيل	-13542
ترويت	-13543
▁Giov	-13544
▁Sign	-13545
▁cató	-13546
▁mess	-13547
▁papa	-13548
ington	-13549
كتيريا	-13550
▁Desde	-13551
▁Suiza	-13552
▁navig	-13553
▁subst	-13554
▁Fackel	-13555
▁Punjab	-13556
▁dehors	-13557
▁jamais	-13558
▁später	-13559
▁السادس	-13560
▁Alexand	-13561
▁attribu	-13562
▁changes	-13563
▁descend	-13564
▁miembro	-13565
▁méthode	-13566
▁director	-13567
▁distribu	-13568
يغ	-13569
▁他	-13570
▁잘	-13571
▁팔	-13572
ウム	-13573
ミネ	-13574
古老	-13575
同じ	-13576
拉丁	-13577
的主	-13578
이자	-13579
öße	-13580
رار	-13581
سخة	-13582
هار	-13583
▁لش	-13584
▁수록	-13585
斯拉夫	-13586
曼陀林	-13587
광역시	-13588
사에서	-13589
yste	-13590
อดีต	-13591
▁Cat	-13592
▁جدا	-13593
▁وين	-13594
▁ใช้	-13595
▁발생한	-13596
▁방법은	-13597
▁차지한	-13598
Insel	-13599
onato	-13600
▁Meer	-13601
▁epis	-13602
▁ohne	-13603
▁orig	-13604
▁الطب	-13605
されていた	-13606
hungen	-13607
ichten	-13608
ilosop	-13609
▁1990?	-13610
▁2009,	-13611
▁Zweck	-13612
▁alten	-13613
▁estat	-13614
▁every	-13615
▁rival	-13616
▁teach	-13617
▁zones	-13618
▁أفلام	-13619
▁تشارل	-13620
หน้าที่	-13621
▁archit	-13622
▁bietet	-13623
▁wollte	-13624
▁القيام	-13625
▁Central	-13626
▁distrit	-13627
▁trovava	-13628
▁الاسلام	-13629
▁clasific	-13630
▁protagon	-13631
▁présenté	-13632
▁enregistr	-13633
▁financial	-13634
▁programma	-13635
▁utilisées	-13636
▁étudiants	-13637
▁اليونانية	-13638
มาเมื่อไหร่	-13639
▁Präsidenten	-13640
▁vorgeschlagen	-13641
-4	-13642
▁티	-13643
、「	-13644
それ	-13645
もっ	-13646
何日	-13647
奴隶	-13648
批评	-13649
超过	-13650
还是	-13651
销售	-13652
领土	-13653
idd	-13654
ría	-13655
اضي	-13656
تبع	-13657
มส์	-13658
ราว	-13659
▁TB	-13660
▁شر	-13661
▁부르	-13662
▁이야	-13663
▁임명	-13664
碧昂丝	-13665
ître	-13666
ائلة	-13667
ستون	-13668
مبية	-13669
▁Mas	-13670
▁NBA	-13671
▁Run	-13672
▁wid	-13673
▁éch	-13674
▁صنا	-13675
▁فتح	-13676
▁정당은	-13677
ريكان	-13678
زنيجر	-13679
▁1986	-13680
▁Schw	-13681
▁parc	-13682
▁sequ	-13683
▁tout	-13684
▁الرئ	-13685
▁روما	-13686
Cuándo	-13687
▁annun	-13688
▁façon	-13689
▁gradu	-13690
▁small	-13691
▁العرق	-13692
▁Bedeut	-13693
▁bactér	-13694
▁office	-13695
▁الكلمة	-13696
position	-13697
▁informa	-13698
▁publica	-13699
▁público	-13700
▁vengono	-13701
ประเทศไทย	-13702
▁Material	-13703
▁replaced	-13704
▁trouvait	-13705
▁Verfassung	-13706
▁الانتخابات	-13707
▁importantes	-13708
لى	-13709
จี	-13710
วะ	-13711
▁科	-13712
▁샤	-13713
の最	-13714
ジラ	-13715
スク	-13716
全球	-13717
day	-13718
ارس	-13719
بين	-13720
ستر	-13721
علة	-13722
คอม	-13723
▁eg	-13724
▁截至	-13725
▁谁说	-13726
▁기초	-13727
▁유일	-13728
▁출판	-13729
世纪的	-13730
葡萄牙	-13731
ennt	-13732
hren	-13733
idio	-13734
ritt	-13735
view	-13736
▁Cru	-13737
▁Jay	-13738
▁Mot	-13739
▁cac	-13740
▁اير	-13741
▁ديل	-13742
▁منه	-13743
▁ชาว	-13744
▁나이는	-13745
▁사건은	-13746
ufact	-13747
คนที่	-13748
▁Cypr	-13749
▁Jeff	-13750
▁Trib	-13751
▁coin	-13752
▁matr	-13753
▁mong	-13754
▁park	-13755
在哪个国家	-13756
▁Sound	-13757
▁bezie	-13758
▁conna	-13759
▁ganar	-13760
▁mosaï	-13761
▁resol	-13762
เปลี่ยน	-13763
▁Impero	-13764
▁Kanada	-13765
▁garant	-13766
▁nature	-13767
▁return	-13768
▁romana	-13769
وارزنيجر	-13770
▁acquist	-13771
▁records	-13772
▁จัดขึ้น	-13773
何年のことですか	-13774
industrie	-13775
▁companies	-13776
▁transform	-13777
▁changement	-13778
▁costruzione	-13779
▁crecimiento	-13780
5,	-13781
ót	-13782
▁절	-13783
が出	-13784
ウォ	-13785
モン	-13786
卡罗	-13787
哪家	-13788
引起	-13789
森豪	-13790
特别	-13791
生息	-13792
者的	-13793
观点	-13794
가의	-13795
세는	-13796
화를	-13797
aps	-13798
ملة	-13799
ลัง	-13800
▁Kü	-13801
▁مر	-13802
▁โร	-13803
▁이탈	-13804
▁최대	-13805
出版的	-13806
是怎么	-13807
有多大	-13808
而不是	-13809
iniz	-13810
moto	-13811
ตาร์	-13812
นั้น	-13813
เต็ม	-13814
▁etn	-13815
▁tir	-13816
▁อัล	-13817
に対する	-13818
森豪威尔	-13819
ellow	-13820
front	-13821
under	-13822
เกมส์	-13823
▁Mosa	-13824
▁chaî	-13825
▁pasa	-13826
▁scon	-13827
▁المه	-13828
▁ภาษา	-13829
▁Flugh	-13830
▁klass	-13831
▁kommt	-13832
▁russe	-13833
▁الممت	-13834
สัญชาติ	-13835
▁Associ	-13836
▁Columb	-13837
▁Nieder	-13838
▁Parigi	-13839
▁ejecut	-13840
▁rights	-13841
▁tenido	-13842
▁terror	-13843
▁uscito	-13844
▁Unicode	-13845
▁ancient	-13846
▁artícul	-13847
▁beyonce	-13848
▁اعتبارا	-13849
▁ديترويت	-13850
▁Amérique	-13851
▁required	-13852
▁التجارية	-13853
▁الكمبيوتر	-13854
▁philosophy	-13855
▁principios	-13856
▁température	-13857
nu	-13858
ox	-13859
ui	-13860
ิศ	-13861
▁以	-13862
とき	-13863
の大	-13864
必要	-13865
能量	-13866
部队	-13867
우가	-13868
-10	-13869
قية	-13870
هوم	-13871
ياس	-13872
▁RI	-13873
▁sk	-13874
▁데이	-13875
▁없는	-13876
公元前	-13877
ised	-13878
vizz	-13879
▁Bib	-13880
▁cli	-13881
▁nie	-13882
▁urb	-13883
▁เคย	-13884
図書館の	-13885
illos	-13886
กี่ปี	-13887
พัฒนา	-13888
เซอร์	-13889
▁Cost	-13890
▁Dire	-13891
▁Mann	-13892
▁Wild	-13893
▁farm	-13894
▁targ	-13895
▁เดอะ	-13896
▁받았을까	-13897
▁우리나라	-13898
สีอะไร	-13899
▁1970?	-13900
▁genes	-13901
▁makes	-13902
▁micro	-13903
▁viagg	-13904
▁الماء	-13905
▁بداية	-13906
▁يتحدث	-13907
minster	-13908
อยู่ที่	-13909
▁valeur	-13910
▁تقريبا	-13911
adamente	-13912
▁feynman	-13913
▁regular	-13914
เทพมหานคร	-13915
▁designed	-13916
▁marshall	-13917
▁naciones	-13918
▁particul	-13919
▁proyecto	-13920
▁الاساسية	-13921
enschaften	-13922
หมายถึงอะไร	-13923
▁frecuencia	-13924
▁originalmente	-13925
ül	-13926
ชร	-13927
▁メ	-13928
▁英	-13929
▁붙	-13930
の主	-13931
キー	-13932
制定	-13933
化学	-13934
数は	-13935
理由	-13936
瑞士	-13937
시대	-13938
gor	-13939
انة	-13940
لاك	-13941
هات	-13942
هرج	-13943
▁않는	-13944
▁판매	-13945
되었던	-13946
Tube	-13947
oven	-13948
raum	-13949
ugen	-13950
uste	-13951
าราช	-13952
ื่อน	-13953
เลย์	-13954
▁CBS	-13955
▁عبر	-13956
生まれた	-13957
achst	-13958
زابيث	-13959
สถานี	-13960
เชื้อ	-13961
▁Sain	-13962
▁days	-13963
▁früh	-13964
▁منزل	-13965
られたのは	-13966
▁Conne	-13967
▁Firma	-13968
▁Jones	-13969
▁cross	-13970
ientras	-13971
▁Buddha	-13972
▁calcio	-13973
▁décenn	-13974
▁económ	-13975
▁incand	-13976
▁método	-13977
▁signal	-13978
▁سويسرا	-13979
▁Service	-13980
▁croyait	-13981
▁equipos	-13982
enaissance	-13983
▁Beziehung	-13984
▁Unterstüt	-13985
▁terremoto	-13986
▁biblioteca	-13987
▁correspond	-13988
▁politiques	-13989
ละครโทรทัศน์	-13990
▁responsabil	-13991
▁ภาพยนตร์เรื่อง	-13992
นก	-13993
ไท	-13994
ダル	-13995
上帝	-13996
个人	-13997
小的	-13998
德的	-13999
担任	-14000
死刑	-14001
电脑	-14002
美元	-14003
表示	-14004
语的	-14005
나이	-14006
위에	-14007
인을	-14008
rad	-14009
ris	-14010
พืช	-14011
ียม	-14012
▁أص	-14013
▁دم	-14014
▁مد	-14015
▁종목	-14016
graf	-14017
gung	-14018
last	-14019
ötet	-14020
رامي	-14021
วรรษ	-14022
▁181	-14023
▁mob	-14024
▁oct	-14025
▁oro	-14026
▁بود	-14027
▁شهر	-14028
▁จัก	-14029
查尔斯顿	-14030
table	-14031
ıştır	-14032
▁1000	-14033
▁1978	-14034
▁Sovi	-14035
▁días	-14036
▁neut	-14037
▁vitt	-14038
▁حاكم	-14039
▁مبنى	-14040
▁ينظر	-14041
られている	-14042
▁créée	-14043
▁ideas	-14044
▁pense	-14045
▁range	-14046
▁البرا	-14047
▁تغيير	-14048
▁Berlin	-14049
▁Jahres	-14050
▁questa	-14051
▁البروت	-14052
▁البيان	-14053
ซึ่งเป็น	-14054
▁Truppen	-14055
▁digital	-14056
▁plantes	-14057
▁suprême	-14058
▁uranium	-14059
▁statunit	-14060
▁มีพระนาม	-14061
▁الاوروبية	-14062
▁البريطاني	-14063
اذ	-14064
وص	-14065
เผ	-14066
を務	-14067
サー	-14068
世が	-14069
今天	-14070
年到	-14071
空军	-14072
나의	-14073
촬영	-14074
asc	-14075
ohl	-14076
وتي	-14077
ياه	-14078
ยาม	-14079
▁과학	-14080
▁작곡	-14081
까지의	-14082
장에서	-14083
hnen	-14084
uper	-14085
ائمة	-14086
▁rag	-14087
▁ทีม	-14088
になった	-14089
aries	-14090
issen	-14091
ueblo	-14092
▁died	-14093
▁جهاز	-14094
▁이루어져	-14095
iscono	-14096
itaria	-14097
jectif	-14098
▁Alter	-14099
▁causé	-14100
▁suite	-14101
▁third	-14102
▁بطولة	-14103
enseign	-14104
ktionen	-14105
▁belieb	-14106
されていますか	-14107
กษัตริย์	-14108
▁Switzer	-14109
▁airport	-14110
acionales	-14111
วรวงศ์เธอ	-14112
▁Bewegung	-14113
▁sviluppo	-14114
▁ออกอากาศ	-14115
▁gestartet	-14116
▁implement	-14117
▁sostenuto	-14118
บาทสมเด็จพระ	-14119
NE	-14120
gu	-14121
وغ	-14122
ยง	-14123
ラム	-14124
人民	-14125
价值	-14126
元素	-14127
最低	-14128
사우	-14129
식이	-14130
어진	-14131
진은	-14132
imi	-14133
ède	-14134
شاء	-14135
صور	-14136
ولد	-14137
บุญ	-14138
▁구조	-14139
▁사랑	-14140
▁장기	-14141
ートル	-14142
fügt	-14143
iane	-14144
icle	-14145
icom	-14146
واية	-14147
สากล	-14148
▁reç	-14149
▁ولد	-14150
rière	-14151
▁Year	-14152
▁atom	-14153
▁fail	-14154
▁fron	-14155
▁seen	-14156
▁torn	-14157
▁تشير	-14158
สูงสุด	-14159
▁Menge	-14160
▁ayuda	-14161
▁fuori	-14162
▁moyen	-14163
▁write	-14164
▁سياتل	-14165
▁언제입니까	-14166
anasius	-14167
▁Unione	-14168
▁selbst	-14169
tainment	-14170
▁atteint	-14171
▁devenir	-14172
▁livello	-14173
▁nanjing	-14174
▁premios	-14175
▁without	-14176
▁Unabhäng	-14177
▁conflict	-14178
▁geglaubt	-14179
▁naturale	-14180
▁dominante	-14181
▁nouvelles	-14182
▁disponible	-14183
▁imperatore	-14184
▁information	-14185
▁populations	-14186
ทางวิทยาศาสตร์	-14187
xi	-14188
พี	-14189
ได	-14190
分类	-14191
基地	-14192
总部	-14193
西洋	-14194
명의	-14195
센터	-14196
종이	-14197
화가	-14198
inf	-14199
rän	-14200
uft	-14201
yse	-14202
جلة	-14203
رفة	-14204
يكا	-14205
ณฑ์	-14206
ราณ	-14207
สัง	-14208
สเป	-14209
้าม	-14210
▁سل	-14211
▁เช	-14212
▁เซ	-14213
▁같은	-14214
▁상을	-14215
▁속해	-14216
▁채널	-14217
殖民地	-14218
azar	-14219
itte	-14220
ount	-14221
uten	-14222
อร์ด	-14223
ูนย์	-14224
▁Cam	-14225
▁Gar	-14226
▁TCM	-14227
graph	-14228
untry	-14229
شلونة	-14230
▁Bomb	-14231
▁Fakt	-14232
▁pont	-14233
▁المر	-14234
▁사람들이	-14235
▁아프리카	-14236
gliche	-14237
▁abrió	-14238
▁afect	-14239
▁citiz	-14240
▁denen	-14241
▁esist	-14242
▁formó	-14243
▁oeste	-14244
▁salió	-14245
▁بوسطن	-14246
▁زيادة	-14247
ikistan	-14248
▁enferm	-14249
▁ethnic	-14250
▁الشعلة	-14251
▁Bildung	-14252
▁Ländern	-14253
▁aircraft	-14254
▁musicale	-14255
▁rapporto	-14256
▁Champions	-14257
▁aeroporto	-14258
▁películas	-14259
▁propósito	-14260
▁provincia	-14261
▁الهولندية	-14262
▁Buckingham	-14263
▁considérée	-14264
▁contribuito	-14265
ไต	-14266
▁텔	-14267
いの	-14268
きた	-14269
なん	-14270
エル	-14271
关闭	-14272
唱片	-14273
太平	-14274
数量	-14275
更多	-14276
단이	-14277
와의	-14278
주가	-14279
eds	-14280
écu	-14281
▁Nu	-14282
▁لد	-14283
▁ها	-14284
▁발전	-14285
▁부른	-14286
ペイン	-14287
自己的	-14288
있는가	-14289
SFSR	-14290
bury	-14291
écur	-14292
ثناء	-14293
มหาก	-14294
▁Bal	-14295
▁flo	-14296
▁ibn	-14297
▁lok	-14298
▁océ	-14299
▁بما	-14300
▁دعم	-14301
▁للن	-14302
▁영화의	-14303
何ですか	-14304
abord	-14305
anner	-14306
olfen	-14307
▁Blan	-14308
▁irán	-14309
▁jeux	-14310
▁saga	-14311
▁والد	-14312
คริสต์	-14313
ที่ถูก	-14314
ประกาศ	-14315
อิตาลี	-14316
▁collè	-14317
▁nuova	-14318
▁offre	-14319
▁parmi	-14320
▁villa	-14321
▁البوم	-14322
▁LaserD	-14323
▁acción	-14324
▁comand	-14325
▁growth	-14326
▁quitté	-14327
▁sortie	-14328
ออกอากาศ	-14329
▁Amerika	-14330
▁beendet	-14331
▁besteht	-14332
▁besucht	-14333
▁erklärt	-14334
▁letzten	-14335
▁Giovanni	-14336
▁election	-14337
▁involved	-14338
▁question	-14339
▁remplacé	-14340
▁Bedeutung	-14341
▁Switzerland	-14342
▁Britanniques	-14343
Sh	-14344
ธ์	-14345
แซ	-14346
ラク	-14347
显示	-14348
竞争	-14349
能力	-14350
ägt	-14351
تمر	-14352
على	-14353
อล์	-14354
เลข	-14355
▁أن	-14356
▁وم	-14357
▁인간	-14358
트에서	-14359
aper	-14360
lers	-14361
rift	-14362
sers	-14363
يديو	-14364
▁Bat	-14365
▁ved	-14366
▁wir	-14367
▁فقد	-14368
▁للط	-14369
▁시스템	-14370
مارية	-14371
▁1974	-14372
▁free	-14373
▁hieß	-14374
▁vinc	-14375
▁القب	-14376
▁مرتب	-14377
の名前は何	-14378
etzung	-14379
hedral	-14380
▁Arena	-14381
▁habla	-14382
▁immer	-14383
▁jours	-14384
▁malad	-14385
▁medic	-14386
▁pouss	-14387
▁stock	-14388
▁valor	-14389
▁اهوما	-14390
▁شيوعا	-14391
▁قاعدة	-14392
agement	-14393
▁Afrika	-14394
▁concer	-14395
▁expand	-14396
▁higher	-14397
▁inclus	-14398
▁romain	-14399
▁มีความ	-14400
▁Besides	-14401
▁policía	-14402
▁propert	-14403
éducation	-14404
▁Künstler	-14405
▁manchmal	-14406
▁Presbyter	-14407
▁migration	-14408
▁problèmes	-14409
▁römischen	-14410
▁Unabhängigkeit	-14411
26	-14412
يق	-14413
ิจ	-14414
แฟ	-14415
アー	-14416
トン	-14417
几年	-14418
成分	-14419
色列	-14420
行政	-14421
게임	-14422
화는	-14423
회를	-14424
ekt	-14425
jes	-14426
émo	-14427
ائي	-14428
زين	-14429
▁สง	-14430
で一番	-14431
の作品	-14432
是什麼	-14433
cker	-14434
onné	-14435
umes	-14436
راجع	-14437
ร่าง	-14438
▁Lie	-14439
▁leb	-14440
▁กระ	-14441
▁라디오	-14442
しますか	-14443
erset	-14444
icios	-14445
udson	-14446
▁Ball	-14447
▁Kenn	-14448
▁Luft	-14449
▁care	-14450
▁fand	-14451
▁kein	-14452
▁liqu	-14453
▁sept	-14454
▁العق	-14455
▁حركة	-14456
▁사람들은	-14457
okkien	-14458
علومات	-14459
▁2012,	-14460
▁Instr	-14461
▁fosse	-14462
▁issue	-14463
▁nello	-14464
▁sitio	-14465
▁staat	-14466
▁unión	-14467
▁wegen	-14468
▁éxito	-14469
▁الالب	-14470
▁สร้าง	-14471
بيونسيه	-14472
▁Govern	-14473
▁killed	-14474
▁strutt	-14475
▁tenían	-14476
▁الهجرة	-14477
ologique	-14478
▁brought	-14479
▁chinois	-14480
▁oiseaux	-14481
▁permite	-14482
▁relativ	-14483
▁examples	-14484
▁britannico	-14485
▁conditions	-14486
▁dichiarato	-14487
▁principaux	-14488
▁amerikanische	-14489
の本	-14490
体的	-14491
年は	-14492
日の	-14493
沥青	-14494
的新	-14495
西部	-14496
Arm	-14497
ايك	-14498
برغ	-14499
تهي	-14500
ضية	-14501
กัด	-14502
รณ์	-14503
รติ	-14504
เซล	-14505
▁CE	-14506
▁NC	-14507
▁én	-14508
▁如何	-14509
どこに	-14510
ストラ	-14511
世界上	-14512
ieri	-14513
mark	-14514
uran	-14515
zähl	-14516
état	-14517
رشال	-14518
ระยะ	-14519
▁Dog	-14520
▁süd	-14521
▁일어났	-14522
eitet	-14523
entre	-14524
iados	-14525
äsent	-14526
üssen	-14527
▁Auss	-14528
▁Reno	-14529
▁fast	-14530
▁prév	-14531
▁نانج	-14532
andelt	-14533
▁Ghost	-14534
▁along	-14535
▁cover	-14536
▁until	-14537
▁الديم	-14538
▁السكك	-14539
▁والتي	-14540
ニューヨーク	-14541
ประชากร	-14542
เมื่อไร	-14543
▁Gouver	-14544
▁Suisse	-14545
▁erhöht	-14546
▁fuerte	-14547
▁mascul	-14548
▁réseau	-14549
▁toutes	-14550
▁الوحيد	-14551
▁مارشال	-14552
akterien	-14553
▁Airport	-14554
▁Austria	-14555
▁Jackson	-14556
▁Problem	-14557
▁animals	-14558
▁getötet	-14559
▁برشلونة	-14560
▁geholfen	-14561
▁ايزنهاور	-14562
hropologie	-14563
▁Rajasthan	-14564
▁المستخدمة	-14565
▁británicos	-14566
▁recensement	-14567
Es	-14568
ไน	-14569
▁麦	-14570
▁향	-14571
ノー	-14572
交通	-14573
立法	-14574
谁是	-14575
받은	-14576
선이	-14577
수로	-14578
었나	-14579
put	-14580
▁má	-14581
▁เห	-14582
▁하루	-14583
は誰が	-14584
ゴジラ	-14585
aban	-14586
cken	-14587
izei	-14588
oint	-14589
unds	-14590
very	-14591
énie	-14592
▁Mor	-14593
▁Rog	-14594
▁ráp	-14595
▁tab	-14596
▁vig	-14597
▁생애는	-14598
アフリカ	-14599
icien	-14600
lemán	-14601
zlach	-14602
▁1976	-14603
▁Code	-14604
▁Lanc	-14605
▁Penn	-14606
▁acus	-14607
▁conj	-14608
▁lamp	-14609
▁السي	-14610
▁منصب	-14611
▁يزال	-14612
しているの	-14613
どれですか	-14614
▁enseñ	-14615
▁river	-14616
▁urban	-14617
何年のことか	-14618
erstand	-14619
▁المواد	-14620
▁بجائزة	-14621
براطورية	-14622
▁benannt	-14623
▁montaña	-14624
▁sociale	-14625
▁الجنوبي	-14626
▁الرومان	-14627
▁الهندسة	-14628
ellschaft	-14629
▁Englisch	-14630
▁Pakistan	-14631
▁previous	-14632
▁البرتغال	-14633
▁النباتات	-14634
▁comúnmente	-14635
BO	-14636
IP	-14637
▁ピ	-14638
▁밴	-14639
、『	-14640
以来	-14641
佛罗	-14642
学的	-14643
执行	-14644
最不	-14645
模式	-14646
가지	-14647
당이	-14648
케이	-14649
geg	-14650
het	-14651
ibe	-14652
uit	-14653
روس	-14654
نائ	-14655
ปรา	-14656
ลอง	-14657
เวล	-14658
▁Ak	-14659
大きな	-14660
太平洋	-14661
颜色的	-14662
스에서	-14663
avía	-14664
coln	-14665
irió	-14666
izza	-14667
lett	-14668
onse	-14669
▁SBS	-14670
▁prá	-14671
▁사용한	-14672
antas	-14673
ering	-14674
itude	-14675
redit	-14676
étend	-14677
▁HDTV	-14678
▁Liga	-14679
▁That	-14680
▁chem	-14681
▁east	-14682
▁sexu	-14683
▁uses	-14684
▁wann	-14685
▁النح	-14686
▁تقدم	-14687
acters	-14688
cteurs	-14689
▁Emper	-14690
▁Größe	-14691
▁autom	-14692
▁censo	-14693
▁dalle	-14694
▁perso	-14695
▁signé	-14696
▁Design	-14697
▁Kompon	-14698
▁affirm	-14699
▁fuente	-14700
▁pueblo	-14701
▁المفتر	-14702
▁เรื่อง	-14703
stellung	-14704
▁Prussia	-14705
▁contact	-14706
▁defensa	-14707
したのは誰ですか	-14708
icialmente	-14709
-6	-14710
Le	-14711
SI	-14712
▁ロ	-14713
▁긴	-14714
▁넘	-14715
▁윈	-14716
安普	-14717
知识	-14718
amt	-14719
ecu	-14720
ابا	-14721
الف	-14722
لات	-14723
يتو	-14724
คู่	-14725
▁않은	-14726
かれた	-14727
してい	-14728
フォル	-14729
会导致	-14730
adém	-14731
ocia	-14732
onde	-14733
plor	-14734
vous	-14735
افية	-14736
سكان	-14737
▁err	-14738
▁حجم	-14739
▁มาร	-14740
▁노선은	-14741
どちらか	-14742
onsor	-14743
ordin	-14744
▁Inde	-14745
▁Pear	-14746
▁aere	-14747
▁fino	-14748
▁jugó	-14749
▁près	-14750
▁roya	-14751
▁sopr	-14752
▁supp	-14753
▁العم	-14754
▁จักร	-14755
▁이탈리아	-14756
ettura	-14757
ración	-14758
schung	-14759
ในสมัย	-14760
▁2011,	-14761
▁delhi	-14762
▁guard	-14763
▁minim	-14764
▁parts	-14765
▁rouge	-14766
▁الطرق	-14767
liament	-14768
▁Landes	-14769
▁kommen	-14770
▁statut	-14771
ministra	-14772
كنولوجيا	-14773
▁Supreme	-14774
▁related	-14775
▁ricerca	-14776
▁todavía	-14777
▁verific	-14778
▁Caroline	-14779
▁Division	-14780
▁francesi	-14781
▁japonais	-14782
▁maggiore	-14783
▁tribunal	-14784
▁เกิดขึ้น	-14785
ของประเทศใด	-14786
▁européenne	-14787
▁häufigsten	-14788
▁université	-14789
▁utilizzati	-14790
▁traditional	-14791
以降	-14792
場所	-14793
外国	-14794
我们	-14795
昆虫	-14796
海军	-14797
演じ	-14798
目前	-14799
美洲	-14800
被害	-14801
국이	-14802
기로	-14803
상이	-14804
업을	-14805
호를	-14806
호의	-14807
100	-14808
ayy	-14809
اما	-14810
تون	-14811
รี่	-14812
▁一些	-14813
▁스테	-14814
▁인가	-14815
時点で	-14816
米比亚	-14817
2008	-14818
ifié	-14819
ları	-14820
موند	-14821
ทหาร	-14822
▁Ali	-14823
▁Kup	-14824
▁Moy	-14825
▁emb	-14826
▁يدع	-14827
onian	-14828
ouest	-14829
ฎหมาย	-14830
โบราณ	-14831
▁1967	-14832
▁Bapt	-14833
▁capp	-14834
▁lago	-14835
▁turn	-14836
▁المغ	-14837
▁있었는가	-14838
cticut	-14839
▁Vögel	-14840
▁Water	-14841
▁charg	-14842
▁fight	-14843
▁obras	-14844
▁عنوان	-14845
百分比是多少	-14846
amentos	-14847
▁entsch	-14848
▁infant	-14849
▁proven	-14850
▁puerto	-14851
▁توفالو	-14852
▁Freddie	-14853
▁fondata	-14854
▁inaugur	-14855
▁llamaba	-14856
▁militär	-14857
▁mondial	-14858
▁نانجينج	-14859
▁Russland	-14860
▁كارولينا	-14861
▁proprietà	-14862
▁universal	-14863
▁الرومانية	-14864
▁desarrolló	-14865
▁territoire	-14866
▁disponibles	-14867
ît	-14868
》?	-14869
乐队	-14870
問題	-14871
学习	-14872
它的	-14873
本书	-14874
物理	-14875
議員	-14876
里士	-14877
鉄道	-14878
구가	-14879
비의	-14880
193	-14881
egt	-14882
enf	-14883
ihe	-14884
orf	-14885
الن	-14886
وسي	-14887
▁뭘까	-14888
▁정의	-14889
▁지하	-14890
的例子	-14891
部电影	-14892
cles	-14893
iett	-14894
uern	-14895
กรณ์	-14896
ยนต์	-14897
สถาป	-14898
▁NFL	-14899
▁Zel	-14900
▁ash	-14901
▁cav	-14902
▁cic	-14903
▁dat	-14904
▁اسس	-14905
▁توم	-14906
▁당선된	-14907
▁새로운	-14908
liest	-14909
tient	-14910
เกล้า	-14911
▁Your	-14912
▁oggi	-14913
▁والع	-14914
▁서울특별	-14915
▁Daten	-14916
▁earth	-14917
▁golpe	-14918
▁space	-14919
▁منظمة	-14920
▁Dragon	-14921
▁Städte	-14922
▁changé	-14923
▁deport	-14924
▁halten	-14925
▁nieder	-14926
▁oldest	-14927
▁اللعبة	-14928
empereur	-14929
▁Détroit	-14930
▁dirigió	-14931
▁modello	-14932
▁suggest	-14933
▁Computer	-14934
▁augmenté	-14935
▁commerce	-14936
▁elemento	-14937
▁العسكرية	-14938
▁maintenant	-14939
▁الكلاسيكية	-14940
),	-14941
ód	-14942
▁ó	-14943
威廉	-14944
家族	-14945
統治	-14946
解决	-14947
그룹	-14948
abt	-14949
err	-14950
iód	-14951
raî	-14952
ائر	-14953
زاء	-14954
طية	-14955
นิว	-14956
ัตร	-14957
้วย	-14958
▁35	-14959
▁哪一	-14960
▁벤허	-14961
すると	-14962
nell	-14963
onen	-14964
ินส์	-14965
▁PIB	-14966
▁Pur	-14967
▁neu	-14968
▁tal	-14969
▁élu	-14970
▁대부분	-14971
はどこに	-14972
多长时间	-14973
美国偶像	-14974
icana	-14975
ients	-14976
سيقية	-14977
ดาของ	-14978
เดอร์	-14979
▁1949	-14980
▁Hind	-14981
▁Jeux	-14982
▁SNES	-14983
▁Thur	-14984
▁Wind	-14985
▁entw	-14986
▁luce	-14987
▁move	-14988
▁تظهر	-14989
Inseln	-14990
ettbew	-14991
▁Moyen	-14992
▁Video	-14993
▁congr	-14994
▁impos	-14995
▁jedes	-14996
▁march	-14997
▁السري	-14998
▁الشمس	-14999
bellion	-15000
ontroll	-15001
▁Sowjet	-15002
▁father	-15003
▁strong	-15004
▁مقارنة	-15005
▁Gautama	-15006
▁conseil	-15007
▁elected	-15008
▁gekauft	-15009
▁guidato	-15010
▁matière	-15011
▁الاعمال	-15012
▁Luftwaffe	-15013
▁corruption	-15014
▁الامريكيين	-15015
▁dispositivo	-15016
▁scientifique	-15017
OM	-15018
แฮ	-15019
▁찾	-15020
占领	-15021
工业	-15022
应用	-15023
拉伯	-15024
海洋	-15025
玻璃	-15026
由于	-15027
结核	-15028
里达	-15029
iro	-15030
rew	-15031
urb	-15032
بيق	-15033
خفض	-15034
จอม	-15035
ทัพ	-15036
พูด	-15037
▁Ev	-15038
▁费曼	-15039
イング	-15040
スティ	-15041
情况下	-15042
anes	-15043
hony	-15044
iest	-15045
pool	-15046
บุตร	-15047
รัตน	-15048
สมรส	-15049
▁Dok	-15050
▁Erw	-15051
▁Kub	-15052
▁jem	-15053
▁كما	-15054
▁종류는	-15055
▁직업은	-15056
ワールド	-15057
aylor	-15058
elect	-15059
élior	-15060
▁1944	-15061
▁Stal	-15062
▁Stan	-15063
▁décl	-15064
▁gave	-15065
▁iniz	-15066
▁rech	-15067
▁انهم	-15068
▁بناؤ	-15069
pieler	-15070
ulaire	-15071
โลเมตร	-15072
▁Hotel	-15073
▁added	-15074
▁apoyo	-15075
▁infer	-15076
▁label	-15077
▁lleva	-15078
▁magas	-15079
▁reduz	-15080
▁مستوى	-15081
imately	-15082
zlachta	-15083
ทีมชาติ	-15084
▁Golden	-15085
▁histór	-15086
▁mesure	-15087
▁nación	-15088
▁periód	-15089
▁الحدود	-15090
▁الحكوم	-15091
▁المحيط	-15092
getreten	-15093
การเมือง	-15094
▁colonie	-15095
▁humains	-15096
▁podrían	-15097
▁ranking	-15098
▁الاشارة	-15099
▁الصينية	-15100
▁المجتمع	-15101
▁millones	-15102
▁republic	-15103
▁sexuelle	-15104
▁bacterias	-15105
▁dirección	-15106
▁commerciale	-15107
▁différentes	-15108
RC	-15109
uy	-15110
äß	-15111
حو	-15112
กะ	-15113
▁맺	-15114
▁앞	-15115
下降	-15116
宣言	-15117
建築	-15118
성한	-15119
이를	-15120
cin	-15121
ieu	-15122
now	-15123
เบล	-15124
▁ار	-15125
▁과거	-15126
▁방문	-15127
▁통산	-15128
▁피해	-15129
出生的	-15130
aton	-15131
eten	-15132
yens	-15133
بورن	-15134
طلسي	-15135
وائي	-15136
يطرة	-15137
สั้น	-15138
▁Kop	-15139
▁fur	-15140
▁منت	-15141
▁ถึง	-15142
▁무엇에	-15143
Stadt	-15144
▁Jour	-15145
▁Juan	-15146
▁Prim	-15147
▁allo	-15148
▁côté	-15149
▁envi	-15150
▁jähr	-15151
▁love	-15152
▁السم	-15153
▁الوا	-15154
▁سوبر	-15155
lywood	-15156
จันทร์	-15157
▁discr	-15158
▁heute	-15159
▁honor	-15160
▁legno	-15161
▁بورما	-15162
▁كانون	-15163
Cuántas	-15164
▁Egitto	-15165
▁script	-15166
▁animaux	-15167
▁convers	-15168
▁ferrovi	-15169
▁ocurrió	-15170
▁strateg	-15171
▁التغيير	-15172
▁السيطرة	-15173
▁العملية	-15174
▁estudios	-15175
▁stazione	-15176
▁เมื่อไหร่	-15177
▁officielle	-15178
▁Westminster	-15179
▁东	-15180
▁苏	-15181
▁떠	-15182
▁칭	-15183
の初	-15184
关注	-15185
冲突	-15186
十年	-15187
少数	-15188
旅行	-15189
考え	-15190
거나	-15191
اته	-15192
رعة	-15193
فاض	-15194
يوخ	-15195
พ่อ	-15196
รอง	-15197
▁Ok	-15198
▁곡은	-15199
▁그의	-15200
▁받아	-15201
▁선언	-15202
▁오브	-15203
▁정보	-15204
古老的	-15205
计算机	-15206
2009	-15207
2010	-15208
iare	-15209
ifer	-15210
واعد	-15211
▁Cir	-15212
▁Kle	-15213
▁Tai	-15214
▁erf	-15215
▁phr	-15216
▁صوت	-15217
▁غزو	-15218
イタリア	-15219
从来没有	-15220
วิหาร	-15221
▁Days	-15222
▁Tier	-15223
▁bill	-15224
▁bron	-15225
▁توقف	-15226
▁فريد	-15227
▁وجود	-15228
的哪一部分	-15229
indung	-15230
▁Light	-15231
▁María	-15232
▁allen	-15233
▁lived	-15234
▁ايران	-15235
Afrique	-15236
geführt	-15237
ictions	-15238
étiques	-15239
▁Partei	-15240
▁alcune	-15241
▁cuivre	-15242
▁ilumin	-15243
▁permet	-15244
▁اكتشاف	-15245
ประเภทใด	-15246
▁Katmand	-15247
▁celebró	-15248
▁demandé	-15249
▁distrib	-15250
▁extranj	-15251
▁foreign	-15252
▁francés	-15253
▁mercado	-15254
▁section	-15255
▁امريكان	-15256
▁เครื่อง	-15257
entemente	-15258
▁exemples	-15259
▁filosofía	-15260
▁شوارزنيجر	-15261
▁finalmente	-15262
▁gearbeitet	-15263
▁utilizzata	-15264
▁มีชื่อจริง	-15265
▁الكاثوليكية	-15266
ดํารงตําแหน่ง	-15267
▁Commonwealth	-15268
▁internationale	-15269
の国	-15270
める	-15271
シー	-15272
作戦	-15273
希望	-15274
阿尔	-15275
사에	-15276
uez	-15277
yer	-15278
صلة	-15279
▁ox	-15280
▁مز	-15281
▁这些	-15282
▁건설	-15283
▁살았	-15284
できる	-15285
多少钱	-15286
올림픽	-15287
inte	-15288
ownt	-15289
ulas	-15290
ี่ยม	-15291
้นํา	-15292
▁DVD	-15293
▁Two	-15294
▁Wem	-15295
▁دفع	-15296
▁فون	-15297
▁متح	-15298
▁사람이	-15299
▁졸업한	-15300
によると	-15301
onien	-15302
ตําบล	-15303
▁cual	-15304
▁flam	-15305
▁krit	-15306
▁laws	-15307
▁pian	-15308
▁اقدم	-15309
▁المخ	-15310
ディズニー	-15311
วันที่	-15312
ออสเตร	-15313
▁Tower	-15314
▁Volks	-15315
▁cobre	-15316
▁hacia	-15317
▁inner	-15318
▁molto	-15319
▁الحكم	-15320
▁السبب	-15321
▁حكومة	-15322
▁어디입니까	-15323
américa	-15324
razione	-15325
écurité	-15326
▁dirigé	-15327
▁früher	-15328
▁vivent	-15329
▁étrang	-15330
▁Youtube	-15331
▁abgesch	-15332
▁appoint	-15333
▁السنوات	-15334
▁Insekten	-15335
▁scoperto	-15336
▁alrededor	-15337
▁hyderabad	-15338
▁العثمانية	-15339
▁المعمارية	-15340
▁characters	-15341
▁gouverneur	-15342
▁Connecticut	-15343
▁proporciona	-15344
กีฬาโอลิมปิกฤดู	-15345
غل	-15346
จร	-15347
อป	-15348
▁맥	-15349
▁숙	-15350
▁푸	-15351
公路	-15352
共济	-15353
布告	-15354
细胞	-15355
购买	-15356
개의	-15357
내는	-15358
elf	-15359
eto	-15360
hör	-15361
rap	-15362
utz	-15363
رين	-15364
ฉัน	-15365
พย์	-15366
ลาด	-15367
▁CP	-15368
▁결정	-15369
▁모습	-15370
▁이동	-15371
▁주변	-15372
▁중심	-15373
▁촬영	-15374
のため	-15375
amas	-15376
anal	-15377
atas	-15378
eaux	-15379
ußen	-15380
über	-15381
لايا	-15382
لسفة	-15383
هوري	-15384
يامي	-15385
พิธี	-15386
แก้ว	-15387
▁Fox	-15388
▁jun	-15389
▁ليس	-15390
▁배우의	-15391
▁작품의	-15392
を受けた	-15393
佛罗里达	-15394
elehr	-15395
طولات	-15396
وريدا	-15397
คล้าย	-15398
ประดิ	-15399
ํารวจ	-15400
▁1981	-15401
▁abit	-15402
▁atac	-15403
▁cart	-15404
▁dado	-15405
▁feel	-15406
▁mère	-15407
▁تحدث	-15408
▁تحمل	-15409
▁لاعب	-15410
่ายทํา	-15411
▁Fried	-15412
▁aérea	-15413
▁corpo	-15414
▁grant	-15415
▁hogar	-15416
▁اغنية	-15417
▁حديقة	-15418
▁كوريا	-15419
的比例是多少	-15420
▁Palace	-15421
▁artist	-15422
▁besoin	-15423
▁eléctr	-15424
▁exécut	-15425
▁gehabt	-15426
▁health	-15427
▁montag	-15428
▁risult	-15429
▁symbol	-15430
▁traduc	-15431
▁الشيوخ	-15432
ものは何ですか	-15433
▁enseign	-15434
▁könnten	-15435
▁nombres	-15436
▁rejoint	-15437
▁الالعاب	-15438
▁Struktur	-15439
▁economic	-15440
▁kontroll	-15441
▁untersch	-15442
▁Bakterien	-15443
▁tecnología	-15444
▁changements	-15445
▁bemerkenswer	-15446
28	-15447
قر	-15448
مد	-15449
สห	-15450
▁웨	-15451
イス	-15452
ジン	-15453
ブル	-15454
保罗	-15455
克的	-15456
利茅	-15457
宮崎	-15458
开放	-15459
構成	-15460
治疗	-15461
記念	-15462
당한	-15463
adi	-15464
▁나왔	-15465
▁따르	-15466
▁시설	-15467
を獲得	-15468
安普敦	-15469
었나요	-15470
gend	-15471
igli	-15472
دمات	-15473
▁Kom	-15474
▁NBC	-15475
▁alf	-15476
▁fün	-15477
▁kam	-15478
▁org	-15479
▁sun	-15480
▁ماد	-15481
▁첫번째	-15482
はいくら	-15483
ahren	-15484
ieben	-15485
istán	-15486
manie	-15487
quart	-15488
▁1942	-15489
▁News	-15490
▁casi	-15491
▁clás	-15492
▁subs	-15493
▁surv	-15494
amenti	-15495
▁Monat	-15496
▁Natur	-15497
▁Outre	-15498
▁Pearl	-15499
▁Space	-15500
▁green	-15501
▁merid	-15502
▁unico	-15503
▁verde	-15504
▁اسلوب	-15505
▁علاقة	-15506
▁มีกี่	-15507
ugefügt	-15508
▁Campus	-15509
▁Joseph	-15510
▁Spiele	-15511
▁alemán	-15512
▁copper	-15513
▁decade	-15514
▁existe	-15515
▁humans	-15516
ivamente	-15517
▁Destiny	-15518
▁concorr	-15519
▁grecque	-15520
▁italien	-15521
▁Muhammad	-15522
▁konzentr	-15523
▁presente	-15524
เป็นทางการ	-15525
▁Billboard	-15526
▁calendario	-15527
▁concernant	-15528
▁parlamento	-15529
▁มีชื่อเล่น	-15530
▁hinzugefügt	-15531
▁significant	-15532
▁Presbyterian	-15533
lü	-15534
▁ル	-15535
で何	-15536
マー	-15537
一些	-15538
事故	-15539
发行	-15540
杂志	-15541
软件	-15542
우는	-15543
행한	-15544
향은	-15545
apa	-15546
ymn	-15547
بيض	-15548
راص	-15549
كين	-15550
نال	-15551
ค่า	-15552
บัญ	-15553
สาท	-15554
ิติ	-15555
▁Sü	-15556
▁Vi	-15557
▁印度	-15558
▁대신	-15559
▁보고	-15560
の著者	-15561
ジプト	-15562
所大学	-15563
로부터	-15564
unge	-15565
usal	-15566
สูติ	-15567
▁Ans	-15568
▁Bed	-15569
▁Cab	-15570
▁Tim	-15571
▁بيت	-15572
▁شيء	-15573
▁발매된	-15574
▁방송된	-15575
であるか	-15576
atory	-15577
aufen	-15578
ility	-15579
lumin	-15580
phalt	-15581
▁Cont	-15582
▁Sher	-15583
▁deve	-15584
▁mese	-15585
▁برون	-15586
▁يملك	-15587
▁น้ํา	-15588
のタイトル	-15589
ailles	-15590
tograf	-15591
รัชกาล	-15592
▁UNFPA	-15593
▁bande	-15594
▁conçu	-15595
▁extin	-15596
▁kerry	-15597
▁según	-15598
▁siège	-15599
▁store	-15600
▁teams	-15601
▁تعيين	-15602
▁Hitler	-15603
▁Inform	-15604
▁ataque	-15605
▁famosa	-15606
▁unique	-15607
objectif	-15608
▁التحقيق	-15609
▁الدولية	-15610
▁décennie	-15611
▁insectos	-15612
▁السياسية	-15613
▁ريتشموند	-15614
▁getroffen	-15615
▁identific	-15616
▁television	-15617
▁ベ	-15618
▁你	-15619
▁非	-15620
世は	-15621
反应	-15622
声称	-15623
宣戦	-15624
年と	-15625
挙げ	-15626
方向	-15627
日期	-15628
汽车	-15629
犯罪	-15630
組織	-15631
関係	-15632
되기	-15633
희가	-15634
aye	-15635
cir	-15636
ucr	-15637
งาม	-15638
▁Gi	-15639
▁Rh	-15640
▁คน	-15641
▁개념	-15642
▁아르	-15643
▁어린	-15644
年以前	-15645
结束的	-15646
halt	-15647
راءة	-15648
โครง	-15649
▁Eff	-15650
▁gut	-15651
▁도시는	-15652
宣戦布告	-15653
하였을까	-15654
ficos	-15655
porta	-15656
▁Evil	-15657
▁drug	-15658
▁join	-15659
▁left	-15660
▁loss	-15661
▁rete	-15662
▁الشع	-15663
▁حالة	-15664
フォルニア	-15665
atorio	-15666
forder	-15667
puesta	-15668
มนุษย์	-15669
อลเลย์	-15670
▁Corte	-15671
▁Other	-15672
▁crise	-15673
▁diplô	-15674
▁ignor	-15675
▁isole	-15676
▁porte	-15677
▁train	-15678
▁어떤것들이	-15679
ionales	-15680
issions	-15681
▁Bundes	-15682
▁People	-15683
▁arrest	-15684
▁cinese	-15685
▁define	-15686
▁encour	-15687
▁member	-15688
▁quello	-15689
▁siendo	-15690
▁داروين	-15691
▁Academy	-15692
▁denomin	-15693
▁Michigan	-15694
▁Veränder	-15695
▁permitió	-15696
▁Vergleich	-15697
▁plusieurs	-15698
▁télévision	-15699
▁información	-15700
▁independencia	-15701
نج	-15702
▁パ	-15703
▁솔	-15704
▁콜	-15705
▁혁	-15706
さん	-15707
ズの	-15708
出了	-15709
合并	-15710
委員	-15711
指定	-15712
权利	-15713
火山	-15714
荷马	-15715
rid	-15716
่ํา	-15717
▁نج	-15718
▁불리	-15719
▁슈퍼	-15720
ことを	-15721
発電所	-15722
系统的	-15723
SCII	-15724
hirn	-15725
king	-15726
ören	-15727
لمان	-15728
نائس	-15729
▁Apr	-15730
▁Dev	-15731
▁Lis	-15732
▁paz	-15733
▁tar	-15734
▁إلى	-15735
▁جلب	-15736
▁어머니	-15737
▁했는가	-15738
アルバム	-15739
是从哪里	-15740
bourg	-15741
ellig	-15742
▁Ausw	-15743
▁Does	-15744
▁Fest	-15745
▁Frau	-15746
▁Gall	-15747
▁Kiev	-15748
▁abge	-15749
▁alco	-15750
▁duré	-15751
▁lado	-15752
▁past	-15753
▁المل	-15754
▁فران	-15755
▁운행하는	-15756
cional	-15757
derick	-15758
ionato	-15759
▁deber	-15760
▁forza	-15761
▁olímp	-15762
▁rejet	-15763
▁tanto	-15764
▁übern	-15765
▁attrib	-15766
▁conect	-15767
▁depend	-15768
▁eingef	-15769
▁interr	-15770
▁musulm	-15771
▁patent	-15772
▁quería	-15773
▁بالقرب	-15774
▁Emperor	-15775
▁Krieges	-15776
▁bambini	-15777
▁collect	-15778
▁consomm	-15779
▁diritti	-15780
▁المالية	-15781
▁الوحيدة	-15782
▁Anführer	-15783
▁Einfluss	-15784
▁assassin	-15785
▁distinct	-15786
したのはいつですか	-15787
▁participé	-15788
▁الاتحادية	-15789
ก่อตั้งขึ้น	-15790
▁performance	-15791
öffentlichung	-15792
▁康	-15793
▁찍	-15794
ヘル	-15795
取り	-15796
建议	-15797
考虑	-15798
赛尔	-15799
避免	-15800
계를	-15801
éné	-15802
ائق	-15803
ซิล	-15804
ริก	-15805
เฉล	-15806
▁Ku	-15807
▁om	-15808
▁لق	-15809
▁성공	-15810
古兰经	-15811
erto	-15812
omer	-15813
toff	-15814
émin	-15815
جميع	-15816
▁Vin	-15817
▁สํา	-15818
是在哪里	-15819
avano	-15820
ciale	-15821
▁Irak	-15822
▁Patr	-15823
▁VIII	-15824
▁away	-15825
▁mole	-15826
▁تشكل	-15827
▁등장하는	-15828
什么时候被	-15829
▁Spitz	-15830
▁dagli	-15831
▁linea	-15832
▁purch	-15833
▁règne	-15834
▁santa	-15835
▁segur	-15836
▁zonas	-15837
▁البوذ	-15838
とは何ですか	-15839
▁Hudson	-15840
▁accept	-15841
▁appare	-15842
▁désign	-15843
▁global	-15844
▁things	-15845
aéroport	-15846
▁Ireland	-15847
▁ciencia	-15848
▁ميلبورن	-15849
▁Birmanie	-15850
▁Nationen	-15851
▁chiamata	-15852
▁LaserDisc	-15853
▁catholique	-15854
▁industrial	-15855
▁revolución	-15856
cí	-15857
▁格	-15858
▁응	-15859
▁컴	-15860
の何	-15861
カル	-15862
世的	-15863
地亚	-15864
山脉	-15865
是否	-15866
用户	-15867
用途	-15868
破坏	-15869
년은	-15870
전에	-15871
전이	-15872
즈가	-15873
olt	-15874
thr	-15875
ادر	-15876
ريب	-15877
زام	-15878
ومة	-15879
สัม	-15880
ือด	-15881
▁Kh	-15882
▁จะ	-15883
▁关于	-15884
▁국내	-15885
▁일어	-15886
ノミネ	-15887
在一起	-15888
자들이	-15889
erse	-15890
luss	-15891
ring	-15892
ماري	-15893
▁Völ	-15894
▁ern	-15895
▁put	-15896
▁قرن	-15897
▁어디서	-15898
▁활동을	-15899
ストリア	-15900
ombra	-15901
▁1985	-15902
▁Back	-15903
▁Sind	-15904
▁noms	-15905
▁proc	-15906
▁prus	-15907
▁weiß	-15908
▁الحض	-15909
ノミネート	-15910
フランスの	-15911
ashire	-15912
▁2000,	-15913
▁aprob	-15914
▁namib	-15915
▁terzo	-15916
▁tutto	-15917
▁اعمال	-15918
▁الغذا	-15919
▁Single	-15920
▁Spider	-15921
▁Summer	-15922
▁basket	-15923
▁recomm	-15924
▁tribus	-15925
▁Catalan	-15926
▁Wassers	-15927
▁complex	-15928
▁origine	-15929
▁älteste	-15930
▁الاطلسي	-15931
▁الروسية	-15932
▁collabor	-15933
▁earliest	-15934
▁ejemplos	-15935
▁elezioni	-15936
▁iniziata	-15937
▁manufact	-15938
▁comercial	-15939
▁definiert	-15940
▁militares	-15941
▁السوفييتية	-15942
EA	-15943
ิช	-15944
▁먼	-15945
▁팬	-15946
图书	-15947
土著	-15948
是在	-15949
普查	-15950
模型	-15951
狩猎	-15952
男性	-15953
設置	-15954
里斯	-15955
제로	-15956
트남	-15957
agd	-15958
cks	-15959
íes	-15960
غيل	-15961
ภัย	-15962
ิริ	-15963
เศษ	-15964
▁36	-15965
▁78	-15966
▁ON	-15967
▁제주	-15968
▁행동	-15969
Team	-15970
abel	-15971
etts	-15972
ésil	-15973
öder	-15974
ช่วย	-15975
▁Cra	-15976
▁lik	-15977
▁قسم	-15978
▁قوة	-15979
▁كون	-15980
▁拿破仑	-15981
▁선수가	-15982
▁인원은	-15983
点是什么	-15984
Tunes	-15985
biter	-15986
ibili	-15987
itare	-15988
licht	-15989
جيريا	-15990
อักษร	-15991
▁Sold	-15992
▁hoch	-15993
▁ipod	-15994
▁look	-15995
▁일본에서	-15996
▁전투에서	-15997
ctique	-15998
นักงาน	-15999
สังกัด	-16000
▁1980?	-16001
▁2007,	-16002
▁Gründ	-16003
▁RSFSR	-16004
▁debut	-16005
▁spect	-16006
▁stamp	-16007
▁البدا	-16008
illeurs	-16009
ptember	-16010
▁Advent	-16011
▁Aparte	-16012
▁Freima	-16013
▁Legend	-16014
▁Taylor	-16015
▁envoyé	-16016
▁especí	-16017
▁living	-16018
▁slaves	-16019
▁spécif	-16020
▁ultima	-16021
▁국가대표팀의	-16022
ièrement	-16023
▁Machine	-16024
▁Verteid	-16025
▁Witness	-16026
▁cerveza	-16027
▁geograf	-16028
▁versión	-16029
▁الدينية	-16030
▁الرسمية	-16031
▁cristian	-16032
▁utilizza	-16033
▁community	-16034
▁dirigeant	-16035
▁territory	-16036
▁convertido	-16037
▁Philadelphia	-16038
▁öffentlichen	-16039
▁Premierminister	-16040
Sp	-16041
pf	-16042
sa	-16043
وث	-16044
ผู	-16045
▁白	-16046
物語	-16047
特的	-16048
直接	-16049
速度	-16050
阶段	-16051
력이	-16052
명이	-16053
베르	-16054
종은	-16055
현이	-16056
فول	-16057
هاء	-16058
กูล	-16059
อนุ	-16060
เหร	-16061
▁33	-16062
▁تغ	-16063
▁기원	-16064
▁텔레	-16065
▁특별	-16066
ilen	-16067
isée	-16068
اعات	-16069
صدار	-16070
فساء	-16071
ค่าย	-16072
จะมี	-16073
อาร์	-16074
▁Dre	-16075
▁kan	-16076
▁lut	-16077
▁ทาง	-16078
▁데뷔한	-16079
▁사건의	-16080
のどちら	-16081
是在什么	-16082
chter	-16083
stoff	-16084
teilt	-16085
temps	-16086
venir	-16087
▁quot	-16088
▁side	-16089
ものですか	-16090
▁Arist	-16091
▁Bible	-16092
▁Licht	-16093
▁empie	-16094
▁share	-16095
▁تسجيل	-16096
▁طريقة	-16097
▁علماء	-16098
▁프로그램은	-16099
▁Kommun	-16100
▁appara	-16101
▁branch	-16102
▁expect	-16103
▁genere	-16104
▁german	-16105
▁mother	-16106
▁suppos	-16107
▁ارسنال	-16108
▁الفيدر	-16109
▁بروسيا	-16110
▁مادونا	-16111
▁สงคราม	-16112
▁categor	-16113
▁require	-16114
▁romanos	-16115
▁sarebbe	-16116
▁الممتاز	-16117
จักรพรรดิ	-16118
อลเลย์บอล	-16119
▁Mondiale	-16120
▁ancienne	-16121
▁cantante	-16122
▁ซึ่งเป็น	-16123
▁September	-16124
▁capacidad	-16125
▁iluminación	-16126
▁internazionale	-16127
ุส	-16128
▁コ	-16129
▁塞	-16130
▁싸	-16131
けた	-16132
ソン	-16133
协会	-16134
古代	-16135
国会	-16136
耶稣	-16137
节目	-16138
附近	-16139
소가	-16140
196	-16141
anv	-16142
bed	-16143
ebt	-16144
ogg	-16145
ovi	-16146
سام	-16147
ليب	-16148
▁fá	-16149
▁ul	-16150
▁조약	-16151
▁투표	-16152
とする	-16153
建立了	-16154
的研究	-16155
assi	-16156
erta	-16157
isés	-16158
mont	-16159
اراة	-16160
ربعة	-16161
قيقة	-16162
كلفة	-16163
لبية	-16164
▁Bon	-16165
▁Dal	-16166
▁Eth	-16167
▁Job	-16168
▁Ron	-16169
ورنيا	-16170
▁1966	-16171
▁RIBA	-16172
▁Slav	-16173
▁Temp	-16174
▁capo	-16175
▁coll	-16176
▁deal	-16177
▁fans	-16178
▁half	-16179
▁lect	-16180
▁nept	-16181
▁renc	-16182
▁للمس	-16183
▁نقطة	-16184
▁يحمل	-16185
▁يلعب	-16186
▁기준으로	-16187
▁리그에서	-16188
ศิลปิน	-16189
▁Civil	-16190
▁Liter	-16191
▁Prima	-16192
▁actor	-16193
▁ampli	-16194
▁giapp	-16195
▁leyes	-16196
▁marzo	-16197
▁newsp	-16198
▁santé	-16199
▁tarde	-16200
▁القطب	-16201
▁النظر	-16202
▁تشارك	-16203
▁تعداد	-16204
▁تقديم	-16205
▁غرامي	-16206
▁ครั้ง	-16207
▁Jewish	-16208
▁Kupfer	-16209
▁cattol	-16210
▁cittad	-16211
▁nuevos	-16212
▁partis	-16213
▁terres	-16214
▁يعيشون	-16215
erschaft	-16216
igration	-16217
▁Konzept	-16218
▁article	-16219
▁finanzi	-16220
▁manager	-16221
▁surface	-16222
▁Untersch	-16223
▁attività	-16224
▁nouveaux	-16225
▁البرازيل	-16226
▁ปัจจุบัน	-16227
▁agreement	-16228
▁bactéries	-16229
▁religiosa	-16230
▁หม่อมเจ้า	-16231
ชาวอเมริกัน	-16232
มากที่สุดใน	-16233
▁économique	-16234
▁beschreiben	-16235
▁occidentales	-16236
dy	-16237
قى	-16238
▁俄	-16239
▁旧	-16240
が高	-16241
オブ	-16242
参与	-16243
坎耶	-16244
来源	-16245
理解	-16246
相关	-16247
确定	-16248
름은	-16249
지만	-16250
Mus	-16251
ادل	-16252
วัญ	-16253
ศัย	-16254
▁8?	-16255
▁阿维	-16256
▁개봉	-16257
▁기본	-16258
▁속한	-16259
▁제일	-16260
▁조지	-16261
▁출생	-16262
日利亚	-16263
atri	-16264
hold	-16265
vant	-16266
ناصر	-16267
ويات	-16268
▁254	-16269
▁Sea	-16270
▁jüd	-16271
▁mel	-16272
▁nac	-16273
▁ماك	-16274
▁กํา	-16275
▁ดาว	-16276
arily	-16277
untos	-16278
▁Mong	-16279
▁rigu	-16280
▁vere	-16281
▁فرقة	-16282
▁Besch	-16283
▁Class	-16284
▁Quran	-16285
▁besie	-16286
▁decre	-16287
▁hayek	-16288
▁rapid	-16289
▁salud	-16290
▁spagn	-16291
▁value	-16292
▁الترك	-16293
▁الفائ	-16294
▁ثلاثة	-16295
zählung	-16296
▁Mandol	-16297
▁cotton	-16298
▁creado	-16299
▁effica	-16300
▁espect	-16301
▁popper	-16302
▁signed	-16303
▁المزيد	-16304
ähigkeit	-16305
▁Während	-16306
▁homosex	-16307
▁japones	-16308
▁problem	-16309
▁romaine	-16310
▁suprema	-16311
▁zweiten	-16312
▁اسرائيل	-16313
▁العالمي	-16314
▁الهوائي	-16315
▁فلوريدا	-16316
▁Richtung	-16317
▁capacité	-16318
▁modernen	-16319
▁Président	-16320
โลกครั้งที่	-16321
▁representa	-16322
▁utilizados	-16323
bc	-16324
kh	-16325
شة	-16326
طح	-16327
อค	-16328
▁탑	-16329
▁퇴	-16330
▁휴	-16331
に何	-16332
专利	-16333
事業	-16334
办公	-16335
情感	-16336
우스	-16337
fin	-16338
pez	-16339
▁SA	-16340
▁ll	-16341
▁mp	-16342
▁ウォ	-16343
には何	-16344
ション	-16345
لعاب	-16346
เก่า	-16347
เนิน	-16348
▁ذكر	-16349
▁任天堂	-16350
arter	-16351
chest	-16352
homme	-16353
icket	-16354
orien	-16355
retto	-16356
▁jefe	-16357
▁فالن	-16358
▁يطلق	-16359
سيفساء	-16360
ราชินี	-16361
ให้กับ	-16362
▁anlat	-16363
▁natür	-16364
▁short	-16365
gesetzt	-16366
يفورنيا	-16367
▁Histor	-16368
▁Jahrze	-16369
▁absorb	-16370
▁además	-16371
▁locale	-16372
▁surnom	-16373
▁الحصول	-16374
▁الغربي	-16375
▁ใครชนะ	-16376
istische	-16377
▁Polizei	-16378
▁trovato	-16379
▁الصغيرة	-16380
▁فالنسيا	-16381
เลือกตั้ง	-16382
▁Williams	-16383
▁Americans	-16384
▁Beispiele	-16385
▁Community	-16386
▁europäischen	-16387
▁französische	-16388
▁universities	-16389
tv	-16390
رد	-16391
ืด	-16392
ギリ	-16393
ゼル	-16394
依赖	-16395
包含	-16396
埃及	-16397
多い	-16398
年龄	-16399
当娜	-16400
母院	-16401
集团	-16402
食物	-16403
진의	-16404
برى	-16405
ليم	-16406
พาก	-16407
เกษ	-16408
▁구분	-16409
▁몇번	-16410
发布的	-16411
年以来	-16412
誰なの	-16413
스트는	-16414
ittà	-16415
ธาตุ	-16416
▁Erd	-16417
▁fen	-16418
▁سام	-16419
▁سبب	-16420
▁للش	-16421
▁وسط	-16422
▁발견된	-16423
▁성우는	-16424
认为什么	-16425
habit	-16426
idenz	-16427
ภัณฑ์	-16428
▁Uran	-16429
▁hält	-16430
▁sele	-16431
▁upon	-16432
▁vacc	-16433
▁النم	-16434
▁تيتو	-16435
▁ظهرت	-16436
▁يسبب	-16437
▁伊丽莎白	-16438
▁에피소드	-16439
iembre	-16440
เอเชีย	-16441
▁Chief	-16442
▁führt	-16443
▁lancé	-16444
▁llamó	-16445
▁revis	-16446
▁sever	-16447
▁while	-16448
▁ميامي	-16449
したのはいつ	-16450
リフォルニア	-16451
crivere	-16452
presión	-16453
▁Report	-16454
▁Series	-16455
▁aplica	-16456
▁motore	-16457
▁vicino	-16458
Dynastie	-16459
▁Mercury	-16460
▁cambios	-16461
▁publish	-16462
▁cappella	-16463
▁geograph	-16464
▁involucr	-16465
▁mientras	-16466
▁presiden	-16467
▁pubblico	-16468
▁regional	-16469
▁versione	-16470
▁الطائرات	-16471
▁الموافقة	-16472
▁Victorias	-16473
▁comunidad	-16474
▁regarding	-16475
ทยานแห่งชาติ	-16476
▁tradicional	-16477
▁classification	-16478
-5	-16479
HS	-16480
ds	-16481
▁グ	-16482
交易	-16483
初の	-16484
子的	-16485
容易	-16486
评论	-16487
说法	-16488
레스	-16489
식의	-16490
ext	-16491
تين	-16492
ضوع	-16493
ขาย	-16494
ตระ	-16495
สอน	-16496
ียญ	-16497
เคล	-16498
แรง	-16499
▁เว	-16500
▁肖邦	-16501
▁스카	-16502
▁알렉	-16503
▁태풍	-16504
大教堂	-16505
횟수는	-16506
bird	-16507
eget	-16508
vard	-16509
érer	-16510
وجين	-16511
▁253	-16512
▁Nic	-16513
▁sic	-16514
▁시작된	-16515
メンバー	-16516
発生した	-16517
ersey	-16518
esser	-16519
etzen	-16520
obert	-16521
ockey	-16522
▁Erde	-16523
▁Hano	-16524
▁Late	-16525
▁fase	-16526
▁fire	-16527
▁lost	-16528
▁استر	-16529
▁الاث	-16530
▁تطور	-16531
▁جيمس	-16532
église	-16533
▁April	-16534
▁Freem	-16535
▁emplo	-16536
▁nennt	-16537
▁اتفاق	-16538
▁الصيد	-16539
▁تقسيم	-16540
▁شخصية	-16541
▁يحتوي	-16542
はいつですか	-16543
owntown	-16544
▁espagn	-16545
▁fiesta	-16546
▁infrar	-16547
▁interc	-16548
▁medios	-16549
▁target	-16550
▁ultimo	-16551
▁الكبرى	-16552
▁امريكي	-16553
▁อําเภอ	-16554
▁Politik	-16555
▁account	-16556
▁animali	-16557
▁annoncé	-16558
▁appelés	-16559
▁condado	-16560
▁mosaico	-16561
▁pública	-16562
▁Business	-16563
▁Canadian	-16564
▁alemanes	-16565
▁distance	-16566
▁politico	-16567
▁produire	-16568
ificazione	-16569
▁Consiglio	-16570
▁sostituito	-16571
▁wirtschaft	-16572
▁Renaissance	-16573
▁technologie	-16574
▁griechischen	-16575
▁Universitäten	-16576
ดก	-16577
を指	-16578
业的	-16579
子の	-16580
来说	-16581
议院	-16582
輸送	-16583
문을	-16584
었어	-16585
크의	-16586
cus	-16587
hma	-16588
hyd	-16589
lab	-16590
ارب	-16591
ลีก	-16592
สาบ	-16593
▁ri	-16594
▁tw	-16595
▁공화	-16596
▁상태	-16597
▁역의	-16598
▁직책	-16599
に位置	-16600
역에서	-16601
졌을까	-16602
컵에서	-16603
ocra	-16604
ulos	-16605
vole	-16606
ئوية	-16607
جلات	-16608
وقات	-16609
ฝั่ง	-16610
เบิล	-16611
▁sow	-16612
▁دين	-16613
▁يهو	-16614
▁海王星	-16615
이었을까	-16616
light	-16617
osper	-16618
คนแรก	-16619
เลอร์	-16620
แพทย์	-16621
▁1983	-16622
▁Braz	-16623
▁Prof	-16624
▁beer	-16625
▁goal	-16626
▁très	-16627
▁النف	-16628
▁خدمة	-16629
▁مونت	-16630
アメリカの	-16631
entrum	-16632
ilding	-16633
ของการ	-16634
▁Heart	-16635
▁Linie	-16636
▁Vater	-16637
▁bière	-16638
▁creen	-16639
▁entst	-16640
▁indem	-16641
▁story	-16642
▁Übers	-16643
▁البيت	-16644
▁السلة	-16645
▁اللون	-16646
▁نموذج	-16647
▁Doctor	-16648
▁acheté	-16649
▁erfolg	-16650
▁obiett	-16651
▁passed	-16652
▁sports	-16653
▁รายการ	-16654
ชื่ออะไร	-16655
▁borough	-16656
▁défense	-16657
▁termini	-16658
▁استونيا	-16659
▁aufgrund	-16660
▁featured	-16661
▁sécurité	-16662
▁Charakter	-16663
▁organismo	-16664
▁entstanden	-16665
▁personnage	-16666
▁relaciones	-16667
▁Philosophie	-16668
▁griechische	-16669
▁Constitución	-16670
▁schwarzenegger	-16671
MS	-16672
OS	-16673
cm	-16674
خي	-16675
غم	-16676
▁갑	-16677
を結	-16678
テン	-16679
中央	-16680
古典	-16681
大陸	-16682
数が	-16683
東京	-16684
火炬	-16685
石油	-16686
系列	-16687
者の	-16688
表明	-16689
见证	-16690
过去	-16691
부를	-16692
정의	-16693
ريا	-16694
ريج	-16695
طلب	-16696
เอส	-16697
▁pá	-16698
▁üb	-16699
▁سا	-16700
▁伯克	-16701
▁설명	-16702
の名称	-16703
は何か	-16704
비디오	-16705
fern	-16706
irat	-16707
رجمة	-16708
ฉายา	-16709
▁Pok	-16710
▁Ret	-16711
▁Sem	-16712
▁Sex	-16713
▁Tel	-16714
▁bot	-16715
▁cód	-16716
▁mex	-16717
▁حزب	-16718
▁따르면	-16719
▁배역의	-16720
▁베트남	-16721
▁출마한	-16722
هرجان	-16723
ที่จะ	-16724
แบบใด	-16725
▁Glad	-16726
▁This	-16727
▁Wall	-16728
▁empê	-16729
▁estr	-16730
▁faut	-16731
▁full	-16732
▁week	-16733
▁예선에서	-16734
▁행정구역	-16735
cheurs	-16736
ección	-16737
▁abbre	-16738
▁coton	-16739
▁monta	-16740
▁reign	-16741
▁schia	-16742
▁zerst	-16743
▁المئة	-16744
▁المرا	-16745
▁معروف	-16746
lectric	-16747
▁Neptun	-16748
▁Orient	-16749
▁events	-16750
▁herman	-16751
▁nutzen	-16752
▁planta	-16753
▁sector	-16754
ierungen	-16755
▁climate	-16756
▁comcast	-16757
▁concurs	-16758
▁diverse	-16759
▁enthält	-16760
▁firmato	-16761
▁neptuno	-16762
▁soprann	-16763
▁uccelli	-16764
▁western	-16765
▁التنفيذ	-16766
▁الشركات	-16767
อาชีพอะไร	-16768
▁création	-16769
▁esclavos	-16770
▁positive	-16771
▁الديمقرا	-16772
▁superiore	-16773
▁définition	-16774
นะ	-16775
▁İ	-16776
▁탐	-16777
ッチ	-16778
人が	-16779
到达	-16780
大量	-16781
[...]
